{
  "version": "2.1",
  "vocab_size": 8000,
  "encoder": {
    "[E:pad]": 0,
    "[E:start]": 1,
    "[E:end]": 2,
    "[E:unk]": 3,
    "[E:sep]": 4,
    "[E:mask]": 5,
    "[E:Q]": 6,
    "[E:A]": 7,
    "[E:user]": 8,
    "[E:forge]": 9,
    "[E:assistant]": 10,
    "[E:system]": 11,
    "[E:tool]": 12,
    "[E:tool_out]": 13,
    "[E:tool_end]": 14,
    "[E:out_end]": 15,
    "[E:img]": 16,
    "[E:audio]": 17,
    "[E:video]": 18,
    "[E:vision]": 19,
    "[E:gen_img]": 20,
    "[E:avatar]": 21,
    "[E:speak]": 22,
    "[E:listen]": 23,
    "[E:web]": 24,
    "[E:read]": 25,
    "[E:write]": 26,
    "[E:screen]": 27,
    "[E:exec]": 28,
    "[E:nl]": 29,
    "[E:tab]": 30,
    "[E:code]": 31,
    "[E:/code]": 32,
    "[E:think]": 33,
    "[E:/think]": 34,
    "[E:err]": 35,
    "[E:warn]": 36,
    "[E:ok]": 37,
    "[E:info]": 38,
    "[E:memory]": 39,
    "[E:learn]": 40,
    "[E:emotion]": 41,
    "[E:context]": 42,
    "!": 43,
    "\"": 44,
    "#": 45,
    "$": 46,
    "%": 47,
    "&": 48,
    "'": 49,
    "(": 50,
    ")": 51,
    "*": 52,
    "+": 53,
    ",": 54,
    "-": 55,
    ".": 56,
    "/": 57,
    "0": 58,
    "1": 59,
    "2": 60,
    "3": 61,
    "4": 62,
    "5": 63,
    "6": 64,
    "7": 65,
    "8": 66,
    "9": 67,
    ":": 68,
    ";": 69,
    "<": 70,
    "=": 71,
    ">": 72,
    "?": 73,
    "@": 74,
    "A": 75,
    "B": 76,
    "C": 77,
    "D": 78,
    "E": 79,
    "F": 80,
    "G": 81,
    "H": 82,
    "I": 83,
    "J": 84,
    "K": 85,
    "L": 86,
    "M": 87,
    "N": 88,
    "O": 89,
    "P": 90,
    "Q": 91,
    "R": 92,
    "S": 93,
    "T": 94,
    "U": 95,
    "V": 96,
    "W": 97,
    "X": 98,
    "Y": 99,
    "Z": 100,
    "[": 101,
    "\\": 102,
    "]": 103,
    "^": 104,
    "_": 105,
    "`": 106,
    "a": 107,
    "b": 108,
    "c": 109,
    "d": 110,
    "e": 111,
    "f": 112,
    "g": 113,
    "h": 114,
    "i": 115,
    "j": 116,
    "k": 117,
    "l": 118,
    "m": 119,
    "n": 120,
    "o": 121,
    "p": 122,
    "q": 123,
    "r": 124,
    "s": 125,
    "t": 126,
    "u": 127,
    "v": 128,
    "w": 129,
    "x": 130,
    "y": 131,
    "z": 132,
    "{": 133,
    "|": 134,
    "}": 135,
    "~": 136,
    "¡": 137,
    "¢": 138,
    "£": 139,
    "¤": 140,
    "¥": 141,
    "¦": 142,
    "§": 143,
    "¨": 144,
    "©": 145,
    "ª": 146,
    "«": 147,
    "¬": 148,
    "®": 149,
    "¯": 150,
    "°": 151,
    "±": 152,
    "²": 153,
    "³": 154,
    "´": 155,
    "µ": 156,
    "¶": 157,
    "·": 158,
    "¸": 159,
    "¹": 160,
    "º": 161,
    "»": 162,
    "¼": 163,
    "½": 164,
    "¾": 165,
    "¿": 166,
    "À": 167,
    "Á": 168,
    "Â": 169,
    "Ã": 170,
    "Ä": 171,
    "Å": 172,
    "Æ": 173,
    "Ç": 174,
    "È": 175,
    "É": 176,
    "Ê": 177,
    "Ë": 178,
    "Ì": 179,
    "Í": 180,
    "Î": 181,
    "Ï": 182,
    "Ð": 183,
    "Ñ": 184,
    "Ò": 185,
    "Ó": 186,
    "Ô": 187,
    "Õ": 188,
    "Ö": 189,
    "×": 190,
    "Ø": 191,
    "Ù": 192,
    "Ú": 193,
    "Û": 194,
    "Ü": 195,
    "Ý": 196,
    "Þ": 197,
    "ß": 198,
    "à": 199,
    "á": 200,
    "â": 201,
    "ã": 202,
    "ä": 203,
    "å": 204,
    "æ": 205,
    "ç": 206,
    "è": 207,
    "é": 208,
    "ê": 209,
    "ë": 210,
    "ì": 211,
    "í": 212,
    "î": 213,
    "ï": 214,
    "ð": 215,
    "ñ": 216,
    "ò": 217,
    "ó": 218,
    "ô": 219,
    "õ": 220,
    "ö": 221,
    "÷": 222,
    "ø": 223,
    "ù": 224,
    "ú": 225,
    "û": 226,
    "ü": 227,
    "ý": 228,
    "þ": 229,
    "ÿ": 230,
    "Ā": 231,
    "ā": 232,
    "Ă": 233,
    "ă": 234,
    "Ą": 235,
    "ą": 236,
    "Ć": 237,
    "ć": 238,
    "Ĉ": 239,
    "ĉ": 240,
    "Ċ": 241,
    "ċ": 242,
    "Č": 243,
    "č": 244,
    "Ď": 245,
    "ď": 246,
    "Đ": 247,
    "đ": 248,
    "Ē": 249,
    "ē": 250,
    "Ĕ": 251,
    "ĕ": 252,
    "Ė": 253,
    "ė": 254,
    "Ę": 255,
    "ę": 256,
    "Ě": 257,
    "ě": 258,
    "Ĝ": 259,
    "ĝ": 260,
    "Ğ": 261,
    "ğ": 262,
    "Ġ": 263,
    "ġ": 264,
    "Ģ": 265,
    "ģ": 266,
    "Ĥ": 267,
    "ĥ": 268,
    "Ħ": 269,
    "ħ": 270,
    "Ĩ": 271,
    "ĩ": 272,
    "Ī": 273,
    "ī": 274,
    "Ĭ": 275,
    "ĭ": 276,
    "Į": 277,
    "į": 278,
    "İ": 279,
    "ı": 280,
    "Ĳ": 281,
    "ĳ": 282,
    "Ĵ": 283,
    "ĵ": 284,
    "Ķ": 285,
    "ķ": 286,
    "ĸ": 287,
    "Ĺ": 288,
    "ĺ": 289,
    "Ļ": 290,
    "ļ": 291,
    "Ľ": 292,
    "ľ": 293,
    "Ŀ": 294,
    "ŀ": 295,
    "Ł": 296,
    "ł": 297,
    "Ń": 298,
    "at": 299,
    "in": 300,
    "<|": 301,
    "|>": 302,
    "on": 303,
    "er": 304,
    "et": 305,
    "or": 306,
    "re": 307,
    "st": 308,
    "he": 309,
    "Ġt": 310,
    "an": 311,
    "se": 312,
    "<|A": 313,
    "<|A|>": 314,
    "<|Q": 315,
    "<|Q|>": 316,
    "Ġd": 317,
    "en": 318,
    "Ġm": 319,
    "od": 320,
    "ion": 321,
    "Ġf": 322,
    "ce": 323,
    "es": 324,
    "Ġdo": 325,
    "ar": 326,
    "ct": 327,
    "al": 328,
    "ĠT": 329,
    "Ġthe": 330,
    "ig": 331,
    "it": 332,
    "Ġc": 333,
    "le": 334,
    "Ġmet": 335,
    "hod": 336,
    "Ġmethod": 337,
    "Ġin": 338,
    "Ġa": 339,
    "ow": 340,
    "la": 341,
    "ĠW": 342,
    "Ġu": 343,
    "ro": 344,
    "ance": 345,
    "ate": 346,
    "ĠC": 347,
    "ĠThe": 348,
    "hat": 349,
    "ure": 350,
    "ĠH": 351,
    "stance": 352,
    "__": 353,
    "``": 354,
    "am": 355,
    "ĠWhat": 356,
    "ing": 357,
    "str": 358,
    "ature": 359,
    "ĠI": 360,
    "ĠA": 361,
    "Ġuse": 362,
    "Ġfor": 363,
    "ul": 364,
    "ag": 365,
    "ĠE": 366,
    "()": 367,
    "un": 368,
    "Ġinstance": 369,
    "ation": 370,
    "Ġp": 371,
    "im": 372,
    "Ġs": 373,
    "ign": 374,
    "ode": 375,
    "Sign": 376,
    "Signature": 377,
    "ss": 378,
    "ent": 379,
    "ction": 380,
    "ex": 381,
    "lf": 382,
    "Ġdoes": 383,
    "self": 384,
    "ĠHow": 385,
    "ur": 386,
    "ol": 387,
    "ĠS": 388,
    "Ġ=": 389,
    "Ġto": 390,
    "lo": 391,
    "ers": 392,
    "ut": 393,
    "get": 394,
    "ult": 395,
    "res": 396,
    "Ġ(": 397,
    "Ġo": 398,
    "rom": 399,
    "xp": 400,
    "ck": 401,
    "em": 402,
    "iz": 403,
    "init": 404,
    "ĠG": 405,
    "is": 406,
    "ra": 407,
    "ĠP": 408,
    "pt": 409,
    "unction": 410,
    "ed": 411,
    "ĠExp": 412,
    "ĠU": 413,
    "Ġfunction": 414,
    "```": 415,
    "reate": 416,
    "..": 417,
    "ine": 418,
    "ad": 419,
    "ort": 420,
    "lain": 421,
    "id": 422,
    "ĠM": 423,
    "Ġw": 424,
    "Ġ-": 425,
    "odel": 426,
    "ist": 427,
    "ĠExplain": 428,
    "ic": 429,
    "Ġ->": 430,
    "ool": 431,
    "Ġb": 432,
    "result": 433,
    "ĠUse": 434,
    "port": 435,
    "onf": 436,
    "Ġstr": 437,
    "ĠR": 438,
    "urn": 439,
    "ma": 440,
    "ch": 441,
    "onfig": 442,
    "anag": 443,
    "eturn": 444,
    "gine": 445,
    "di": 446,
    "Ġh": 447,
    "aram": 448,
    "lass": 449,
    "aramet": 450,
    "Ġim": 451,
    "Ġof": 452,
    "ple": 453,
    "Ġget": 454,
    "arameters": 455,
    "th": 456,
    "age": 457,
    "Ġclass": 458,
    "ve": 459,
    "om": 460,
    "'s": 461,
    "igma": 462,
    "ot": 463,
    "anager": 464,
    "Ġen": 465,
    "ork": 466,
    "ĠCreate": 467,
    "from": 468,
    "eturns": 469,
    "Ġn": 470,
    "Ġex": 471,
    "and": 472,
    "ab": 473,
    "Returns": 474,
    "for": 475,
    "ĠD": 476,
    "ec": 477,
    "Ġon": 478,
    "ri": 479,
    ".__": 480,
    "ory": 481,
    "il": 482,
    "ter": 483,
    "ption": 484,
    "ĠO": 485,
    "ener": 486,
    "ice": 487,
    "ain": 488,
    "ĠL": 489,
    "Ġimport": 490,
    "engine": 491,
    "Ġis": 492,
    "ont": 493,
    "ial": 494,
    "py": 495,
    "Parameters": 496,
    "ere": 497,
    "ĠIn": 498,
    "ext": 499,
    "thon": 500,
    "instance": 501,
    "Ġenigma": 502,
    "as": 503,
    "Ġhow": 504,
    "python": 505,
    "ĠHere": 506,
    "ect": 507,
    "...": 508,
    "rain": 509,
    "=...": 510,
    "Manager": 511,
    "Ġg": 512,
    "Ġre": 513,
    "all": 514,
    "),": 515,
    "pl": 516,
    "ĠF": 517,
    "ver": 518,
    "Ġare": 519,
    "ame": 520,
    "ou": 521,
    "ator": 522,
    "qu": 523,
    "Ġ__": 524,
    "form": 525,
    "ptional": 526,
    "ity": 527,
    "est": 528,
    "load": 529,
    "Ġst": 530,
    "pe": 531,
    "eature": 532,
    "che": 533,
    "Ġus": 534,
    "vat": 535,
    "vatar": 536,
    "ack": 537,
    "ard": 538,
    "to": 539,
    "ize": 540,
    "dict": 541,
    "eatures": 542,
    "Ġmodel": 543,
    "if": 544,
    "Ġfeatures": 545,
    "ĠB": 546,
    "cri": 547,
    "per": 548,
    "Ġwork": 549,
    "be": 550,
    "ment": 551,
    "ug": 552,
    "ĠN": 553,
    "ile": 554,
    "nt": 555,
    "emory": 556,
    "Ġl": 557,
    "itial": 558,
    "ĠGet": 559,
    "ata": 560,
    "ĠAI": 561,
    "ample": 562,
    "ule": 563,
    "Ġmain": 564,
    "ens": 565,
    "Ġan": 566,
    "Ġdes": 567,
    "ĠAn": 568,
    "ĠInitial": 569,
    "__(": 570,
    "cribe": 571,
    "ew": 572,
    "ath": 573,
    "ĠOptional": 574,
    "Ġint": 575,
    "ive": 576,
    "ict": 577,
    "ĠEn": 578,
    "Config": 579,
    "Ġused": 580,
    "ey": 581,
    "lay": 582,
    "one": 583,
    "ess": 584,
    "ĠQ": 585,
    "Ġy": 586,
    "ecut": 587,
    "])": 588,
    "Tool": 589,
    "art": 590,
    "Ġdescribe": 591,
    "Ġyou": 592,
    "Ġcreate": 593,
    "ĠCan": 594,
    "ev": 595,
    "Ġv": 596,
    "int": 597,
    "up": 598,
    "ant": 599,
    "end": 600,
    "loat": 601,
    "Ġr": 602,
    "ĠV": 603,
    "odule": 604,
    "ord": 605,
    "ith": 606,
    "Ġfrom": 607,
    "oice": 608,
    "=...)": 609,
    "ge": 610,
    "Ġexample": 611,
    "Ġme": 612,
    "ence": 613,
    "ase": 614,
    "ble": 615,
    "us": 616,
    "put": 617,
    "ĠAny": 618,
    "St": 619,
    "Ġbool": 620,
    "are": 621,
    "vers": 622,
    "Ġconfig": 623,
    "Ġwith": 624,
    "enerate": 625,
    "ecute": 626,
    "ache": 627,
    "raining": 628,
    "ler": 629,
    "Ġdict": 630,
    "ĠSt": 631,
    "Ġnew": 632,
    "Ġpro": 633,
    "ensor": 634,
    "model": 635,
    "atter": 636,
    "Ġset": 637,
    "ask": 638,
    "izer": 639,
    "um": 640,
    "key": 641,
    "ep": 642,
    "ace": 643,
    "cess": 644,
    "Ġsh": 645,
    "Ġse": 646,
    "=...,": 647,
    "yp": 648,
    "fer": 649,
    "out": 650,
    "ai": 651,
    "izes": 652,
    "Ġand": 653,
    "Ġlist": 654,
    "ĠCon": 655,
    "uration": 656,
    "lable": 657,
    "ĠNone": 658,
    "el": 659,
    "ĠQu": 660,
    "erform": 661,
    "Ġfloat": 662,
    "nc": 663,
    "ind": 664,
    "cal": 665,
    "In": 666,
    "ĠLo": 667,
    "rol": 668,
    "ĠInitializes": 669,
    "peration": 670,
    "ap": 671,
    "Ġusing": 672,
    "dd": 673,
    "ward": 674,
    "essage": 675,
    "idget": 676,
    "ĠSh": 677,
    "mar": 678,
    "versation": 679,
    "ype": 680,
    "evice": 681,
    "back": 682,
    "ran": 683,
    "rompt": 684,
    "ob": 685,
    "Ġoperation": 686,
    "yst": 687,
    "ystem": 688,
    "eg": 689,
    "esult": 690,
    "attern": 691,
    "ontrol": 692,
    "atch": 693,
    "ention": 694,
    "udi": 695,
    "udio": 696,
    "heck": 697,
    "PI": 698,
    "act": 699,
    "pon": 700,
    "ĠPerform": 701,
    "ugin": 702,
    "Ġcon": 703,
    "omm": 704,
    "ontext": 705,
    "ress": 706,
    "tention": 707,
    "Pro": 708,
    "etect": 709,
    "ip": 710,
    "Module": 711,
    "ister": 712,
    "Ġtext": 713,
    "Ġcall": 714,
    "file": 715,
    "ĠModel": 716,
    "ponse": 717,
    "po": 718,
    "fo": 719,
    "bed": 720,
    "rans": 721,
    "con": 722,
    "igh": 723,
    "],": 724,
    "ff": 725,
    "set": 726,
    "ference": 727,
    "ken": 728,
    "Ġtyp": 729,
    "Ġcode": 730,
    "rainer": 731,
    "ings": 732,
    "Ġload": 733,
    "hen": 734,
    "ĠPerforms": 735,
    "Ġpattern": 736,
    "able": 737,
    "aly": 738,
    "ue": 739,
    "ics": 740,
    "Ġusage": 741,
    "ĠAvatar": 742,
    "orch": 743,
    "lugin": 744,
    "ies": 745,
    "ak": 746,
    "date": 747,
    "path": 748,
    "quest": 749,
    "eb": 750,
    "ick": 751,
    "ality": 752,
    "ync": 753,
    "op": 754,
    "gister": 755,
    "vid": 756,
    "ream": 757,
    "pro": 758,
    "uil": 759,
    "ry": 760,
    "bedd": 761,
    "ĠShow": 762,
    "ĠInitialize": 763,
    "Ġreturn": 764,
    "An": 765,
    "Ġparameters": 766,
    "oul": 767,
    "ould": 768,
    "rack": 769,
    "erver": 770,
    "Tensor": 771,
    "ĠEnigma": 772,
    "ĠList": 773,
    "Ġshould": 774,
    "ateg": 775,
    "Widget": 776,
    "enerator": 777,
    "otion": 778,
    "ĠFor": 779,
    "Ġqu": 780,
    "Ġdata": 781,
    "ub": 782,
    "erson": 783,
    "ical": 784,
    "und": 785,
    "Result": 786,
    "Ġadd": 787,
    "Ġor": 788,
    "arch": 789,
    "plement": 790,
    "Ġimplement": 791,
    "Model": 792,
    "Ġres": 793,
    "ay": 794,
    "ĠMemory": 795,
    "alid": 796,
    "ackend": 797,
    "add": 798,
    "ific": 799,
    "arn": 800,
    "vai": 801,
    "ient": 802,
    "vailable": 803,
    "og": 804,
    "ĠVoice": 805,
    "lob": 806,
    "bo": 807,
    "Ġtypical": 808,
    "mat": 809,
    "sp": 810,
    "ĠGive": 811,
    "ection": 812,
    "ĠWhen": 813,
    "ĠRe": 814,
    "eneration": 815,
    "ommand": 816,
    "ontroller": 817,
    "ttention": 818,
    "ĠEngine": 819,
    "Ġavatar": 820,
    "name": 821,
    "Ġexecute": 822,
    "mark": 823,
    "omp": 824,
    "lobal": 825,
    "cor": 826,
    "__()": 827,
    "ition": 828,
    "ight": 829,
    "indow": 830,
    "alyz": 831,
    "gent": 832,
    "our": 833,
    "ave": 834,
    "Ġap": 835,
    "ates": 836,
    "Ġname": 837,
    "Tab": 838,
    "cre": 839,
    "any": 840,
    "ract": 841,
    "size": 842,
    "nect": 843,
    "ptim": 844,
    "ĠAPI": 845,
    "Ġglobal": 846,
    "oc": 847,
    ").": 848,
    "ource": 849,
    "Trainer": 850,
    "ulti": 851,
    "config": 852,
    "ib": 853,
    "ĠTool": 854,
    "UI": 855,
    "arent": 856,
    "Cache": 857,
    "tings": 858,
    "ire": 859,
    "pdate": 860,
    "vent": 861,
    "ization": 862,
    "ud": 863,
    "obot": 864,
    "ĠConfig": 865,
    "vi": 866,
    "atus": 867,
    "ror": 868,
    "ser": 869,
    "list": 870,
    "apt": 871,
    "ĠForge": 872,
    "Info": 873,
    "empl": 874,
    "Ġtool": 875,
    "rit": 876,
    "Optional": 877,
    "reset": 878,
    "Ġtraining": 879,
    "Ġall": 880,
    "Generator": 881,
    "Ex": 882,
    "uild": 883,
    "tract": 884,
    "ok": 885,
    "ac": 886,
    "Ġconfiguration": 887,
    "Re": 888,
    "execute": 889,
    "istr": 890,
    "ove": 891,
    "ls": 892,
    "ware": 893,
    "Ġmemory": 894,
    "ssion": 895,
    "urre": 896,
    "ĠQuick": 897,
    "ugg": 898,
    "ĠGUI": 899,
    "verlay": 900,
    "etw": 901,
    "itor": 902,
    "orker": 903,
    "En": 904,
    "Ġsing": 905,
    "ilter": 906,
    "orage": 907,
    "ary": 908,
    "Ġformat": 909,
    "Ġem": 910,
    "bedding": 911,
    "line": 912,
    "ust": 913,
    "urrent": 914,
    "Key": 915,
    "ated": 916,
    "Ġtorch": 917,
    "Ġma": 918,
    "lient": 919,
    "Ġro": 920,
    "ched": 921,
    "ĠPro": 922,
    "ialog": 923,
    "face": 924,
    "run": 925,
    "Type": 926,
    "atas": 927,
    "ataset": 928,
    "Controller": 929,
    "sh": 930,
    "col": 931,
    "Ġmax": 932,
    "os": 933,
    "creen": 934,
    "Lo": 935,
    "Ġgenerate": 936,
    "Ġsp": 937,
    "terface": 938,
    "imit": 939,
    "utput": 940,
    "Ġle": 941,
    "ĠConfiguration": 942,
    "layer": 943,
    "ĠSet": 944,
    "ersonality": 945,
    "]]": 946,
    "alle": 947,
    "lect": 948,
    "uple": 949,
    "Event": 950,
    "PU": 951,
    "Ġmanager": 952,
    "Ġch": 953,
    "ery": 954,
    "ĠRes": 955,
    "lock": 956,
    "racker": 957,
    "ree": 958,
    "Ġtab": 959,
    "ang": 960,
    "Ġsystem": 961,
    "ĠManag": 962,
    "Ġac": 963,
    "arning": 964,
    "register": 965,
    "egr": 966,
    "ized": 967,
    "ĠCheck": 968,
    "Backend": 969,
    "memory": 970,
    "ification": 971,
    "ject": 972,
    "ef": 973,
    "andler": 974,
    "eed": 975,
    "ĠTraining": 976,
    "Ġdis": 977,
    "Ġparent": 978,
    "Ġpre": 979,
    "type": 980,
    "ly": 981,
    "ĠAudio": 982,
    "ime": 983,
    "Exp": 984,
    "Attention": 985,
    "eight": 986,
    "ontent": 987,
    "ĠEx": 988,
    "ook": 989,
    "co": 990,
    "own": 991,
    "ĠGame": 992,
    "text": 993,
    "eder": 994,
    "Ġth": 995,
    "Con": 996,
    "ix": 997,
    "otkey": 998,
    "enc": 999,
    "Worker": 1000,
    "Ġ'": 1001,
    "Ġstart": 1002,
    "float": 1003,
    "Avatar": 1004,
    "ual": 1005,
    "Ġforward": 1006,
    "board": 1007,
    "Ġprovid": 1008,
    "vert": 1009,
    "emplate": 1010,
    "Em": 1011,
    "ĠGenerate": 1012,
    "State": 1013,
    "ete": 1014,
    "allable": 1015,
    "Ġkey": 1016,
    "abil": 1017,
    "Ġlo": 1018,
    "generate": 1019,
    "Engine": 1020,
    "Mode": 1021,
    "ĠEm": 1022,
    "ply": 1023,
    "ampl": 1024,
    "ĠUn": 1025,
    "ake": 1026,
    "Ġfile": 1027,
    "kenizer": 1028,
    "ransform": 1029,
    "head": 1030,
    "avatar": 1031,
    "ummar": 1032,
    "rid": 1033,
    "manager": 1034,
    "ĠRobot": 1035,
    "forward": 1036,
    "read": 1037,
    "ĠTh": 1038,
    "apabil": 1039,
    "ĠConversation": 1040,
    "ats": 1041,
    "Dialog": 1042,
    "egration": 1043,
    "Ġuser": 1044,
    "reaming": 1045,
    "iv": 1046,
    "gg": 1047,
    "dir": 1048,
    "inear": 1049,
    "allback": 1050,
    "istry": 1051,
    "otification": 1052,
    "nd": 1053,
    "ĠPlugin": 1054,
    "ĠTask": 1055,
    "rics": 1056,
    "ert": 1057,
    "af": 1058,
    "Ġat": 1059,
    "Ġdevice": 1060,
    "connect": 1061,
    "start": 1062,
    "Ġtask": 1063,
    "etector": 1064,
    "etwork": 1065,
    "vice": 1066,
    "formation": 1067,
    "ph": 1068,
    "Ġprompt": 1069,
    "Ġconversation": 1070,
    "Ġresponse": 1071,
    "Ġev": 1072,
    "point": 1073,
    "Ġmessage": 1074,
    "nection": 1075,
    "ression": 1076,
    "TS": 1077,
    "cord": 1078,
    "ompl": 1079,
    "ir": 1080,
    "Ġif": 1081,
    "aint": 1082,
    "ument": 1083,
    "Ġoutput": 1084,
    "onitor": 1085,
    "Ch": 1086,
    "Ġgeneration": 1087,
    "aralle": 1088,
    "arallel": 1089,
    "ĠSim": 1090,
    "Ġrun": 1091,
    "tool": 1092,
    "ĠLocal": 1093,
    "RA": 1094,
    "Im": 1095,
    "data": 1096,
    "ision": 1097,
    "Ġregister": 1098,
    "Tracker": 1099,
    "Ġby": 1100,
    "ĠSe": 1101,
    "ĠAdd": 1102,
    "ĠLoad": 1103,
    "ark": 1104,
    "Ġmulti": 1105,
    "AI": 1106,
    "rite": 1107,
    "alidate": 1108,
    "ĠIm": 1109,
    "ased": 1110,
    "stop": 1111,
    "ĠPath": 1112,
    "Ġvoice": 1113,
    "low": 1114,
    "idd": 1115,
    "Ġsingle": 1116,
    "view": 1117,
    "gress": 1118,
    "List": 1119,
    "Ġstate": 1120,
    "istory": 1121,
    "Ġaudio": 1122,
    "Se": 1123,
    "Ġmodule": 1124,
    "artic": 1125,
    "obile": 1126,
    "Ġmodels": 1127,
    "fil": 1128,
    "imation": 1129,
    "Ġpath": 1130,
    "ĠWeb": 1131,
    "alyzer": 1132,
    "Detector": 1133,
    "isual": 1134,
    "ader": 1135,
    "Pre": 1136,
    "Ġavailable": 1137,
    "pen": 1138,
    "yle": 1139,
    "me": 1140,
    "]),": 1141,
    "play": 1142,
    "Ġdat": 1143,
    "space": 1144,
    "ifi": 1145,
    "bot": 1146,
    "ĠDict": 1147,
    "alu": 1148,
    "reg": 1149,
    "Ġcurrent": 1150,
    "ages": 1151,
    "abase": 1152,
    "bool": 1153,
    "lear": 1154,
    "ML": 1155,
    "ĠK": 1156,
    "chedul": 1157,
    "ugment": 1158,
    "ement": 1159,
    "Ġcheck": 1160,
    "lat": 1161,
    "ench": 1162,
    "enchmark": 1163,
    "Ġun": 1164,
    "Profile": 1165,
    "alue": 1166,
    "Client": 1167,
    "ĠQuant": 1168,
    "ĠText": 1169,
    "ffect": 1170,
    "Ġrequest": 1171,
    "kens": 1172,
    "ities": 1173,
    "Ġcache": 1174,
    "ipe": 1175,
    "old": 1176,
    "ĠManages": 1177,
    "ĠWork": 1178,
    "available": 1179,
    "Ġaut": 1180,
    "arget": 1181,
    "error": 1182,
    "ugging": 1183,
    "ĠSp": 1184,
    "Ġe": 1185,
    "Server": 1186,
    "iff": 1187,
    "voice": 1188,
    "Ġcol": 1189,
    "imator": 1190,
    "ender": 1191,
    "orter": 1192,
    "Ġcontext": 1193,
    "ach": 1194,
    "ĠCh": 1195,
    "Ġexport": 1196,
    "tab": 1197,
    "move": 1198,
    "ock": 1199,
    "ptimizer": 1200,
    "ayer": 1201,
    "ĠCol": 1202,
    "down": 1203,
    "aract": 1204,
    "ous": 1205,
    "ĠData": 1206,
    "ĠPrompt": 1207,
    "ĠMessage": 1208,
    "Any": 1209,
    "eedback": 1210,
    "imate": 1211,
    "Ġstop": 1212,
    "Analyzer": 1213,
    "Ġsave": 1214,
    "top": 1215,
    "alyze": 1216,
    "Data": 1217,
    "lan": 1218,
    "Ġ|": 1219,
    "ipeline": 1220,
    "led": 1221,
    "Handler": 1222,
    "ĠJ": 1223,
    "vider": 1224,
    "core": 1225,
    "ustom": 1226,
    "Face": 1227,
    "torch": 1228,
    "ĠAgent": 1229,
    "ector": 1230,
    "ia": 1231,
    "ner": 1232,
    "ĠHugging": 1233,
    "ĠHuggingFace": 1234,
    "Ġdi": 1235,
    "Ġdetect": 1236,
    "cheduler": 1237,
    "ĠFeder": 1238,
    "ories": 1239,
    "Sync": 1240,
    "ĠGra": 1241,
    "amples": 1242,
    "ĠAut": 1243,
    "Path": 1244,
    "mode": 1245,
    "ass": 1246,
    "lation": 1247,
    "ĠPure": 1248,
    "prompt": 1249,
    "ĠSimple": 1250,
    "ession": 1251,
    "omput": 1252,
    "ĠTo": 1253,
    "plic": 1254,
    "oun": 1255,
    "sed": 1256,
    "round": 1257,
    "word": 1258,
    "Qu": 1259,
    "Linear": 1260,
    "ari": 1261,
    "For": 1262,
    "ervice": 1263,
    "sync": 1264,
    "Gen": 1265,
    "unk": 1266,
    "vel": 1267,
    "ency": 1268,
    "Reg": 1269,
    "ost": 1270,
    "tocol": 1271,
    "ĠBase": 1272,
    "ordin": 1273,
    "Ġcan": 1274,
    "ersion": 1275,
    "OS": 1276,
    "ote": 1277,
    "ransformer": 1278,
    "etrics": 1279,
    "Ġupdate": 1280,
    "ide": 1281,
    "apture": 1282,
    "ĠResult": 1283,
    "Ġthat": 1284,
    "ĠChat": 1285,
    "ategy": 1286,
    "peak": 1287,
    "erm": 1288,
    "pos": 1289,
    "upport": 1290,
    "dient": 1291,
    "training": 1292,
    "aracter": 1293,
    "omplete": 1294,
    "esture": 1295,
    "rror": 1296,
    "les": 1297,
    "ompute": 1298,
    "ĠExport": 1299,
    "arm": 1300,
    "uilder": 1301,
    "Ġinterface": 1302,
    "ĠContext": 1303,
    "RM": 1304,
    "ower": 1305,
    "Ġmultiple": 1306,
    "lip": 1307,
    "ĠRem": 1308,
    "Ġspec": 1309,
    "Ġinput": 1310,
    "cache": 1311,
    "ome": 1312,
    "Device": 1313,
    "ash": 1314,
    "latform": 1315,
    "QL": 1316,
    "amer": 1317,
    "Ġnum": 1318,
    "ĠConvert": 1319,
    "Chat": 1320,
    "Ġmode": 1321,
    "Le": 1322,
    "rypt": 1323,
    "dis": 1324,
    "dapt": 1325,
    "uilt": 1326,
    "ĠClo": 1327,
    "ategory": 1328,
    "sk": 1329,
    "andle": 1330,
    "info": 1331,
    "Ġit": 1332,
    "ibr": 1333,
    "ason": 1334,
    "Ġbe": 1335,
    "amera": 1336,
    "corer": 1337,
    "Memory": 1338,
    "Ġgame": 1339,
    "message": 1340,
    "oordin": 1341,
    "osition": 1342,
    "ĠOpen": 1343,
    "rop": 1344,
    "Exporter": 1345,
    "ĠStreaming": 1346,
    "ating": 1347,
    "[,": 1348,
    "ĠTyp": 1349,
    "ht": 1350,
    "Ġserver": 1351,
    "ber": 1352,
    "create": 1353,
    "eton": 1354,
    "angu": 1355,
    "Ġbackend": 1356,
    "ĠPre": 1357,
    "Ġchat": 1358,
    "istant": 1359,
    "cls": 1360,
    "ĠSec": 1361,
    "update": 1362,
    "tem": 1363,
    "Set": 1364,
    "]])": 1365,
    "Loader": 1366,
    "ecord": 1367,
    "eplo": 1368,
    "eploy": 1369,
    "arse": 1370,
    "ĠGG": 1371,
    "ik": 1372,
    "flow": 1373,
    "ĠQWidget": 1374,
    "Ġagent": 1375,
    "ram": 1376,
    "Ġsearch": 1377,
    "ĠAttention": 1378,
    "ocument": 1379,
    "rior": 1380,
    "can": 1381,
    "rix": 1382,
    "Ġquant": 1383,
    "Check": 1384,
    "Ġinference": 1385,
    "Ġab": 1386,
    "ersona": 1387,
    "Ġtokenizer": 1388,
    "Scorer": 1389,
    "Plugin": 1390,
    "Ġattention": 1391,
    "PS": 1392,
    "Ġabout": 1393,
    "ontain": 1394,
    "lector": 1395,
    "ssistant": 1396,
    "Node": 1397,
    "Ġmanag": 1398,
    "Settings": 1399,
    "iment": 1400,
    "atrix": 1401,
    "ĠResponse": 1402,
    "System": 1403,
    "Ġlayer": 1404,
    "ech": 1405,
    "batch": 1406,
    "ĠModule": 1407,
    "Filter": 1408,
    "Ġplugin": 1409,
    "Ġwindow": 1410,
    "anguage": 1411,
    "ast": 1412,
    "ctiv": 1413,
    "ĠDevice": 1414,
    "apabilities": 1415,
    "oint": 1416,
    "riority": 1417,
    "Ġprocess": 1418,
    "ridge": 1419,
    "Ġwidget": 1420,
    "ha": 1421,
    "ray": 1422,
    "ions": 1423,
    "ccess": 1424,
    "API": 1425,
    "ĠMo": 1426,
    "context": 1427,
    "lace": 1428,
    "TTS": 1429,
    "wn": 1430,
    "undle": 1431,
    "Ġtrain": 1432,
    "ric": 1433,
    "system": 1434,
    "Limit": 1435,
    "Ġcommand": 1436,
    "Ġevent": 1437,
    "ĠMulti": 1438,
    "ground": 1439,
    "quire": 1440,
    "Ġquery": 1441,
    "roup": 1442,
    "ore": 1443,
    "Ġcontent": 1444,
    "Builder": 1445,
    "Ġemotion": 1446,
    "Col": 1447,
    "Embedding": 1448,
    "ĠComp": 1449,
    "ggreg": 1450,
    "ven": 1451,
    "time": 1452,
    "ĠReg": 1453,
    "pre": 1454,
    "bject": 1455,
    "Optimizer": 1456,
    "ummary": 1457,
    "peech": 1458,
    "leton": 1459,
    "sent": 1460,
    "itch": 1461,
    "beddings": 1462,
    "Registry": 1463,
    "ui": 1464,
    "Ġtuple": 1465,
    "rap": 1466,
    "ified": 1467,
    "ission": 1468,
    "Int": 1469,
    "etection": 1470,
    "Window": 1471,
    "ĠInference": 1472,
    "ĠLoRA": 1473,
    "Ġsetup": 1474,
    "outer": 1475,
    "ĠUpdate": 1476,
    "ĠTypes": 1477,
    "unc": 1478,
    "uggest": 1479,
    "atcher": 1480,
    "Ġengine": 1481,
    "app": 1482,
    "Ġmobile": 1483,
    "now": 1484,
    "lab": 1485,
    "ĠUser": 1486,
    "ON": 1487,
    "device": 1488,
    "ĠCallable": 1489,
    "Ġreg": 1490,
    "Ġapi": 1491,
    "iddle": 1492,
    "iddleware": 1493,
    "Ġrobot": 1494,
    "oration": 1495,
    "ns": 1496,
    "Ġdef": 1497,
    "ify": 1498,
    "adata": 1499,
    "Ġerror": 1500,
    "ĠBack": 1501,
    "cessor": 1502,
    "utor": 1503,
    "utorial": 1504,
    "ross": 1505,
    "witch": 1506,
    "ĠGPU": 1507,
    "pu": 1508,
    "ose": 1509,
    "Ġtest": 1510,
    "tokens": 1511,
    "Ġcomp": 1512,
    "peed": 1513,
    "Callable": 1514,
    "Ġaccess": 1515,
    "eng": 1516,
    "conversation": 1517,
    "Ġenable": 1518,
    "Scheduler": 1519,
    "afe": 1520,
    "son": 1521,
    "Extract": 1522,
    "uit": 1523,
    "lipboard": 1524,
    "ength": 1525,
    "action": 1526,
    "istics": 1527,
    "ctionary": 1528,
    "state": 1529,
    "Context": 1530,
    "response": 1531,
    "ĠNetwork": 1532,
    "Res": 1533,
    "Dataset": 1534,
    "air": 1535,
    "exp": 1536,
    "task": 1537,
    "Execut": 1538,
    "yn": 1539,
    "estimate": 1540,
    "Stats": 1541,
    "ative": 1542,
    "ink": 1543,
    "cover": 1544,
    "export": 1545,
    "Monitor": 1546,
    "UF": 1547,
    "ĠROS": 1548,
    "Ġexp": 1549,
    "Ġback": 1550,
    "orm": 1551,
    "cription": 1552,
    "Layer": 1553,
    "Ġapply": 1554,
    "Ġvalue": 1555,
    "ĠExtract": 1556,
    "ĠMoE": 1557,
    "ĠOverlay": 1558,
    "Error": 1559,
    "Ġdictionary": 1560,
    "ible": 1561,
    "Provider": 1562,
    "ience": 1563,
    "asoning": 1564,
    "atabase": 1565,
    "Ġfil": 1566,
    "inition": 1567,
    "Ġx": 1568,
    "Ġinformation": 1569,
    "ĠCode": 1570,
    "ger": 1571,
    "Integration": 1572,
    "eights": 1573,
    "Ġla": 1574,
    "Ġaction": 1575,
    "Overlay": 1576,
    "ĠBuilt": 1577,
    "ĠImport": 1578,
    "nowled": 1579,
    "nowledge": 1580,
    "ersist": 1581,
    "ĠStart": 1582,
    "Task": 1583,
    "place": 1584,
    "Block": 1585,
    "ility": 1586,
    "Extractor": 1587,
    "ĠGGUF": 1588,
    "ĠDis": 1589,
    "ments": 1590,
    "VCache": 1591,
    "ffload": 1592,
    "filer": 1593,
    "ĠFederated": 1594,
    "ĠHome": 1595,
    "its": 1596,
    "loc": 1597,
    "Ġlearning": 1598,
    "Ġconnect": 1599,
    "func": 1600,
    "anit": 1601,
    "Ġsession": 1602,
    "ĠCache": 1603,
    "chedule": 1604,
    "venience": 1605,
    "Robot": 1606,
    "Ġpreset": 1607,
    "save": 1608,
    "array": 1609,
    "ution": 1610,
    "ontainer": 1611,
    "aming": 1612,
    "Ġtypes": 1613,
    "laboration": 1614,
    "Search": 1615,
    "agent": 1616,
    "Ġstorage": 1617,
    "Ġlimit": 1618,
    "Ġspecific": 1619,
    "row": 1620,
    "position": 1621,
    "Generation": 1622,
    "each": 1623,
    "ĠQuantized": 1624,
    "Interface": 1625,
    "Platform": 1626,
    "Ġstep": 1627,
    "ĠToken": 1628,
    "Ġtime": 1629,
    "article": 1630,
    "check": 1631,
    "Image": 1632,
    "Ġrecord": 1633,
    "Voice": 1634,
    "oder": 1635,
    "ĠDec": 1636,
    "ĠMain": 1637,
    "ĠJS": 1638,
    "ĠJSON": 1639,
    "cale": 1640,
    "Ġbatch": 1641,
    "ĠNotification": 1642,
    "Message": 1643,
    "Command": 1644,
    "ull": 1645,
    "Ġoptim": 1646,
    "Ġnn": 1647,
    "irc": 1648,
    "stall": 1649,
    "ĠInformation": 1650,
    "step": 1651,
    "by": 1652,
    "ideo": 1653,
    "actory": 1654,
    "Status": 1655,
    "assword": 1656,
    "Ġfunctionality": 1657,
    "rategy": 1658,
    "ange": 1659,
    "ibrary": 1660,
    "Ġk": 1661,
    "ĠVRM": 1662,
    "ĠConvenience": 1663,
    "apability": 1664,
    "Ġexecut": 1665,
    "resh": 1666,
    "Ġsource": 1667,
    "Ġsize": 1668,
    "ardware": 1669,
    "attery": 1670,
    "Ġas": 1671,
    "oordinator": 1672,
    "Ġcallback": 1673,
    "Router": 1674,
    "ps": 1675,
    "active": 1676,
    "ĠScreen": 1677,
    "arameter": 1678,
    "alidation": 1679,
    "atistics": 1680,
    "ĠEmbedding": 1681,
    "Transformer": 1682,
    "alth": 1683,
    "DB": 1684,
    "ault": 1685,
    "Ġent": 1686,
    "Ġbuild": 1687,
    "format": 1688,
    "Ġprovides": 1689,
    "Ġstatus": 1690,
    "ound": 1691,
    "Ġgra": 1692,
    "ateLimit": 1693,
    "ĠTab": 1694,
    "Ġsub": 1695,
    "Ġ3": 1696,
    "nel": 1697,
    "rate": 1698,
    "Enc": 1699,
    "PO": 1700,
    "Executor": 1701,
    "Ġtoken": 1702,
    "cr": 1703,
    "Ġmod": 1704,
    "ĠDetect": 1705,
    "server": 1706,
    "ibility": 1707,
    "Processor": 1708,
    "crypt": 1709,
    "Storage": 1710,
    "Met": 1711,
    "Bridge": 1712,
    "edia": 1713,
    "Ġsingleton": 1714,
    "Ġtop": 1715,
    "uf": 1716,
    "Import": 1717,
    "ames": 1718,
    "oug": 1719,
    "Ġal": 1720,
    "profile": 1721,
    "ĠLe": 1722,
    "ĠCamera": 1723,
    "Ġdisplay": 1724,
    "Dict": 1725,
    "pose": 1726,
    "Ġposition": 1727,
    "Ġprofile": 1728,
    "Ġfiles": 1729,
    "Item": 1730,
    "sw": 1731,
    "zy": 1732,
    "ransl": 1733,
    "acy": 1734,
    "akeW": 1735,
    "akeWord": 1736,
    "chat": 1737,
    "Ġport": 1738,
    "Ġup": 1739,
    "ulator": 1740,
    "Ġvalidate": 1741,
    "Ġsettings": 1742,
    "essages": 1743,
    "perature": 1744,
    "ĠOpenAI": 1745,
    "plicate": 1746,
    "based": 1747,
    "ermission": 1748,
    "File": 1749,
    "etwe": 1750,
    "etween": 1751,
    "process": 1752,
    "]],": 1753,
    "Ġhe": 1754,
    "havi": 1755,
    "havior": 1756,
    "ouse": 1757,
    "ors": 1758,
    "straint": 1759,
    "json": 1760,
    "GenerationWorker": 1761,
    "Ġinter": 1762,
    "utt": 1763,
    "antic": 1764,
    "afet": 1765,
    "chema": 1766,
    "Ġtarget": 1767,
    "Ġbase": 1768,
    "older": 1769,
    "Preview": 1770,
    "ocket": 1771,
    "ms": 1772,
    "rapper": 1773,
    "Ġnode": 1774,
    "quant": 1775,
    "Ġextract": 1776,
    "ĠMPS": 1777,
    "Ġbetween": 1778,
    "Ġanimation": 1779,
    "met": 1780,
    "ctory": 1781,
    "elete": 1782,
    "ndarray": 1783,
    "layers": 1784,
    "ĠRequest": 1785,
    "models": 1786,
    "ush": 1787,
    "game": 1788,
    "ĠImage": 1789,
    "afety": 1790,
    "ryption": 1791,
    "Ġthis": 1792,
    "Ġresult": 1793,
    "Ġremove": 1794,
    "ĠSession": 1795,
    "tes": 1796,
    "ĠCommand": 1797,
    "Ġtrack": 1798,
    "Ġclo": 1799,
    "heet": 1800,
    "ĠBuiltin": 1801,
    "eue": 1802,
    "ĠTrainer": 1803,
    "cent": 1804,
    "ĠHigh": 1805,
    "Ġimage": 1806,
    "utton": 1807,
    "ctivation": 1808,
    "ĠMark": 1809,
    "ĠCloud": 1810,
    "plugin": 1811,
    "preset": 1812,
    "Ġbased": 1813,
    "Ġscreen": 1814,
    "Ġvari": 1815,
    "Request": 1816,
    "Est": 1817,
    "iffic": 1818,
    "ifficult": 1819,
    "Test": 1820,
    "Ġdec": 1821,
    "tt": 1822,
    "ĠSecure": 1823,
    "unt": 1824,
    "ĠBl": 1825,
    "ought": 1826,
    "with": 1827,
    "ĠLive": 1828,
    "etplace": 1829,
    "api": 1830,
    "ibut": 1831,
    "oal": 1832,
    "Assistant": 1833,
    "tools": 1834,
    "user": 1835,
    "level": 1836,
    "Ġcustom": 1837,
    "ifficulty": 1838,
    "plit": 1839,
    "Bar": 1840,
    "ookmark": 1841,
    "ulk": 1842,
    "ulkhead": 1843,
    "ail": 1844,
    "command": 1845,
    "enable": 1846,
    "ĠSelf": 1847,
    "train": 1848,
    "ĠStop": 1849,
    "ĠEmotion": 1850,
    "rig": 1851,
    "Ġwhen": 1852,
    "Ġsupport": 1853,
    "Ġauto": 1854,
    "ĠManage": 1855,
    "status": 1856,
    "session": 1857,
    "emories": 1858,
    "istil": 1859,
    "ĠHotkey": 1860,
    "riv": 1861,
    "emplates": 1862,
    "Ġtools": 1863,
    "ĠPy": 1864,
    "import": 1865,
    "ĠAp": 1866,
    "Quant": 1867,
    "Ġclear": 1868,
    "vels": 1869,
    "Ġfind": 1870,
    "rame": 1871,
    "Ġversion": 1872,
    "ural": 1873,
    "thing": 1874,
    "itle": 1875,
    "Ġfilter": 1876,
    "ashboard": 1877,
    "isualizer": 1878,
    "Ġpersonality": 1879,
    "map": 1880,
    "ctive": 1881,
    "ise": 1882,
    "Ġresource": 1883,
    "Que": 1884,
    "reak": 1885,
    "parent": 1886,
    "Vector": 1887,
    "Ġsim": 1888,
    "search": 1889,
    "Ġunload": 1890,
    "lean": 1891,
    "ules": 1892,
    "anc": 1893,
    "ru": 1894,
    "Ġquick": 1895,
    "av": 1896,
    "ĠRemove": 1897,
    "ning": 1898,
    "Ġshow": 1899,
    "Queue": 1900,
    "cision": 1901,
    "ĠRegister": 1902,
    "Ġlog": 1903,
    "Strategy": 1904,
    "efinition": 1905,
    "callback": 1906,
    "ĠRecord": 1907,
    "ĠAsync": 1908,
    "peaker": 1909,
    "Ġlevels": 1910,
    "ĠRep": 1911,
    "count": 1912,
    "Card": 1913,
    "detect": 1914,
    "audio": 1915,
    "dim": 1916,
    "Ent": 1917,
    "ritic": 1918,
    "Ġhandle": 1919,
    "dates": 1920,
    "ĠMet": 1921,
    "ĠResource": 1922,
    "Ġservice": 1923,
    "rowser": 1924,
    "Pool": 1925,
    "lanner": 1926,
    "You": 1927,
    "TL": 1928,
    "box": 1929,
    "ebate": 1930,
    "sis": 1931,
    "rag": 1932,
    "Ġdescription": 1933,
    "unload": 1934,
    "emperature": 1935,
    "ĠTTS": 1936,
    "Ġdoc": 1937,
    "Middleware": 1938,
    "Ġworker": 1939,
    "Ġrem": 1940,
    "Profiler": 1941,
    "idden": 1942,
    "nn": 1943,
    "ml": 1944,
    "articip": 1945,
    "Ġj": 1946,
    "log": 1947,
    "Ġdatabase": 1948,
    "onom": 1949,
    "onomous": 1950,
    "lot": 1951,
    "ĠBatch": 1952,
    "Response": 1953,
    "Ġlocal": 1954,
    "Ġstream": 1955,
    "ilar": 1956,
    "Game": 1957,
    "ĠWorkflow": 1958,
    "ĠPersonality": 1959,
    "awn": 1960,
    "epend": 1961,
    "Ġlanguage": 1962,
    "ead": 1963,
    "hook": 1964,
    "mask": 1965,
    "ĠMix": 1966,
    "not": 1967,
    "Ġconnection": 1968,
    "Ġrout": 1969,
    "ĠUI": 1970,
    "ĠSearch": 1971,
    "Action": 1972,
    "ĠCharacter": 1973,
    "rib": 1974,
    "ĠPI": 1975,
    "ĠSystem": 1976,
    "Ġtemplate": 1977,
    "alc": 1978,
    "du": 1979,
    "ft": 1980,
    "validate": 1981,
    "Ġanalyze": 1982,
    "Session": 1983,
    "stats": 1984,
    "Th": 1985,
    "istribut": 1986,
    "ivers": 1987,
    "Estimator": 1988,
    "Augment": 1989,
    "History": 1990,
    "rivacy": 1991,
    "ox": 1992,
    "Ġcapabilities": 1993,
    "Ġexecution": 1994,
    "token": 1995,
    "Ġword": 1996,
    "alidator": 1997,
    "erformance": 1998,
    "lid": 1999,
    "cl": 2000,
    "Ġdetection": 2001,
    "Ġgenerator": 2002,
    "To": 2003,
    "ocab": 2004,
    "ĠStream": 2005,
    "ĠEnt": 2006,
    "fix": 2007,
    "ĠSem": 2008,
    "Checker": 2009,
    "Ġhotkey": 2010,
    "Agent": 2011,
    "ĠWorkspace": 2012,
    "Animator": 2013,
    "land": 2014,
    "Category": 2015,
    "settings": 2016,
    "ffic": 2017,
    "Entry": 2018,
    "KVCache": 2019,
    "section": 2020,
    "Ġbar": 2021,
    "ĠPII": 2022,
    "remove": 2023,
    "work": 2024,
    "ĠAdapt": 2025,
    "ĠKey": 2026,
    "ĠAvatarP": 2027,
    "ĠComplete": 2028,
    "ness": 2029,
    "ĠGeneration": 2030,
    "olic": 2031,
    "ĠGPI": 2032,
    "ĠGPIO": 2033,
    "ĠTheme": 2034,
    "ĠSensor": 2035,
    "Database": 2036,
    "Ġestimate": 2037,
    "comp": 2038,
    "Ġdocument": 2039,
    "ertaint": 2040,
    "ertainty": 2041,
    "valu": 2042,
    "ĠCPU": 2043,
    "stru": 2044,
    "caling": 2045,
    "ĠBenchmark": 2046,
    "Hotkey": 2047,
    "Ġsens": 2048,
    "Visualizer": 2049,
    "ĠInput": 2050,
    "rase": 2051,
    "Ġtrans": 2052,
    "Ġreset": 2053,
    "arams": 2054,
    "ĠSQL": 2055,
    "tuple": 2056,
    "rigger": 2057,
    "ĠBone": 2058,
    "Ġsample": 2059,
    "uffer": 2060,
    "request": 2061,
    "ĠAd": 2062,
    "Ġhas": 2063,
    "Ġweb": 2064,
    "ĠRateLimit": 2065,
    "ĠCo": 2066,
    "crypted": 2067,
    "ĠWik": 2068,
    "Coordinator": 2069,
    "apping": 2070,
    "current": 2071,
    "style": 2072,
    "usage": 2073,
    "ful": 2074,
    "ias": 2075,
    "Ġnetwork": 2076,
    "val": 2077,
    "Comp": 2078,
    "lama": 2079,
    "anel": 2080,
    "ĠFeedback": 2081,
    "Ġdefault": 2082,
    "articipant": 2083,
    "Ġid": 2084,
    "ĠLog": 2085,
    "vect": 2086,
    "irectory": 2087,
    "Ġcre": 2088,
    "ategories": 2089,
    "Ġsync": 2090,
    "LH": 2091,
    "LHF": 2092,
    "ĠTensor": 2093,
    "ĠDocument": 2094,
    "alyt": 2095,
    "alytics": 2096,
    "andbox": 2097,
    "Ġtype": 2098,
    "orator": 2099,
    "ĠAPIKey": 2100,
    "Ġmanagement": 2101,
    "ĠPerformance": 2102,
    "covery": 2103,
    "Ġhand": 2104,
    "gpu": 2105,
    "ĠRLHF": 2106,
    "ĠRo": 2107,
    "ĠRun": 2108,
    "ication": 2109,
    "Ġinto": 2110,
    "Ġz": 2111,
    "Ġtitle": 2112,
    "ĠApply": 2113,
    "sem": 2114,
    "heads": 2115,
    "Ġprovider": 2116,
    "ncertainty": 2117,
    "ĠDataset": 2118,
    "ĠTree": 2119,
    "Planner": 2120,
    "ĠSS": 2121,
    "ĠTP": 2122,
    "ĠTutorial": 2123,
    "ortc": 2124,
    "ortcut": 2125,
    "ĠReplicate": 2126,
    "clo": 2127,
    "Template": 2128,
    "Pipeline": 2129,
    "Ġcontrol": 2130,
    "GL": 2131,
    "Ġembedding": 2132,
    "ĠHel": 2133,
    "izard": 2134,
    "inking": 2135,
    "Norm": 2136,
    "record": 2137,
    "files": 2138,
    "Query": 2139,
    "Zone": 2140,
    "Ġmark": 2141,
    "Ġnot": 2142,
    "Ġeffect": 2143,
    "ĠWindow": 2144,
    "ĠLearning": 2145,
    "ĠInt": 2146,
    "ĠBattery": 2147,
    "Ġcontroller": 2148,
    "atic": 2149,
    "mit": 2150,
    "ured": 2151,
    "cond": 2152,
    "ĠTrack": 2153,
    "Ġitem": 2154,
    "Ġblock": 2155,
    "Ġtokens": 2156,
    "ampler": 2157,
    "arg": 2158,
    "off": 2159,
    "quantize": 2160,
    "loss": 2161,
    "olicy": 2162,
    "Ġparallel": 2163,
    "Ġnotification": 2164,
    "ĠHomeAssistant": 2165,
    "udit": 2166,
    "Conversation": 2167,
    "sub": 2168,
    "ĠProcess": 2169,
    "Ġoff": 2170,
    "omb": 2171,
    "code": 2172,
    "output": 2173,
    "pet": 2174,
    "ĠTrainingData": 2175,
    "ĠThread": 2176,
    "ranch": 2177,
    "vis": 2178,
    "ĠDPO": 2179,
    "VectorDB": 2180,
    "Personality": 2181,
    "ally": 2182,
    "alled": 2183,
    "tal": 2184,
    "compute": 2185,
    "uccess": 2186,
    "ĠBackground": 2187,
    "istributed": 2188,
    "caler": 2189,
    "ux": 2190,
    "ĠReasoning": 2191,
    "Hub": 2192,
    "ĠCirc": 2193,
    "ersistence": 2194,
    "ulate": 2195,
    "Ġresponses": 2196,
    "color": 2197,
    "vance": 2198,
    "light": 2199,
    "Report": 2200,
    "icator": 2201,
    "ounce": 2202,
    "gra": 2203,
    "ĠLayer": 2204,
    "Record": 2205,
    "ĠSemantic": 2206,
    "ayland": 2207,
    "clear": 2208,
    "ired": 2209,
    "ĠExecute": 2210,
    "Ġhistory": 2211,
    "ĠSing": 2212,
    "Ġpr": 2213,
    "Socket": 2214,
    "Ġmessages": 2215,
    "ĠMatrix": 2216,
    "ting": 2217,
    "ele": 2218,
    "ĠPower": 2219,
    "Ġcomm": 2220,
    "Ġchunk": 2221,
    "emotion": 2222,
    "Ġmouse": 2223,
    "sim": 2224,
    "andom": 2225,
    "Ġoverlay": 2226,
    "ĠWh": 2227,
    "PE": 2228,
    "fficient": 2229,
    "Sampler": 2230,
    "layout": 2231,
    "sist": 2232,
    "Offload": 2233,
    "aug": 2234,
    "Listener": 2235,
    "Protocol": 2236,
    "etion": 2237,
    "score": 2238,
    "ches": 2239,
    "ĠPose": 2240,
    "Ġvia": 2241,
    "ĠValidation": 2242,
    "Chunk": 2243,
    "Ġevalu": 2244,
    "Ġtensor": 2245,
    "ations": 2246,
    "ĠGradient": 2247,
    "Ġexper": 2248,
    "Base": 2249,
    "UD": 2250,
    "Aggreg": 2251,
    "Ġwake": 2252,
    "quence": 2253,
    "Ġmin": 2254,
    "ĠMotion": 2255,
    "Ġpreference": 2256,
    "ĠFla": 2257,
    "max": 2258,
    "optim": 2259,
    "ĠSplit": 2260,
    "ĠFederation": 2261,
    "Page": 2262,
    "ĠWayland": 2263,
    "ĠBulkhead": 2264,
    "urity": 2265,
    "Ġread": 2266,
    "Control": 2267,
    "length": 2268,
    "Render": 2269,
    "Renderer": 2270,
    "Ġmetadata": 2271,
    "Ġobject": 2272,
    "Ġapp": 2273,
    "Ġdataset": 2274,
    "ĠFilter": 2275,
    "Prompt": 2276,
    "Ġmetrics": 2277,
    "ish": 2278,
    "history": 2279,
    "ĠTuple": 2280,
    "ĠGesture": 2281,
    "Ġpart": 2282,
    "window": 2283,
    "ĠWebSocket": 2284,
    "Validator": 2285,
    "dients": 2286,
    "ĠStatus": 2287,
    "Ġlabe": 2288,
    "ĠRA": 2289,
    "auge": 2290,
    "ĠNot": 2291,
    "itory": 2292,
    "base": 2293,
    "ĠDecorator": 2294,
    "Ġpriority": 2295,
    "Ġstyle": 2296,
    "Importer": 2297,
    "Capture": 2298,
    "ĠTemplate": 2299,
    "Ġdisconnect": 2300,
    "ĠEvalu": 2301,
    "ĠTrans": 2302,
    "arned": 2303,
    "Collector": 2304,
    "Update": 2305,
    "ĠClipboard": 2306,
    "ummarizer": 2307,
    "Ġacross": 2308,
    "Ġformats": 2309,
    "Ġscore": 2310,
    "ptions": 2311,
    "nion": 2312,
    "olve": 2313,
    "Ġclient": 2314,
    "ĠAccess": 2315,
    "Ind": 2316,
    "ĠKV": 2317,
    "Matrix": 2318,
    "Ġpool": 2319,
    "Ġbenchmark": 2320,
    "aged": 2321,
    "ĠAW": 2322,
    "swer": 2323,
    "LoRA": 2324,
    "ll": 2325,
    "agram": 2326,
    "setup": 2327,
    "Ġbytes": 2328,
    "Ġintegration": 2329,
    "ĠVector": 2330,
    "Ġvect": 2331,
    "entity": 2332,
    "ount": 2333,
    "personality": 2334,
    "aring": 2335,
    "uman": 2336,
    "call": 2337,
    "eam": 2338,
    "node": 2339,
    "Ġrate": 2340,
    "uck": 2341,
    "pointing": 2342,
    "ĠRAG": 2343,
    "celer": 2344,
    "ĠExpert": 2345,
    "ĠTest": 2346,
    "ĠCritic": 2347,
    "Button": 2348,
    "Box": 2349,
    "Ġhandler": 2350,
    "warm": 2351,
    "Ġprogress": 2352,
    "progress": 2353,
    "ĠAdaptive": 2354,
    "Ġnp": 2355,
    "ĠWindows": 2356,
    "version": 2357,
    "ealth": 2358,
    "Ġstreaming": 2359,
    "disconnect": 2360,
    "Ġaugment": 2361,
    "ĠContent": 2362,
    "urric": 2363,
    "urricul": 2364,
    "urriculum": 2365,
    "semble": 2366,
    "metrics": 2367,
    "llama": 2368,
    "ĠParallel": 2369,
    "ĠEncrypted": 2370,
    "ĠStorage": 2371,
    "ĠWakeWord": 2372,
    "ĠRemote": 2373,
    "ong": 2374,
    "aut": 2375,
    "alysis": 2376,
    "Ġdown": 2377,
    "ombin": 2378,
    "Preset": 2379,
    "Ġembeddings": 2380,
    "Ġstatistics": 2381,
    "ĠHT": 2382,
    "Learning": 2383,
    "Act": 2384,
    "PT": 2385,
    "uite": 2386,
    "Watcher": 2387,
    "jection": 2388,
    "ulative": 2389,
    "ĠRTL": 2390,
    "crub": 2391,
    "ĠVisual": 2392,
    "ĠAnimation": 2393,
    "ferent": 2394,
    "Version": 2395,
    "Press": 2396,
    "PressEvent": 2397,
    "Ġcategory": 2398,
    "effect": 2399,
    "Ġend": 2400,
    "inter": 2401,
    "ĠConnection": 2402,
    "Ġweights": 2403,
    "ropout": 2404,
    "Constraint": 2405,
    "ĠRew": 2406,
    "ĠReward": 2407,
    "Chain": 2408,
    "iversal": 2409,
    "oise": 2410,
    "ĠCS": 2411,
    "md": 2412,
    "Ġoperations": 2413,
    "nder": 2414,
    "raits": 2415,
    "Ġtasks": 2416,
    "Ġind": 2417,
    "Ġweight": 2418,
    "ier": 2419,
    "hy": 2420,
    "Ġcompute": 2421,
    "Forward": 2422,
    "leanup": 2423,
    "ĠLa": 2424,
    "unnel": 2425,
    "Ġhidden": 2426,
    "ranslator": 2427,
    "OC": 2428,
    "Metrics": 2429,
    "runing": 2430,
    "ĠService": 2431,
    "ĠFont": 2432,
    "utdown": 2433,
    "trans": 2434,
    "sents": 2435,
    "requ": 2436,
    "ktop": 2437,
    "Ġdownload": 2438,
    "Ġsuggest": 2439,
    "Tokenizer": 2440,
    "locate": 2441,
    "sistency": 2442,
    "istillation": 2443,
    "ĠAction": 2444,
    "ribution": 2445,
    "ĠOllama": 2446,
    "content": 2447,
    "ocker": 2448,
    "ĠUnified": 2449,
    "ĠID": 2450,
    "storage": 2451,
    "Ġunregister": 2452,
    "omatic": 2453,
    "Ġrequire": 2454,
    "ĠAutonomous": 2455,
    "ĠColor": 2456,
    "speech": 2457,
    "ocus": 2458,
    "yles": 2459,
    "ids": 2460,
    "eaching": 2461,
    "orer": 2462,
    "Sensor": 2463,
    "Panel": 2464,
    "APIModule": 2465,
    "ĠBrowser": 2466,
    "RobotInterface": 2467,
    "nip": 2468,
    "nippet": 2469,
    "ĠSSML": 2470,
    "fn": 2471,
    "ĠAIAvatar": 2472,
    "tern": 2473,
    "ifferent": 2474,
    "mo": 2475,
    "Ġtracking": 2476,
    "fit": 2477,
    "Ġcolor": 2478,
    "Emotion": 2479,
    "Ġcapture": 2480,
    "Ġad": 2481,
    "Sim": 2482,
    "Sp": 2483,
    "scribe": 2484,
    "arner": 2485,
    "Ġenc": 2486,
    "ĠWeight": 2487,
    "Audio": 2488,
    "raft": 2489,
    "ĠFile": 2490,
    "anitize": 2491,
    "Local": 2492,
    "ole": 2493,
    "unregister": 2494,
    "Ġout": 2495,
    "reshold": 2496,
    "encies": 2497,
    "Ġbehavior": 2498,
    "expression": 2499,
    "Library": 2500,
    "url": 2501,
    "anip": 2502,
    "orph": 2503,
    "aintEvent": 2504,
    "Code": 2505,
    "block": 2506,
    "Ġmemories": 2507,
    "ĠOff": 2508,
    "ĠActivation": 2509,
    "uster": 2510,
    "Ġregistry": 2511,
    "less": 2512,
    "eriment": 2513,
    "ĠSpec": 2514,
    "html": 2515,
    "Ġfeder": 2516,
    "heme": 2517,
    "ĠEntity": 2518,
    "Ġcmd": 2519,
    "Ġhost": 2520,
    "Dec": 2521,
    "atches": 2522,
    "Ġret": 2523,
    "ron": 2524,
    "anges": 2525,
    "ulation": 2526,
    "Ġdim": 2527,
    "Simulator": 2528,
    "lscreen": 2529,
    "ĠSprite": 2530,
    "Ġcreating": 2531,
    "features": 2532,
    "Ġvocab": 2533,
    "Ġconversations": 2534,
    "Ġtimeout": 2535,
    "Stream": 2536,
    "ĠEvent": 2537,
    "Ġsamples": 2538,
    "safe": 2539,
    "ĠMetrics": 2540,
    "ĠMult": 2541,
    "ĠQLoRA": 2542,
    "Deploy": 2543,
    "Connection": 2544,
    "sTool": 2545,
    "ĠAuto": 2546,
    "ĠBuild": 2547,
    "ĠSave": 2548,
    "Ġcommands": 2549,
    "Ġgesture": 2550,
    "Ġbone": 2551,
    "Ġupdates": 2552,
    "hys": 2553,
    "Ġcl": 2554,
    "ifier": 2555,
    "ĠLazy": 2556,
    "Ġsimilar": 2557,
    "template": 2558,
    "Ġbackends": 2559,
    "Encryption": 2560,
    "ared": 2561,
    "esh": 2562,
    "Ġfeedback": 2563,
    "Ġspeech": 2564,
    "dire": 2565,
    "ensity": 2566,
    "ĠParticle": 2567,
    "io": 2568,
    "document": 2569,
    "RP": 2570,
    "RPC": 2571,
    "sample": 2572,
    "Scaler": 2573,
    "eep": 2574,
    "weights": 2575,
    "crement": 2576,
    "Parallel": 2577,
    "ĠPersona": 2578,
    "Cl": 2579,
    "Notification": 2580,
    "ayout": 2581,
    "erial": 2582,
    "Ġstates": 2583,
    "min": 2584,
    "dec": 2585,
    "ctured": 2586,
    "ĠRepre": 2587,
    "ĠRepresents": 2588,
    "stalled": 2589,
    "Ġvisual": 2590,
    "Ġenabled": 2591,
    "dat": 2592,
    "Ġmonitor": 2593,
    "Ġprovide": 2594,
    "way": 2595,
    "Ġpass": 2596,
    "stream": 2597,
    "ĠTrain": 2598,
    "LM": 2599,
    "Ġquantize": 2600,
    "Aware": 2601,
    "Buffer": 2602,
    "sol": 2603,
    "andard": 2604,
    "verify": 2605,
    "Ġexpression": 2606,
    "idth": 2607,
    "Ġparse": 2608,
    "ĠSync": 2609,
    "ĠOB": 2610,
    "analyze": 2611,
    "ĠSent": 2612,
    "ĠQuery": 2613,
    "Preference": 2614,
    "phQL": 2615,
    "ĠConversationT": 2616,
    "ynam": 2617,
    "ynamic": 2618,
    "ĠAb": 2619,
    "ĠAbstr": 2620,
    "ĠKnowledge": 2621,
    "ĠGPT": 2622,
    "celerator": 2623,
    "alanc": 2624,
    "fresh": 2625,
    "mation": 2626,
    "cup": 2627,
    "reaker": 2628,
    "Factory": 2629,
    "Ġpipeline": 2630,
    "Ġthread": 2631,
    "Ġcomplete": 2632,
    "vement": 2633,
    "ĠRoPE": 2634,
    "parameters": 2635,
    "eedForward": 2636,
    "DGen": 2637,
    "lection": 2638,
    "local": 2639,
    "anion": 2640,
    "Ġover": 2641,
    "ĠHardware": 2642,
    "extract": 2643,
    "ressed": 2644,
    "Ġtheme": 2645,
    "solid": 2646,
    "AD": 2647,
    "ĠAvailable": 2648,
    "tl": 2649,
    "conds": 2650,
    "alculate": 2651,
    "hent": 2652,
    "controller": 2653,
    "Bundle": 2654,
    "ĠComm": 2655,
    "ĠMobile": 2656,
    "lision": 2657,
    "Ġtemperature": 2658,
    "Ġrequests": 2659,
    "ĠGraphQL": 2660,
    "dataset": 2661,
    "Ġcharacter": 2662,
    "UDA": 2663,
    "eployment": 2664,
    "ĠLin": 2665,
    "ĠThis": 2666,
    "Ġinfo": 2667,
    "input": 2668,
    "ternal": 2669,
    "Ġpreview": 2670,
    "Ġhead": 2671,
    "ĠEst": 2672,
    "hysics": 2673,
    "Ġatt": 2674,
    "Group": 2675,
    "Ġwrapper": 2676,
    "Ġstrategy": 2677,
    "ancel": 2678,
    "mb": 2679,
    "ĠRandom": 2680,
    "eacher": 2681,
    "ariant": 2682,
    "matter": 2683,
    "Chart": 2684,
    "ĠPi": 2685,
    "ĠError": 2686,
    "Priority": 2687,
    "Ġdisable": 2688,
    "ody": 2689,
    "ĠControl": 2690,
    "Ġdevices": 2691,
    "upported": 2692,
    "Ed": 2693,
    "ST": 2694,
    "ember": 2695,
    "inference": 2696,
    "ropy": 2697,
    "64": 2698,
    "ĠAWQ": 2699,
    "Ġquantization": 2700,
    "ĠReAct": 2701,
    "ĠGPTQ": 2702,
    "ounter": 2703,
    "Ġsensor": 2704,
    "ĠPlayer": 2705,
    "ĠOBS": 2706,
    "ependency": 2707,
    "ository": 2708,
    "uation": 2709,
    "elemet": 2710,
    "elemetry": 2711,
    "ĠCross": 2712,
    "use": 2713,
    "question": 2714,
    "ompletion": 2715,
    "Ġworkspace": 2716,
    "Ġext": 2717,
    "ĠAnalyze": 2718,
    "Expression": 2719,
    "iew": 2720,
    "Source": 2721,
    "Head": 2722,
    "GLU": 2723,
    "ĠCollaboration": 2724,
    "Ġaggreg": 2725,
    "ĠExperiment": 2726,
    "ĠCUDA": 2727,
    "AM": 2728,
    "usion": 2729,
    "ture": 2730,
    "ĠPlan": 2731,
    "Formatter": 2732,
    "ĠUniversal": 2733,
    "Doc": 2734,
    "Ġsection": 2735,
    "ĠMarkdown": 2736,
    "ĠLinux": 2737,
    "]]),": 2738,
    "robot": 2739,
    "shot": 2740,
    "class": 2741,
    "expired": 2742,
    "ĠCurrent": 2743,
    "sens": 2744,
    "comm": 2745,
    "weight": 2746,
    "Ġanalysis": 2747,
    "ening": 2748,
    "Ġvarious": 2749,
    "Ġtag": 2750,
    "enabled": 2751,
    "ants": 2752,
    "Style": 2753,
    "ĠProgress": 2754,
    "atible": 2755,
    "nounce": 2756,
    "liding": 2757,
    "alibr": 2758,
    "Ġfallback": 2759,
    "ctivity": 2760,
    "ĠMac": 2761,
    "ylesheet": 2762,
    "Ar": 2763,
    "LAM": 2764,
    "rash": 2765,
    "unct": 2766,
    "Ġgaming": 2767,
    "ĠDebate": 2768,
    "Ġprotocol": 2769,
    "Ġmodes": 2770,
    "Ġactive": 2771,
    "lease": 2772,
    "ĠDown": 2773,
    "ĠDownload": 2774,
    "Editor": 2775,
    "Level": 2776,
    "Ġep": 2777,
    "num": 2778,
    "mod": 2779,
    "web": 2780,
    "very": 2781,
    "pattern": 2782,
    "runer": 2783,
    "ĠHTML": 2784,
    "ĠDocker": 2785,
    "Aggregator": 2786,
    "ubl": 2787,
    "ĠCSV": 2788,
    "ĠSecurity": 2789,
    "Ġinitial": 2790,
    "Ġrole": 2791,
    "ĠInter": 2792,
    "ored": 2793,
    "find": 2794,
    "verse": 2795,
    "Mapping": 2796,
    "Ġcount": 2797,
    "image": 2798,
    "ĠClothing": 2799,
    "item": 2800,
    "Selector": 2801,
    "ape": 2802,
    "Mark": 2803,
    "Ġoptimization": 2804,
    "Effect": 2805,
    "ĠSettings": 2806,
    "odes": 2807,
    "provider": 2808,
    "ĠHealth": 2809,
    "Ġtrainer": 2810,
    "ĠQuality": 2811,
    "struction": 2812,
    "Ġprompts": 2813,
    "backend": 2814,
    "chestr": 2815,
    "chestrator": 2816,
    "ĠCurriculum": 2817,
    "Translator": 2818,
    "params": 2819,
    "feedback": 2820,
    "witcher": 2821,
    "onfir": 2822,
    "dapter": 2823,
    "BTest": 2824,
    "ĠSLAM": 2825,
    "ertific": 2826,
    "ĠVoiceCommand": 2827,
    "unctuation": 2828,
    "ĠAnnot": 2829,
    "Ġrest": 2830,
    "Capability": 2831,
    "Work": 2832,
    "Ġpermission": 2833,
    "Ġautomatic": 2834,
    "adat": 2835,
    "Ġvector": 2836,
    "ping": 2837,
    "onfid": 2838,
    "onfidence": 2839,
    "te": 2840,
    "Rule": 2841,
    "Ġperformance": 2842,
    "ĠWhere": 2843,
    "parallel": 2844,
    "Ġsuccess": 2845,
    "ĠWorker": 2846,
    "Ġpatterns": 2847,
    "samples": 2848,
    "Rep": 2849,
    "only": 2850,
    "Ġknowledge": 2851,
    "her": 2852,
    "ĠRewardModel": 2853,
    "ggle": 2854,
    "ĠAssistant": 2855,
    "Ġentity": 2856,
    "Hit": 2857,
    "Ġplay": 2858,
    "Ġdirectory": 2859,
    "pear": 2860,
    "ret": 2861,
    "irection": 2862,
    "plified": 2863,
    "qui": 2864,
    "Object": 2865,
    "ĠAc": 2866,
    "ĠOffline": 2867,
    "attention": 2868,
    "ĠUncertainty": 2869,
    "Ġwh": 2870,
    "ĠPattern": 2871,
    "module": 2872,
    "Example": 2873,
    "Suite": 2874,
    "ĠRead": 2875,
    "Offloader": 2876,
    "Diff": 2877,
    "Ġbackup": 2878,
    "ĠFormat": 2879,
    "ategies": 2880,
    "Ġsequence": 2881,
    "Ġlinear": 2882,
    "spec": 2883,
    "limit": 2884,
    "Ġpresets": 2885,
    "Ġpin": 2886,
    "ĠGI": 2887,
    "ĠGIF": 2888,
    "Ġvis": 2889,
    "iel": 2890,
    "ield": 2891,
    "Dis": 2892,
    "plication": 2893,
    "GRPC": 2894,
    "Quantizer": 2895,
    "Encoder": 2896,
    "Ġhardware": 2897,
    "udent": 2898,
    "Run": 2899,
    "exper": 2900,
    "ĠShard": 2901,
    "Ġscan": 2902,
    "arser": 2903,
    "Hel": 2904,
    "LocalModule": 2905,
    "ĠBrowserM": 2906,
    "ĠBrowserMedia": 2907,
    "page": 2908,
    "inder": 2909,
    "On": 2910,
    "HotkeyListener": 2911,
    "NotificationBackend": 2912,
    "fan": 2913,
    "ĠClear": 2914,
    "Ġtopic": 2915,
    "Ġpassword": 2916,
    "password": 2917,
    "ite": 2918,
    "Ġpose": 2919,
    "Ġmo": 2920,
    "ĠBundle": 2921,
    "ĠConnect": 2922,
    "Marketplace": 2923,
    "lend": 2924,
    "ship": 2925,
    "oid": 2926,
    "uring": 2927,
    "ullscreen": 2928,
    "ĠTransformer": 2929,
    "irst": 2930,
    "ĠProtocol": 2931,
    "ĠRateLimiter": 2932,
    "Ġsc": 2933,
    "erv": 2934,
    "ĠCompute": 2935,
    "ĠCoT": 2936,
    "Of": 2937,
    "Ġsafe": 2938,
    "Speed": 2939,
    "ĠGameMode": 2940,
    "ĠContainer": 2941,
    "levance": 2942,
    "itive": 2943,
    "Ġconvert": 2944,
    "Adapter": 2945,
    "staller": 2946,
    "ipedia": 2947,
    "ĠFactory": 2948,
    "fanity": 2949,
    "Ġ2": 2950,
    "capabilities": 2951,
    "Ġprocessing": 2952,
    "ĠPipeline": 2953,
    "Step": 2954,
    "ament": 2955,
    "gesture": 2956,
    "Ġspeak": 2957,
    "forge": 2958,
    "atural": 2959,
    "Ġcategories": 2960,
    "Ġtim": 2961,
    "parameter": 2962,
    "Definition": 2963,
    "ĠEstimate": 2964,
    "ced": 2965,
    "Ġdistributed": 2966,
    "Ġsec": 2967,
    "ĠQuantization": 2968,
    "pool": 2969,
    "Ġreasoning": 2970,
    "value": 2971,
    "loaded": 2972,
    "PUDevice": 2973,
    "imod": 2974,
    "imodal": 2975,
    "Store": 2976,
    "edu": 2977,
    "event": 2978,
    "Helper": 2979,
    "Sandbox": 2980,
    "iev": 2981,
    "ievement": 2982,
    "ĠVoiceProfile": 2983,
    "GroupBox": 2984,
    "unication": 2985,
    "ĠHandle": 2986,
    "Ġcom": 2987,
    "urnament": 2988,
    "Ġadapt": 2989,
    "Ġduration": 2990,
    "Ġrunning": 2991,
    "Custom": 2992,
    "esktop": 2993,
    "Ġmetadat": 2994,
    "edit": 2995,
    "road": 2996,
    "roadc": 2997,
    "roadcast": 2998,
    "access": 2999,
    "len": 3000,
    "SNorm": 3001,
    "client": 3002,
    "Ġremote": 3003,
    "Training": 3004,
    "tensor": 3005,
    "plan": 3006,
    "ĠGaming": 3007,
    "suggest": 3008,
    "ĠCompressed": 3009,
    "loader": 3010,
    "istog": 3011,
    "istogram": 3012,
    "Or": 3013,
    "theme": 3014,
    "ular": 3015,
    "ruption": 3016,
    "WakeWord": 3017,
    "Role": 3018,
    "Ġdialog": 3019,
    "complete": 3020,
    "Ġper": 3021,
    "Ġits": 3022,
    "Ġbackground": 3023,
    "king": 3024,
    "Ġwithout": 3025,
    "ormal": 3026,
    "ones": 3027,
    "anif": 3028,
    "anifest": 3029,
    "ĠServer": 3030,
    "ĠSupported": 3031,
    "ĠPureTransformer": 3032,
    "Discovery": 3033,
    "ĠForgeGRPC": 3034,
    "Ġclose": 3035,
    "Ġqueue": 3036,
    "Learner": 3037,
    "Ġplan": 3038,
    "ĠAbstract": 3039,
    "arge": 3040,
    "cremental": 3041,
    "aste": 3042,
    "ummarize": 3043,
    "wake": 3044,
    "ĠAudit": 3045,
    "ĠCircuit": 3046,
    "ixer": 3047,
    "hrase": 3048,
    "Ġde": 3049,
    "roug": 3050,
    "Ġsummary": 3051,
    "Ġimplementation": 3052,
    "ĠReal": 3053,
    "ĠDrop": 3054,
    "Ġjoint": 3055,
    "apply": 3056,
    "Ġchanges": 3057,
    "Ġdel": 3058,
    "clud": 3059,
    "Indicator": 3060,
    "disable": 3061,
    "ses": 3062,
    "Ġcleanup": 3063,
    "require": 3064,
    "och": 3065,
    "queue": 3066,
    "ĠPaged": 3067,
    "ĠDifficulty": 3068,
    "Ġloss": 3069,
    "eepSpeed": 3070,
    "Ġspeed": 3071,
    "Ġexperiment": 3072,
    "ĠKVCache": 3073,
    "over": 3074,
    "handler": 3075,
    "Parser": 3076,
    "ĠFederatedLearning": 3077,
    "Ġsafety": 3078,
    "ĠNotes": 3079,
    "ĠTelemetry": 3080,
    "def": 3081,
    "ĠSpawn": 3082,
    "seconds": 3083,
    "Ġscor": 3084,
    "Ġstrategies": 3085,
    "Ġselect": 3086,
    "Format": 3087,
    "enerates": 3088,
    "owed": 3089,
    "Ġevents": 3090,
    "ĠThinking": 3091,
    "connection": 3092,
    "host": 3093,
    "ill": 3094,
    "Ġpack": 3095,
    "pair": 3096,
    "ĠFeature": 3097,
    "rout": 3098,
    "registry": 3099,
    "lated": 3100,
    "Ġsimilarity": 3101,
    "ontin": 3102,
    "ranslate": 3103,
    "ingConfig": 3104,
    "monitor": 3105,
    "GPU": 3106,
    "Ġplugins": 3107,
    "ĠHook": 3108,
    "ĠSafety": 3109,
    "feder": 3110,
    "ĠTwitch": 3111,
    "avig": 3112,
    "Gu": 3113,
    "oj": 3114,
    "ĠDiscord": 3115,
    "Summarizer": 3116,
    "ĠVideo": 3117,
    "ĠThree": 3118,
    "chievement": 3119,
    "ĠQGroupBox": 3120,
    "sing": 3121,
    "summary": 3122,
    "Output": 3123,
    "ĠToolRouter": 3124,
    "ĠFind": 3125,
    "Ġproviders": 3126,
    "Workspace": 3127,
    "oting": 3128,
    "Wizard": 3129,
    "ĠmousePressEvent": 3130,
    "ĠBlender": 3131,
    "open": 3132,
    "Ġtracker": 3133,
    "Ġlayers": 3134,
    "ĠUnion": 3135,
    "ynch": 3136,
    "ynchron": 3137,
    "ĠSelect": 3138,
    "ces": 3139,
    "ĠValidate": 3140,
    "Ġstring": 3141,
    "cedural": 3142,
    "ĠpaintEvent": 3143,
    "voices": 3144,
    "inal": 3145,
    "Ġinit": 3146,
    "Blocker": 3147,
    "ĠGenerator": 3148,
    "do": 3149,
    "Recorder": 3150,
    "power": 3151,
    "pr": 3152,
    "Class": 3153,
    "ĠFlash": 3154,
    "ressor": 3155,
    "ison": 3156,
    "ĠSpeculative": 3157,
    "Ġplatform": 3158,
    "hance": 3159,
    "Switcher": 3160,
    "ĠShortcut": 3161,
    "ĠAnalytics": 3162,
    "raject": 3163,
    "ertificate": 3164,
    "SQL": 3165,
    "ceful": 3166,
    "Ġagents": 3167,
    "rough": 3168,
    "async": 3169,
    "Ġcoordin": 3170,
    "Ġtemplates": 3171,
    "ĠOutput": 3172,
    "workspace": 3173,
    "Method": 3174,
    "Ġmethods": 3175,
    "Ġdetected": 3176,
    "Region": 3177,
    "Ġregion": 3178,
    "delete": 3179,
    "Ġvalu": 3180,
    "Ġvalues": 3181,
    "names": 3182,
    "Ġai": 3183,
    "Video": 3184,
    "aware": 3185,
    "main": 3186,
    "ĠWebhook": 3187,
    "initial": 3188,
    "andoff": 3189,
    "ĠCheckpoint": 3190,
    "Ġdropout": 3191,
    "Ġself": 3192,
    "ĠContentFilter": 3193,
    "linear": 3194,
    "ĠDeepSpeed": 3195,
    "Ġschedule": 3196,
    "ĠEnsemble": 3197,
    "ĠROC": 3198,
    "ĠROCm": 3199,
    "ĠImportance": 3200,
    "ĠDi": 3201,
    "ĠPruning": 3202,
    "ba": 3203,
    "ebook": 3204,
    "ĠFocus": 3205,
    "ĠLayout": 3206,
    "test": 3207,
    "Installer": 3208,
    "Arm": 3209,
    "cupanc": 3210,
    "cupancy": 3211,
    "iki": 3212,
    "entr": 3213,
    "Ġsubmit": 3214,
    "Ġmatch": 3215,
    "ĠCalculate": 3216,
    "widget": 3217,
    "Ġwidth": 3218,
    "Ġrender": 3219,
    "pearance": 3220,
    "ĠParse": 3221,
    "Ġass": 3222,
    "Ġpoint": 3223,
    "sprite": 3224,
    "Ġgroup": 3225,
    "hape": 3226,
    "Ġfull": 3227,
    "ĠExpression": 3228,
    "ĠPosition": 3229,
    "ĠForward": 3230,
    "mission": 3231,
    "ĠNode": 3232,
    "memories": 3233,
    "msg": 3234,
    "Ġactivation": 3235,
    "np": 3236,
    "Ġlayout": 3237,
    "Progress": 3238,
    "Mask": 3239,
    "augment": 3240,
    "embed": 3241,
    "preference": 3242,
    "ĠDistillation": 3243,
    "ĠEvaluation": 3244,
    "Benchmark": 3245,
    "ĠEX": 3246,
    "ĠGGML": 3247,
    "Compressor": 3248,
    "Input": 3249,
    "ube": 3250,
    "Reader": 3251,
    "ĠHighlight": 3252,
    "oji": 3253,
    "sModule": 3254,
    "ccupancy": 3255,
    "ListTool": 3256,
    "ublish": 3257,
    "Only": 3258,
    "ĠFloat": 3259,
    "ĠFloating": 3260,
    "pi": 3261,
    "com": 3262,
    "ĠRout": 3263,
    "threshold": 3264,
    "ĠAuth": 3265,
    "cret": 3266,
    "ĠFull": 3267,
    "Ġlength": 3268,
    "Ġimages": 3269,
    "Ġdefinition": 3270,
    "Ġdelete": 3271,
    "Ġlibrary": 3272,
    "Metadata": 3273,
    "ther": 3274,
    "anipulation": 3275,
    "Shape": 3276,
    "gan": 3277,
    "ension": 3278,
    "Ġhel": 3279,
    "ĠCl": 3280,
    "Ġtesting": 3281,
    "Ġvideo": 3282,
    "Permission": 3283,
    "ute": 3284,
    "ĠIP": 3285,
    "Sample": 3286,
    "osine": 3287,
    "armup": 3288,
    "ts": 3289,
    "yper": 3290,
    "rust": 3291,
    "ank": 3292,
    "cturedP": 3293,
    "cturedPruner": 3294,
    "Union": 3295,
    "Thread": 3296,
    "Ġtoggle": 3297,
    "Ġclipboard": 3298,
    "Ġencryption": 3299,
    "Repository": 3300,
    "permission": 3301,
    "ĠLoadB": 3302,
    "ĠLoadBalanc": 3303,
    "ĠBackup": 3304,
    "anitizer": 3305,
    "phrase": 3306,
    "Ġspawn": 3307,
    "bytes": 3308,
    "Ġany": 3309,
    "Ġdepend": 3310,
    "DP": 3311,
    "Ġparameter": 3312,
    "Ġerrors": 3313,
    "Ġreport": 3314,
    "Ġscale": 3315,
    "Ġmask": 3316,
    "cept": 3317,
    "ception": 3318,
    "Ġepoch": 3319,
    "tempt": 3320,
    "ĠActive": 3321,
    "integration": 3322,
    "Ġexamples": 3323,
    "filter": 3324,
    "inc": 3325,
    "ended": 3326,
    "ĠTemperature": 3327,
    "spector": 3328,
    "ĠOffload": 3329,
    "Persona": 3330,
    "Ġgoal": 3331,
    "bedder": 3332,
    "Ġwhat": 3333,
    "ehavior": 3334,
    "ĠYou": 3335,
    "ĠTranslation": 3336,
    "ĠInputS": 3337,
    "Service": 3338,
    "onfirmation": 3339,
    "Ġsanitize": 3340,
    "Back": 3341,
    "arter": 3342,
    "ĠWikipedia": 3343,
    "ToolExecutor": 3344,
    "acro": 3345,
    "mbient": 3346,
    "Frame": 3347,
    "HotkeyBackend": 3348,
    "Ġquestion": 3349,
    "Ġloading": 3350,
    "pri": 3351,
    "ĠGL": 3352,
    "Ġdependencies": 3353,
    "duration": 3354,
    "Ġtotal": 3355,
    "ĠState": 3356,
    "Customizer": 3357,
    "Ġsend": 3358,
    "ĠGenerates": 3359,
    "ogn": 3360,
    "rem": 3361,
    "ebug": 3362,
    "Ġquality": 3363,
    "ich": 3364,
    "ĠARM": 3365,
    "ped": 3366,
    "Augmenter": 3367,
    "ted": 3368,
    "Ġscaling": 3369,
    "Ġlevel": 3370,
    "cpu": 3371,
    "ĠPreference": 3372,
    "ĠDPOTrainer": 3373,
    "ĠEXL": 3374,
    "ivity": 3375,
    "Schema": 3376,
    "trainer": 3377,
    "icon": 3378,
    "artition": 3379,
    "umn": 3380,
    "arging": 3381,
    "tip": 3382,
    "Bot": 3383,
    "Ġinstall": 3384,
    "ĠSummary": 3385,
    "inem": 3386,
    "inemat": 3387,
    "inematics": 3388,
    "ragBar": 3389,
    "ĠQDialog": 3390,
    "Ġpair": 3391,
    "Ġdet": 3392,
    "ĠCentr": 3393,
    "ĠCentral": 3394,
    "ompo": 3395,
    "ĠMatch": 3396,
    "Ġcollaboration": 3397,
    "ĠSQLite": 3398,
    "etarget": 3399,
    "Ġzone": 3400,
    "icker": 3401,
    "Id": 3402,
    "andmark": 3403,
    "ĠDesktop": 3404,
    "Pet": 3405,
    "ĠMobileAvatar": 3406,
    "Ġvalidation": 3407,
    "Ġbias": 3408,
    "just": 3409,
    "ĠPython": 3410,
    "gradients": 3411,
    "ĠGroup": 3412,
    "ĠSend": 3413,
    "sage": 3414,
    "ait": 3415,
    "Ġhook": 3416,
    "Ġtexts": 3417,
    "Ġcheckpoint": 3418,
    "ĠPyT": 3419,
    "ĠPyTorch": 3420,
    "ĠSliding": 3421,
    "Batcher": 3422,
    "Ġembed": 3423,
    "Thought": 3424,
    "best": 3425,
    "ĠDynamic": 3426,
    "visible": 3427,
    "Ġhandles": 3428,
    "ĠQuantizedLinear": 3429,
    "ĠHardwareProfile": 3430,
    "yperparameter": 3431,
    "ĠIntegration": 3432,
    "QueryAttention": 3433,
    "ĠModelCache": 3434,
    "persona": 3435,
    "arison": 3436,
    "ĠSchedule": 3437,
    "ĠSessionManager": 3438,
    "tree": 3439,
    "Container": 3440,
    "ĠAr": 3441,
    "Dashboard": 3442,
    "preview": 3443,
    "ĠBookmark": 3444,
    "speak": 3445,
    "ĠRobotArm": 3446,
    "rajectory": 3447,
    "RobotPlatform": 3448,
    "verter": 3449,
    "Ġregistered": 3450,
    "Ġparams": 3451,
    "display": 3452,
    "ĠEnable": 3453,
    "roll": 3454,
    "Ġexternal": 3455,
    "',": 3456,
    "tot": 3457,
    "ĠAvatarBundle": 3458,
    "Ġcamera": 3459,
    "utfit": 3460,
    "Ġsprite": 3461,
    "Ġmonitoring": 3462,
    "has": 3463,
    "Ġhuman": 3464,
    "Ġduring": 3465,
    "screen": 3466,
    "ĠAtt": 3467,
    "Embeddings": 3468,
    "LayerNorm": 3469,
    "send": 3470,
    "ĠModelSync": 3471,
    "tokenizer": 3472,
    "Ġlabel": 3473,
    "ĠPowerManager": 3474,
    "ĠSparse": 3475,
    "uning": 3476,
    "Ġtree": 3477,
    "Ġgradient": 3478,
    "stit": 3479,
    "stitution": 3480,
    "stitutional": 3481,
    "Ext": 3482,
    "ynt": 3483,
    "bs": 3484,
    "Power": 3485,
    "ĠRLHFTrainer": 3486,
    "SS": 3487,
    "amba": 3488,
    "Ġhigh": 3489,
    "ĠGoal": 3490,
    "duce": 3491,
    "Ġcontainer": 3492,
    "Ġdeployment": 3493,
    "ĠYouT": 3494,
    "ĠYouTube": 3495,
    "ĠBranch": 3496,
    "ĠOccupancy": 3497,
    "ĠDatabase": 3498,
    "Ġworkflow": 3499,
    "Log": 3500,
    "ĠMock": 3501,
    "creens": 3502,
    "Matcher": 3503,
    "OnlyMode": 3504,
    "ĠQFrame": 3505,
    "izable": 3506,
    "nap": 3507,
    "napshot": 3508,
    "ĠSub": 3509,
    "Swarm": 3510,
    "Ġchain": 3511,
    "hentication": 3512,
    "bone": 3513,
    "Ġdifferent": 3514,
    "Ġpersona": 3515,
    "scale": 3516,
    "order": 3517,
    "Ġele": 3518,
    "Ġmotion": 3519,
    "edi": 3520,
    "del": 3521,
    "ensions": 3522,
    "messages": 3523,
    "Ġendpoint": 3524,
    "Ġefficient": 3525,
    "Ġnodes": 3526,
    "diction": 3527,
    "Ġest": 3528,
    "Ġoptimize": 3529,
    "free": 3530,
    "Consistency": 3531,
    "Li": 3532,
    "LiB": 3533,
    "LiBi": 3534,
    "ĠWand": 3535,
    "ĠWandB": 3536,
    "Ġretri": 3537,
    "odu": 3538,
    "ĠMixture": 3539,
    "updates": 3540,
    "ĠPrecision": 3541,
    "MemoryManager": 3542,
    "rune": 3543,
    "Decoder": 3544,
    "Call": 3545,
    "last": 3546,
    "Bookmark": 3547,
    "Ġcirc": 3548,
    "ategor": 3549,
    "getting": 3550,
    "acts": 3551,
    "Ġthrough": 3552,
    "ĠMessageB": 3553,
    "Ġaf": 3554,
    "Ġafter": 3555,
    "wo": 3556,
    "aw": 3557,
    "requency": 3558,
    "Ġdrag": 3559,
    "ĠAvatarPreview": 3560,
    "track": 3561,
    "Ġlimits": 3562,
    "alet": 3563,
    "alette": 3564,
    "Ġtags": 3565,
    "show": 3566,
    "ĠDesktopPet": 3567,
    "ĠBlend": 3568,
    "etry": 3569,
    "riend": 3570,
    "force": 3571,
    "lider": 3572,
    "ĠPreset": 3573,
    "tle": 3574,
    "ĠObject": 3575,
    "Ġoptimizer": 3576,
    "tts": 3577,
    "sen": 3578,
    "fore": 3579,
    "Ġepochs": 3580,
    "ivery": 3581,
    "Ġfree": 3582,
    "oding": 3583,
    "ĠCoTPrompt": 3584,
    "ĠAnswer": 3585,
    "Forge": 3586,
    "tracker": 3587,
    "ĠFlashAttention": 3588,
    "Ġwrite": 3589,
    "ĠAccelerator": 3590,
    "ism": 3591,
    "ĠMoETransformer": 3592,
    "Ġrefresh": 3593,
    "Augmentor": 3594,
    "Ġproject": 3595,
    "ĠScan": 3596,
    "motion": 3597,
    "hell": 3598,
    "ĠGrasp": 3599,
    "ĠBatteryManager": 3600,
    "FileTool": 3601,
    "arization": 3602,
    "ĠBoneHit": 3603,
    "ĠStandard": 3604,
    "ompose": 3605,
    "ĠTournament": 3606,
    "hash": 3607,
    "['": 3608,
    "Ġtrigger": 3609,
    "Ġchange": 3610,
    "chunk": 3611,
    "talking": 3612,
    "ater": 3613,
    "auto": 3614,
    "Ġavatars": 3615,
    "select": 3616,
    "Ġsent": 3617,
    "Ġloaded": 3618,
    "change": 3619,
    "Ġindex": 3620,
    "Ġcached": 3621,
    "ĠCapture": 3622,
    "par": 3623,
    "ĠPhysics": 3624,
    "icro": 3625,
    "ĠForgeConfig": 3626,
    "ĠGrouped": 3627,
    "close": 3628,
    "ĠOptim": 3629,
    "uri": 3630,
    "Ġevaluate": 3631,
    "Ġimportance": 3632,
    "Ġpower": 3633,
    "LLM": 3634,
    "allocate": 3635,
    "Extender": 3636,
    "Callback": 3637,
    "Ġevaluation": 3638,
    "ĠWrite": 3639,
    "overlay": 3640,
    "Ġapplication": 3641,
    "Ġpartition": 3642,
    "ĠMultimodal": 3643,
    "Embedder": 3644,
    "similar": 3645,
    "ĠSpeculativeDecoder": 3646,
    "ĠToolCall": 3647,
    "ĠGit": 3648,
    "scan": 3649,
    "WM": 3650,
    "Ġbookmark": 3651,
    "hotkey": 3652,
    "ĠRai": 3653,
    "RT": 3654,
    "hot": 3655,
    "ĠRobotPlatform": 3656,
    "ĠIM": 3657,
    "blocked": 3658,
    "gy": 3659,
    "ĠImageP": 3660,
    "ĠImagePaste": 3661,
    "Ġtraits": 3662,
    "Ġrouter": 3663,
    "Ġrouting": 3664,
    "propri": 3665,
    "propriate": 3666,
    "Ġtwo": 3667,
    "Ġheight": 3668,
    "ĠPlay": 3669,
    "Ġmapping": 3670,
    "ĠSingle": 3671,
    "Aut": 3672,
    "running": 3673,
    "ĠDialog": 3674,
    "ĠDefinition": 3675,
    "vertex": 3676,
    "target": 3677,
    "pin": 3678,
    "clude": 3679,
    "NG": 3680,
    "ĠTrigger": 3681,
    "RateLimit": 3682,
    "ĠUsage": 3683,
    "cope": 3684,
    "ĠFlask": 3685,
    "ĠBatchAPI": 3686,
    "ĠBatchAPIClient": 3687,
    "interval": 3688,
    "ĠDistributed": 3689,
    "modules": 3690,
    "Ġmodules": 3691,
    "ĠCosine": 3692,
    "ĠScore": 3693,
    "ĠSlidingWindow": 3694,
    "ĠSlidingWindowAttention": 3695,
    "Ġquantized": 3696,
    "Batch": 3697,
    "prompts": 3698,
    "Ġcapability": 3699,
    "Ġcloud": 3700,
    "ĠALiBi": 3701,
    "oo": 3702,
    "Ġmetric": 3703,
    "ĠMetal": 3704,
    "NPUDevice": 3705,
    "Summary": 3706,
    "Ġlearned": 3707,
    "learning": 3708,
    "ĠToolPlugin": 3709,
    "ĠPromptLibrary": 3710,
    "ĠMamba": 3711,
    "tutorial": 3712,
    "ĠPrivacy": 3713,
    "oll": 3714,
    "Support": 3715,
    "ĠEmoji": 3716,
    "ĠExportResult": 3717,
    "ĠABTest": 3718,
    "GenLocalModule": 3719,
    "ĠDiff": 3720,
    "GenAPIModule": 3721,
    "ĠVoiceCl": 3722,
    "ĠRaised": 3723,
    "ControlTool": 3724,
    "Rem": 3725,
    "Awareness": 3726,
    "Converter": 3727,
    "ĠAudioBookmark": 3728,
    "ergy": 3729,
    "Ġmanaging": 3730,
    "ĠReturns": 3731,
    "')": 3732,
    "Templates": 3733,
    "Ġrating": 3734,
    "Ġmatches": 3735,
    "states": 3736,
    "commands": 3737,
    "ĠMesh": 3738,
    "aternion": 3739,
    "cho": 3740,
    "Ġopen": 3741,
    "ines": 3742,
    "Ġedit": 3743,
    "Trans": 3744,
    "ersistent": 3745,
    "Ġgrid": 3746,
    "seq": 3747,
    "sence": 3748,
    "subscribe": 3749,
    "RateLimiter": 3750,
    "valid": 3751,
    "Ġcoordinator": 3752,
    "Ġet": 3753,
    "net": 3754,
    "Web": 3755,
    "ĠConnectionManager": 3756,
    "ĠFeedForward": 3757,
    "ermal": 3758,
    "optimal": 3759,
    "Ġprefix": 3760,
    "ĠClass": 3761,
    "paths": 3762,
    "Ġcheckpointing": 3763,
    "ĠContextExtender": 3764,
    "ĠLoss": 3765,
    "uff": 3766,
    "RO": 3767,
    "Ġprecision": 3768,
    "elation": 3769,
    "locator": 3770,
    "Ġschema": 3771,
    "mobile": 3772,
    "ĠChord": 3773,
    "gb": 3774,
    "kit": 3775,
    "ĠAttribution": 3776,
    "ĠRouter": 3777,
    "report": 3778,
    "Ġtutorial": 3779,
    "sc": 3780,
    "diagram": 3781,
    "rtl": 3782,
    "Ġkeyboard": 3783,
    "ĠClipboardHistory": 3784,
    "ĠModelHub": 3785,
    "real": 3786,
    "ĠInstall": 3787,
    "ĠWorking": 3788,
    "stac": 3789,
    "usic": 3790,
    "lag": 3791,
    "Mixer": 3792,
    "ĠVAD": 3793,
    "Sheet": 3794,
    "ĠExpressionMapping": 3795,
    "Sh": 3796,
    "Ġverify": 3797,
    "Ġmanages": 3798,
    "Ġworks": 3799,
    "Ġmap": 3800,
    "DController": 3801,
    "mouse": 3802,
    "ĠSpeech": 3803,
    "download": 3804,
    "ĠBlendShape": 3805,
    "ĠAdvance": 3806,
    "iss": 3807,
    "iled": 3808,
    "friend": 3809,
    "ĠFullscreen": 3810,
    "Ġconnections": 3811,
    "ĠZ": 3812,
    "STT": 3813,
    "transform": 3814,
    "Ġselection": 3815,
    "Collaboration": 3816,
    "Ġsign": 3817,
    "ompletionResponse": 3818,
    "Ġuncertainty": 3819,
    "ĠActiveLearner": 3820,
    "Ġinitialize": 3821,
    "Ġlabels": 3822,
    "Score": 3823,
    "MD": 3824,
    "ne": 3825,
    "strain": 3826,
    "ĠRed": 3827,
    "Ġdifficulty": 3828,
    "Difficulty": 3829,
    "tuning": 3830,
    "eRO": 3831,
    "ooled": 3832,
    "ID": 3833,
    "ĠCustom": 3834,
    "ĠRegex": 3835,
    "Ġprofiles": 3836,
    "lainer": 3837,
    "ĠLow": 3838,
    "mps": 3839,
    "ParallelModel": 3840,
    "ĠPromptTemplate": 3841,
    "ĠTextChunk": 3842,
    "ĠTextChunker": 3843,
    "ĠResourceMonitor": 3844,
    "ĠLearningChat": 3845,
    "Backup": 3846,
    "joint": 3847,
    "ĠOccupancyG": 3848,
    "ĠOccupancyGrid": 3849,
    "crubber": 3850,
    "Read": 3851,
    "ĠStory": 3852,
    "ĠCollision": 3853,
    "Ġshutdown": 3854,
    "ĠIMU": 3855,
    "ĠGPS": 3856,
    "Duck": 3857,
    "SQLBackend": 3858,
    "Ġdiff": 3859,
    "ynthe": 3860,
    "Ġphrase": 3861,
    "speaker": 3862,
    "ManagerTab": 3863,
    "OverlayWindow": 3864,
    "participant": 3865,
    "Ġcommon": 3866,
    "alt": 3867,
    "Ġgener": 3868,
    "Ġgenerating": 3869,
    "frame": 3870,
    "annel": 3871,
    "Ġbuilt": 3872,
    "animation": 3873,
    "control": 3874,
    "Ġbundle": 3875,
    "ĠWidget": 3876,
    "ĠBody": 3877,
    "ĠFace": 3878,
    "Limits": 3879,
    "category": 3880,
    "ĠLinear": 3881,
    "ta": 3882,
    "ĠAdvanced": 3883,
    "ponent": 3884,
    "camera": 3885,
    "ĠStatistics": 3886,
    "templates": 3887,
    "Ġannounce": 3888,
    "ĠAPIKeyManager": 3889,
    "Resol": 3890,
    "ĠTunnel": 3891,
    "initialize": 3892,
    "mart": 3893,
    "ĠLanguage": 3894,
    "rint": 3895,
    "examples": 3896,
    "benchmark": 3897,
    "Classifier": 3898,
    "OfThought": 3899,
    "Ġbranch": 3900,
    "ĠZeRO": 3901,
    "ĠEle": 3902,
    "ĠKeyboard": 3903,
    "att": 3904,
    "Actions": 3905,
    "Ġexist": 3906,
    "Gra": 3907,
    "ĠKVCacheManager": 3908,
    "ĠGauge": 3909,
    "ĠMetricsCollector": 3910,
    "commended": 3911,
    "sive": 3912,
    "ĠProject": 3913,
    "plugins": 3914,
    "ĠPPO": 3915,
    "ĠSentence": 3916,
    "provement": 3917,
    "Ġgames": 3918,
    "Streamer": 3919,
    "ĠUR": 3920,
    "ĠVersion": 3921,
    "overn": 3922,
    "ĠGameSession": 3923,
    "ĠStreamManager": 3924,
    "TaskTool": 3925,
    "ĠCharacterTrainer": 3926,
    "inders": 3927,
    "ello": 3928,
    "plat": 3929,
    "platform": 3930,
    "ĠPerformanceMonitor": 3931,
    "ĠInterruption": 3932,
    "Ġrecent": 3933,
    "Ġasync": 3934,
    "Ġlif": 3935,
    "Ġappropriate": 3936,
    "rat": 3937,
    "Ġscoring": 3938,
    "ases": 3939,
    "total": 3940,
    "Ġversions": 3941,
    "Identity": 3942,
    "Ġnatural": 3943,
    "ĠDelete": 3944,
    "detection": 3945,
    "Ġshape": 3946,
    "ontains": 3947,
    "Ġcombin": 3948,
    "Ġloader": 3949,
    "verity": 3950,
    "Ġrule": 3951,
    "ailed": 3952,
    "Ġconstraint": 3953,
    "Ġcor": 3954,
    "ĠSample": 3955,
    "compatible": 3956,
    "ĠDifferent": 3957,
    "ĠAl": 3958,
    "Ġconfigure": 3959,
    "Ġetc": 3960,
    "success": 3961,
    "ĠLR": 3962,
    "ĠLRU": 3963,
    "timeout": 3964,
    "eu": 3965,
    "evalu": 3966,
    "evaluate": 3967,
    "used": 3968,
    "example": 3969,
    "sity": 3970,
    "ĠAugment": 3971,
    "Sw": 3972,
    "Ġactions": 3973,
    "ĠAggreg": 3974,
    "inci": 3975,
    "DifficultyScorer": 3976,
    "ĠScheduler": 3977,
    "Loss": 3978,
    "speed": 3979,
    "Policy": 3980,
    "uid": 3981,
    "Ġhandl": 3982,
    "Ġvisualization": 3983,
    "ĠGradientAnalyzer": 3984,
    "ĠQuantizedTensor": 3985,
    "adapt": 3986,
    "ora": 3987,
    "erge": 3988,
    "ĠHistogram": 3989,
    "ĠPrefix": 3990,
    "ĠPrefixCache": 3991,
    "ĠSteam": 3992,
    "orl": 3993,
    "orld": 3994,
    "Ġdashboard": 3995,
    "ĠDashboard": 3996,
    "DocGenerator": 3997,
    "markdown": 3998,
    "Up": 3999,
    "Ġfederated": 4000,
    "ĠAdvice": 4001,
    "ĠAccessibility": 4002,
    "PresetManager": 4003,
    "ĠDatasetBuilder": 4004,
    "ĠDensity": 4005,
    "book": 4006,
    "bookmark": 4007,
    "Ġbrowser": 4008,
    "fallback": 4009,
    "ĠConversationTree": 4010,
    "idata": 4011,
    "ĠTrajectory": 4012,
    "ĠCertificate": 4013,
    "creenshot": 4014,
    "urtle": 4015,
    "ĠRobotController": 4016,
    "reakers": 4017,
    "ĠConversationEncryption": 4018,
    "ĠAIVoice": 4019,
    "ĠSpriteSheet": 4020,
    "View": 4021,
    "gaming": 4022,
    "Persistence": 4023,
    "yc": 4024,
    "ycle": 4025,
    "ĠPassword": 4026,
    "ĠTransform": 4027,
    "Retarget": 4028,
    "actions": 4029,
    "ĠAvatarM": 4030,
    "ĠProfile": 4031,
    "ĠOutfit": 4032,
    "ĠPriority": 4033,
    "lationship": 4034,
    "Ġrequi": 4035,
    "Ġrequires": 4036,
    "ĠAvatarPerformance": 4037,
    "Ġforce": 4038,
    "ring": 4039,
    "ume": 4040,
    "Ad": 4041,
    "Ġbefore": 4042,
    "Ġassign": 4043,
    "ĠCost": 4044,
    "Ġfield": 4045,
    "iven": 4046,
    "recent": 4047,
    "Ġhealth": 4048,
    "TP": 4049,
    "capture": 4050,
    "Ġresults": 4051,
    "custom": 4052,
    "ony": 4053,
    "ĠSemanticCache": 4054,
    "ĠScaling": 4055,
    "multi": 4056,
    "IO": 4057,
    "function": 4058,
    "Main": 4059,
    "MainWindow": 4060,
    "ĠHotkeyManager": 4061,
    "ĠLearned": 4062,
    "berry": 4063,
    "ĠMoELayer": 4064,
    "Ġcollect": 4065,
    "Cluster": 4066,
    "Ġoffline": 4067,
    "edTask": 4068,
    "Wrapper": 4069,
    "bundle": 4070,
    "ĠFunction": 4071,
    "otor": 4072,
    "font": 4073,
    "Ġlazy": 4074,
    "ĠModelSwitcher": 4075,
    "language": 4076,
    "Text": 4077,
    "ĠSimplified": 4078,
    "ĠThemeManager": 4079,
    "ĠTutorialManager": 4080,
    "Analytics": 4081,
    "ĠKeyManager": 4082,
    "gest": 4083,
    "Move": 4084,
    "ĠVoiceGame": 4085,
    "ĠVoiceGameController": 4086,
    "anitization": 4087,
    "ĠCommit": 4088,
    "alla": 4089,
    "allax": 4090,
    "ĠSetup": 4091,
    "ĠShared": 4092,
    "Ġparticipant": 4093,
    "Tuple": 4094,
    "ĠVer": 4095,
    "db": 4096,
    "Ġlistening": 4097,
    "eye": 4098,
    "Ġmove": 4099,
    "imary": 4100,
    "thought": 4101,
    "direction": 4102,
    "ĠCategories": 4103,
    "Ġslot": 4104,
    "Ġalph": 4105,
    "Traits": 4106,
    "ĠSimul": 4107,
    "ause": 4108,
    "ĠPNG": 4109,
    "inding": 4110,
    "ero": 4111,
    "RMSNorm": 4112,
    "Ġdiscover": 4113,
    "Ġcancel": 4114,
    "ĠTextDataset": 4115,
    "Ġprint": 4116,
    "Ġbest": 4117,
    "vision": 4118,
    "Content": 4119,
    "riter": 4120,
    "raction": 4121,
    "ĠWrapper": 4122,
    "Runner": 4123,
    "Ġretriev": 4124,
    "Ġut": 4125,
    "ĠMemoryProfiler": 4126,
    "ĠIncremental": 4127,
    "lora": 4128,
    "romet": 4129,
    "romethe": 4130,
    "rometheus": 4131,
    "Ġshard": 4132,
    "loading": 4133,
    "Ġreward": 4134,
    "ĠSentenceTransformer": 4135,
    "Document": 4136,
    "string": 4137,
    "ĠThought": 4138,
    "Index": 4139,
    "inish": 4140,
    "ilities": 4141,
    "ParallelLinear": 4142,
    "ĠMarketplace": 4143,
    "quick": 4144,
    "ĠFederatedCoordinator": 4145,
    "Ġfederation": 4146,
    "federation": 4147,
    "Features": 4148,
    "Drop": 4149,
    "ĠLocale": 4150,
    "avigation": 4151,
    "ĠMin": 4152,
    "stylesheet": 4153,
    "ĠPluginInstaller": 4154,
    "Ġremember": 4155,
    "ĠLoadBalancer": 4156,
    "Scan": 4157,
    "LS": 4158,
    "emon": 4159,
    "SearchTool": 4160,
    "ĠSpeaker": 4161,
    "ĠEnergy": 4162,
    "AvatarRenderer": 4163,
    "ĠThreeD": 4164,
    "gguf": 4165,
    "Ġfake": 4166,
    "Ġdebate": 4167,
    "default": 4168,
    "User": 4169,
    "Ġcons": 4170,
    "AvatarController": 4171,
    "arsed": 4172,
    "words": 4173,
    "pare": 4174,
    "Ġproper": 4175,
    "ĠRot": 4176,
    "lu": 4177,
    "folder": 4178,
    "Ġfolder": 4179,
    "ĠDropZone": 4180,
    "Ġown": 4181,
    "ĠHand": 4182,
    "index": 4183,
    "ĠReset": 4184,
    "friendly": 4185,
    "Screen": 4186,
    "ĠSentiment": 4187,
    "etch": 4188,
    "Ġgradients": 4189,
    "embeddings": 4190,
    "FeedForward": 4191,
    "vocab": 4192,
    "ĠOperation": 4193,
    "cur": 4194,
    "network": 4195,
    "Ġkeys": 4196,
    "ĠResponseCache": 4197,
    "ĠGraphQLAPI": 4198,
    "remote": 4199,
    "Ġpackage": 4200,
    "Job": 4201,
    "Ġsecure": 4202,
    "Ġprediction": 4203,
    "Ġbattery": 4204,
    "ĠRE": 4205,
    "alibration": 4206,
    "ĠCombin": 4207,
    "ĠChain": 4208,
    "ential": 4209,
    "inciple": 4210,
    "Ġpreferences": 4211,
    "jected": 4212,
    "ĠMixed": 4213,
    "Schedule": 4214,
    "Quantized": 4215,
    "ĠQuantizer": 4216,
    "ĠInstance": 4217,
    "importance": 4218,
    "Map": 4219,
    "ĠQuantizedKVCache": 4220,
    "ĠLoRALinear": 4221,
    "ĠFallback": 4222,
    "ĠTeaching": 4223,
    "ĠLLM": 4224,
    "ĠMultiGPU": 4225,
    "ĠMultiGPUManager": 4226,
    "ĠPersonaManager": 4227,
    "ĠCached": 4228,
    "ĠPromptBuilder": 4229,
    "schedule": 4230,
    "installed": 4231,
    "Ġworking": 4232,
    "group": 4233,
    "ĠCodeAnalyzer": 4234,
    "ĠNotebook": 4235,
    "visor": 4236,
    "tag": 4237,
    "ĠSingleton": 4238,
    "tabs": 4239,
    "character": 4240,
    "Ġstylesheet": 4241,
    "ĠBehavior": 4242,
    "ĠGameAI": 4243,
    "ateway": 4244,
    "urios": 4245,
    "uriosity": 4246,
    "rip": 4247,
    "ĠGraspPlanner": 4248,
    "Def": 4249,
    "ĠCloudSync": 4250,
    "ĠAchievement": 4251,
    "ĠCodeStyle": 4252,
    "ounded": 4253,
    "reat": 4254,
    "ĠMacOS": 4255,
    "ĠAmbient": 4256,
    "Ġtranscribe": 4257,
    "ĠSpeed": 4258,
    "VAD": 4259,
    "WakeWordEngine": 4260,
    "18": 4261,
    "role": 4262,
    "Ġstore": 4263,
    "Ġplayer": 4264,
    "Ġoptions": 4265,
    "Ġpermissions": 4266,
    "Ġone": 4267,
    "Retargeter": 4268,
    "Ġdrop": 4269,
    "Ġemotional": 4270,
    "Target": 4271,
    "Ġblend": 4272,
    "Ġparticle": 4273,
    "Ġseg": 4274,
    "Ġnames": 4275,
    "Ġinclude": 4276,
    "Ġeffects": 4277,
    "ĠVRMLoader": 4278,
    "requencies": 4279,
    "Ġsessions": 4280,
    "ĠSharing": 4281,
    "Vis": 4282,
    "Ġonly": 4283,
    "configure": 4284,
    "ĠBlock": 4285,
    "Ġgenerated": 4286,
    "rl": 4287,
    "Ġjob": 4288,
    "Ġdebug": 4289,
    "ĠActivationRecorder": 4290,
    "recording": 4291,
    "Ġtransformer": 4292,
    "entropy": 4293,
    "ĠTransformerBlock": 4294,
    "Ġver": 4295,
    "checkpoint": 4296,
    "learn": 4297,
    "Ġwhich": 4298,
    "ĠSI": 4299,
    "ĠSIMD": 4300,
    "Ġinstances": 4301,
    "ĠCacheEntry": 4302,
    "ĠRoPEScaler": 4303,
    "ĠEmbeddings": 4304,
    "Position": 4305,
    "ĠPreferenceDataset": 4306,
    "ĠJSONL": 4307,
    "ĠRelation": 4308,
    "ĠML": 4309,
    "ĠGamingMode": 4310,
    "Checkpointing": 4311,
    "Ġpush": 4312,
    "hub": 4313,
    "Ġmix": 4314,
    "Explainer": 4315,
    "Ġcompare": 4316,
    "atmap": 4317,
    "ensive": 4318,
    "Ġfine": 4319,
    "ĠStrategy": 4320,
    "Ġput": 4321,
    "related": 4322,
    "Line": 4323,
    "herit": 4324,
    "heritance": 4325,
    "gp": 4326,
    "Ġpruning": 4327,
    "ructuredPruner": 4328,
    "Play": 4329,
    "formatted": 4330,
    "Expl": 4331,
    "Explorer": 4332,
    "ĠPWM": 4333,
    "ane": 4334,
    "encrypt": 4335,
    "Ġadvice": 4336,
    "ĠGameDetector": 4337,
    "Ġshortcut": 4338,
    "enter": 4339,
    "ĠScreenReader": 4340,
    "ĠSimplifiedUI": 4341,
    "Ġinjection": 4342,
    "ĠWikidata": 4343,
    "Ġask": 4344,
    "Lab": 4345,
    "ĠPluginRegistry": 4346,
    "ĠGDP": 4347,
    "ĠGDPR": 4348,
    "wrap": 4349,
    "urtleBot": 4350,
    "ĠArdu": 4351,
    "ĠArduin": 4352,
    "ĠArduino": 4353,
    "OCR": 4354,
    "Ġbulkhead": 4355,
    "ĠAnnotation": 4356,
    "GenWorker": 4357,
    "sTab": 4358,
    "PersonaDialog": 4359,
    "cript": 4360,
    "ĠSerial": 4361,
    "Ġpersistence": 4362,
    "handle": 4363,
    "Ġsteps": 4364,
    "eleton": 4365,
    "Ġreal": 4366,
    "Ġdisplaying": 4367,
    "Ġmarketplace": 4368,
    "Ġsuggestions": 4369,
    "ĠEffect": 4370,
    "allowed": 4371,
    "Rot": 4372,
    "ĠSw": 4373,
    "ries": 4374,
    "ĠForgeGRPCServer": 4375,
    "Ġneed": 4376,
    "health": 4377,
    "de": 4378,
    "ĠCompanion": 4379,
    "rator": 4380,
    "ĠDivers": 4381,
    "ĠDiversity": 4382,
    "ĠDiversitySampler": 4383,
    "quality": 4384,
    "ĠPagedAttention": 4385,
    "agg": 4386,
    "aggreg": 4387,
    "Ġfail": 4388,
    "translation": 4389,
    "istiller": 4390,
    "Value": 4391,
    "write": 4392,
    "thread": 4393,
    "ĠSelective": 4394,
    "push": 4395,
    "ĠCompare": 4396,
    "ĠMQ": 4397,
    "erts": 4398,
    "ĠStep": 4399,
    "ĠExecut": 4400,
    "Ġbuilder": 4401,
    "ĠReasoningChain": 4402,
    "ĠTrainingScheduler": 4403,
    "Self": 4404,
    "ĠTokenExplorer": 4405,
    "goal": 4406,
    "overnor": 4407,
    "Ġprivacy": 4408,
    "noise": 4409,
    "ĠFolder": 4410,
    "enu": 4411,
    "oom": 4412,
    "suggestions": 4413,
    "Ġnotify": 4414,
    "ĠModelCard": 4415,
    "directory": 4416,
    "ĠLang": 4417,
    "ĠLangChain": 4418,
    "ĠForgeEmbeddings": 4419,
    "schema": 4420,
    "Ġspeaker": 4421,
    "ategorization": 4422,
    "Ġsummarize": 4423,
    "ĠQueryResult": 4424,
    "ĠStable": 4425,
    "ripper": 4426,
    "ĠManipulation": 4427,
    "Macro": 4428,
    "QueryTool": 4429,
    "IT": 4430,
    "ĠDn": 4431,
    "ĠDnD": 4432,
    "StatusTool": 4433,
    "ĠStyle": 4434,
    "MemoryTool": 4435,
    "Al": 4436,
    "Allocator": 4437,
    "PreferenceTool": 4438,
    "AvatarTool": 4439,
    "Logger": 4440,
    "Ġcircuit": 4441,
    "Ġgraceful": 4442,
    "pipeline": 4443,
    "Ġduck": 4444,
    "ĠPunctuation": 4445,
    "atibility": 4446,
    "Ġround": 4447,
    "ĠUnregister": 4448,
    "plex": 4449,
    "Ġtransform": 4450,
    "udge": 4451,
    "protocol": 4452,
    "Ġhash": 4453,
    "Ġsecret": 4454,
    "DWidget": 4455,
    "rames": 4456,
    "listening": 4457,
    "Ġmood": 4458,
    "Ġinstalled": 4459,
    "ĠLandmark": 4460,
    "tracking": 4461,
    "Ġrot": 4462,
    "ertex": 4463,
    "Ġother": 4464,
    "anipulator": 4465,
    "Ġob": 4466,
    "Ġintegr": 4467,
    "reath": 4468,
    "etime": 4469,
    "ĠNum": 4470,
    "auth": 4471,
    "ĠChatMessage": 4472,
    "Participant": 4473,
    "lazy": 4474,
    "Ġurl": 4475,
    "ene": 4476,
    "ĠTokenizer": 4477,
    "router": 4478,
    "ĠScor": 4479,
    "ĠNE": 4480,
    "arsity": 4481,
    "ilated": 4482,
    "cer": 4483,
    "ĠDataAugmenter": 4484,
    "bit": 4485,
    "Ġsem": 4486,
    "Ġsemantic": 4487,
    "build": 4488,
    "Ġaggregate": 4489,
    "hidden": 4490,
    "ĠConstitutional": 4491,
    "ĠInstruction": 4492,
    "Ġstudent": 4493,
    "ĠFeatureExtractor": 4494,
    "ĠPooled": 4495,
    "Ġreference": 4496,
    "asure": 4497,
    "ĠFact": 4498,
    "With": 4499,
    "Ġresources": 4500,
    "ĠCor": 4501,
    "Ġthreshold": 4502,
    "ĠMiddleware": 4503,
    "serve": 4504,
    "rospector": 4505,
    "ĠCompression": 4506,
    "Mo": 4507,
    "ES": 4508,
    "ĠRas": 4509,
    "ĠRasp": 4510,
    "ĠRaspberry": 4511,
    "ilicon": 4512,
    "ĠCounter": 4513,
    "ĠTim": 4514,
    "args": 4515,
    "Ġparallelism": 4516,
    "ĠAIPersonality": 4517,
    "query": 4518,
    "Draft": 4519,
    "plorer": 4520,
    "ĠToolSchema": 4521,
    "parse": 4522,
    "ĠToolResult": 4523,
    "Create": 4524,
    "Ġdocumentation": 4525,
    "ervo": 4526,
    "ĠThermal": 4527,
    "ĠSecureAggreg": 4528,
    "ĠSecureAggregation": 4529,
    "ĠDifferential": 4530,
    "ĠDifferentialP": 4531,
    "ĠDifferentialPrivacy": 4532,
    "hanced": 4533,
    "ĠScreenCapture": 4534,
    "ĠVoiceInput": 4535,
    "QWidget": 4536,
    "ĠSound": 4537,
    "Guard": 4538,
    "ĠShortcutManager": 4539,
    "Ġhub": 4540,
    "ChatModel": 4541,
    "ĠEnigmaTool": 4542,
    "ĠPluginInfo": 4543,
    "Categorization": 4544,
    "ĠPermission": 4545,
    "ĠConsent": 4546,
    "ĠProjectContext": 4547,
    "ĠWiki": 4548,
    "Execution": 4549,
    "ĠTurtleBot": 4550,
    "criber": 4551,
    "ĠCircular": 4552,
    "Ġbreaker": 4553,
    "umbs": 4554,
    "ĠInputSanitizer": 4555,
    "Ġred": 4556,
    "dition": 4557,
    "ĠAudioDuck": 4558,
    "ynthesize": 4559,
    "requirements": 4560,
    "achments": 4561,
    "Ġcommunication": 4562,
    "ĠCapability": 4563,
    "centage": 4564,
    "ĠStore": 4565,
    "LO": 4566,
    "Ġstru": 4567,
    "ĠOpenGL": 4568,
    "ĠNo": 4569,
    "selected": 4570,
    "lam": 4571,
    "Ġitems": 4572,
    "ĠRender": 4573,
    "Ġelements": 4574,
    "onem": 4575,
    "Ġvertex": 4576,
    "ĠMorph": 4577,
    "ĠSk": 4578,
    "ometry": 4579,
    "Rig": 4580,
    "Ġorgan": 4581,
    "Slot": 4582,
    "resource": 4583,
    "ĠPersistent": 4584,
    "Ġdisk": 4585,
    "positions": 4586,
    "ĠPin": 4587,
    "Ġserial": 4588,
    "reathing": 4589,
    "Ġthinking": 4590,
    "erminal": 4591,
    "itation": 4592,
    "ĠClient": 4593,
    "rott": 4594,
    "sign": 4595,
    "ables": 4596,
    "lask": 4597,
    "Generate": 4598,
    "ĠOfflineSync": 4599,
    "eued": 4600,
    "Ġwebhook": 4601,
    "Ġlow": 4602,
    "Stop": 4603,
    "eleg": 4604,
    "ĠNEON": 4605,
    "ernel": 4606,
    "Ġoptimal": 4607,
    "llip": 4608,
    "llipsis": 4609,
    "full": 4610,
    "Ġpage": 4611,
    "Ġallocate": 4612,
    "Ġentry": 4613,
    "of": 4614,
    "ĠQuest": 4615,
    "ĠQuestion": 4616,
    "ĠContextTracker": 4617,
    "uffle": 4618,
    "Ġdistillation": 4619,
    "Ġfunctions": 4620,
    "Ġteacher": 4621,
    "ĠHuman": 4622,
    "readable": 4623,
    "Ġpolicy": 4624,
    "ĠPool": 4625,
    "Ġbits": 4626,
    "ĠFPS": 4627,
    "profiles": 4628,
    "ĠCoral": 4629,
    "ĠIncrementalTrainer": 4630,
    "perform": 4631,
    "performance": 4632,
    "Ġcompression": 4633,
    "Ġlearn": 4634,
    "MoE": 4635,
    "background": 4636,
    "chain": 4637,
    "project": 4638,
    "Sc": 4639,
    "ĠDeploy": 4640,
    "Ġnoise": 4641,
    "ĠConversationTag": 4642,
    "Ġfont": 4643,
    "Ġtabs": 4644,
    "ĠConversationExporter": 4645,
    "Ġview": 4646,
    "ĠSplitChat": 4647,
    "ĠSplitChatWidget": 4648,
    "grid": 4649,
    "Enigma": 4650,
    "backup": 4651,
    "ĠPine": 4652,
    "ĠPinec": 4653,
    "ĠPinecone": 4654,
    "ĠExamples": 4655,
    "ĠNetworkTask": 4656,
    "ĠInverse": 4657,
    "ĠAvatarG": 4658,
    "aracters": 4659,
    "Player": 4660,
    "Home": 4661,
    "iplayer": 4662,
    "ĠRobotMode": 4663,
    "ĠScreenV": 4664,
    "ĠScreenVision": 4665,
    "ĠMong": 4666,
    "ĠMongo": 4667,
    "ĠMongoDB": 4668,
    "cached": 4669,
    "25": 4670,
    "Ġpairs": 4671,
    "ĠCrossDevice": 4672,
    "ĠPC": 4673,
    "Ġrestore": 4674,
    "des": 4675,
    "submit": 4676,
    "Ġcompletion": 4677,
    "Ġcoordinates": 4678,
    "Capabilities": 4679,
    "streaming": 4680,
    "mapping": 4681,
    "ves": 4682,
    "Ġconfidence": 4683,
    "angle": 4684,
    "Ġrelationship": 4685,
    "ĠValidationRule": 4686,
    "ĠUnifiedAvatar": 4687,
    "ceed": 4688,
    "Ġ+": 4689,
    "ĠIDs": 4690,
    "rope": 4691,
    "ĠSwi": 4692,
    "ĠSwiGLU": 4693,
    "Ġvisibility": 4694,
    "ĠRouting": 4695,
    "Ġmiddleware": 4696,
    "ĠBatchProcessor": 4697,
    "pack": 4698,
    "Ġnext": 4699,
    "Inference": 4700,
    "patterns": 4701,
    "ĠRM": 4702,
    "qa": 4703,
    "steps": 4704,
    "optimize": 4705,
    "Ġaugmentation": 4706,
    "ĠSelfConsistency": 4707,
    "ĠCheckpointed": 4708,
    "fficientAttention": 4709,
    "iqu": 4710,
    "ĠBackTranslator": 4711,
    "ĠHub": 4712,
    "Variant": 4713,
    "Ġlast": 4714,
    "ĠEnigmaEngine": 4715,
    "Ġsplit": 4716,
    "Ġregex": 4717,
    "Ġhandling": 4718,
    "hf": 4719,
    "Ġexisting": 4720,
    "Ġexplain": 4721,
    "ĠCompressedKVCache": 4722,
    "lush": 4723,
    "ĠLoRATrainer": 4724,
    "high": 4725,
    "Ġteaching": 4726,
    "ĠPrometheus": 4727,
    "Ġmixed": 4728,
    "ĠPolicy": 4729,
    "Precision": 4730,
    "distr": 4731,
    "ĠMPSMemoryManager": 4732,
    "race": 4733,
    "asoner": 4734,
    "Ġclon": 4735,
    "ĠHelm": 4736,
    "Ġchart": 4737,
    "ĠCameraModule": 4738,
    "ĠSPI": 4739,
    "Directory": 4740,
    "ĠGameProfile": 4741,
    "ĠHelp": 4742,
    "adge": 4743,
    "sanitize": 4744,
    "inner": 4745,
    "ĠForgeLLM": 4746,
    "ĠUnity": 4747,
    "variant": 4748,
    "retSh": 4749,
    "ĠMemoryCategorization": 4750,
    "solidator": 4751,
    "ĠEleven": 4752,
    "ĠElevenLab": 4753,
    "ĠElevenLabs": 4754,
    "Ġarm": 4755,
    "bridge": 4756,
    "ĠParticleFilter": 4757,
    "ĠDataExporter": 4758,
    "Scrubber": 4759,
    "Tester": 4760,
    "ĠRealtime": 4761,
    "ĠCharging": 4762,
    "ely": 4763,
    "ĠToolExecution": 4764,
    "Checklist": 4765,
    "Reminders": 4766,
    "RemindersTool": 4767,
    "ROS": 4768,
    "ĠDJ": 4769,
    "Ġbox": 4770,
    "Ġaudit": 4771,
    "ĠTTSEngine": 4772,
    "ĠCameraTab": 4773,
    "asted": 4774,
    "parallax": 4775,
    "anagement": 4776,
    "pure": 4777,
    "nx": 4778,
    "ĠCrossDeviceSystem": 4779,
    "ĠCoordin": 4780,
    "omposed": 4781,
    "Ġstored": 4782,
    "ected": 4783,
    "hour": 4784,
    "Ġanimations": 4785,
    "Ġsk": 4786,
    "ĠQuaternion": 4787,
    "Ġframe": 4788,
    "mood": 4789,
    "ĠHelper": 4790,
    "Ġcurrently": 4791,
    "ĠBlenderBridge": 4792,
    "ĠChange": 4793,
    "colors": 4794,
    "Ġwords": 4795,
    "shape": 4796,
    "ense": 4797,
    "Ġstandard": 4798,
    "editor": 4799,
    "part": 4800,
    "ĠPersonalityTraits": 4801,
    "ĠProcedural": 4802,
    "paintEvent": 4803,
    "cogn": 4804,
    "ttsx": 4805,
    "Ġprot": 4806,
    "ĠForgeGRPCClient": 4807,
    "Ġgiven": 4808,
    "Ġconfigurations": 4809,
    "ĠTrainingJob": 4810,
    "ĠRequestQueue": 4811,
    "ĠStreamChunk": 4812,
    "ride": 4813,
    "ĠTrainingConfig": 4814,
    "ĠEntropy": 4815,
    "ĠSmart": 4816,
    "archit": 4817,
    "architect": 4818,
    "architecture": 4819,
    "Ġwarmup": 4820,
    "arly": 4821,
    "ĠAIB": 4822,
    "Ġlong": 4823,
    "ernels": 4824,
    "ĠSparseAttention": 4825,
    "Rating": 4826,
    "ĠStreamingDataset": 4827,
    "ĠTranslate": 4828,
    "lang": 4829,
    "ĠCallback": 4830,
    "Ġbenchmarks": 4831,
    "ModelRegistry": 4832,
    "ĠIntel": 4833,
    "source": 4834,
    "ĠTrainerAI": 4835,
    "Importance": 4836,
    "ĠGroupedQueryAttention": 4837,
    "experts": 4838,
    "Fallback": 4839,
    "Ġgauge": 4840,
    "Rec": 4841,
    "eve": 4842,
    "ĠMoETransformerBlock": 4843,
    "ariable": 4844,
    "ĠSimpleEmbedder": 4845,
    "Ġsentence": 4846,
    "documents": 4847,
    "monitoring": 4848,
    "Ġscheduled": 4849,
    "Spec": 4850,
    "reduce": 4851,
    "Ġdiagram": 4852,
    "ĠStat": 4853,
    "ĠChatSync": 4854,
    "ĠTyping": 4855,
    "Ġshowing": 4856,
    "ĠCombined": 4857,
    "ĠGUIMode": 4858,
    "ĠUnreal": 4859,
    "omom": 4860,
    "omomorph": 4861,
    "omomorphic": 4862,
    "Ġrepos": 4863,
    "ĠMemoryCon": 4864,
    "ĠMemoryConsolidator": 4865,
    "ĠForgetting": 4866,
    "ĠSystemPrompt": 4867,
    "processor": 4868,
    "ĠModuleManager": 4869,
    "ĠVoiceClone": 4870,
    "ĠModelRouter": 4871,
    "ailo": 4872,
    "ailover": 4873,
    "ĠPost": 4874,
    "ĠJoint": 4875,
    "Kinematics": 4876,
    "ĠLas": 4877,
    "ĠLaser": 4878,
    "ĠPIIScrubber": 4879,
    "stacle": 4880,
    "experiment": 4881,
    "oundedCache": 4882,
    "TLCache": 4883,
    "ĠCircuitB": 4884,
    "ĠCircuitBreaker": 4885,
    "Snippet": 4886,
    "Ġcrash": 4887,
    "many": 4888,
    "oped": 4889,
    "ĠHead": 4890,
    "ĠHeadless": 4891,
    "Ġsecurity": 4892,
    "lert": 4893,
    "ĠBM": 4894,
    "ĠWakeWordDetector": 4895,
    "Seg": 4896,
    "Segment": 4897,
    "oiseR": 4898,
    "oiseRedu": 4899,
    "ĠActivity": 4900,
    "ĠVoiceOnlyMode": 4901,
    "ĠProvider": 4902,
    "provid": 4903,
    "providers": 4904,
    "ĠResizable": 4905,
    "Release": 4906,
    "ReleaseEvent": 4907,
    "ĠImagePasteHandler": 4908,
    "pc": 4909,
    "Ġsav": 4910,
    "ĠReturn": 4911,
    "ĠMessageBus": 4912,
    "ĠToolOutput": 4913,
    "Ġttl": 4914,
    "Voting": 4915,
    "ĠUserDatabase": 4916,
    "Ġdb": 4917,
    "ĠValid": 4918,
    "Ġeach": 4919,
    "TF": 4920,
    "ĠNative": 4921,
    "ĠAvatarAnimator": 4922,
    "Ġautonomous": 4923,
    "ename": 4924,
    "Ġappearance": 4925,
    "']": 4926,
    "actor": 4927,
    "Ġdirection": 4928,
    "Ġdesktop": 4929,
    "DModel": 4930,
    "Ġupload": 4931,
    "Ġmorph": 4932,
    "delta": 4933,
    "Ġcomponent": 4934,
    "ging": 4935,
    "ĠAvatarSettings": 4936,
    "ĠAdjust": 4937,
    "ĠPush": 4938,
    "presets": 4939,
    "Ġobjects": 4940,
    "ĠSpeechSync": 4941,
    "ĠPNGB": 4942,
    "ĠPNGBounce": 4943,
    "ĠPNGBounceWidget": 4944,
    "Ġbackward": 4945,
    "Ġvectors": 4946,
    "kv": 4947,
    "alty": 4948,
    "ĠEncode": 4949,
    "LI": 4950,
    "ĠPresence": 4951,
    "ĠCollaborationServer": 4952,
    "ĠSharingManager": 4953,
    "ĠForgeNode": 4954,
    "ays": 4955,
    "Ġacquire": 4956,
    "workers": 4957,
    "ĠQueue": 4958,
    "Ġusers": 4959,
    "tunnel": 4960,
    "webhook": 4961,
    "ĠUncertaintySampler": 4962,
    "ĠLab": 4963,
    "ĠForgeModel": 4964,
    "Ġscheduler": 4965,
    "mul": 4966,
    "oft": 4967,
    "strained": 4968,
    "ĠDilated": 4969,
    "onym": 4970,
    "typ": 4971,
    "ĠRedis": 4972,
    "Co": 4973,
    "ulary": 4974,
    "Ġfiltering": 4975,
    "ontinu": 4976,
    "Metric": 4977,
    "ĠBenchmarkResult": 4978,
    "asurement": 4979,
    "ĠMLflow": 4980,
    "ĠMonitor": 4981,
    "activity": 4982,
    "NN": 4983,
    "ĠQualc": 4984,
    "ĠQualcomm": 4985,
    "dtype": 4986,
    "ĠExternal": 4987,
    "Ġrepre": 4988,
    "Ġrepresent": 4989,
    "ĠAdaptiveLayerNorm": 4990,
    "ĠLowPower": 4991,
    "ĠMeta": 4992,
    "Ġtiming": 4993,
    "ĠGrad": 4994,
    "ĠGradScaler": 4995,
    "ĠPrecisionPolicy": 4996,
    "otstr": 4997,
    "otstrap": 4998,
    "Di": 4999,
    "rehen": 5000,
    "rehensive": 5001,
    "ĠModelPool": 5002,
    "Ġexpert": 5003,
    "Orchestrator": 5004,
    "ersonas": 5005,
    "effective": 5006,
    "Ġcomparison": 5007,
    "ĠRewardModelTrainer": 5008,
    "ĠCollect": 5009,
    "imal": 5010,
    "ĠEmbeddingCluster": 5011,
    "ĠEmbeddingClusterer": 5012,
    "Tree": 5013,
    "ĠToT": 5014,
    "rape": 5015,
    "ĠWeightVisualizer": 5016,
    "ĠEmbeddingVisualizer": 5017,
    "Ġhighlight": 5018,
    "ontinue": 5019,
    "ĠOverlayManager": 5020,
    "Ġswitch": 5021,
    "Folder": 5022,
    "Ġwizard": 5023,
    "Menu": 5024,
    "come": 5025,
    "ĠQuickCommand": 5026,
    "ĠQuickCommandOverlay": 5027,
    "ĠQt": 5028,
    "ĠHighlightOverlay": 5029,
    "ĠTutorialTool": 5030,
    "ĠTutorialTooltip": 5031,
    "ĠRec": 5032,
    "aill": 5033,
    "aillier": 5034,
    "Ġdecrypt": 5035,
    "ĠDependency": 5036,
    "ĠConversationSummarizer": 5037,
    "Knowledge": 5038,
    "AISS": 5039,
    "scription": 5040,
    "Ġscrub": 5041,
    "ĠTestSuite": 5042,
    "ĠTestSuiteResult": 5043,
    "ĠOC": 5044,
    "ĠOCR": 5045,
    "Character": 5046,
    "ĠTaskTrainer": 5047,
    "man": 5048,
    "ĠCommunication": 5049,
    "vide": 5050,
    "video": 5051,
    "ĠPiC": 5052,
    "ĠPiCar": 5053,
    "oly": 5054,
    "olyg": 5055,
    "olygon": 5056,
    "ĠPlatform": 5057,
    "ĠPostg": 5058,
    "ĠPostgre": 5059,
    "ĠMy": 5060,
    "MLHandler": 5061,
    "ĠEr": 5062,
    "ĠErr": 5063,
    "ĠStorageBackend": 5064,
    "ĠAudioMixer": 5065,
    "ĠVoiceEmotion": 5066,
    "ĠDiarization": 5067,
    "ĠClon": 5068,
    "ĠWhis": 5069,
    "ĠWhisper": 5070,
    "MoveEvent": 5071,
    "ĠResponsePanel": 5072,
    "Com": 5073,
    "Combo": 5074,
    "ComboBox": 5075,
    "ĠFloatingOverlay": 5076,
    "ĠFederatedLearningWidget": 5077,
    "ĠDragBar": 5078,
    "ĠDragBarWidget": 5079,
    "ĠBoneHitRegion": 5080,
    "ĠResize": 5081,
    "ĠResizeH": 5082,
    "ĠResizeHandle": 5083,
    "ĠAvatarPreviewWidget": 5084,
    "ĠRole": 5085,
    "Ġindi": 5086,
    "vidual": 5087,
    "ĠSubmit": 5088,
    "ToolContext": 5089,
    "Ġoutputs": 5090,
    "plicit": 5091,
    "Ġemotions": 5092,
    "specific": 5093,
    "Ġbutton": 5094,
    "ĠManager": 5095,
    "ĠControls": 5096,
    "Clo": 5097,
    "items": 5098,
    "ĠAvatarController": 5099,
    "izing": 5100,
    "Ġsharing": 5101,
    "Ġmat": 5102,
    "ĠAvatarModel": 5103,
    "rot": 5104,
    "Color": 5105,
    "ĠAvatarPart": 5106,
    "ĠPersonalityExpression": 5107,
    "articles": 5108,
    "built": 5109,
    "Ġallowed": 5110,
    "ĠVRMModel": 5111,
    "Ġne": 5112,
    "Ġpure": 5113,
    "Ġmatrix": 5114,
    "backward": 5115,
    "Pure": 5116,
    "Ġfirst": 5117,
    "Ġvoices": 5118,
    "ĠCollaborationSession": 5119,
    "ĠTeam": 5120,
    "Ġcost": 5121,
    "cleanup": 5122,
    "Ġproces": 5123,
    "wait": 5124,
    "'t": 5125,
    "ĠModelInfo": 5126,
    "ĠPer": 5127,
    "ĠDisconnect": 5128,
    "ĠVoiceConfig": 5129,
    "Ġcluster": 5130,
    "ĠRMSNorm": 5131,
    "ĠCosineW": 5132,
    "ĠCosineWarmup": 5133,
    "ĠCosineWarmupScheduler": 5134,
    "ĠEarly": 5135,
    "temperature": 5136,
    "Ġiter": 5137,
    "generation": 5138,
    "ĠAttentionMask": 5139,
    "ĠQuantize": 5140,
    "questions": 5141,
    "aggregate": 5142,
    "answer": 5143,
    "quential": 5144,
    "cloud": 5145,
    "iases": 5146,
    "ĠVectorized": 5147,
    "ĠHella": 5148,
    "ĠHellaSw": 5149,
    "ĠHellaSwag": 5150,
    "ĠMetric": 5151,
    "Ġlogg": 5152,
    "ĠExperimentTracker": 5153,
    "metadata": 5154,
    "ĠRegistry": 5155,
    "Ġdequantize": 5156,
    "Ġinputs": 5157,
    "32": 5158,
    "ĠMPSDevice": 5159,
    "Ac": 5160,
    "ĠTrainerIntegration": 5161,
    "ĠIntegr": 5162,
    "ĠLarge": 5163,
    "ĠLargeModel": 5164,
    "offload": 5165,
    "ĠLoRALayer": 5166,
    "Ġneeded": 5167,
    "Ġnotes": 5168,
    "aux": 5169,
    "FN": 5170,
    "moe": 5171,
    "Ġmult": 5172,
    "definition": 5173,
    "Ġrelevance": 5174,
    "Ġdraft": 5175,
    "Change": 5176,
    "deploy": 5177,
    "ĠDiagram": 5178,
    "ĠMer": 5179,
    "ĠMerma": 5180,
    "ĠMermaid": 5181,
    "header": 5182,
    "Ġencrypt": 5183,
    "ĠSetupWizard": 5184,
    "StateManager": 5185,
    "uggestion": 5186,
    "Ġsound": 5187,
    "sound": 5188,
    "Layout": 5189,
    "Ġargs": 5190,
    "ABTest": 5191,
    "Ġsegment": 5192,
    "ĠTeacher": 5193,
    "ipher": 5194,
    "ĠVectorDB": 5195,
    "ĠVectorDBInterface": 5196,
    "ĠImportanceManager": 5197,
    "Ġrecall": 5198,
    "ĠFAISS": 5199,
    "rusted": 5200,
    "ĠInverseKinematics": 5201,
    "ĠTLS": 5202,
    "ĠAST": 5203,
    "ĠProfiler": 5204,
    "ĠGameState": 5205,
    "Push": 5206,
    "ĠSimulated": 5207,
    "ĠShutdown": 5208,
    "ĠKal": 5209,
    "ĠKalman": 5210,
    "Flag": 5211,
    "Partition": 5212,
    "ĠCodeSnippet": 5213,
    "Ġio": 5214,
    "IOBase": 5215,
    "ynput": 5216,
    "ĠOutputFilter": 5217,
    "ĠDetection": 5218,
    "ĠRegexHelper": 5219,
    "Ġhelper": 5220,
    "ĠSecureLoader": 5221,
    "ĠAz": 5222,
    "ĠAzure": 5223,
    "ixture": 5224,
    "ĠNoiseRedu": 5225,
    "Ġprofanity": 5226,
    "profanity": 5227,
    "ĠRealtimeTranslator": 5228,
    "ĠVoiceConverter": 5229,
    "ĠONN": 5230,
    "ĠONNX": 5231,
    "ĠExpressionMappingConfig": 5232,
    "CLO": 5233,
    "CLOUD": 5234,
    "ĠFeedbackWidget": 5235,
    "ghost": 5236,
    "ocr": 5237,
    "Ġlifec": 5238,
    "Ġlifecycle": 5239,
    "termin": 5240,
    "vious": 5241,
    "ĠAgentWorkspace": 5242,
    "ĠDisplay": 5243,
    "ĠPasswordH": 5244,
    "ĠPasswordHash": 5245,
    "ĠPasswordHasher": 5246,
    "ĠUserManager": 5247,
    "Commands": 5248,
    "Ġgestures": 5249,
    "ĠAIAvatarBridge": 5250,
    "ĠCalled": 5251,
    "width": 5252,
    "Ġrequired": 5253,
    "ĠNormal": 5254,
    "bones": 5255,
    "ĠAutonomousAvatar": 5256,
    "Ġsources": 5257,
    "Ġsimple": 5258,
    "ĠAvatarManager": 5259,
    "ĠBoneController": 5260,
    "ĠMove": 5261,
    "Ġclothing": 5262,
    "ĠClothingSystem": 5263,
    "ĠDesktopPetWindow": 5264,
    "ixmap": 5265,
    "oneme": 5266,
    "medi": 5267,
    "ĠVertex": 5268,
    "Ġdistance": 5269,
    "ĠMeshM": 5270,
    "ĠMeshManipulator": 5271,
    "Ġiss": 5272,
    "ssue": 5273,
    "ratio": 5274,
    "Point": 5275,
    "awner": 5276,
    "irect": 5277,
    "Ġindicator": 5278,
    "ĠSwitch": 5279,
    "Ġheads": 5280,
    "cognition": 5281,
    "ĠCLI": 5282,
    "ĠConversationDatabase": 5283,
    "Resource": 5284,
    "ĠWorkspaceDatabase": 5285,
    "ĠWorkspaceManager": 5286,
    "ĠConfigure": 5287,
    "Ġauthentication": 5288,
    "acquire": 5289,
    "ĠDeviceSync": 5290,
    "ĠInferenceWorker": 5291,
    "ĠDistributedCoordinator": 5292,
    "Resolvers": 5293,
    "conversations": 5294,
    "ĠModelSyncServer": 5295,
    "ĠModelSyncClient": 5296,
    "turn": 5297,
    "latency": 5298,
    "ĠRemoteTrainer": 5299,
    "Ġattempt": 5300,
    "ĠCompanionMode": 5301,
    "optimizer": 5302,
    "ĠAIBrain": 5303,
    "Ġhandoff": 5304,
    "ĠAIIntegration": 5305,
    "ĠAPIKeyRot": 5306,
    "ĠAPIKeyRotator": 5307,
    "pages": 5308,
    "Ġinstruction": 5309,
    "Ġanswer": 5310,
    "consistency": 5311,
    "handoff": 5312,
    "ĠRotary": 5313,
    "scaling": 5314,
    "Ġdynamic": 5315,
    "should": 5316,
    "ontinuous": 5317,
    "ĠDeviceProfiler": 5318,
    "logps": 5319,
    "quantized": 5320,
    "ĠFullscreenController": 5321,
    "uch": 5322,
    "ĠGamingProfile": 5323,
    "ĠMod": 5324,
    "ĠGGUFW": 5325,
    "ĠGGUFWriter": 5326,
    "ĠCUDAOptimizer": 5327,
    "ĠROCmOptimizer": 5328,
    "ĠJson": 5329,
    "title": 5330,
    "Ġspace": 5331,
    "ĠContextCompressor": 5332,
    "ĠMixtureOf": 5333,
    "ĠMixtureOfExp": 5334,
    "ĠMixtureOfExperts": 5335,
    "ĠMixedPrecision": 5336,
    "ĠMixedPrecisionTrainer": 5337,
    "alancing": 5338,
    "agn": 5339,
    "ĠMPSProfiler": 5340,
    "ĠMultimodalProcessor": 5341,
    "Ġpersist": 5342,
    "games": 5343,
    "Over": 5344,
    "ĠPPOTrainer": 5345,
    "ĠValue": 5346,
    "ĠStreamingResponse": 5347,
    "ĠSemanticAnalyzer": 5348,
    "ĠSchema": 5349,
    "Health": 5350,
    "ĠTreeAttention": 5351,
    "ĠSc": 5352,
    "olume": 5353,
    "ĠGPIOController": 5354,
    "Pi": 5355,
    "Ġaggregation": 5356,
    "Ġencrypted": 5357,
    "ĠRule": 5358,
    "ĠOverlaySettings": 5359,
    "ĠResponseL": 5360,
    "ĠResponseLength": 5361,
    "ĠEnhanced": 5362,
    "Ġnote": 5363,
    "Ġplain": 5364,
    "ĠFirst": 5365,
    "opic": 5366,
    "ĠFocusR": 5367,
    "ĠFocusRing": 5368,
    "refresh": 5369,
    "Ġtooltip": 5370,
    "Ġund": 5371,
    "ĠChatPanel": 5372,
    "instances": 5373,
    "Clipboard": 5374,
    "viron": 5375,
    "vironment": 5376,
    "ĠLocaleFormatter": 5377,
    "ĠRTLLayout": 5378,
    "ĠRTLLayoutHelper": 5379,
    "ĠForgeChatModel": 5380,
    "ĠBlu": 5381,
    "ĠBluep": 5382,
    "ĠBlueprint": 5383,
    "ĠPersonalityABTest": 5384,
    "ĠSecretSh": 5385,
    "ontribution": 5386,
    "ĠConversationSummary": 5387,
    "Ġstarter": 5388,
    "InfoStorage": 5389,
    "ĠNatural": 5390,
    "ĠWorkingMemory": 5391,
    "Ġservices": 5392,
    "ĠROSNode": 5393,
    "ĠSLAMEngine": 5394,
    "Auth": 5395,
    "ĠGameAIRouter": 5396,
    "ĠMultiplayer": 5397,
    "ĠMultiplayerAwareness": 5398,
    "ĠRobotModeController": 5399,
    "ITello": 5400,
    "ITelloPlatform": 5401,
    "zone": 5402,
    "ĠToolProfiler": 5403,
    "ĠUniversalAction": 5404,
    "ĠUpdateManager": 5405,
    "ĠThreadS": 5406,
    "ĠThreadSafe": 5407,
    "ĠBulkheadPartition": 5408,
    "ĠREP": 5409,
    "ĠREPL": 5410,
    "Ġsnippet": 5411,
    "ĠAES": 5412,
    "ĠCrash": 5413,
    "ĠCrashReport": 5414,
    "ĠGraceful": 5415,
    "ND": 5416,
    "ĠAlert": 5417,
    "ĠRB": 5418,
    "ĠRBA": 5419,
    "ĠRBAC": 5420,
    "ĠRelevance": 5421,
    "ĠAuditReport": 5422,
    "ĠMemoryStorage": 5423,
    "VoiceProfile": 5424,
    "ĠInterruptionHandler": 5425,
    "ĠCoqui": 5426,
    "ĠSpeedController": 5427,
    "ĠBundleManagerTab": 5428,
    "ĠCircularG": 5429,
    "ĠCircularGauge": 5430,
    "ĠResizableImage": 5431,
    "ĠResizableImagePreview": 5432,
    "ĠPersonaTab": 5433,
    "ĠTaskQueue": 5434,
    "ĠTaskQueueWidget": 5435,
    "ĠFloatingD": 5436,
    "ĠFloatingDragBar": 5437,
    "wizard": 5438,
    "Ġ('": 5439,
    "gui": 5440,
    "routes": 5441,
    "<|system": 5442,
    "<|system|>": 5443,
    "ĠAgentMessage": 5444,
    "ĠMultiAgent": 5445,
    "Ġswarm": 5446,
    "ĠSharedToolContext": 5447,
    "Ġtheir": 5448,
    "Ġpositions": 5449,
    "ĠAgentVoting": 5450,
    "ĠAuthentication": 5451,
    "gram": 5452,
    "Ġdeterm": 5453,
    "Ġmanage": 5454,
    "Qt": 5455,
    "ĠNativeAvatar": 5456,
    "Ġnormal": 5457,
    "Ġframes": 5458,
    "Ġbuffer": 5459,
    "Ġidle": 5460,
    "Enter": 5461,
    "EnterEvent": 5462,
    "mousePressEvent": 5463,
    "Ap": 5464,
    "lender": 5465,
    "ĠFaceData": 5466,
    "Palette": 5467,
    "Ġhide": 5468,
    "Ġprimary": 5469,
    "ĠEmotionDetector": 5470,
    "trigger": 5471,
    "mediate": 5472,
    "Ġediting": 5473,
    "ĠFB": 5474,
    "ĠFBX": 5475,
    "errors": 5476,
    "ĠAvatarPersistence": 5477,
    "Ġresolve": 5478,
    "ĠPresetManager": 5479,
    "Ġprocedural": 5480,
    "Ġrandom": 5481,
    "ScreenEffect": 5482,
    "edObject": 5483,
    "raw": 5484,
    "ĠThinkingAnimator": 5485,
    "ĠUnload": 5486,
    "Ġrow": 5487,
    "eta": 5488,
    "ĠDisable": 5489,
    "ĠRate": 5490,
    "Ġstats": 5491,
    "requests": 5492,
    "pond": 5493,
    "ĠDeviceDiscovery": 5494,
    "discover": 5495,
    "worker": 5496,
    "ervic": 5497,
    "ervicer": 5498,
    "estam": 5499,
    "ĠFair": 5500,
    "ĠStreamingInference": 5501,
    "Ġtunnel": 5502,
    "ĠWebhookManager": 5503,
    "Ġmig": 5504,
    "argin": 5505,
    "labe": 5506,
    "ĠLabel": 5507,
    "texts": 5508,
    "ĠQA": 5509,
    "pairs": 5510,
    "Handoff": 5511,
    "Ġestimation": 5512,
    "iency": 5513,
    "ĠCapabilityRegistry": 5514,
    "capability": 5515,
    "Ġpaths": 5516,
    "ĠPr": 5517,
    "ĠConstitutionalAI": 5518,
    "ĠContextAware": 5519,
    "ĠContextAwareConversation": 5520,
    "ĠInferenceServer": 5521,
    "ĠCurriculumScheduler": 5522,
    "strategy": 5523,
    "calc": 5524,
    "calculate": 5525,
    "hel": 5526,
    "ĠHumanE": 5527,
    "ĠHumanEval": 5528,
    "RAG": 5529,
    "Ġfullscreen": 5530,
    "ĠGestureManager": 5531,
    "ĠQuantizedModelRegistry": 5532,
    "ian": 5533,
    "activ": 5534,
    "ĠHotkeyActions": 5535,
    "Ġhotkeys": 5536,
    "ĠHuggingFaceModel": 5537,
    "Ġseed": 5538,
    "finit": 5539,
    "finite": 5540,
    "Ġattrib": 5541,
    "ĠModelInt": 5542,
    "ĠModelIntrospector": 5543,
    "ĠGe": 5544,
    "ĠGeGLU": 5545,
    "ĠExperts": 5546,
    "ĠLoRAModel": 5547,
    "ĠMemoryFallback": 5548,
    "ĠMemoryFallbackManager": 5549,
    "MoELayer": 5550,
    "ather": 5551,
    "ĠModelOrchestrator": 5552,
    "ĠPagedKVCache": 5553,
    "Ġco": 5554,
    "ĠTaskPlanner": 5555,
    "ĠPromptManager": 5556,
    "ĠChainOfThought": 5557,
    "ĠRAGPipeline": 5558,
    "ĠSessionData": 5559,
    "ĠTaskOffloader": 5560,
    "Ġshare": 5561,
    "ĠThoughtTree": 5562,
    "ĠAIW": 5563,
    "ĠAIWants": 5564,
    "ĠWeightMap": 5565,
    "ĠWeightMapper": 5566,
    "ĠVersionManager": 5567,
    "Ġplatforms": 5568,
    "ĠRelationship": 5569,
    "ĠPl": 5570,
    "ĠPlant": 5571,
    "ĠPlantU": 5572,
    "ĠPlantUML": 5573,
    "ĠServo": 5574,
    "ĠModelUpdate": 5575,
    "ĠOverlayWidget": 5576,
    "ganizer": 5577,
    "ĠGUIStateManager": 5578,
    "ĠRTLSupport": 5579,
    "Ġundo": 5580,
    "Ġreader": 5581,
    "Theme": 5582,
    "ĠVisualWorkspace": 5583,
    "ĠAudioBuffer": 5584,
    "ĠOBSIntegration": 5585,
    "Ġdetector": 5586,
    "Ġcritic": 5587,
    "Feedback": 5588,
    "ĠStudent": 5589,
    "ĠPaillier": 5590,
    "ĠAttributionTracker": 5591,
    "ĠBranchManager": 5592,
    "ĠCrossSession": 5593,
    "ĠCrossSessionContext": 5594,
    "ĠExternalKnowledge": 5595,
    "ĠDecay": 5596,
    "ĠForgettingManager": 5597,
    "oredInfo": 5598,
    "ĠInferenceG": 5599,
    "ĠInferenceGateway": 5600,
    "Network": 5601,
    "ĠAccessControl": 5602,
    "ĠAuthManager": 5603,
    "ĠGDPRManager": 5604,
    "aemon": 5605,
    "ĠFire": 5606,
    "ĠFirebase": 5607,
    "ĠAchievementTracker": 5608,
    "ĠSafe": 5609,
    "Ġwiki": 5610,
    "Wiki": 5611,
    "ĠCollisionChecker": 5612,
    "ĠManipulationPlanner": 5613,
    "ĠFormation": 5614,
    "Ġrobots": 5615,
    "ĠRobotSwarm": 5616,
    "detector": 5617,
    "ĠRobotInterface": 5618,
    "shutdown": 5619,
    "ĠSafetyManager": 5620,
    "sensor": 5621,
    "ĠSensorHub": 5622,
    "ĠABTesting": 5623,
    "ĠABTestingManager": 5624,
    "live": 5625,
    "ĠKub": 5626,
    "ĠKuber": 5627,
    "ĠKubernet": 5628,
    "ĠKubernetes": 5629,
    "ĠCloudDeploy": 5630,
    "ĠCloudDeployer": 5631,
    "ĠCodeSandbox": 5632,
    "ĠDatabaseManager": 5633,
    "ĠEncryptedStorage": 5634,
    "Ġsanitization": 5635,
    "ĠDND": 5636,
    "Ġredact": 5637,
    "oductivity": 5638,
    "ĠPromptDef": 5639,
    "ĠPromptDefender": 5640,
    "Reply": 5641,
    "ĠPatternBuilder": 5642,
    "ĠWorkflowManager": 5643,
    "ĠAudioBookmarkManager": 5644,
    "ĠEcho": 5645,
    "Cancel": 5646,
    "ĠPor": 5647,
    "ĠPorcup": 5648,
    "ĠPorcupine": 5649,
    "ĠPocket": 5650,
    "ĠPocketsp": 5651,
    "ĠPocketsph": 5652,
    "ĠPocketsphin": 5653,
    "ĠPocketsphinx": 5654,
    "ĠWakeWordTrainer": 5655,
    "ĠWebAuth": 5656,
    "ĠSpriteSheetLoader": 5657,
    "allery": 5658,
    "ails": 5659,
    "ĠMultiAgentSystem": 5660,
    "omposer": 5661,
    "store": 5662,
    "ĠPh": 5663,
    "Ġthem": 5664,
    "secret": 5665,
    "icate": 5666,
    "ĠAIAvatarControl": 5667,
    "Bone": 5668,
    "DAvatarController": 5669,
    "Ġmesh": 5670,
    "ĠMap": 5671,
    "Ġcard": 5672,
    "idx": 5673,
    "ĠAvatarRenderer": 5674,
    "ĠDetects": 5675,
    "ĠGestureLibrary": 5676,
    "ĠMetadata": 5677,
    "Ġcombining": 5678,
    "ĠGLB": 5679,
    "Issue": 5680,
    "ĠValidationResult": 5681,
    "Ġoptional": 5682,
    "Ġalpha": 5683,
    "Ġcolors": 5684,
    "ĠAvatarPartEditor": 5685,
    "Ġhelp": 5686,
    "Ġintegrate": 5687,
    "locity": 5688,
    "ĠHair": 5689,
    "ĠHairSimulator": 5690,
    "ĠCloth": 5691,
    "ĠClothSimulator": 5692,
    "builtin": 5693,
    "ĠMan": 5694,
    "Ġmicro": 5695,
    "ans": 5696,
    "ĠObjectWindow": 5697,
    "Ġno": 5698,
    "dimensions": 5699,
    "Ġseq": 5700,
    "ĠPureLinear": 5701,
    "ĠPureLayerNorm": 5702,
    "ĠPureRMSNorm": 5703,
    "ĠPureEmbedding": 5704,
    "ĠPureAttention": 5705,
    "ĠPureTransformerBlock": 5706,
    "Ġtry": 5707,
    "encode": 5708,
    "Ġids": 5709,
    "ĠBuiltinSTT": 5710,
    "ĠPresenceManager": 5711,
    "ĠSyncEngine": 5712,
    "bers": 5713,
    "ĠAPIRateLimiter": 5714,
    "ĠRateLimitState": 5715,
    "Ġcach": 5716,
    "Ġcaching": 5717,
    "Ġaddress": 5718,
    "Ġprocesses": 5719,
    "ĠGraphQLResolvers": 5720,
    "ynchronous": 5721,
    "Ġaccept": 5722,
    "Ġoptimized": 5723,
    "Ġcompress": 5724,
    "Ġtrained": 5725,
    "ĠHTTP": 5726,
    "Del": 5727,
    "ĠWebSocketClient": 5728,
    "ĠAttentionAnalyzer": 5729,
    "Ġarchitecture": 5730,
    "ĠBPE": 5731,
    "HandoffManager": 5732,
    "ĠNEONK": 5733,
    "ĠNEONKernels": 5734,
    "Ġax": 5735,
    "Ġaxis": 5736,
    "ĠMemoryOptimizer": 5737,
    "ĠDilatedAttention": 5738,
    "ĠFree": 5739,
    "ĠLRUCache": 5740,
    "ĠCoTPromptBuilder": 5741,
    "Cloud": 5742,
    "ique": 5743,
    "ĠHarm": 5744,
    "ĠHarmless": 5745,
    "ĠHarmlessness": 5746,
    "ĠHarmlessnessFilter": 5747,
    "armful": 5748,
    "ĠALiBiEncoder": 5749,
    "Ġextension": 5750,
    "ĠVectorizedO": 5751,
    "ĠVectorizedOps": 5752,
    "Ġdtype": 5753,
    "ĠCPUOptimizer": 5754,
    "Ġcurriculum": 5755,
    "ĠDifficultyEstimator": 5756,
    "share": 5757,
    "ĠDistillationLoss": 5758,
    "ĠDistillationTrainer": 5759,
    "ĠRequestBatch": 5760,
    "Ensemble": 5761,
    "ĠEvaluator": 5762,
    "Ġcalculate": 5763,
    "MLU": 5764,
    "ĠGGUFQuantizer": 5765,
    "Ġexporter": 5766,
    "uided": 5767,
    "ĠCUDADevice": 5768,
    "ĠCoralDevice": 5769,
    "ĠQualcommNPUDevice": 5770,
    "ĠIntelNPUDevice": 5771,
    "ĠAcceleratorManager": 5772,
    "ĠSystemMetrics": 5773,
    "Ġdeploy": 5774,
    "Ġprevious": 5775,
    "ĠChordManager": 5776,
    "Ġexplan": 5777,
    "ĠRest": 5778,
    "ĠMultiQueryAttention": 5779,
    "Ġcollector": 5780,
    "Ġstarting": 5781,
    "tou": 5782,
    "touch": 5783,
    "ĠMemoryManager": 5784,
    "agnost": 5785,
    "Ġfork": 5786,
    "ĠShardCoordinator": 5787,
    "partition": 5788,
    "ĠMPSOptimizer": 5789,
    "Ġvision": 5790,
    "ĠPipelineParallelModel": 5791,
    "ĠParameter": 5792,
    "sure": 5793,
    "tra": 5794,
    "ĠForgePlugin": 5795,
    "ĠBackend": 5796,
    "responses": 5797,
    "ĠPrefixCacheManager": 5798,
    "ĠTemplateRegistry": 5799,
    "ĠSelfPlay": 5800,
    "ĠTokenStreamer": 5801,
    "Column": 5802,
    "Row": 5803,
    "ĠTrainingHistory": 5804,
    "Ġline": 5805,
    "ĠAIWantsSystem": 5806,
    "late": 5807,
    "ĠDH": 5808,
    "countant": 5809,
    "rule": 5810,
    "ĠGameAd": 5811,
    "ĠGameAdvisor": 5812,
    "ĠSessionTracker": 5813,
    "ĠStats": 5814,
    "ĠStatsAnalyzer": 5815,
    "ĠPlayerStats": 5816,
    "ĠMarkdownPreview": 5817,
    "ĠGUIModeManager": 5818,
    "Ġarea": 5819,
    "hancements": 5820,
    "shortcut": 5821,
    "avigator": 5822,
    "Ġconfirmation": 5823,
    "ĠHelpWindow": 5824,
    "ĠUISettings": 5825,
    "ĠLayerS": 5826,
    "ĠLayerShell": 5827,
    "ĠHuggingFaceHub": 5828,
    "ĠHuggingFaceHubAdapter": 5829,
    "ncy": 5830,
    "inforce": 5831,
    "inforcement": 5832,
    "ĠTrainingResult": 5833,
    "ĠTeacherNode": 5834,
    "Augmented": 5835,
    "ĠTF": 5836,
    "IDF": 5837,
    "ĠMemoryEncryption": 5838,
    "Ġsensitive": 5839,
    "Ġfacts": 5840,
    "Ġrelated": 5841,
    "ummarization": 5842,
    "ĠSummarizer": 5843,
    "ĠChatAPIModule": 5844,
    "ToolsModule": 5845,
    "ĠThreeDGen": 5846,
    "ĠSandbox": 5847,
    "ĠPluginBase": 5848,
    "bound": 5849,
    "bounds": 5850,
    "ĠASTVis": 5851,
    "ĠASTVisitor": 5852,
    "ĠRoll": 5853,
    "ĠLoRAAdapter": 5854,
    "ĠBenchmarkSuite": 5855,
    "ĠThreadPool": 5856,
    "ReadTool": 5857,
    "Write": 5858,
    "WriteTool": 5859,
    "mac": 5860,
    "macro": 5861,
    "MacroTool": 5862,
    "ĠWatch": 5863,
    "izeTool": 5864,
    "ĠBatteryPre": 5865,
    "ĠBatteryPredict": 5866,
    "ĠBatteryPredictor": 5867,
    "ĠChargingScheduler": 5868,
    "ĠBias": 5869,
    "InfoTool": 5870,
    "TextTool": 5871,
    "ImageTool": 5872,
    "urator": 5873,
    "Execute": 5874,
    "ExecuteTool": 5875,
    "gester": 5876,
    "ĠGameCo": 5877,
    "ĠGameCoPlayer": 5878,
    "GameTool": 5879,
    "GenerateTool": 5880,
    "AudioTool": 5881,
    "oidance": 5882,
    "ĠPiRobot": 5883,
    "ĠTurtleBotPlatform": 5884,
    "ĠUniversalRobotPlatform": 5885,
    "ĠDJITelloPlatform": 5886,
    "ĠArduinoRobotPlatform": 5887,
    "ĠRobotPlatformManager": 5888,
    "ĠSerialRobotInterface": 5889,
    "ĠGPIORobotInterface": 5890,
    "ĠNetworkRobotInterface": 5891,
    "ĠSimulatedRobotInterface": 5892,
    "ĠMockROS": 5893,
    "Fact": 5894,
    "ObjectTool": 5895,
    "ScreenEffectTool": 5896,
    "ĠPlatformConnection": 5897,
    "ĠTwitchConnection": 5898,
    "opup": 5899,
    "ĠFetch": 5900,
    "ĠBulkheadMetrics": 5901,
    "ĠChatExporter": 5902,
    "ĠAWS": 5903,
    "ĠExecution": 5904,
    "ĠDatabaseBackend": 5905,
    "ĠExporter": 5906,
    "ĠWindowsHotkeyListener": 5907,
    "ĠPynput": 5908,
    "ĠPynputHotkeyListener": 5909,
    "ĠKeyboardHotkeyListener": 5910,
    "ĠLazyLoader": 5911,
    "ĠMessageFeedback": 5912,
    "ĠPromptIn": 5913,
    "ĠPromptInjection": 5914,
    "ĠPromptInjectionDetector": 5915,
    "ĠSimpleFactory": 5916,
    "ĠServiceRegistry": 5917,
    "ĠUndo": 5918,
    "Ġkit": 5919,
    "ĠStorageManager": 5920,
    "ĠAzureStorage": 5921,
    "ĠWorkflowNode": 5922,
    "ĠAudioCapture": 5923,
    "ĠCommandBuffer": 5924,
    "ĠAudioDucker": 5925,
    "ĠVoiceEmotionDetector": 5926,
    "ĠVoiceCommander": 5927,
    "Speaker": 5928,
    "arizer": 5929,
    "ĠAudioStream": 5930,
    "ĠVoicePipeline": 5931,
    "ĠWakeWordModel": 5932,
    "ĠUserSession": 5933,
    "ĠMetricsStore": 5934,
    "Ġannot": 5935,
    "ĠAnnotator": 5936,
    "ĠLabelButton": 5937,
    "ĠBlendShapeS": 5938,
    "ĠBlendShapeSlider": 5939,
    "ĠColorButton": 5940,
    "ĠOverlayChat": 5941,
    "ĠOverlayChatBridge": 5942,
    "ĠAnalyticsRecorder": 5943,
    "ĠSimpleBar": 5944,
    "ĠSimpleBarChart": 5945,
    "ĠLocalTTS": 5946,
    "ĠElevenLabsTTS": 5947,
    "ĠBaseGenerationWorker": 5948,
    "ĠOpenAICode": 5949,
    "ĠMini": 5950,
    "ĠMiniLine": 5951,
    "ĠMiniLineChart": 5952,
    "ĠStatusCard": 5953,
    "ĠLocalEmbedding": 5954,
    "ĠOpenAIEmbedding": 5955,
    "ĠModuleList": 5956,
    "ĠModuleListItem": 5957,
    "ĠNotesManager": 5958,
    "ĠStyleConfig": 5959,
    "ĠUnifiedWorker": 5960,
    "ĠHotkeyRecord": 5961,
    "ĠHotkeyRecordDialog": 5962,
    "astedImage": 5963,
    "ĠGameModeIndicator": 5964,
    "ĠSplitView": 5965,
    "ĠAvatarHit": 5966,
    "ĠAvatarHitLayer": 5967,
    "DOverlayWindow": 5968,
    "button": 5969,
    "Ġrol": 5970,
    "Ġturn": 5971,
    "ĠDebateResult": 5972,
    "debate": 5973,
    "Ġsnapshot": 5974,
    "ĠAgentPersistence": 5975,
    "ĠType": 5976,
    "ĠSwarm": 5977,
    "ĠAgentSwarm": 5978,
    "ĠTaskDec": 5979,
    "ĠTaskDecomposer": 5980,
    "Ġshared": 5981,
    "match": 5982,
    "sensus": 5983,
    "Ġident": 5984,
    "ĠId": 5985,
    "ĠVerify": 5986,
    "Ġag": 5987,
    "Ġagain": 5988,
    "Ġagainst": 5989,
    "Ġconsum": 5990,
    "DAnimator": 5991,
    "inis": 5992,
    "inishe": 5993,
    "ĠAnimationRetargeter": 5994,
    "Reaction": 5995,
    "ĠAudioRe": 5996,
    "ĠAudioReactive": 5997,
    "ĠAudioReactiveAvatar": 5998,
    "Ġfilename": 5999,
    "ĠAIAvatarIdentity": 6000,
    "Ġbridge": 6001,
    "Ġbody": 6002,
    "ĠBodyTracker": 6003,
    "ĠHandles": 6004,
    "ĠAvatarCustomizer": 6005,
    "ĠContextEmotion": 6006,
    "ĠContextEmotionSync": 6007,
    "Ġmatching": 6008,
    "ĠLip": 6009,
    "ĠLipSync": 6010,
    "ĠAvatarMarketplace": 6011,
    "other": 6012,
    "Ġcontains": 6013,
    "simplified": 6014,
    "ĠMobileAvatarServer": 6015,
    "Ġvariants": 6016,
    "ĠAvatarPerformanceConfig": 6017,
    "ĠPhysicsSimulator": 6018,
    "Ġserialization": 6019,
    "Ġfocus": 6020,
    "urpose": 6021,
    "no": 6022,
    "ImageGen": 6023,
    "Ġar": 6024,
    "ĠNormalization": 6025,
    "Ġblocks": 6026,
    "penalty": 6027,
    "GD": 6028,
    "Ġencode": 6029,
    "PureTransformer": 6030,
    "ĠOperational": 6031,
    "leave": 6032,
    "Ġvalid": 6033,
    "ĠIPBlocker": 6034,
    "Ġprocessor": 6035,
    "Ġgraph": 6036,
    "ĠAIConversation": 6037,
    "ĠChatC": 6038,
    "ĠChatCompletionResponse": 6039,
    "ĠCompletionResponse": 6040,
    "ĠProtocolManager": 6041,
    "ĠRemoteClient": 6042,
    "Ġauth": 6043,
    "cture": 6044,
    "ĠBaseConfig": 6045,
    "ĠModelConfig": 6046,
    "ĠEvaluate": 6047,
    "ĠAIHandoffManager": 6048,
    "Estimate": 6049,
    "istic": 6050,
    "ĠAutonomousMode": 6051,
    "Ġcalibration": 6052,
    "results": 6053,
    "ĠInferenceCache": 6054,
    "swers": 6055,
    "Ġthought": 6056,
    "Ġgpu": 6057,
    "ĠModelCollaboration": 6058,
    "Ġaware": 6059,
    "Ġawareness": 6060,
    "ĠScale": 6061,
    "Ġcontexts": 6062,
    "Ġfrequency": 6063,
    "Ġlarge": 6064,
    "translate": 6065,
    "ĠDeepSpeedTrainer": 6066,
    "ĠDownloadProgress": 6067,
    "ĠProgressState": 6068,
    "ĠDynamicBatcher": 6069,
    "ĠModelEnsemble": 6070,
    "ĠMMLU": 6071,
    "ĠLocalTracker": 6072,
    "Ġfact": 6073,
    "ifiers": 6074,
    "ĠGGUFModel": 6075,
    "las": 6076,
    "Ġconstraints": 6077,
    "ĠGuided": 6078,
    "ĠGuidedGenerator": 6079,
    "ĠDeviceCapability": 6080,
    "ĠAcceleratorDevice": 6081,
    "ĠHealthChecker": 6082,
    "ĠChordSe": 6083,
    "ĠChordSequence": 6084,
    "ĠGlobal": 6085,
    "ĠHuggingFaceEngine": 6086,
    "Ġhyperparameter": 6087,
    "ToolRouter": 6088,
    "ĠAnalyz": 6089,
    "Ġroutes": 6090,
    "ialized": 6091,
    "Ġwants": 6092,
    "ĠMemoryInfo": 6093,
    "teaching": 6094,
    "ootstrap": 6095,
    "shard": 6096,
    "gpus": 6097,
    "ĠParsed": 6098,
    "tim": 6099,
    "required": 6100,
    "vari": 6101,
    "ĠDocumentLoader": 6102,
    "transformers": 6103,
    "VectorStore": 6104,
    "ĠReActT": 6105,
    "ĠReActTrace": 6106,
    "Pair": 6107,
    "ĠPerformanceMetrics": 6108,
    "ĠOfflineQueue": 6109,
    "Ġdatasets": 6110,
    "Ġtranslation": 6111,
    "ĠColumn": 6112,
    "ĠRow": 6113,
    "iktoken": 6114,
    "world": 6115,
    "ColumnLinear": 6116,
    "RowLinear": 6117,
    "ĠQuickCreate": 6118,
    "ĠPromptParser": 6119,
    "ĠDataMarketplace": 6120,
    "Ġcloning": 6121,
    "ĠModelIn": 6122,
    "ĠModelInheritance": 6123,
    "unity": 6124,
    "ĠAPITraining": 6125,
    "ĠAPITrainingProvider": 6126,
    "ĠMC": 6127,
    "ĠVisualization": 6128,
    "Ġreduce": 6129,
    "ĠY": 6130,
    "ĠDataPipeline": 6131,
    "ĠDataDiff": 6132,
    "ĠDeployment": 6133,
    "ĠMermaidGenerator": 6134,
    "ell": 6135,
    "cell": 6136,
    "ĠNotebookBuilder": 6137,
    "ĠTutorialGenerator": 6138,
    "ĠPWMController": 6139,
    "CDevice": 6140,
    "ĠSPIDevice": 6141,
    "Ġang": 6142,
    "ĠFederationDiscovery": 6143,
    "coordin": 6144,
    "coordinator": 6145,
    "ĠFederationManager": 6146,
    "ĠPrivacyAc": 6147,
    "ĠPrivacyAccountant": 6148,
    "ĠResponseLengthController": 6149,
    "ĠTemperaturePresetManager": 6150,
    "ĠDataEntry": 6151,
    "Ġzoom": 6152,
    "Topic": 6153,
    "Ġlocale": 6154,
    "ĠFileDrop": 6155,
    "ĠFileDropHandler": 6156,
    "ĠInputSuggest": 6157,
    "ĠInputSuggestions": 6158,
    "ĠVoiceInputVisualizer": 6159,
    "ĠNavigation": 6160,
    "ĠLazyWidget": 6161,
    "ĠNotificationC": 6162,
    "ĠNotificationCenter": 6163,
    "ĠNotificationB": 6164,
    "ĠNotificationBadge": 6165,
    "rect": 6166,
    "ĠActionHistory": 6167,
    "ĠSafetyGuard": 6168,
    "ĠSafetyGuards": 6169,
    "ĠAccessible": 6170,
    "arrator": 6171,
    "ĠScreenReaderSupport": 6172,
    "ĠFocusMode": 6173,
    "Detection": 6174,
    "ĠTrainingVisualizer": 6175,
    "ĠEmojiP": 6176,
    "ĠEmojiPicker": 6177,
    "ĠBookmarkManager": 6178,
    "ĠTabHistory": 6179,
    "ĠTabColor": 6180,
    "ĠTabColorManager": 6181,
    "ĠTabManager": 6182,
    "Ġshell": 6183,
    "Ġenvironment": 6184,
    "anguages": 6185,
    "Ġchannel": 6186,
    "VoiceClient": 6187,
    "ĠGameEngine": 6188,
    "ĠGameEngineBridge": 6189,
    "ĠEnigmaToolkit": 6190,
    "EnigmaTool": 6191,
    "ĠOBSController": 6192,
    "ĠOverlayServer": 6193,
    "ĠPersonalityVariant": 6194,
    "ĠABTestManager": 6195,
    "ĠLearningChatIntegration": 6196,
    "ĠLearningChatWrapper": 6197,
    "ĠConversationDetector": 6198,
    "ĠWeightUpdate": 6199,
    "ĠSecretSharing": 6200,
    "ĠRepository": 6201,
    "ĠRepositoryManager": 6202,
    "ĠMemoryAnalytics": 6203,
    "ĠAsyncVectorDB": 6204,
    "ĠMemoryBackup": 6205,
    "ĠMemoryBackupScheduler": 6206,
    "ĠMemoryCategory": 6207,
    "solidate": 6208,
    "summarize": 6209,
    "ĠDocumentRAG": 6210,
    "ĠAutoEmbedding": 6211,
    "ĠAutoEmbeddingVectorDB": 6212,
    "ĠMemoryExporter": 6213,
    "ĠMemoryImporter": 6214,
    "ĠKnowledgeGra": 6215,
    "ĠKnowledgeGraph": 6216,
    "ĠThreadManager": 6217,
    "ĠStoredInfo": 6218,
    "ĠAIF": 6219,
    "ĠAIFacts": 6220,
    "ĠContextMemory": 6221,
    "ĠPersistentInfoStorage": 6222,
    "ĠSemanticMemory": 6223,
    "ĠSemanticMemorySearch": 6224,
    "ĠFAISSVectorDB": 6225,
    "ĠPineconeVectorDB": 6226,
    "ĠSimpleVectorDB": 6227,
    "ĠMemoryVisualizer": 6228,
    "ĠModuleDocGenerator": 6229,
    "recommended": 6230,
    "Ġsandbox": 6231,
    "collector": 6232,
    "ĠFailover": 6233,
    "ĠFailoverManager": 6234,
    "ĠRemoteOffloader": 6235,
    "ĠNetworkTaskQueue": 6236,
    "ĠPluginMarketplace": 6237,
    "ĠPluginV": 6238,
    "ĠPluginVer": 6239,
    "ĠPluginVerifier": 6240,
    "Ġorient": 6241,
    "Ġorientation": 6242,
    "andid": 6243,
    "ĠConsentManager": 6244,
    "Ġachievement": 6245,
    "ĠDataC": 6246,
    "ĠDataCurator": 6247,
    "Ġcharacters": 6248,
    "alog": 6249,
    "ĠDocumentIn": 6250,
    "ĠDocumentIngester": 6251,
    "ĠGameCommands": 6252,
    "ĠScreenAnalyzer": 6253,
    "ĠGameStateReader": 6254,
    "ĠToolOutputMemory": 6255,
    "service": 6256,
    "ĠReplay": 6257,
    "ĠReplayAnalyzer": 6258,
    "ĠKalmanFilter": 6259,
    "ĠSensorF": 6260,
    "ĠSensorFusion": 6261,
    "Ġrecognition": 6262,
    "ĠStreamingTool": 6263,
    "ĠStreamingToolResult": 6264,
    "Ġconversion": 6265,
    "ĠFeatureFlag": 6266,
    "ĠBackupManager": 6267,
    "ĠBreakers": 6268,
    "ĠEncryptedConversation": 6269,
    "ĠEncryptedConversationStore": 6270,
    "ĠCrashReporter": 6271,
    "ĠSQLiteBackend": 6272,
    "ĠPostgreSQLBackend": 6273,
    "ĠMySQLBackend": 6274,
    "ĠMongoDBBackend": 6275,
    "ĠAutoS": 6276,
    "ĠAutoSave": 6277,
    "ĠAutoSaveManager": 6278,
    "ĠContainerBuilder": 6279,
    "ĠErrorAggregator": 6280,
    "options": 6281,
    "ĠValidationR": 6282,
    "ĠValidationRules": 6283,
    "ĠLocalOnlyMode": 6284,
    "ingMiddleware": 6285,
    "ĠDNDSchedule": 6286,
    "ĠCommitMessage": 6287,
    "ĠCommitMessageGenerator": 6288,
    "ĠSQLQuery": 6289,
    "ĠProgressTracker": 6290,
    "ĠQuickReply": 6291,
    "ĠRBACManager": 6292,
    "ĠRelevanceScorer": 6293,
    "ĠOk": 6294,
    "ĠSorter": 6295,
    "uditor": 6296,
    "ĠUndoR": 6297,
    "ĠUndoRed": 6298,
    "ĠUndoRedo": 6299,
    "ĠUndoRedoManager": 6300,
    "ĠLocalStorage": 6301,
    "ĠSchemaGenerator": 6302,
    "ĠWorkflowTemplates": 6303,
    "ĠAmbientListener": 6304,
    "ĠDynamicVoice": 6305,
    "ĠDynamicVoiceAdapter": 6306,
    "ĠEchoCancel": 6307,
    "ĠEmotionTTS": 6308,
    "ĠMultiSpeaker": 6309,
    "ĠMultiSpeakerTTS": 6310,
    "phrases": 6311,
    "ĠSmartWakeWord": 6312,
    "ĠSmartWakeWords": 6313,
    "ĠVoiceChat": 6314,
    "oner": 6315,
    "ĠAudioProcessor": 6316,
    "ĠAIVoiceGenerator": 6317,
    "ĠTelemetryCollector": 6318,
    "DLoader": 6319,
    "ĠBaseRenderer": 6320,
    "ĠSpriteRenderer": 6321,
    "ĠWebAvatarRenderer": 6322,
    "ĠmouseMoveEvent": 6323,
    "anner": 6324,
    "ĠLearningTab": 6325,
    "ĠProviderRegistry": 6326,
    "heel": 6327,
    "ĠGenerated": 6328,
    "Ġroles": 6329,
    "ĠDebateSystem": 6330,
    "agents": 6331,
    "ĠSocr": 6332,
    "ĠSocratic": 6333,
    "ĠSimpleAgent": 6334,
    "Match": 6335,
    "Ġam": 6336,
    "ĠAvatarChat": 6337,
    "ĠAvatarChatIntegration": 6338,
    "ĠPyQt": 6339,
    "Transform": 6340,
    "ĠAutomatic": 6341,
    "ĠAIAvatarController": 6342,
    "Ġreactions": 6343,
    "ĠAutonomousConfig": 6344,
    "ĠAvatarCard": 6345,
    "Ġevol": 6346,
    "Ġorder": 6347,
    "Ġcustomization": 6348,
    "Ġoutfit": 6349,
    "Ġrelease": 6350,
    "ĠPet": 6351,
    "Ġold": 6352,
    "verage": 6353,
    "clothing": 6354,
    "ĠCre": 6355,
    "bias": 6356,
    "Ġadjust": 6357,
    "Ġphysics": 6358,
    "Particle": 6359,
    "Ġcollision": 6360,
    "expressions": 6361,
    "ĠSampleAvatar": 6362,
    "ĠSampleAvatarGenerator": 6363,
    "Ġ1": 6364,
    "ĠScreenEffect": 6365,
    "ĠScreenEffectManager": 6366,
    "ĠSentimentAnalyzer": 6367,
    "ĠThinkingIndicator": 6368,
    "Name": 6369,
    "Ġbinding": 6370,
    "ĠBuiltinChat": 6371,
    "ĠBuiltinCode": 6372,
    "ĠBuiltinCodeGen": 6373,
    "ĠNumber": 6374,
    "Ġsin": 6375,
    "Ġsequences": 6376,
    "ĠPureFeedForward": 6377,
    "ĠPureTokenizer": 6378,
    "ĠBuiltinTTS": 6379,
    "ĠMessageBroadcast": 6380,
    "ĠMessageBroadcaster": 6381,
    "announce": 6382,
    "henticator": 6383,
    "cost": 6384,
    "keys": 6385,
    "ĠAuthMiddleware": 6386,
    "ĠDistributedNode": 6387,
    "flask": 6388,
    "ĠForgeS": 6389,
    "ĠForgeServicer": 6390,
    "Ġforge": 6391,
    "ĠMobileAPI": 6392,
    "ĠTrainingServer": 6393,
    "ĠQueued": 6394,
    "ĠFairScheduler": 6395,
    "ĠAsyncRequest": 6396,
    "ĠAsyncRequestQueue": 6397,
    "ĠDel": 6398,
    "Ġdelivery": 6399,
    "Ġstructure": 6400,
    "Ġactivations": 6401,
    "ĠLayerProfiler": 6402,
    "Ġscores": 6403,
    "embedding": 6404,
    "ĠQADataset": 6405,
    "ĠEarlyStop": 6406,
    "ĠEarlyStopping": 6407,
    "ĠCostEstimator": 6408,
    "neon": 6409,
    "Ġalg": 6410,
    "Ġalgor": 6411,
    "Ġalgorith": 6412,
    "oftmax": 6413,
    "ĠAsyncTrainer": 6414,
    "Ġsparsity": 6415,
    "ĠLocalG": 6416,
    "ĠLocalGlobal": 6417,
    "ĠLocalGlobalAttention": 6418,
    "ĠRedisCache": 6419,
    "Ġquestions": 6420,
    "ĠAggregate": 6421,
    "ĠCharacterTokenizer": 6422,
    "efficient": 6423,
    "unch": 6424,
    "ContentFilter": 6425,
    "ĠBiases": 6426,
    "ĠGenerationRequest": 6427,
    "Ġfast": 6428,
    "ĠTextDifficultyScorer": 6429,
    "ĠLossDifficultyScorer": 6430,
    "jsonl": 6431,
    "osen": 6432,
    "ĠDeepSpeedConfig": 6433,
    "Ġclassification": 6434,
    "ĠDetected": 6435,
    "Ġlogits": 6436,
    "teacher": 6437,
    "ĠEnginePool": 6438,
    "ĠKnowledgeBase": 6439,
    "ĠFactChecker": 6440,
    "fullscreen": 6441,
    "ĠFPSMonitor": 6442,
    "Ġcompatible": 6443,
    "ĠGGUFExporter": 6444,
    "ĠAWQModel": 6445,
    "ĠGPUOptimizer": 6446,
    "iter": 6447,
    "isions": 6448,
    "ĠTPUDevice": 6449,
    "ĠHyperparameter": 6450,
    "ĠSearchResult": 6451,
    "ĠStreamingContext": 6452,
    "ĠRing": 6453,
    "ĠModelRegistry": 6454,
    "ĠExplan": 6455,
    "ĠExplanation": 6456,
    "Ġrank": 6457,
    "decay": 6458,
    "ĠMetalBackend": 6459,
    "At": 6460,
    "Attempt": 6461,
    "ĠMetaLearner": 6462,
    "Ġrecommended": 6463,
    "ĠLayerIn": 6464,
    "ĠLayerInspector": 6465,
    "ĠActivationCache": 6466,
    "ĠShardWorker": 6467,
    "distribut": 6468,
    "statistics": 6469,
    "Ġencoding": 6470,
    "ĠTensorParallelModel": 6471,
    "personas": 6472,
    "Ġplanning": 6473,
    "ĠPlanExecutor": 6474,
    "reward": 6475,
    "prefix": 6476,
    "Ġformatting": 6477,
    "safety": 6478,
    "ĠExample": 6479,
    "ĠPromptChain": 6480,
    "ĠImportanceEstimator": 6481,
    "ĠUnstru": 6482,
    "ĠUnstructuredPruner": 6483,
    "ĠPruningScheduler": 6484,
    "ĠChunk": 6485,
    "Ġdocuments": 6486,
    "ĠSimpleVectorStore": 6487,
    "generator": 6488,
    "Evalu": 6489,
    "ĠReasoningMonitor": 6490,
    "ĠRLHFPipeline": 6491,
    "arator": 6492,
    "ares": 6493,
    "ĠResponseScorer": 6494,
    "ĠSentenceTransformerEmbedding": 6495,
    "ĠSemanticIndex": 6496,
    "idirection": 6497,
    "idirectional": 6498,
    "ĠTokenBuffer": 6499,
    "explorer": 6500,
    "ĠInterface": 6501,
    "ĠTPColumnLinear": 6502,
    "ĠTPRowLinear": 6503,
    "click": 6504,
    "ĠMCD": 6505,
    "ĠMCDropout": 6506,
    "ĠMCDropoutEstimator": 6507,
    "ĠWebTraining": 6508,
    "ĠWebTrainingCollector": 6509,
    "ĠURL": 6510,
    "Ġfn": 6511,
    "ĠDatasetVersion": 6512,
    "ĠRail": 6513,
    "ĠRailway": 6514,
    "ĠFly": 6515,
    "ĠMotionDetector": 6516,
    "number": 6517,
    "ĠServoM": 6518,
    "ĠServoMotor": 6519,
    "ĠCPUG": 6520,
    "ĠCPUGovernor": 6521,
    "ĠThermalManager": 6522,
    "ĠBatteryMonitor": 6523,
    "edian": 6524,
    "listen": 6525,
    "ĠContextAnalyzer": 6526,
    "ĠAdviceEngine": 6527,
    "ĠTwitchIntegration": 6528,
    "Colors": 6529,
    "Ġicon": 6530,
    "clipboard": 6531,
    "ĠQuickModel": 6532,
    "ĠQuickModelSwitcher": 6533,
    "amper": 6534,
    "ca": 6535,
    "ĠLossP": 6536,
    "ĠLossPlot": 6537,
    "ĠLossPlotWidget": 6538,
    "ĠModelHubClient": 6539,
    "Ġsort": 6540,
    "ĠTranslationManager": 6541,
    "ĠEnigmaVoiceClient": 6542,
    "rea": 6543,
    "ĠCSh": 6544,
    "ĠCShar": 6545,
    "ĠCSharp": 6546,
    "ĠCSharpGenerator": 6547,
    "ĠBlueprintGenerator": 6548,
    "Ġvariant": 6549,
    "ĠCriticModel": 6550,
    "ĠStudentNode": 6551,
    "ĠModelCoordinator": 6552,
    "eries": 6553,
    "Ġdependency": 6554,
    "ĠRemoteRepository": 6555,
    "MemoryDatabase": 6556,
    "eduplic": 6557,
    "eduplicator": 6558,
    "uplicate": 6559,
    "ĠDecayC": 6560,
    "ĠDecayCalc": 6561,
    "ĠDecayCalculator": 6562,
    "ĠModuleState": 6563,
    "interface": 6564,
    "ĠGenerationModule": 6565,
    "Ġrecovery": 6566,
    "ĠAIC": 6567,
    "ĠAICuriosity": 6568,
    "ĠPluginSign": 6569,
    "ĠPluginSigner": 6570,
    "ĠPromptHub": 6571,
    "ĠPromptHubClient": 6572,
    "Parameter": 6573,
    "ĠTrajectoryExecutor": 6574,
    "ĠLaserScan": 6575,
    "Permissions": 6576,
    "ĠPIIDetector": 6577,
    "ĠFileWatcher": 6578,
    "ĠCloudSyncBackend": 6579,
    "ĠRestA": 6580,
    "ĠRestApi": 6581,
    "ĠRestApiBackend": 6582,
    "ĠFirebaseBackend": 6583,
    "ĠLocalBackup": 6584,
    "ĠLocalBackupBackend": 6585,
    "ĠIntegrationTest": 6586,
    "ĠIntegrationTestRunner": 6587,
    "ĠMacro": 6588,
    "ĠMacroManager": 6589,
    "Ġmacro": 6590,
    "ĠCodeStyleAnalyzer": 6591,
    "Language": 6592,
    "Dependency": 6593,
    "ĠInputSimulator": 6594,
    "ĠCharacterManager": 6595,
    "ĠStoryManager": 6596,
    "ĠMockHome": 6597,
    "ĠMockHomeAssistant": 6598,
    "ĠMockHomeAssistantClient": 6599,
    "Ġscreenshot": 6600,
    "ĠChatMonitor": 6601,
    "ĠTaskAllocator": 6602,
    "ĠCommunicationNetwork": 6603,
    "ĠPluginFile": 6604,
    "ĠPluginFileWatcher": 6605,
    "Ġcommit": 6606,
    "ĠStrategyAnalyzer": 6607,
    "ĠPiCarPlatform": 6608,
    "Ġpublish": 6609,
    "ĠSensorRead": 6610,
    "ĠSensorReading": 6611,
    "ĠSimpleOCR": 6612,
    "ĠCommandHandler": 6613,
    "ĠSystemAwareness": 6614,
    "changes": 6615,
    "ĠCommandMatcher": 6616,
    "ĠVoiceRec": 6617,
    "ĠVoiceRecogn": 6618,
    "ĠVoiceRecognizer": 6619,
    "Feature": 6620,
    "ĠUpdateInstaller": 6621,
    "ĠClipboardItem": 6622,
    "ĠREPLSandbox": 6623,
    "ĠAESC": 6624,
    "ĠAESCipher": 6625,
    "ĠScope": 6626,
    "ĠThreat": 6627,
    "ĠNotificationManager": 6628,
    "ĠSecurityLogger": 6629,
    "Ġcondition": 6630,
    "ĠSingletonFactory": 6631,
    "ĠStorageObject": 6632,
    "ĠDiffResult": 6633,
    "Ġpunctuation": 6634,
    "Ġrestoration": 6635,
    "ĠSinging": 6636,
    "ĠTriggerP": 6637,
    "ĠTriggerPhrase": 6638,
    "ĠTriggerPhraseDetector": 6639,
    "ĠTurn": 6640,
    "ĠTurnManager": 6641,
    "ĠVoiceCommandRouter": 6642,
    "ĠOpenWakeWordEngine": 6643,
    "ĠPorcupineEngine": 6644,
    "ĠPocketsphinxEngine": 6645,
    "ĠEnergyEngine": 6646,
    "ĠWhisperSTT": 6647,
    "ĠImportResult": 6648,
    "ĠCommandPalette": 6649,
    "ĠCommandPaletteDialog": 6650,
    "ĠFontPreview": 6651,
    "ĠFontSelector": 6652,
    "ĠOverlaySettingsWidget": 6653,
    "ĠStatCard": 6654,
    "ĠReplicateAudio": 6655,
    "ĠAudioTab": 6656,
    "ĠCreateBundle": 6657,
    "ĠCreateBundleDialog": 6658,
    "ĠCharacterTrainerTab": 6659,
    "ĠForgeCode": 6660,
    "ĠCodeTab": 6661,
    "ĠDeviceItem": 6662,
    "ĠEmbeddingsTab": 6663,
    "ĠExamplesTab": 6664,
    "ĠGIFTab": 6665,
    "ĠHuggingFaceImage": 6666,
    "ĠHuggingFaceTTS": 6667,
    "ĠHuggingFaceChat": 6668,
    "ĠHuggingFaceEmbedding": 6669,
    "ĠPlace": 6670,
    "ĠPlaceh": 6671,
    "ĠPlaceholder": 6672,
    "ĠPlaceholderImage": 6673,
    "ĠStableDiff": 6674,
    "ĠStableDiffusion": 6675,
    "ĠStableDiffusionLocal": 6676,
    "ĠOpenAIImage": 6677,
    "ĠReplicateImage": 6678,
    "ĠImageTab": 6679,
    "ĠPluginCard": 6680,
    "ĠTaskDialog": 6681,
    "ĠDirectory": 6682,
    "ĠDirectoryWatcher": 6683,
    "ĠTaskR": 6684,
    "ĠTaskRout": 6685,
    "ĠTaskRoute": 6686,
    "ĠTaskRouteWidget": 6687,
    "ĠThreeDTab": 6688,
    "ĠTrainingDataTab": 6689,
    "ĠPreview": 6690,
    "ĠPreviewManager": 6691,
    "ĠLocalVideo": 6692,
    "ĠReplicateVideo": 6693,
    "ĠVideoTab": 6694,
    "ĠImagePreview": 6695,
    "ĠImagePreviewWidget": 6696,
    "ĠFeedbackButton": 6697,
    "ĠFeedbackButtons": 6698,
    "ĠAvatarOverlayWindow": 6699,
    "ĠBoneHitManager": 6700,
    "ĠAvatarGallery": 6701,
    "ĠAvatarGalleryItem": 6702,
    "ĠAvatarManagement": 6703,
    "ĠAvatarManagementPanel": 6704,
    "ĠCustomGame": 6705,
    "ĠCustomGameDialog": 6706,
    "ĠGamingProfileDialog": 6707,
    "scheduler": 6708,
    "constrained": 6709,
    "onnx": 6710,
    "langchain": 6711,
    "breaker": 6712,
    "snippet": 6713,
    "crash": 6714,
    "attachments": 6715,
    "Ġindividual": 6716,
    "ĠAgentConversation": 6717,
    "Snapshot": 6718,
    "Ġexpired": 6719,
    "ĠRoute": 6720,
    "Ġpercentage": 6721,
    "Ġexecutor": 6722,
    "ĠToolPipeline": 6723,
    "Ġusername": 6724,
    "ĠAdaptiveAnimator": 6725,
    "Ġanimator": 6726,
    "Ġspeaking": 6727,
    "animator": 6728,
    "ĠAvatarBundleC": 6729,
    "ĠAvatarBundleCre": 6730,
    "ĠAvatarBundleCreator": 6731,
    "Appearance": 6732,
    "Ġcreates": 6733,
    "Ġmake": 6734,
    "Ġconnected": 6735,
    "lamp": 6736,
    "oth": 6737,
    "ĠClothingItem": 6738,
    "hide": 6739,
    "Ġsheet": 6740,
    "ĠSynchron": 6741,
    "ĠEmotionExpression": 6742,
    "ĠEmotionExpressionSync": 6743,
    "library": 6744,
    "contains": 6745,
    "Ġbroadcast": 6746,
    "ierarch": 6747,
    "ĠMotionCapture": 6748,
    "Ġeditor": 6749,
    "ptionally": 6750,
    "Ġreturns": 6751,
    "ĠBreathing": 6752,
    "ĠBreathingController": 6753,
    "ĠLook": 6754,
    "cus": 6755,
    "ĠProceduralAnimator": 6756,
    "itter": 6757,
    "inished": 6758,
    "Ġspawned": 6759,
    "ĠCreates": 6760,
    "Ġspecification": 6761,
    "blend": 6762,
    "QA": 6763,
    "Ġzero": 6764,
    "Ġeps": 6765,
    "Ġop": 6766,
    "Ġsubscribe": 6767,
    "Ġinv": 6768,
    "ibution": 6769,
    "ĠAICapability": 6770,
    "ĠAICollaboration": 6771,
    "ĠAICollaborationProtocol": 6772,
    "ceeded": 6773,
    "minute": 6774,
    "ĠUsageTracker": 6775,
    "Ġscope": 6776,
    "oke": 6777,
    "Ġinterval": 6778,
    "ĠSyncState": 6779,
    "ĠProtocolMessage": 6780,
    "ynchronously": 6781,
    "modified": 6782,
    "avg": 6783,
    "Ġav": 6784,
    "Ġ/": 6785,
    "next": 6786,
    "Ġser": 6787,
    "Ġservers": 6788,
    "ĠWebSocketServer": 6789,
    "Ġcompanion": 6790,
    "Ġhooks": 6791,
    "runs": 6792,
    "Ġanalyzer": 6793,
    "Ġsm": 6794,
    "lative": 6795,
    "frequency": 6796,
    "Ġeffic": 6797,
    "Ġefficiency": 6798,
    "udget": 6799,
    "ĠOptimize": 6800,
    "Ġpages": 6801,
    "ĠRequestBatcher": 6802,
    "ĠDisk": 6803,
    "Ġanswers": 6804,
    "ĠCloudTrainer": 6805,
    "ĠMultiCloud": 6806,
    "ĠMultiCloudTrainer": 6807,
    "Ġorchestrator": 6808,
    "chedules": 6809,
    "vector": 6810,
    "istill": 6811,
    "ĠProgressCallback": 6812,
    "ĠDownloadTracker": 6813,
    "ved": 6814,
    "sentence": 6815,
    "ĠEvaluationSuite": 6816,
    "ĠWandBTracker": 6817,
    "ĠMLflowTracker": 6818,
    "ĠCopy": 6819,
    "Ġchunks": 6820,
    "Ele": 6821,
    "Element": 6822,
    "Ġvisible": 6823,
    "Ġinst": 6824,
    "Ġinstead": 6825,
    "matches": 6826,
    "wise": 6827,
    "Ġconfigured": 6828,
    "Function": 6829,
    "constraint": 6830,
    "Ġaccelerator": 6831,
    "ĠApple": 6832,
    "method": 6833,
    "ĠGradientExplainer": 6834,
    "ĠExplainer": 6835,
    "spect": 6836,
    "location": 6837,
    "Ġflush": 6838,
    "ĠQuantizationConfig": 6839,
    "ĠCPUOffloader": 6840,
    "Ġoffload": 6841,
    "Ġrequirements": 6842,
    "ĠGLU": 6843,
    "rank": 6844,
    "Des": 6845,
    "Ġmerge": 6846,
    "acc": 6847,
    "ĠTeachingAttempt": 6848,
    "Ġpoints": 6849,
    "rieve": 6850,
    "Ġnumber": 6851,
    "MLP": 6852,
    "Ġins": 6853,
    "ĠOllamaModel": 6854,
    "ĠPage": 6855,
    "Ġtra": 6856,
    "ĠPlanStep": 6857,
    "ĠBackendPlugin": 6858,
    "ĠHookPlugin": 6859,
    "ĠProcessMonitor": 6860,
    "ĠVariable": 6861,
    "prune": 6862,
    "Ġprune": 6863,
    "QuantizedLinear": 6864,
    "ĠForgeRe": 6865,
    "ĠForgeReAct": 6866,
    "ĠForgeReActAgent": 6867,
    "ĠReasoningEvalu": 6868,
    "ĠReasoningEvaluator": 6869,
    "ĠAnswerComp": 6870,
    "ĠAnswerComparator": 6871,
    "ĠForgeSelf": 6872,
    "ĠForgeSelfConsistency": 6873,
    "ĠLearningEngine": 6874,
    "ĠSelfPlayTrainer": 6875,
    "ĠEmbeddingProvider": 6876,
    "Ġspeculative": 6877,
    "Ġdecoding": 6878,
    "ĠMambaModel": 6879,
    "Ġexception": 6880,
    "Ġutilities": 6881,
    "ĠDataAugmentor": 6882,
    "ĠOffloadedTask": 6883,
    "ĠWorkerThread": 6884,
    "ĠToolCalling": 6885,
    "ĠToolCallingTrainer": 6886,
    "ĠToolInterface": 6887,
    "Ass": 6888,
    "ĠTPState": 6889,
    "singleton": 6890,
    "Ġworld": 6891,
    "enigma": 6892,
    "ĠQualityTracker": 6893,
    "ĠTreeMask": 6894,
    "ĠForgeTo": 6895,
    "ĠForgeToT": 6896,
    "ĠForgeToTIntegration": 6897,
    "ĠUniversalToolRouter": 6898,
    "ĠHelmChart": 6899,
    "ĠAPIDocGenerator": 6900,
    "ĠDiagramGenerator": 6901,
    "ĠDHT": 6902,
    "22": 6903,
    "ĠFederatedAggregator": 6904,
    "compress": 6905,
    "ĠFederationDirectory": 6906,
    "Ġlisten": 6907,
    "ĠAccessibilityConfig": 6908,
    "Access": 6909,
    "ĠThemeColors": 6910,
    "Ġpalette": 6911,
    "ĠChatFeatures": 6912,
    "ĠChatFeaturesManager": 6913,
    "ĠTypingIndicator": 6914,
    "ĠConversationOr": 6915,
    "ĠConversationOrganizer": 6916,
    "ĠcloseEvent": 6917,
    "ĠFontScaler": 6918,
    "translations": 6919,
    "ĠMultiFile": 6920,
    "ĠMultiFileUp": 6921,
    "ĠMultiFileUploader": 6922,
    "ĠSoundSettings": 6923,
    "ĠStatusBar": 6924,
    "ĠInputValidator": 6925,
    "winner": 6926,
    "ĠWaylandDetector": 6927,
    "ĠBehaviorManager": 6928,
    "learner": 6929,
    "ĠFederatedData": 6930,
    "ĠFederatedDataFilter": 6931,
    "ĠEnsembleC": 6932,
    "ĠEnsembleCombin": 6933,
    "ĠEnsembleCombiner": 6934,
    "Ġqueries": 6935,
    "ĠSecureS": 6936,
    "ĠSecureSum": 6937,
    "ĠSecureSumProtocol": 6938,
    "ĠPaillierEncryption": 6939,
    "ĠHomomorphic": 6940,
    "ĠHomomorphicAggregator": 6941,
    "Ġinstallation": 6942,
    "Ġrepository": 6943,
    "ĠAsyncMemoryDatabase": 6944,
    "ĠMemoryAugmented": 6945,
    "ĠMemoryAugmentedEngine": 6946,
    "ĠConversationStats": 6947,
    "ĠMemoryD": 6948,
    "ĠMemoryDeduplicator": 6949,
    "ĠEncryptedMemory": 6950,
    "ĠEncryptedMemoryCategory": 6951,
    "ĠWikipediaClient": 6952,
    "ĠWikidataClient": 6953,
    "ĠConversationManager": 6954,
    "ĠMemoryDatabase": 6955,
    "edMessage": 6956,
    "ĠUserPreference": 6957,
    "ĠUserPreferences": 6958,
    "Ġsummarization": 6959,
    "ĠTextPre": 6960,
    "ĠTextPreprocessor": 6961,
    "ĠAbstractive": 6962,
    "ĠWorkingMemoryManager": 6963,
    "ĠModuleSandbox": 6964,
    "ĠPrometheusExporter": 6965,
    "ĠPluginRegistryClient": 6966,
    "grasp": 6967,
    "pick": 6968,
    "ĠROSBridge": 6969,
    "ĠUserPermissions": 6970,
    "sensitive": 6971,
    "ĠCertificateManager": 6972,
    "ĠSecureServer": 6973,
    "ĠRollback": 6974,
    "ĠAsyncToolExecutor": 6975,
    "multiple": 6976,
    "ĠOffensive": 6977,
    "ĠOffensiveContentFilter": 6978,
    "ĠWikiCache": 6979,
    "ĠGameWiki": 6980,
    "Ġinteractive": 6981,
    "ĠToolExecutionHistory": 6982,
    "ĠHomeAssistantClient": 6983,
    "ĠHomeAssistantConfig": 6984,
    "ĠMQT": 6985,
    "ĠRRT": 6986,
    "ĠParallelToolExecutor": 6987,
    "ĠToolPermission": 6988,
    "ĠToolPermissionManager": 6989,
    "ĠToolPluginLoader": 6990,
    "ĠMessageConverter": 6991,
    "ĠPolygon": 6992,
    "ĠRect": 6993,
    "wh": 6994,
    "where": 6995,
    "ĠCameraSensor": 6996,
    "ltra": 6997,
    "ltrason": 6998,
    "ltrasonic": 6999,
    "ĠYouTubeConnection": 7000,
    "ĠDiscordConnection": 7001,
    "ĠToolDefinition": 7002,
    "ĠToolExecutor": 7003,
    "ĠToolRegistry": 7004,
    "ĠToolSchemaValidator": 7005,
    "database": 7006,
    "docker": 7007,
    "ifetime": 7008,
    "Ġscoped": 7009,
    "ĠEventB": 7010,
    "ĠEventBus": 7011,
    "Ġthumbs": 7012,
    "ĠHardwareProfileManager": 7013,
    "ĠHookManager": 7014,
    "ĠFeedbackManager": 7015,
    "ĠNotificationSettings": 7016,
    "sole": 7017,
    "Based": 7018,
    "ĠResourceFactory": 7019,
    "estro": 7020,
    "estroy": 7021,
    "ĠResourcePool": 7022,
    "ĠResponseTemplates": 7023,
    "ĠSort": 7024,
    "arterK": 7025,
    "arterKit": 7026,
    "ĠFixture": 7027,
    "ĠFixtureFactory": 7028,
    "ĠTextDiff": 7029,
    "ĠTextFormatter": 7030,
    "ĠThreadPoolManager": 7031,
    "ĠWorkerPool": 7032,
    "ĠEmotional": 7033,
    "ĠEmotionalTTS": 7034,
    "Ġsynthesize": 7035,
    "ĠDiarizationResult": 7036,
    "ĠSSMLProcessor": 7037,
    "Ġphrases": 7038,
    "ĠWebRT": 7039,
    "ĠWebRTC": 7040,
    "ĠCloned": 7041,
    "ĠClonedVoice": 7042,
    "ĠAIVoiceIdentity": 7043,
    "ĠVoiceCommands": 7044,
    "ĠTrainingDashboard": 7045,
    "ĠLinuxHotkeyBackend": 7046,
    "ĠMacOSHotkeyBackend": 7047,
    "ĠReGLU": 7048,
    "usoid": 7049,
    "usoidal": 7050,
    "atedSample": 7051,
    "ĠCommandRegistry": 7052,
    "ĠLayoutPresetManager": 7053,
    "Ġstyled": 7054,
    "note": 7055,
    "ĠGenerationProvider": 7056,
    "Ġwheel": 7057,
    "Ġretrieves": 7058,
    "stand": 7059,
    "ĠAgentPersonality": 7060,
    "ĠAgentProtocol": 7061,
    "ĠMessageHandler": 7062,
    "ĠSwarmAgent": 7063,
    "Ġcomplex": 7064,
    "tasks": 7065,
    "execut": 7066,
    "Ġentire": 7067,
    "Ġcalls": 7068,
    "Ġvoting": 7069,
    "ĠConsensus": 7070,
    "ĠConsensusBuilder": 7071,
    "ĠTokenManager": 7072,
    "ires": 7073,
    "'])": 7074,
    "Ġrendering": 7075,
    "link": 7076,
    "Manifest": 7077,
    "undles": 7078,
    "ĠAvatarImport": 7079,
    "ĠAvatarImportWizard": 7080,
    "ĠAvatarPicker": 7081,
    "ĠAvatarPickerDialog": 7082,
    "Ġbrow": 7083,
    "ĠAvatarAppearance": 7084,
    "Ġevolves": 7085,
    "AIPersonality": 7086,
    "Ġrotation": 7087,
    "Ġspecified": 7088,
    "Inter": 7089,
    "Ġsecond": 7090,
    "Direction": 7091,
    "ĠMorphTarget": 7092,
    "placement": 7093,
    "ightweight": 7094,
    "rigg": 7095,
    "formats": 7096,
    "ues": 7097,
    "Ġoptionally": 7098,
    "Performance": 7099,
    "ĠAvatarPerformanceValidator": 7100,
    "ĠPhysicsParticle": 7101,
    "velocity": 7102,
    "resolve": 7103,
    "ĠParticleEm": 7104,
    "ĠParticleEmitter": 7105,
    "ĠEffectOverlay": 7106,
    "Ġreason": 7107,
    "ĠObjectSp": 7108,
    "ĠObjectSpawner": 7109,
    "Ġsynchron": 7110,
    "ĠSpriteTemplate": 7111,
    "ĠSpriteTemplateGenerator": 7112,
    "ways": 7113,
    "ĠBuiltinImageGen": 7114,
    "]]]": 7115,
    "GQA": 7116,
    "ĠPureS": 7117,
    "ĠPureSGD": 7118,
    "zero": 7119,
    "ĠPureChat": 7120,
    "ĠBuiltinVideo": 7121,
    "ĠBuiltinVideoGen": 7122,
    "sor": 7123,
    "operation": 7124,
    "socket": 7125,
    "Ġlimiter": 7126,
    "Ġlimiting": 7127,
    "Ġfunc": 7128,
    "Ġdiscovery": 7129,
    "Ġvariables": 7130,
    "terator": 7131,
    "Ġwait": 7132,
    "Ġavg": 7133,
    "ĠNetworkOptimizer": 7134,
    "ĠPerUser": 7135,
    "ĠPerUserRateLimiter": 7136,
    "Ġinternet": 7137,
    "ĠWebServer": 7138,
    "Ġsizes": 7139,
    "Ġprevent": 7140,
    "ĠAPIKeyInfo": 7141,
    "ĠQualityScorer": 7142,
    "LU": 7143,
    "Ġcollection": 7144,
    "Ġoptimizations": 7145,
    "anger": 7146,
    "ĠTrainingDataBatch": 7147,
    "ĠTrainingDataBatchGenerator": 7148,
    "ĠInferenceRequest": 7149,
    "adder": 7150,
    "ĠBPETokenizer": 7151,
    "react": 7152,
    "ĠAnswerExtractor": 7153,
    "ĠTreeOfThought": 7154,
    "Ġbranching": 7155,
    "ĠGradientCheck": 7156,
    "ĠGradientCheckpo": 7157,
    "ĠGradientCheckpointer": 7158,
    "ng": 7159,
    "orchestrator": 7160,
    "ĠConfigManager": 7161,
    "Ġentities": 7162,
    "Ġestim": 7163,
    "ĠInstructionDataset": 7164,
    "ĠTemplateAugmenter": 7165,
    "ĠDistiller": 7166,
    "ĠDPOLoss": 7167,
    "probs": 7168,
    "Ġdomain": 7169,
    "curacy": 7170,
    "ĠBenchmarkRunner": 7171,
    "ĠMMLUBenchmark": 7172,
    "ĠHellaSwagBenchmark": 7173,
    "ĠHumanEvalBenchmark": 7174,
    "Ġtests": 7175,
    "alibrate": 7176,
    "ĠConfidence": 7177,
    "ĠConfidenceScorer": 7178,
    "vant": 7179,
    "ĠFlashAttentionWith": 7180,
    "ĠFlashAttentionWithKVCache": 7181,
    "Ġelement": 7182,
    "Ġwatch": 7183,
    "percent": 7184,
    "cp": 7185,
    "cpp": 7186,
    "Ġmaxim": 7187,
    "Ġprofil": 7188,
    "Ġprofiling": 7189,
    "ĠActivationCheckpointing": 7190,
    "ied": 7191,
    "Ġsum": 7192,
    "omplet": 7193,
    "rial": 7194,
    "ĠMemoryB": 7195,
    "ĠMemoryBank": 7196,
    "ĠLandmarkAttention": 7197,
    "ĠCompress": 7198,
    "Ġadds": 7199,
    "ĠIntegrated": 7200,
    "ĠAnalyzes": 7201,
    "Ġflow": 7202,
    "ĠQLoRALinear": 7203,
    "ĠTeachingStrategy": 7204,
    "Ġhistogram": 7205,
    "Ġtouch": 7206,
    "ĠDebug": 7207,
    "ĠDebugReport": 7208,
    "Ġ\"": 7209,
    "ingStrategy": 7210,
    "Ġoffloading": 7211,
    "ĠManual": 7212,
    "exist": 7213,
    "Ġplanner": 7214,
    "ĠPluginManager": 7215,
    "Prefix": 7216,
    "ĠStructuredPruner": 7217,
    "ĠSemi": 7218,
    "ĠSemiSt": 7219,
    "ĠSemiStructuredPruner": 7220,
    "ĠPruner": 7221,
    "ĠQLoRAModel": 7222,
    "lap": 7223,
    "ĠSentenceTransformerEmbedder": 7224,
    "Ġsolve": 7225,
    "ĠReasoningResult": 7226,
    "ĠRewardTrainer": 7227,
    "Ġactivity": 7228,
    "ĠSpeculation": 7229,
    "ĠSpeculationStats": 7230,
    "accept": 7231,
    "ĠSteamIntegration": 7232,
    "ĠFinish": 7233,
    "ĠCallbackStreamer": 7234,
    "ĠParallelState": 7235,
    "ĠColumnParallelLinear": 7236,
    "ĠRowParallelLinear": 7237,
    "ĠTiktoken": 7238,
    "ĠTiktokenWrapper": 7239,
    "ĠDatasetGenerator": 7240,
    "egative": 7241,
    "ĠTPEmbedding": 7242,
    "ĠParallelB": 7243,
    "ĠParallelBeam": 7244,
    "ĠParallelBeamSearch": 7245,
    "ĠUncertaintyResult": 7246,
    "bal": 7247,
    "ĠTemperatureC": 7248,
    "ĠTemperatureCalibr": 7249,
    "ĠTemperatureCalibrator": 7250,
    "Ġreading": 7251,
    "maining": 7252,
    "ĠDeployGenerator": 7253,
    "Ġcell": 7254,
    "ĠGameProfileManager": 7255,
    "ĠYouTubeIntegration": 7256,
    "ĠAccessibilityManager": 7257,
    "ĠDatasetBuilderDialog": 7258,
    "ĠDensityManager": 7259,
    "solidated": 7260,
    "pedFile": 7261,
    "Suggestion": 7262,
    "ĠNavigationH": 7263,
    "ĠNavigationHint": 7264,
    "Ġfactory": 7265,
    "ĠModelSwitcherMenu": 7266,
    "onfirm": 7267,
    "ĠWindowsN": 7268,
    "ĠWindowsNarrator": 7269,
    "ĠMacVoice": 7270,
    "ĠMacVoiceOver": 7271,
    "ĠLinuxOr": 7272,
    "ĠFallbackTTS": 7273,
    "ĠAccessibleWindow": 7274,
    "ĠShortcuts": 7275,
    "ĠShortcutsDialog": 7276,
    "ĠQuickAccess": 7277,
    "ĠQuickAccessBar": 7278,
    "bar": 7279,
    "Ġpanel": 7280,
    "ĠCommandProcessor": 7281,
    "ĠGradientF": 7282,
    "ĠGradientFlow": 7283,
    "ĠGradientFlowWidget": 7284,
    "ĠAttentionH": 7285,
    "ĠAttentionHe": 7286,
    "ĠAttentionHeatmap": 7287,
    "ĠAttentionHeatmapWidget": 7288,
    "ĠVisualizationCallback": 7289,
    "ĠWaylandClipboard": 7290,
    "ĠLocalModel": 7291,
    "ĠLocalModelIndex": 7292,
    "ĠDiscordBot": 7293,
    "ĠEvaluationScore": 7294,
    "RAM": 7295,
    "decrypt": 7296,
    "ĠPluginVersion": 7297,
    "ĠPluginRepository": 7298,
    "ĠLocalRepository": 7299,
    "utions": 7300,
    "ĠContribution": 7301,
    "ĠContributionScorer": 7302,
    "branch": 7303,
    "ĠConversationTemplate": 7304,
    "ql": 7305,
    "ĠRecall": 7306,
    "ĠRAGSystem": 7307,
    "sentences": 7308,
    "ĠExtractiv": 7309,
    "ĠExtractives": 7310,
    "ĠExtractivesSummarizer": 7311,
    "ĠConversationCompressor": 7312,
    "dater": 7313,
    "trusted": 7314,
    "ToolPlugin": 7315,
    "ĠROSTopic": 7316,
    "ĠROSTopicManager": 7317,
    "ĠCertificateInfo": 7318,
    "ĠSelfIm": 7319,
    "ĠSelfImprovement": 7320,
    "ĠSelfImprovementD": 7321,
    "ĠSelfImprovementDaemon": 7322,
    "workflow": 7323,
    "ĠFolderWatcher": 7324,
    "ĠProjectContextExtractor": 7325,
    "ĠGamePersonality": 7326,
    "ĠGoalTracker": 7327,
    "ĠChecklist": 7328,
    "ĠChecklistManager": 7329,
    "ĠTaskScheduler": 7330,
    "ĠReminder": 7331,
    "ĠPlayerDetector": 7332,
    "ĠRobotState": 7333,
    "ĠPiRobotController": 7334,
    "ĠFrame": 7335,
    "ĠFrameExtractor": 7336,
    "ĠEventDetector": 7337,
    "events": 7338,
    "publish": 7339,
    "ĠCheckResult": 7340,
    "ĠUltrasonic": 7341,
    "ĠIMUProcessor": 7342,
    "ĠGPSProcessor": 7343,
    "ĠSLAMSystem": 7344,
    "ĠVariant": 7345,
    "ĠImportBlocker": 7346,
    "afely": 7347,
    "ĠTS": 7348,
    "ĠTSV": 7349,
    "ĠYA": 7350,
    "ĠX": 7351,
    "ĠHeadlessDetector": 7352,
    "Ġheadless": 7353,
    "ĠNetworkBlocker": 7354,
    "ĠOfflineSyncQueue": 7355,
    "ĠWindowsNotificationBackend": 7356,
    "ĠLinuxNotificationBackend": 7357,
    "ĠMacOSNotificationBackend": 7358,
    "leaner": 7359,
    "ĠConsole": 7360,
    "ĠConsoleProgress": 7361,
    "ĠConsoleProgressBar": 7362,
    "ĠOutputValidator": 7363,
    "Ġambient": 7364,
    "Ġducking": 7365,
    "ĠMood": 7366,
    "ĠMoodM": 7367,
    "ĠMoodMusic": 7368,
    "ĠMoodMusicManager": 7369,
    "Ġcancellation": 7370,
    "ĠVoiceListener": 7371,
    "ĠLanguageDetector": 7372,
    "ĠPyttsx": 7373,
    "ĠCoquiEngine": 7374,
    "ĠNaturalTTS": 7375,
    "ĠNoiseReducer": 7376,
    "Ġdiarization": 7377,
    "ĠEnergyVAD": 7378,
    "ĠVoiceEngine": 7379,
    "ĠLocalDiscovery": 7380,
    "ĠTelemetryDashboard": 7381,
    "ĠImportProvider": 7382,
    "ĠAnnotationDialog": 7383,
    "ĠExpressionMappingDialog": 7384,
    "ĠGenerationPreview": 7385,
    "ĠGenerationPreviewP": 7386,
    "ĠGenerationPreviewPopup": 7387,
    "terminal": 7388,
    "ĠModelManager": 7389,
    "ĠModelManagerDialog": 7390,
    "ĠQuickCreateDialog": 7391,
    "ĠThemeEditor": 7392,
    "ĠThemeEditorDialog": 7393,
    "ĠAIOverlay": 7394,
    "ĠAITab": 7395,
    "ĠAnalyticsTab": 7396,
    "ĠBaseGeneration": 7397,
    "ĠBaseGenerationTab": 7398,
    "ĠTrainingWorker": 7399,
    "ĠDataGenWorker": 7400,
    "ĠAPIData": 7401,
    "ĠAPIDataGenWorker": 7402,
    "ĠBundleCard": 7403,
    "ĠCameraThread": 7404,
    "ĠCreateTab": 7405,
    "ĠQuickAction": 7406,
    "ĠQuickActionButton": 7407,
    "ĠAlertB": 7408,
    "ĠAlertBanner": 7409,
    "ĠActivityItem": 7410,
    "ĠDashboardTab": 7411,
    "ĠDevicesTab": 7412,
    "ĠEmbeddingWorker": 7413,
    "ĠGIFGenerationWorker": 7414,
    "ĠImageGenerationWorker": 7415,
    "ĠLogView": 7416,
    "ĠLogViewer": 7417,
    "ĠLogViewerWidget": 7418,
    "ĠLogsTab": 7419,
    "ĠMarketplaceTab": 7420,
    "ĠCompareWorker": 7421,
    "ĠModelRouterTab": 7422,
    "ĠModelSelector": 7423,
    "ĠModules": 7424,
    "ĠModulesTab": 7425,
    "ĠNetworkScan": 7426,
    "ĠNetworkScanner": 7427,
    "ĠNetworkTab": 7428,
    "ĠBookmarks": 7429,
    "ĠBookmarksManager": 7430,
    "ĠNotesTab": 7431,
    "ĠNew": 7432,
    "ĠNewPersonaDialog": 7433,
    "ĠCopyPersonaDialog": 7434,
    "ĠScalingTab": 7435,
    "ĠSchedulerTab": 7436,
    "ĠPresetSelector": 7437,
    "ĠColorCustomizer": 7438,
    "ĠSettingsPersistence": 7439,
    "ĠmouseReleaseEvent": 7440,
    "ĠDeviceCapabilityWidget": 7441,
    "ĠLoadBalancing": 7442,
    "ĠLoadBalancingWidget": 7443,
    "ĠTaskOffload": 7444,
    "ĠTaskOffloading": 7445,
    "ĠTaskOffloadingTab": 7446,
    "ĠThreeDGenerationWorker": 7447,
    "ĠToolManagerTab": 7448,
    "ĠGeneratorWorker": 7449,
    "ĠAPIGenerator": 7450,
    "ĠAPIGeneratorWorker": 7451,
    "ĠVideoGenerationWorker": 7452,
    "ĠVoiceGenerationWorker": 7453,
    "ĠVoiceCloneTab": 7454,
    "ĠHotkeyConfig": 7455,
    "ĠHotkeyConfigWidget": 7456,
    "ĠPastedImage": 7457,
    "ĠImagePasteA": 7458,
    "ĠQuickActions": 7459,
    "ĠQuickActionsBar": 7460,
    "ĠQuickSettings": 7461,
    "ĠQuickSettingsPanel": 7462,
    "ĠSplitP": 7463,
    "ĠSplitPane": 7464,
    "border": 7465,
    "tray": 7466,
    "Ġcross": 7467,
    "ined": 7468,
    "Ġbus": 7469,
    "ĠDecomposed": 7470,
    "ĠDecomposedTask": 7471,
    "ĠTaskExecutor": 7472,
    "ĠMatchResult": 7473,
    "ĠUserProfile": 7474,
    "Ġadaptive": 7475,
    "explicit": 7476,
    "Animation": 7477,
    "ĠUses": 7478,
    "Ġloop": 7479,
    "Ġbones": 7480,
    "ĠAutomatically": 7481,
    "Ġmanifest": 7482,
    "drop": 7483,
    "Ġdesign": 7484,
    "ĠPoseData": 7485,
    "landmark": 7486,
    "Ġsecondary": 7487,
    "Ġaccent": 7488,
    "Ġpet": 7489,
    "Ġact": 7490,
    "ĠGestureSelector": 7491,
    "asic": 7492,
    "rating": 7493,
    "Ġmanipulation": 7494,
    "Ġbound": 7495,
    "oring": 7496,
    "vertice": 7497,
    "vertices": 7498,
    "Ġrelationships": 7499,
    "ĠAutoRig": 7500,
    "ĠAutoRigger": 7501,
    "ĠModelImporter": 7502,
    "Ġsupported": 7503,
    "ze": 7504,
    "Ġamount": 7505,
    "Ġsepar": 7506,
    "Ġdimensions": 7507,
    "Ġassistant": 7508,
    "Ġparticles": 7509,
    "collision": 7510,
    "ĠBlink": 7511,
    "ĠBlinkController": 7512,
    "ĠLookA": 7513,
    "ĠLookAround": 7514,
    "ĠLookAroundController": 7515,
    "finished": 7516,
    "texture": 7517,
    "ĠSentimentResult": 7518,
    "Ġclick": 7519,
    "thinking": 7520,
    "ĠBuiltinEmbeddings": 7521,
    "ĠPureConfig": 7522,
    "ĠMe": 7523,
    "ĠAPIs": 7524,
    "Ġpy": 7525,
    "Ġterminal": 7526,
    "Ġcur": 7527,
    "oin": 7528,
    "Ġretry": 7529,
    "Authenticator": 7530,
    "Ġlat": 7531,
    "Ġentries": 7532,
    "ucket": 7533,
    "Ġresol": 7534,
    "Ġasynchronously": 7535,
    "ĠgRPC": 7536,
    "ĠClose": 7537,
    "ĠMemorySync": 7538,
    "ĠModelVersion": 7539,
    "ĠAIParticipant": 7540,
    "ĠRequestStats": 7541,
    "ĠQueuedRequest": 7542,
    "ayload": 7543,
    "ĠStreamingClient": 7544,
    "ĠStreamingServer": 7545,
    "ĠTunnelManager": 7546,
    "ration": 7547,
    "ĠMemoryConfig": 7548,
    "Ġrecording": 7549,
    "Ġselected": 7550,
    "req": 7551,
    "elegation": 7552,
    "ĠPrint": 7553,
    "ĠDeviceProfile": 7554,
    "Ġalgorithm": 7555,
    "ĠAttentionConfig": 7556,
    "ĠRandomly": 7557,
    "ĠTokenP": 7558,
    "ĠTokenPadder": 7559,
    "classify": 7560,
    "pth": 7561,
    "Ġcrit": 7562,
    "Ġref": 7563,
    "assistant": 7564,
    "plier": 7565,
    "Ġscaler": 7566,
    "ĠBatchScheduler": 7567,
    "Ġintermediate": 7568,
    "ĠPooledEngine": 7569,
    "ĠEvaluationResult": 7570,
    "Ġsuite": 7571,
    "benchmarks": 7572,
    "ĠExperimentManager": 7573,
    "Ġretrieval": 7574,
    "ĠAttentionBase": 7575,
    "ĠGameModeWatcher": 7576,
    "vram": 7577,
    "Ġscal": 7578,
    "lasses": 7579,
    "ĠGPTQModel": 7580,
    "ĠJsonSchema": 7581,
    "ĠJsonSchemaConstraint": 7582,
    "ĠRegexConstraint": 7583,
    "ĠEnum": 7584,
    "ĠEnumConstraint": 7585,
    "ĠLength": 7586,
    "ĠLengthConstraint": 7587,
    "ĠHotkeyProfile": 7588,
    "chord": 7589,
    "Ġregistr": 7590,
    "Ġregistration": 7591,
    "ĠHyperparameterSearch": 7592,
    "ĠBay": 7593,
    "ĠBayes": 7594,
    "ĠBayesian": 7595,
    "ĠIntegrationResult": 7596,
    "ĠAttentionExplainer": 7597,
    "ĠStreamingKVCache": 7598,
    "Ġoffloader": 7599,
    "ĠLargeModelTrainer": 7600,
    "rained": 7601,
    "ĠAILe": 7602,
    "ĠAILearned": 7603,
    "ĠAILearnedGenerator": 7604,
    "ĠLoRAConfig": 7605,
    "ĠLowPowerConfig": 7606,
    "ĠGPUs": 7607,
    "Ġcounter": 7608,
    "ĠMoEFeedForward": 7609,
    "Ellipsis": 7610,
    "ĠKnowledgeD": 7611,
    "ĠKnowledgeDistiller": 7612,
    "Ġexperts": 7613,
    "ĠMoEModel": 7614,
    "ĠGPUInfo": 7615,
    "ĠBlockManager": 7616,
    "ĠAIPersona": 7617,
    "ĠPluginMetadata": 7618,
    ".).": 7619,
    "ĠModelPlugin": 7620,
    "fine": 7621,
    "hardware": 7622,
    "ĠQLoRATrainer": 7623,
    "QuantConfig": 7624,
    "ĠReActAgent": 7625,
    "ĠStepExtractor": 7626,
    "ĠResourceLimit": 7627,
    "ĠResourceLimiter": 7628,
    "ĠLearningExample": 7629,
    "improvement": 7630,
    "ĠSimpleDraft": 7631,
    "ĠSimpleDraftModel": 7632,
    "special": 7633,
    "ĠSimpleTokenizer": 7634,
    "ĠToTRe": 7635,
    "ĠToTReasoner": 7636,
    "ĠUncertaintyEstimator": 7637,
    "ĠContentExtractor": 7638,
    "ĠShuffle": 7639,
    "ĠShuffleBuffer": 7640,
    "via": 7641,
    "doc": 7642,
    "ĠPlantUMLGenerator": 7643,
    "Ġnotebook": 7644,
    "Not": 7645,
    "Ġheader": 7646,
    "battery": 7647,
    "ĠRaspberryPi": 7648,
    "ĠRaspberryPiPower": 7649,
    "Ġrepresentation": 7650,
    "vertise": 7651,
    "ĠFederationInfo": 7652,
    "ĠFederatedParticipant": 7653,
    "privacy": 7654,
    "ĠConversationTagManager": 7655,
    "ĠMessageEditor": 7656,
    "ĠPinManager": 7657,
    "ĠFolderManager": 7658,
    "ĠEnhancedMainWindow": 7659,
    "Ġnavigation": 7660,
    "Ġage": 7661,
    "ĠPushNotification": 7662,
    "ĠPushNotificationService": 7663,
    "ĠConfirmation": 7664,
    "Ġseverity": 7665,
    "redo": 7666,
    "ĠAnt": 7667,
    "ĠAnti": 7668,
    "ĠAntiT": 7669,
    "ĠAntiTamper": 7670,
    "Ġaccessible": 7671,
    "ĠLinuxOrca": 7672,
    "accessibility": 7673,
    "ĠDraft": 7674,
    "ĠDraftManager": 7675,
    "ĠConfigEditor": 7676,
    "ĠWel": 7677,
    "ĠWelcome": 7678,
    "Ġshortcuts": 7679,
    "Ġtray": 7680,
    "categories": 7681,
    "ĠAIGenerationWorker": 7682,
    "ĠCriticTrainer": 7683,
    "ĠTrainingTask": 7684,
    "ĠVRAM": 7685,
    "ublic": 7686,
    "ĠEncrypt": 7687,
    "ĠSecureAggregationProtocol": 7688,
    "ĠTrust": 7689,
    "ĠTrustManager": 7690,
    "ĠDependencyResol": 7691,
    "ĠDependencyResolver": 7692,
    "ĠTemplateLibrary": 7693,
    "Ġduplicate": 7694,
    "Art": 7695,
    "Artic": 7696,
    "Article": 7697,
    "ĠKnowledgeCache": 7698,
    "ĠMemorySearch": 7699,
    "ĠMemoryImportance": 7700,
    "ĠMemoryImportanceScorer": 7701,
    "simple": 7702,
    "ĠMemorySlot": 7703,
    "ĠModuleUp": 7704,
    "ĠModuleUpdater": 7705,
    "SignatureInfo": 7706,
    "ĠExampleToolPlugin": 7707,
    "permissions": 7708,
    "ĠTokenGenerator": 7709,
    "ersonal": 7710,
    "Ġconsent": 7711,
    "ĠDeletion": 7712,
    "ĠDeletionManager": 7713,
    "ĠSyncSettings": 7714,
    "ĠCloudSyncService": 7715,
    "ĠToolAnalytics": 7716,
    "calls": 7717,
    "ĠBiasDetector": 7718,
    "ĠSafeRe": 7719,
    "ĠSafeReinforcement": 7720,
    "ĠSafeReinforcementLog": 7721,
    "ĠSafeReinforcementLogic": 7722,
    "ĠCodeStyleGu": 7723,
    "ĠCodeStyleGuide": 7724,
    "dialog": 7725,
    "ĠTaskExample": 7726,
    "ĠToolDependency": 7727,
    "ĠToolDependencyChecker": 7728,
    "ĠGameConfig": 7729,
    "fail": 7730,
    "reference": 7731,
    "ĠReminderSystem": 7732,
    "DF": 7733,
    "Ġdescriptions": 7734,
    "ĠMotionTracker": 7735,
    "highlight": 7736,
    "Ġfailure": 7737,
    "ĠMovement": 7738,
    "Ġecho": 7739,
    "ĠStreamingToolExecutor": 7740,
    "ĠBenchmarkReport": 7741,
    "ĠBoundedCache": 7742,
    "ĠTTLCache": 7743,
    "ĠDeploymentConfig": 7744,
    "ĠDockerGenerator": 7745,
    "ĠAWSGenerator": 7746,
    "ĠKubernetesGenerator": 7747,
    "ĠSnippet": 7748,
    "ĠSnippetManager": 7749,
    "ĠTokenC": 7750,
    "ĠTokenCounter": 7751,
    "ĠDiscovery": 7752,
    "ĠDiscoveryMode": 7753,
    "ĠErrorHandler": 7754,
    "ĠFeedbackCollector": 7755,
    "ĠResponseRating": 7756,
    "ĠResponseRatingWidget": 7757,
    "headless": 7758,
    "ĠRetry": 7759,
    "ĠOfflineCache": 7760,
    "ĠTrainingDataC": 7761,
    "ĠTrainingDataCleaner": 7762,
    "ĠClean": 7763,
    "ĠSQLQueryBuilder": 7764,
    "ĠQuickReplyGenerator": 7765,
    "ĠTFIDF": 7766,
    "ĠTFIDFScorer": 7767,
    "ĠJacc": 7768,
    "ĠJaccard": 7769,
    "ĠPooledResource": 7770,
    "ĠResponseTemplate": 7771,
    "ĠSafely": 7772,
    "ĠLogS": 7773,
    "ĠLogSanitizer": 7774,
    "ĠSecurityA": 7775,
    "ĠSecurityAuditor": 7776,
    "audit": 7777,
    "ĠStarterKit": 7778,
    "ĠTrainingDataFormatter": 7779,
    "ĠWorkflowExecutor": 7780,
    "ĠTranscription": 7781,
    "ĠSpeak": 7782,
    "Ġinterru": 7783,
    "notification": 7784,
    "ĠSingingVoice": 7785,
    "ĠVoiceCloner": 7786,
    "ĠConverted": 7787,
    "ĠVoiceEffect": 7788,
    "ĠVoiceEffects": 7789,
    "effects": 7790,
    "ĠTTSEnginePool": 7791,
    "ĠBaseWakeWordEngine": 7792,
    "ĠBaseModel": 7793,
    "ĠQtAvatarRenderer": 7794,
    "ĠWindowsHotkeyBackend": 7795,
    "ĠHuggingFaceImporter": 7796,
    "ĠOllamaImporter": 7797,
    "ĠWandBImporter": 7798,
    "ĠAll": 7799,
    "ĠModelLo": 7800,
    "ĠModelLoad": 7801,
    "ĠModelLoading": 7802,
    "ĠModelLoadingDialog": 7803,
    "ĠLayoutPreset": 7804,
    "ĠFederationTab": 7805,
    "ĠNoSc": 7806,
    "ĠNoScroll": 7807,
    "ĠNoScrollComboBox": 7808,
    "ĠModuleStateChecker": 7809,
    "ĠImagePasteArea": 7810,
    "Ġplays": 7811,
    "End": 7812,
    "Endpoint": 7813,
    "Ġph": 7814,
    "Ġpi": 7815,
    "phone": 7816,
    "ĠTaskCoordinator": 7817,
    "Ġexpected": 7818,
    "ratings": 7819,
    "Judge": 7820,
    "ĠWorkspaceUI": 7821,
    "posal": 7822,
    "ĠDebateEngine": 7823,
    "ĠHash": 7824,
    "Ġip": 7825,
    "Ġperform": 7826,
    "Ġparsed": 7827,
    "ĠBridge": 7828,
    "Ġgl": 7829,
    "Ġwe": 7830,
    "ĠSets": 7831,
    "Ġidentity": 7832,
    "ĠMaps": 7833,
    "sequence": 7834,
    "akes": 7835,
    "Leave": 7836,
    "LeaveEvent": 7837,
    "Ġbrowsing": 7838,
    "Ġselecting": 7839,
    "Ġjoints": 7840,
    "limits": 7841,
    "release": 7842,
    "render": 7843,
    "ĠScreenInter": 7844,
    "ĠScreenInteractor": 7845,
    "cheme": 7846,
    "ĠSynchronizes": 7847,
    "upload": 7848,
    "Ġtargets": 7849,
    "ĠLightweight": 7850,
    "ĠSkeleton": 7851,
    "nown": 7852,
    "Rigging": 7853,
    "ĠValidates": 7854,
    "ĠTracks": 7855,
    "vas": 7856,
    "ĠDet": 7857,
    "cross": 7858,
    "Ġconnecting": 7859,
    "ĠCollider": 7860,
    "Ġroot": 7861,
    "Ġmovement": 7862,
    "Ġhit": 7863,
    "Ġstyles": 7864,
    "Ġgrad": 7865,
    "odern": 7866,
    "ĠPureAd": 7867,
    "ĠPureAdam": 7868,
    "ĠColors": 7869,
    "Ġfailed": 7870,
    "days": 7871,
    "ious": 7872,
    "ĠIPTh": 7873,
    "ĠIPThrott": 7874,
    "ĠIPThrottler": 7875,
    "ĠDiscover": 7876,
    "ĠNodeInfo": 7877,
    "ĠCoordinates": 7878,
    "estamp": 7879,
    "ĠOpenAIServer": 7880,
    "Ġcallable": 7881,
    "sessions": 7882,
    "ĠWebhookConfig": 7883,
    "ĠConfigError": 7884,
    "ĠOver": 7885,
    "ĠMargin": 7886,
    "ĠMarginSampler": 7887,
    "ĠEntropySampler": 7888,
    "Ġverbo": 7889,
    "Ġdecay": 7890,
    "term": 7891,
    "Ġfeature": 7892,
    "ricing": 7893,
    "Ġmultiplication": 7894,
    "ĠEllipsis": 7895,
    "Ġca": 7896,
    "ĠSyn": 7897,
    "ĠSynonym": 7898,
    "ĠSynonymRep": 7899,
    "ĠSynonymRepla": 7900,
    "ĠSynonymReplacer": 7901,
    "Ġprob": 7902,
    "Ġprobabil": 7903,
    "ĠRandomIn": 7904,
    "ĠRandomInser": 7905,
    "ĠRandomInserter": 7906,
    "Ġcase": 7907,
    "ĠAWQLinear": 7908,
    "ĠAWQQuantizer": 7909,
    "Ġorig": 7910,
    "ĠDiskCache": 7911,
    "CapabilityEntry": 7912,
    "solve": 7913,
    "ĠCheckpointedSe": 7914,
    "ĠCheckpointedSequential": 7915,
    "ĠMemoryE": 7916,
    "ĠMemoryEfficientAttention": 7917,
    "Ġextend": 7918,
    "ĠExt": 7919,
    "plexity": 7920,
    "ĠDifficultyScorer": 7921,
    "ĠCurriculumSampler": 7922,
    "Ġshuffle": 7923,
    "Ġextracted": 7924,
    "Ġsmall": 7925,
    "ĠContinuous": 7926,
    "leased": 7927,
    "Ġquantizer": 7928,
    "Ġ&": 7929,
    "Binding": 7930,
    "Quantization": 7931,
    "ĠGPTQQuantizer": 7932,
    "ĠCheckpointedModule": 7933,
    "ĠSelectiveCheckpointing": 7934,
    "ĠGenerationConstraint": 7935,
    "ĠConstrain": 7936,
    "ĠConstrains": 7937,
    "ĠUnit": 7938,
    "ĠHealthStatus": 7939,
    "Ġprodu": 7940,
    "ĠGrid": 7941,
    "ĠGridSearch": 7942,
    "ĠRandomSearch": 7943,
    "ĠRingAttention": 7944,
    "ĠInfinite": 7945,
    "ĠInfiniteContext": 7946,
    "ĠInfiniteContextModel": 7947,
    "Ġexplanation": 7948,
    "gradient": 7949,
    "ĠQuantizedAttention": 7950,
    "Ġwhere": 7951,
    "Ġtrainable": 7952,
    "Ġevery": 7953,
    "Ġeverything": 7954,
    "ĠSilicon": 7955,
    "agnostics": 7956,
    "ĠModelD": 7957,
    "ĠModelDeb": 7958,
    "ĠModelDebugg": 7959,
    "ĠModelDebugger": 7960,
    "distribute": 7961,
    "ĠExpertRouter": 7962,
    "ĠExpertF": 7963,
    "ĠExpertFFN": 7964,
    "shared": 7965,
    "ĠMoEBlock": 7966,
    "Ġinsight": 7967,
    "Ġinsights": 7968,
    "ĠProjection": 7969,
    "ĠProjectionLayer": 7970,
    "ĠNL": 7971,
    "ĠOffloadingConfig": 7972,
    "ĠOllamaModelLoader": 7973,
    "rides": 7974,
    "ĠFlu": 7975,
    "ĠFluent": 7976,
    "Ġconsist": 7977,
    "Ġconsistent": 7978,
    "ĠGGMLQuantizedLinear": 7979,
    "ĠCalibration": 7980,
    "ĠCalibrationDataset": 7981,
    "ĠReActStep": 7982,
    "ĠValueHead": 7983,
    "ĠPolicyWith": 7984,
    "ĠPolicyWithValue": 7985,
    "ĠPolicyWithValueHead": 7986,
    "similarity": 7987,
    "Ġseconds": 7988,
    "ĠEfficientAttention": 7989,
    "ĠTextAugmentor": 7990,
    "ĠParallelEmbedding": 7991,
    "Ġmust": 7992,
    "ĠToolCallFormatter": 7993,
    "ĠTPAttention": 7994,
    "ĠTPMLP": 7995,
    "ĠEnsembleEstimator": 7996,
    "tutorials": 7997,
    "ĠPlot": 7998,
    "ĠZeROOptimizer": 7999
  },
  "special_tokens": {
    "[E:pad]": 0,
    "[E:start]": 1,
    "[E:end]": 2,
    "[E:unk]": 3,
    "[E:sep]": 4,
    "[E:mask]": 5,
    "[E:Q]": 6,
    "[E:A]": 7,
    "[E:user]": 8,
    "[E:forge]": 9,
    "[E:assistant]": 10,
    "[E:system]": 11,
    "[E:tool]": 12,
    "[E:tool_out]": 13,
    "[E:tool_end]": 14,
    "[E:out_end]": 15,
    "[E:img]": 16,
    "[E:audio]": 17,
    "[E:video]": 18,
    "[E:vision]": 19,
    "[E:gen_img]": 20,
    "[E:avatar]": 21,
    "[E:speak]": 22,
    "[E:listen]": 23,
    "[E:web]": 24,
    "[E:read]": 25,
    "[E:write]": 26,
    "[E:screen]": 27,
    "[E:exec]": 28,
    "[E:nl]": 29,
    "[E:tab]": 30,
    "[E:code]": 31,
    "[E:/code]": 32,
    "[E:think]": 33,
    "[E:/think]": 34,
    "[E:err]": 35,
    "[E:warn]": 36,
    "[E:ok]": 37,
    "[E:info]": 38,
    "[E:memory]": 39,
    "[E:learn]": 40,
    "[E:emotion]": 41,
    "[E:context]": 42
  }
}