{
  "token_to_id": {
    "<pad>": 0,
    "<s>": 1,
    "</s>": 2,
    "<unk>": 3,
    "<sep>": 4,
    "<mask>": 5,
    "<Q>": 6,
    "<A>": 7,
    "<USER>": 8,
    "<BOT>": 9,
    "<think>": 10,
    "</think>": 11,
    "\u0000": 12,
    "\u0001": 13,
    "\u0002": 14,
    "\u0003": 15,
    "\u0004": 16,
    "\u0005": 17,
    "\u0006": 18,
    "\u0007": 19,
    "\b": 20,
    "\t": 21,
    "\n": 22,
    "\u000b": 23,
    "\f": 24,
    "\r": 25,
    "\u000e": 26,
    "\u000f": 27,
    "\u0010": 28,
    "\u0011": 29,
    "\u0012": 30,
    "\u0013": 31,
    "\u0014": 32,
    "\u0015": 33,
    "\u0016": 34,
    "\u0017": 35,
    "\u0018": 36,
    "\u0019": 37,
    "\u001a": 38,
    "\u001b": 39,
    "\u001c": 40,
    "\u001d": 41,
    "\u001e": 42,
    "\u001f": 43,
    " ": 44,
    "!": 45,
    "\"": 46,
    "#": 47,
    "$": 48,
    "%": 49,
    "&": 50,
    "'": 51,
    "(": 52,
    ")": 53,
    "*": 54,
    "+": 55,
    ",": 56,
    "-": 57,
    ".": 58,
    "/": 59,
    "0": 60,
    "1": 61,
    "2": 62,
    "3": 63,
    "4": 64,
    "5": 65,
    "6": 66,
    "7": 67,
    "8": 68,
    "9": 69,
    ":": 70,
    ";": 71,
    "<": 72,
    "=": 73,
    ">": 74,
    "?": 75,
    "@": 76,
    "A": 77,
    "B": 78,
    "C": 79,
    "D": 80,
    "E": 81,
    "F": 82,
    "G": 83,
    "H": 84,
    "I": 85,
    "J": 86,
    "K": 87,
    "L": 88,
    "M": 89,
    "N": 90,
    "O": 91,
    "P": 92,
    "Q": 93,
    "R": 94,
    "S": 95,
    "T": 96,
    "U": 97,
    "V": 98,
    "W": 99,
    "X": 100,
    "Y": 101,
    "Z": 102,
    "[": 103,
    "\\": 104,
    "]": 105,
    "^": 106,
    "_": 107,
    "`": 108,
    "a": 109,
    "b": 110,
    "c": 111,
    "d": 112,
    "e": 113,
    "f": 114,
    "g": 115,
    "h": 116,
    "i": 117,
    "j": 118,
    "k": 119,
    "l": 120,
    "m": 121,
    "n": 122,
    "o": 123,
    "p": 124,
    "q": 125,
    "r": 126,
    "s": 127,
    "t": 128,
    "u": 129,
    "v": 130,
    "w": 131,
    "x": 132,
    "y": 133,
    "z": 134,
    "{": 135,
    "|": 136,
    "}": 137,
    "~": 138,
    "": 139,
    "": 140,
    "": 141,
    "": 142,
    "": 143,
    "": 144,
    "": 145,
    "": 146,
    "": 147,
    "": 148,
    "": 149,
    "": 150,
    "": 151,
    "": 152,
    "": 153,
    "": 154,
    "": 155,
    "": 156,
    "": 157,
    "": 158,
    "": 159,
    "": 160,
    "": 161,
    "": 162,
    "": 163,
    "": 164,
    "": 165,
    "": 166,
    "": 167,
    "": 168,
    "": 169,
    "": 170,
    "": 171,
    " ": 172,
    "¡": 173,
    "¢": 174,
    "£": 175,
    "¤": 176,
    "¥": 177,
    "¦": 178,
    "§": 179,
    "¨": 180,
    "©": 181,
    "ª": 182,
    "«": 183,
    "¬": 184,
    "­": 185,
    "®": 186,
    "¯": 187,
    "°": 188,
    "±": 189,
    "²": 190,
    "³": 191,
    "´": 192,
    "µ": 193,
    "¶": 194,
    "·": 195,
    "¸": 196,
    "¹": 197,
    "º": 198,
    "»": 199,
    "¼": 200,
    "½": 201,
    "¾": 202,
    "¿": 203,
    "À": 204,
    "Á": 205,
    "Â": 206,
    "Ã": 207,
    "Ä": 208,
    "Å": 209,
    "Æ": 210,
    "Ç": 211,
    "È": 212,
    "É": 213,
    "Ê": 214,
    "Ë": 215,
    "Ì": 216,
    "Í": 217,
    "Î": 218,
    "Ï": 219,
    "Ð": 220,
    "Ñ": 221,
    "Ò": 222,
    "Ó": 223,
    "Ô": 224,
    "Õ": 225,
    "Ö": 226,
    "×": 227,
    "Ø": 228,
    "Ù": 229,
    "Ú": 230,
    "Û": 231,
    "Ü": 232,
    "Ý": 233,
    "Þ": 234,
    "ß": 235,
    "à": 236,
    "á": 237,
    "â": 238,
    "ã": 239,
    "ä": 240,
    "å": 241,
    "æ": 242,
    "ç": 243,
    "è": 244,
    "é": 245,
    "ê": 246,
    "ë": 247,
    "ì": 248,
    "í": 249,
    "î": 250,
    "ï": 251,
    "ð": 252,
    "ñ": 253,
    "ò": 254,
    "ó": 255,
    "ô": 256,
    "õ": 257,
    "ö": 258,
    "÷": 259,
    "ø": 260,
    "ù": 261,
    "ú": 262,
    "û": 263,
    "ü": 264,
    "ý": 265,
    "þ": 266,
    "ÿ": 267,
    "</w>": 268,
    "e</w>": 269,
    "s</w>": 270,
    "n</w>": 271,
    "th": 272,
    "d</w>": 273,
    "er": 274,
    "t</w>": 275,
    ",</w>": 276,
    "an": 277,
    "in": 278,
    "the</w>": 279,
    "y</w>": 280,
    ".</w>": 281,
    "or": 282,
    "ar": 283,
    "ed</w>": 284,
    "al": 285,
    "ti": 286,
    "en": 287,
    "a</w>": 288,
    "o</w>": 289,
    "f</w>": 290,
    "on</w>": 291,
    "er</w>": 292,
    "on": 293,
    "of</w>": 294,
    "re": 295,
    "and</w>": 296,
    "in</w>": 297,
    "g</w>": 298,
    "ou": 299,
    "ing</w>": 300,
    "st": 301,
    "ic": 302,
    "at": 303,
    "as</w>": 304,
    "es</w>": 305,
    "to</w>": 306,
    "om": 307,
    "el": 308,
    "an</w>": 309,
    "am": 310,
    "al</w>": 311,
    "il": 312,
    "ch": 313,
    "or</w>": 314,
    "si": 315,
    "ol": 316,
    "-</w>": 317,
    "th</w>": 318,
    "he</w>": 319,
    "st</w>": 320,
    "is</w>": 321,
    "it": 322,
    "*</w>": 323,
    "ur": 324,
    "ec": 325,
    "ac": 326,
    "ir": 327,
    "(</w>": 328,
    "at</w>": 329,
    "as": 330,
    "ati": 331,
    "em": 332,
    "ri": 333,
    "was</w>": 334,
    "20": 335,
    "ro": 336,
    "di": 337,
    "19": 338,
    "The</w>": 339,
    "en</w>": 340,
    "l</w>": 341,
    "sh": 342,
    "k</w>": 343,
    "le": 344,
    "un": 345,
    "ent</w>": 346,
    "ag": 347,
    "ow": 348,
    "ad": 349,
    ")</w>": 350,
    "li": 351,
    "wi": 352,
    "ly</w>": 353,
    "–</w>": 354,
    "for</w>": 355,
    "\"</w>": 356,
    "p</w>": 357,
    "se": 358,
    "pl": 359,
    "wh": 360,
    "by</w>": 361,
    "0</w>": 362,
    "gh": 363,
    "1</w>": 364,
    "ov": 365,
    "ent": 366,
    "es": 367,
    "with</w>": 368,
    "2</w>": 369,
    "oun": 370,
    "'s</w>": 371,
    "ers</w>": 372,
    "fr": 373,
    ":</w>": 374,
    "om</w>": 375,
    "m</w>": 376,
    "et": 377,
    "ce</w>": 378,
    "ra": 379,
    "ul": 380,
    "ve</w>": 381,
    "3</w>": 382,
    "5</w>": 383,
    "con": 384,
    "ation</w>": 385,
    "4</w>": 386,
    "le</w>": 387,
    "de": 388,
    "vi": 389,
    "ar</w>": 390,
    "ha": 391,
    "ch</w>": 392,
    "ere</w>": 393,
    "tion</w>": 394,
    "for": 395,
    "us": 396,
    "oc": 397,
    "ot": 398,
    "ab": 399,
    "op": 400,
    "6</w>": 401,
    "from</w>": 402,
    "com": 403,
    "is": 404,
    "te": 405,
    "ay</w>": 406,
    "8</w>": 407,
    "7</w>": 408,
    "ber</w>": 409,
    "be": 410,
    "|</w>": 411,
    "that</w>": 412,
    "ap": 413,
    "his</w>": 414,
    "ons</w>": 415,
    "i</w>": 416,
    "h</w>": 417,
    "su": 418,
    "pro": 419,
    "our": 420,
    "ay": 421,
    "sp": 422,
    "ate</w>": 423,
    "ted</w>": 424,
    "ts</w>": 425,
    "w</w>": 426,
    "ter</w>": 427,
    "qu": 428,
    "cl": 429,
    "the": 430,
    "ary</w>": 431,
    "Ch": 432,
    "im": 433,
    "po": 434,
    "bu": 435,
    "ev": 436,
    "201": 437,
    "ex": 438,
    "str": 439,
    "tr": 440,
    "ali": 441,
    "ir</w>": 442,
    "res": 443,
    "ff": 444,
    "ic</w>": 445,
    "were</w>": 446,
    "it</w>": 447,
    "ated</w>": 448,
    "all</w>": 449,
    "A</w>": 450,
    "ed": 451,
    "and": 452,
    "ter": 453,
    "par": 454,
    "9</w>": 455,
    "am</w>": 456,
    "ak": 457,
    "St": 458,
    "ain": 459,
    "tic": 460,
    "um": 461,
    "ver": 462,
    "uc": 463,
    "In</w>": 464,
    "ing": 465,
    "rec": 466,
    ";</w>": 467,
    "fir": 468,
    "hi": 469,
    "ub": 470,
    "de</w>": 471,
    "ember</w>": 472,
    "ity</w>": 473,
    "ame</w>": 474,
    "ep": 475,
    "ty</w>": 476,
    "oo": 477,
    "el</w>": 478,
    "ne": 479,
    "200": 480,
    "Ar": 481,
    "onal</w>": 482,
    "ther</w>": 483,
    "In": 484,
    "Al": 485,
    "se</w>": 486,
    "ld</w>": 487,
    "per": 488,
    "fi": 489,
    "||</w>": 490,
    "ni": 491,
    "sion</w>": 492,
    "ich</w>": 493,
    "An": 494,
    "first</w>": 495,
    "sh</w>": 496,
    "ds</w>": 497,
    "gr": 498,
    "ear": 499,
    "we": 500,
    "ded</w>": 501,
    "are</w>": 502,
    "ge</w>": 503,
    "Mar": 504,
    "one</w>": 505,
    "ue</w>": 506,
    "ard</w>": 507,
    "ad</w>": 508,
    "so</w>": 509,
    "Th": 510,
    "ot</w>": 511,
    "au": 512,
    "ding</w>": 513,
    "),</w>": 514,
    "por": 515,
    "ser": 516,
    "ine</w>": 517,
    "had</w>": 518,
    "which</w>": 519,
    "ght</w>": 520,
    "il</w>": 521,
    "all": 522,
    "gu": 523,
    "sc": 524,
    "der</w>": 525,
    "fin": 526,
    "tim": 527,
    "og": 528,
    "ies</w>": 529,
    "af": 530,
    "pr": 531,
    "att": 532,
    "18": 533,
    "tur": 534,
    "amp": 535,
    "av": 536,
    "et</w>": 537,
    "age</w>": 538,
    "Am": 539,
    "ru": 540,
    "their</w>": 541,
    "gh</w>": 542,
    "oll": 543,
    "seas": 544,
    "be</w>": 545,
    "ment</w>": 546,
    "ran": 547,
    "out</w>": 548,
    "tw": 549,
    "ound</w>": 550,
    "202": 551,
    "its</w>": 552,
    "Au": 553,
    "sec": 554,
    "ally</w>": 555,
    "own</w>": 556,
    "gi": 557,
    "wor": 558,
    "comp": 559,
    "elec": 560,
    "form": 561,
    "play": 562,
    "&</w>": 563,
    "ace</w>": 564,
    "C</w>": 565,
    "ob": 566,
    "shi": 567,
    "season</w>": 568,
    "ence</w>": 569,
    "son</w>": 570,
    "also</w>": 571,
    "over": 572,
    "Le": 573,
    "la": 574,
    "os": 575,
    "ut": 576,
    "He</w>": 577,
    "ice</w>": 578,
    "ow</w>": 579,
    "ig": 580,
    "id": 581,
    "est</w>": 582,
    "x</w>": 583,
    "us</w>": 584,
    "Ne": 585,
    "mo": 586,
    "to": 587,
    "ill": 588,
    "pre": 589,
    "ational</w>": 590,
    "ong</w>": 591,
    "'</w>": 592,
    "199": 593,
    "up</w>": 594,
    "ia</w>": 595,
    "ents</w>": 596,
    "but</w>": 597,
    "two</w>": 598,
    "est": 599,
    "ph": 600,
    "I</w>": 601,
    "ack</w>": 602,
    ").</w>": 603,
    "man": 604,
    "eld</w>": 605,
    "Di": 606,
    "ain</w>": 607,
    "who</w>": 608,
    "ome</w>": 609,
    "ial</w>": 610,
    "ould</w>": 611,
    "eb": 612,
    "ks</w>": 613,
    "ory</w>": 614,
    "ican</w>": 615,
    "he": 616,
    "ore</w>": 617,
    "als</w>": 618,
    "ant</w>": 619,
    "S</w>": 620,
    "not</w>": 621,
    "after</w>": 622,
    "clu": 623,
    "ond</w>": 624,
    "ree</w>": 625,
    "our</w>": 626,
    "land</w>": 627,
    "ile</w>": 628,
    "ian</w>": 629,
    "ting</w>": 630,
    "serv": 631,
    "comm": 632,
    "bo": 633,
    "ol</w>": 634,
    "der": 635,
    "man</w>": 636,
    "It</w>": 637,
    "ates</w>": 638,
    "fe": 639,
    "ade</w>": 640,
    "00</w>": 641,
    "min": 642,
    "ations</w>": 643,
    "iv": 644,
    "Jo": 645,
    "rou": 646,
    "ass": 647,
    "pres": 648,
    "Con": 649,
    "sig": 650,
    "ance</w>": 651,
    "ann": 652,
    "duc": 653,
    "uring</w>": 654,
    "has</w>": 655,
    "time</w>": 656,
    "Com": 657,
    "Re": 658,
    "ach": 659,
    "tions</w>": 660,
    "ast": 661,
    "Par": 662,
    "ited</w>": 663,
    "ell</w>": 664,
    "ey</w>": 665,
    "ampi": 666,
    "off": 667,
    "ist": 668,
    "Amer": 669,
    "ear</w>": 670,
    "ell": 671,
    "ship</w>": 672,
    "ous</w>": 673,
    "me": 674,
    "te</w>": 675,
    "other</w>": 676,
    "her</w>": 677,
    "Un": 678,
    "this</w>": 679,
    "ast</w>": 680,
    "/</w>": 681,
    "aw": 682,
    "ned</w>": 683,
    "um</w>": 684,
    "bor": 685,
    "inclu": 686,
    "tit": 687,
    "ton</w>": 688,
    "Li": 689,
    "anc": 690,
    "198": 691,
    "bec": 692,
    "ater</w>": 693,
    "ft</w>": 694,
    "20</w>": 695,
    "**</w>": 696,
    "nam": 697,
    "inc": 698,
    "Ju": 699,
    "ach</w>": 700,
    "ical</w>": 701,
    "inn": 702,
    "ip": 703,
    "On</w>": 704,
    "mar": 705,
    "co": 706,
    "team</w>": 707,
    "em</w>": 708,
    "vision</w>": 709,
    "id</w>": 710,
    "pe": 711,
    "over</w>": 712,
    "ber": 713,
    "ely</w>": 714,
    "En": 715,
    "ans</w>": 716,
    "ague</w>": 717,
    "been</w>": 718,
    "ple</w>": 719,
    "pol": 720,
    "cont": 721,
    "ke</w>": 722,
    "re</w>": 723,
    "end": 724,
    "ill</w>": 725,
    "ball</w>": 726,
    "have</w>": 727,
    "19</w>": 728,
    "ack": 729,
    "able</w>": 730,
    "col": 731,
    "they</w>": 732,
    "shed</w>": 733,
    "ties</w>": 734,
    "would</w>": 735,
    "ased</w>": 736,
    "rit": 737,
    "second</w>": 738,
    "New</w>": 739,
    "ese</w>": 740,
    "Uni": 741,
    "z</w>": 742,
    "197": 743,
    "enc": 744,
    "into</w>": 745,
    "10</w>": 746,
    "ern</w>": 747,
    "fl": 748,
    "cent": 749,
    "sid": 750,
    "194": 751,
    "American</w>": 752,
    "rem": 753,
    "ams</w>": 754,
    "pri": 755,
    "u</w>": 756,
    "loc": 757,
    "ook</w>": 758,
    "ess</w>": 759,
    "ings</w>": 760,
    "ang": 761,
    "ry</w>": 762,
    "poin": 763,
    "oy": 764,
    "ud": 765,
    "Bri": 766,
    "ss": 767,
    "year</w>": 768,
    "illi": 769,
    "ps</w>": 770,
    "coun": 771,
    "enti": 772,
    "inter": 773,
    "ollow": 774,
    "ener": 775,
    "Jun": 776,
    "spec": 777,
    "aj": 778,
    "ubl": 779,
    "won</w>": 780,
    "ames</w>": 781,
    "oot": 782,
    "ani": 783,
    "bs": 784,
    "ess": 785,
    "Wor": 786,
    "tor</w>": 787,
    "reg": 788,
    "versi": 789,
    "during</w>": 790,
    "three</w>": 791,
    "ince</w>": 792,
    "Jan": 793,
    "car": 794,
    "any</w>": 795,
    "ors</w>": 796,
    "bet": 797,
    "Nor": 798,
    "fer": 799,
    "Oc": 800,
    "Col": 801,
    "cho": 802,
    "les</w>": 803,
    "tive</w>": 804,
    "overn": 805,
    "tra": 806,
    "ure</w>": 807,
    "outh</w>": 808,
    "For": 809,
    "196": 810,
    "Ac": 811,
    "kn": 812,
    "ath": 813,
    "ampion": 814,
    "Nov": 815,
    "day</w>": 816,
    "United</w>": 817,
    "ept": 818,
    "Joh": 819,
    "ainst</w>": 820,
    "Car": 821,
    "Sh": 822,
    "bsp</w>": 823,
    "May</w>": 824,
    "b</w>": 825,
    "go": 826,
    "nbsp</w>": 827,
    "air": 828,
    "Augu": 829,
    "ears</w>": 830,
    "only</w>": 831,
    "of": 832,
    "against</w>": 833,
    "12</w>": 834,
    "ement</w>": 835,
    "ever</w>": 836,
    "end</w>": 837,
    "eng": 838,
    "mat": 839,
    "ase</w>": 840,
    "March</w>": 841,
    "res</w>": 842,
    "ards</w>": 843,
    "#</w>": 844,
    "ween</w>": 845,
    "old</w>": 846,
    "D</w>": 847,
    "born</w>": 848,
    "national</w>": 849,
    "Sept": 850,
    "oci": 851,
    "uary</w>": 852,
    "game</w>": 853,
    "September</w>": 854,
    "P</w>": 855,
    "emb": 856,
    "ne</w>": 857,
    "lo": 858,
    "June</w>": 859,
    "Dec": 860,
    "tic</w>": 861,
    "tober</w>": 862,
    "October</w>": 863,
    "follow": 864,
    "star": 865,
    "July</w>": 866,
    "Ad": 867,
    "January</w>": 868,
    "dec": 869,
    "ating</w>": 870,
    "This</w>": 871,
    "mon": 872,
    "used</w>": 873,
    "August</w>": 874,
    "sy": 875,
    "Apr": 876,
    "pos": 877,
    "lar": 878,
    "c</w>": 879,
    "Bar": 880,
    "my</w>": 881,
    "fil": 882,
    "ounc": 883,
    "ten": 884,
    "between</w>": 885,
    "ite</w>": 886,
    "versity</w>": 887,
    "November</w>": 888,
    "April</w>": 889,
    "eg": 890,
    "ail": 891,
    "Fr": 892,
    "ake</w>": 893,
    "led</w>": 894,
    "L</w>": 895,
    "du": 896,
    "adi": 897,
    "played</w>": 898,
    "fore</w>": 899,
    "up": 900,
    "195": 901,
    "held</w>": 902,
    "election</w>": 903,
    "ked</w>": 904,
    "more</w>": 905,
    "od": 906,
    "15</w>": 907,
    "ative</w>": 908,
    "new</w>": 909,
    "cri": 910,
    "where</w>": 911,
    "when</w>": 912,
    "World</w>": 913,
    "ari": 914,
    "Fran": 915,
    "rele": 916,
    "December</w>": 917,
    "ong": 918,
    "she</w>": 919,
    "Pro": 920,
    "final</w>": 921,
    "Eng": 922,
    "De": 923,
    "az": 924,
    "11</w>": 925,
    "use</w>": 926,
    "ture</w>": 927,
    "League</w>": 928,
    "later</w>": 929,
    "cor": 930,
    "most</w>": 931,
    "olog": 932,
    "recor": 933,
    "while</w>": 934,
    "os</w>": 935,
    "Af": 936,
    "place</w>": 937,
    "Comm": 938,
    "app": 939,
    "Feb": 940,
    "years</w>": 941,
    "Wh": 942,
    "gan</w>": 943,
    "ood</w>": 944,
    "University</w>": 945,
    "Febru": 946,
    "February</w>": 947,
    "row": 948,
    "ss</w>": 949,
    "14</w>": 950,
    "made</w>": 951,
    "under</w>": 952,
    "Ger": 953,
    "16</w>": 954,
    "king</w>": 955,
    "sup": 956,
    "ans": 957,
    "throu": 958,
    "18</w>": 959,
    "Ser": 960,
    "mi": 961,
    "way</w>": 962,
    "then</w>": 963,
    "posi": 964,
    "part</w>": 965,
    "B</w>": 966,
    "bur": 967,
    "ina</w>": 968,
    "ub</w>": 969,
    "cre": 970,
    "vel": 971,
    "ick</w>": 972,
    "ird</w>": 973,
    "F</w>": 974,
    "mov": 975,
    "ampionship</w>": 976,
    "tiv": 977,
    "tri": 978,
    "ins</w>": 979,
    "ootball</w>": 980,
    "fic": 981,
    "Is": 982,
    "port</w>": 983,
    "30</w>": 984,
    "Sp": 985,
    "ily</w>": 986,
    "riv": 987,
    "sk": 988,
    "ery</w>": 989,
    "ei": 990,
    "Sc": 991,
    "Ph": 992,
    "13</w>": 993,
    "produc": 994,
    "National</w>": 995,
    "sted</w>": 996,
    "17</w>": 997,
    "Cl": 998,
    "dre": 999,
    "before</w>": 1000,
    "him</w>": 1001,
    "bi": 1002,
    "known</w>": 1003,
    "inv": 1004,
    "=\"</w>": 1005,
    "round</w>": 1006,
    "sts</w>": 1007,
    "red</w>": 1008,
    "ered</w>": 1009,
    "grou": 1010,
    "U</w>": 1011,
    "stric": 1012,
    "four</w>": 1013,
    "side</w>": 1014,
    "sing": 1015,
    "eneral</w>": 1016,
    "ough</w>": 1017,
    "fac": 1018,
    "r</w>": 1019,
    "buil": 1020,
    "chool</w>": 1021,
    "govern": 1022,
    "ning</w>": 1023,
    "ah": 1024,
    "sur": 1025,
    "M</w>": 1026,
    "Indi": 1027,
    "well</w>": 1028,
    "ant": 1029,
    "Gre": 1030,
    "being</w>": 1031,
    "teams</w>": 1032,
    "direc": 1033,
    "ournam": 1034,
    "John</w>": 1035,
    "num": 1036,
    "ley</w>": 1037,
    "sa": 1038,
    "with": 1039,
    "try</w>": 1040,
    "including</w>": 1041,
    "ass</w>": 1042,
    "ea</w>": 1043,
    "25</w>": 1044,
    "uni": 1045,
    "offic": 1046,
    "dis": 1047,
    "left</w>": 1048,
    "\".</w>": 1049,
    "til": 1050,
    "winn": 1051,
    "Austr": 1052,
    "ble</w>": 1053,
    "tish</w>": 1054,
    "ale</w>": 1055,
    "ai": 1056,
    "Division</w>": 1057,
    "Gu": 1058,
    "til</w>": 1059,
    "writ": 1060,
    "ous": 1061,
    "Cor": 1062,
    "br": 1063,
    "yle</w>": 1064,
    "R</w>": 1065,
    "17": 1066,
    "Cup</w>": 1067,
    "bl": 1068,
    "ress</w>": 1069,
    "many</w>": 1070,
    "ople</w>": 1071,
    "Ge": 1072,
    "ays</w>": 1073,
    "than</w>": 1074,
    "took</w>": 1075,
    "ose</w>": 1076,
    "died</w>": 1077,
    "193": 1078,
    "21</w>": 1079,
    "ean</w>": 1080,
    "fu": 1081,
    "States</w>": 1082,
    "became</w>": 1083,
    "cap": 1084,
    "ect</w>": 1085,
    "For</w>": 1086,
    "Mo": 1087,
    "ash": 1088,
    "ular</w>": 1089,
    "ves</w>": 1090,
    "ournament</w>": 1091,
    "Australi": 1092,
    "ire</w>": 1093,
    "tu": 1094,
    "since</w>": 1095,
    "24</w>": 1096,
    "lead": 1097,
    "back</w>": 1098,
    "fini": 1099,
    "ward</w>": 1100,
    "cur": 1101,
    "about</w>": 1102,
    "itic": 1103,
    "win</w>": 1104,
    "struc": 1105,
    "until</w>": 1106,
    "stri": 1107,
    "des": 1108,
    "000</w>": 1109,
    "State</w>": 1110,
    "both</w>": 1111,
    "ten</w>": 1112,
    "plac": 1113,
    "no</w>": 1114,
    "third</w>": 1115,
    "char": 1116,
    "through</w>": 1117,
    "Bo": 1118,
    "Min": 1119,
    "ving</w>": 1120,
    "After</w>": 1121,
    "org": 1122,
    "sub": 1123,
    "ica</w>": 1124,
    "following</w>": 1125,
    "lin": 1126,
    "ouse</w>": 1127,
    "Rep": 1128,
    "mil": 1129,
    "Har": 1130,
    "ond": 1131,
    "off</w>": 1132,
    "oper": 1133,
    "omen</w>": 1134,
    "ich": 1135,
    "lished</w>": 1136,
    "work</w>": 1137,
    "sident</w>": 1138,
    "vot": 1139,
    "ash</w>": 1140,
    "present": 1141,
    "play</w>": 1142,
    "hist": 1143,
    "22</w>": 1144,
    "dra": 1145,
    "T</w>": 1146,
    "Eur": 1147,
    "zed</w>": 1148,
    "bro": 1149,
    "ved</w>": 1150,
    ".\"</w>": 1151,
    "fam": 1152,
    "ur</w>": 1153,
    "ret": 1154,
    "Can": 1155,
    "owever</w>": 1156,
    "enn": 1157,
    "series</w>": 1158,
    "ublic</w>": 1159,
    "omin": 1160,
    "cc": 1161,
    "eiv": 1162,
    "defe": 1163,
    "23</w>": 1164,
    "South</w>": 1165,
    "ained</w>": 1166,
    "film</w>": 1167,
    "Qu": 1168,
    "pp": 1169,
    "E</w>": 1170,
    "ek</w>": 1171,
    "ick": 1172,
    "ym": 1173,
    "Pl": 1174,
    "stit": 1175,
    "ist</w>": 1176,
    "Br": 1177,
    "Ass": 1178,
    "such</w>": 1179,
    "She</w>": 1180,
    "%</w>": 1181,
    "fe</w>": 1182,
    "Cent": 1183,
    "field</w>": 1184,
    "II</w>": 1185,
    "line</w>": 1186,
    "alig": 1187,
    "politic": 1188,
    "ie": 1189,
    "ner</w>": 1190,
    "rel": 1191,
    "style</w>": 1192,
    "ms</w>": 1193,
    "ices</w>": 1194,
    "Pr": 1195,
    "them</w>": 1196,
    "each</w>": 1197,
    "ven": 1198,
    "jo": 1199,
    "can": 1200,
    "Fi": 1201,
    "Yor": 1202,
    "\",</w>": 1203,
    "scor": 1204,
    "home</w>": 1205,
    "ie</w>": 1206,
    "signed</w>": 1207,
    "Ab": 1208,
    "Su": 1209,
    "Bl": 1210,
    "ort</w>": 1211,
    "will</w>": 1212,
    "resul": 1213,
    "tournament</w>": 1214,
    "tor": 1215,
    "ze</w>": 1216,
    "V</w>": 1217,
    "dition</w>": 1218,
    "ven</w>": 1219,
    "ying</w>": 1220,
    "Pri": 1221,
    "iti": 1222,
    "Inter": 1223,
    "men</w>": 1224,
    "receiv": 1225,
    "O</w>": 1226,
    "ana</w>": 1227,
    "land": 1228,
    "26</w>": 1229,
    "ut</w>": 1230,
    "Mon": 1231,
    "Co": 1232,
    "strict</w>": 1233,
    "Pre": 1234,
    "avi": 1235,
    "yp": 1236,
    "Or": 1237,
    "mis": 1238,
    "dep": 1239,
    "acc": 1240,
    "ury</w>": 1241,
    "former</w>": 1242,
    "align</w>": 1243,
    "28</w>": 1244,
    "op</w>": 1245,
    "can</w>": 1246,
    "games</w>": 1247,
    "some</w>": 1248,
    "ind": 1249,
    "elected</w>": 1250,
    "me</w>": 1251,
    "announc": 1252,
    "sian</w>": 1253,
    "sel": 1254,
    "state</w>": 1255,
    "tro": 1256,
    "nor": 1257,
    "quar": 1258,
    "sive</w>": 1259,
    "there</w>": 1260,
    "ters</w>": 1261,
    "British</w>": 1262,
    "Te": 1263,
    "27</w>": 1264,
    "retur": 1265,
    "ath</w>": 1266,
    "Army</w>": 1267,
    "consi": 1268,
    "Europ": 1269,
    "Willi": 1270,
    "peri": 1271,
    "leg": 1272,
    "ference</w>": 1273,
    "Pol": 1274,
    "call": 1275,
    "He": 1276,
    "sol": 1277,
    "people</w>": 1278,
    "ns</w>": 1279,
    "ti</w>": 1280,
    "def": 1281,
    "El": 1282,
    "contr": 1283,
    "Gr": 1284,
    "head</w>": 1285,
    "sed</w>": 1286,
    "ats</w>": 1287,
    "vie": 1288,
    "sch": 1289,
    "ak</w>": 1290,
    "ho": 1291,
    "group</w>": 1292,
    "Mc": 1293,
    "Ale": 1294,
    "—</w>": 1295,
    "All</w>": 1296,
    "York</w>": 1297,
    "mus": 1298,
    "16": 1299,
    "They</w>": 1300,
    "ower</w>": 1301,
    "contin": 1302,
    "ces</w>": 1303,
    "City</w>": 1304,
    "government</w>": 1305,
    "Sec": 1306,
    "ics</w>": 1307,
    "began</w>": 1308,
    "hal": 1309,
    "eer</w>": 1310,
    "regi": 1311,
    "out": 1312,
    "due</w>": 1313,
    "succ": 1314,
    "down</w>": 1315,
    "sia</w>": 1316,
    "ili": 1317,
    "cer": 1318,
    "As</w>": 1319,
    "Ste": 1320,
    "Man": 1321,
    "atic</w>": 1322,
    "last</w>": 1323,
    "Rob": 1324,
    "War</w>": 1325,
    "Rus": 1326,
    "comple": 1327,
    "ined</w>": 1328,
    "run": 1329,
    "29</w>": 1330,
    "partic": 1331,
    "bri": 1332,
    "15": 1333,
    "ute</w>": 1334,
    "mu": 1335,
    "bas": 1336,
    "thern</w>": 1337,
    "Bi": 1338,
    "At": 1339,
    "same</w>": 1340,
    "aking</w>": 1341,
    "number</w>": 1342,
    "points</w>": 1343,
    "ens</w>": 1344,
    "club</w>": 1345,
    "Championship</w>": 1346,
    "Geor": 1347,
    "ste": 1348,
    "Char": 1349,
    "Coun": 1350,
    "gre": 1351,
    "set</w>": 1352,
    "ard": 1353,
    "Per": 1354,
    "part": 1355,
    "race</w>": 1356,
    "bel": 1357,
    "released</w>": 1358,
    "football</w>": 1359,
    "ended</w>": 1360,
    "dr": 1361,
    "devel": 1362,
    "sever": 1363,
    "five</w>": 1364,
    "od</w>": 1365,
    "Ed": 1366,
    "arch": 1367,
    "Be": 1368,
    "ign</w>": 1369,
    "10": 1370,
    "ently</w>": 1371,
    "ajor</w>": 1372,
    "2019</w>": 1373,
    "early</w>": 1374,
    "visi": 1375,
    "attle</w>": 1376,
    "ws</w>": 1377,
    "ants</w>": 1378,
    "=</w>": 1379,
    "ocr": 1380,
    "vic": 1381,
    "top</w>": 1382,
    "ected</w>": 1383,
    "pop": 1384,
    "1st</w>": 1385,
    "Ex": 1386,
    "2018</w>": 1387,
    "fied</w>": 1388,
    "co</w>": 1389,
    "ench</w>": 1390,
    "announced</w>": 1391,
    "ets</w>": 1392,
    "quali": 1393,
    "K</w>": 1394,
    "tain</w>": 1395,
    "position</w>": 1396,
    "did": 1397,
    "Dem": 1398,
    "prof": 1399,
    "ca": 1400,
    "assi": 1401,
    "N</w>": 1402,
    "act</w>": 1403,
    "pub": 1404,
    "city</w>": 1405,
    "ches</w>": 1406,
    "embers</w>": 1407,
    "record</w>": 1408,
    "Fl": 1409,
    "emp": 1410,
    "air</w>": 1411,
    "adv": 1412,
    "Reg": 1413,
    "orig": 1414,
    "2016</w>": 1415,
    "2022</w>": 1416,
    "member</w>": 1417,
    "trans": 1418,
    "Mu": 1419,
    "though</w>": 1420,
    "Ro": 1421,
    "ka</w>": 1422,
    "North</w>": 1423,
    "ator</w>": 1424,
    "2014</w>": 1425,
    "2020</w>": 1426,
    "iment</w>": 1427,
    "several</w>": 1428,
    "did</w>": 1429,
    "lish</w>": 1430,
    "2017</w>": 1431,
    "called</w>": 1432,
    "form</w>": 1433,
    "2015</w>": 1434,
    "eder": 1435,
    "ster</w>": 1436,
    "mer</w>": 1437,
    "represent": 1438,
    "Mic": 1439,
    "right</w>": 1440,
    "sen": 1441,
    "Roy": 1442,
    "title</w>": 1443,
    "tional</w>": 1444,
    "prom": 1445,
    "based</w>": 1446,
    "ground</w>": 1447,
    "Ber": 1448,
    "name</w>": 1449,
    "2011</w>": 1450,
    "ah</w>": 1451,
    "2012</w>": 1452,
    "inal</w>": 1453,
    "At</w>": 1454,
    "tex": 1455,
    "2024</w>": 1456,
    "syst": 1457,
    "Air</w>": 1458,
    "2010</w>": 1459,
    "lege</w>": 1460,
    "nd": 1461,
    "develop": 1462,
    "los": 1463,
    "feat": 1464,
    "received</w>": 1465,
    "formed</w>": 1466,
    "Me": 1467,
    "ke": 1468,
    "ave</w>": 1469,
    "It": 1470,
    "2021</w>": 1471,
    "umb": 1472,
    "med</w>": 1473,
    "diff": 1474,
    "2013</w>": 1475,
    "eti": 1476,
    "match</w>": 1477,
    "Afr": 1478,
    "previ": 1479,
    "2023</w>": 1480,
    "ole</w>": 1481,
    "members</w>": 1482,
    "sis</w>": 1483,
    "Party</w>": 1484,
    "spon": 1485,
    "Em": 1486,
    "ock": 1487,
    "services</w>": 1488,
    "ister</w>": 1489,
    "ris": 1490,
    "French</w>": 1491,
    "albu": 1492,
    "190": 1493,
    "family</w>": 1494,
    "Mi": 1495,
    "named</w>": 1496,
    "0s</w>": 1497,
    "Wal": 1498,
    "Se": 1499,
    "raph": 1500,
    "ther": 1501,
    "ony</w>": 1502,
    "ban": 1503,
    "ander</w>": 1504,
    "medi": 1505,
    "G</w>": 1506,
    "General</w>": 1507,
    "CA": 1508,
    "Sen": 1509,
    "coll": 1510,
    "ross</w>": 1511,
    "requ": 1512,
    "area</w>": 1513,
    "det": 1514,
    "lead</w>": 1515,
    "ington</w>": 1516,
    "player</w>": 1517,
    "placed</w>": 1518,
    "ful": 1519,
    "ety</w>": 1520,
    "foun": 1521,
    "appear": 1522,
    "istr": 1523,
    "sm": 1524,
    "igh": 1525,
    "ok": 1526,
    "ord": 1527,
    "German</w>": 1528,
    "ori": 1529,
    "per</w>": 1530,
    "Ang": 1531,
    "ather</w>": 1532,
    "do": 1533,
    "2009</w>": 1534,
    "itary</w>": 1535,
    "disc": 1536,
    "However</w>": 1537,
    "ra</w>": 1538,
    "bre": 1539,
    "ior</w>": 1540,
    "ney</w>": 1541,
    "Wi": 1542,
    "2008</w>": 1543,
    "exp": 1544,
    "back": 1545,
    "tel": 1546,
    "ug": 1547,
    "ital</w>": 1548,
    "Pet": 1549,
    "self</w>": 1550,
    "open": 1551,
    "del": 1552,
    "lan": 1553,
    "ve": 1554,
    "stud": 1555,
    "Royal</w>": 1556,
    "ford</w>": 1557,
    "art</w>": 1558,
    "stand": 1559,
    "Democr": 1560,
    "ately</w>": 1561,
    "ages</w>": 1562,
    "ology</w>": 1563,
    "nd</w>": 1564,
    "Mor": 1565,
    "50</w>": 1566,
    "ight</w>": 1567,
    "Scot": 1568,
    "stitu": 1569,
    "high": 1570,
    "Off": 1571,
    "continu": 1572,
    "Sy": 1573,
    "essi": 1574,
    "No</w>": 1575,
    "served</w>": 1576,
    "league</w>": 1577,
    "West</w>": 1578,
    "ston</w>": 1579,
    "tion": 1580,
    "now</w>": 1581,
    "dge</w>": 1582,
    "commun": 1583,
    "ual</w>": 1584,
    "Ma": 1585,
    "2nd</w>": 1586,
    "]</w>": 1587,
    "estab": 1588,
    "candid": 1589,
    "$</w>": 1590,
    "ships</w>": 1591,
    "these</w>": 1592,
    "St</w>": 1593,
    "vari": 1594,
    "ou</w>": 1595,
    "dy</w>": 1596,
    "provi": 1597,
    "des</w>": 1598,
    "His</w>": 1599,
    "dem": 1600,
    "ism</w>": 1601,
    "competi": 1602,
    "Lond": 1603,
    "organi": 1604,
    "center</w>": 1605,
    "English</w>": 1606,
    "Bu": 1607,
    "illion</w>": 1608,
    "color</w>": 1609,
    "album</w>": 1610,
    "31</w>": 1611,
    "appro": 1612,
    "ker</w>": 1613,
    "Comp": 1614,
    "dered</w>": 1615,
    "Tr": 1616,
    "tot": 1617,
    "six</w>": 1618,
    "ility</w>": 1619,
    "run</w>": 1620,
    "chil": 1621,
    "di</w>": 1622,
    "lost</w>": 1623,
    "text</w>": 1624,
    "cour": 1625,
    "kill": 1626,
    "J</w>": 1627,
    "Vi": 1628,
    "tory</w>": 1629,
    "189": 1630,
    "manag": 1631,
    "ency</w>": 1632,
    "ation": 1633,
    "London</w>": 1634,
    "2007</w>": 1635,
    "desig": 1636,
    "med": 1637,
    "ndash</w>": 1638,
    "ful</w>": 1639,
    "deci": 1640,
    "repor": 1641,
    "ised</w>": 1642,
    "186": 1643,
    "could</w>": 1644,
    "ext</w>": 1645,
    "pass": 1646,
    "found</w>": 1647,
    "auth": 1648,
    "ang</w>": 1649,
    "sou": 1650,
    "ise</w>": 1651,
    "ju": 1652,
    "Sch": 1653,
    "around</w>": 1654,
    "if": 1655,
    "hel": 1656,
    "Jap": 1657,
    "school</w>": 1658,
    "oman</w>": 1659,
    "gen": 1660,
    "im</w>": 1661,
    "ron</w>": 1662,
    "ert</w>": 1663,
    "lim": 1664,
    "Mus": 1665,
    "ama</w>": 1666,
    "ov</w>": 1667,
    "Her": 1668,
    "William</w>": 1669,
    "ociation</w>": 1670,
    "not": 1671,
    "ta</w>": 1672,
    "published</w>": 1673,
    "defeated</w>": 1674,
    "ove</w>": 1675,
    "set": 1676,
    "ection</w>": 1677,
    "2025</w>": 1678,
    "cul": 1679,
    "ada</w>": 1680,
    "School</w>": 1681,
    "ering</w>": 1682,
    "Ol": 1683,
    "arti": 1684,
    "high</w>": 1685,
    "said</w>": 1686,
    ".,</w>": 1687,
    "women</w>": 1688,
    "four": 1689,
    "camp": 1690,
    "ket": 1691,
    "ral</w>": 1692,
    "local</w>": 1693,
    "amm": 1694,
    "till</w>": 1695,
    "ality</w>": 1696,
    "que</w>": 1697,
    "W</w>": 1698,
    "stor": 1699,
    "ograph": 1700,
    "progr": 1701,
    "finished</w>": 1702,
    "chan": 1703,
    "4th</w>": 1704,
    "ains</w>": 1705,
    "sl": 1706,
    "Bal": 1707,
    "ause</w>": 1708,
    "ver</w>": 1709,
    "ont</w>": 1710,
    "International</w>": 1711,
    "history</w>": 1712,
    "fun": 1713,
    "ger</w>": 1714,
    "urch</w>": 1715,
    "hol": 1716,
    "arly</w>": 1717,
    "io</w>": 1718,
    "ured</w>": 1719,
    "Po": 1720,
    "ses</w>": 1721,
    "Davi": 1722,
    "ind</w>": 1723,
    "half</w>": 1724,
    "aim": 1725,
    "public</w>": 1726,
    "ai</w>": 1727,
    "single</w>": 1728,
    "2006</w>": 1729,
    "ef": 1730,
    "bar": 1731,
    "President</w>": 1732,
    "aff": 1733,
    "do</w>": 1734,
    "oth": 1735,
    "attali": 1736,
    "depend": 1737,
    "arch</w>": 1738,
    "ren": 1739,
    "During</w>": 1740,
    "event</w>": 1741,
    "ged</w>": 1742,
    "ille</w>": 1743,
    "ge": 1744,
    "eff": 1745,
    "rac": 1746,
    "Bas": 1747,
    "den</w>": 1748,
    "tin</w>": 1749,
    "light</w>": 1750,
    "along</w>": 1751,
    "tics</w>": 1752,
    "udi": 1753,
    "pi": 1754,
    "ired</w>": 1755,
    "adem": 1756,
    "posed</w>": 1757,
    "’</w>": 1758,
    "ential</w>": 1759,
    "ried</w>": 1760,
    "County</w>": 1761,
    "ines</w>": 1762,
    "James</w>": 1763,
    "like</w>": 1764,
    "next</w>": 1765,
    "site</w>": 1766,
    "party</w>": 1767,
    "century</w>": 1768,
    "coach</w>": 1769,
    "company</w>": 1770,
    "issu": 1771,
    "Grou": 1772,
    "ort": 1773,
    "service</w>": 1774,
    "Govern": 1775,
    "long</w>": 1776,
    "ining</w>": 1777,
    "itt": 1778,
    "alist</w>": 1779,
    "included</w>": 1780,
    "Bel": 1781,
    "went</w>": 1782,
    "rd</w>": 1783,
    "Mil": 1784,
    "scored</w>": 1785,
    "ually</w>": 1786,
    "House</w>": 1787,
    "Australian</w>": 1788,
    "ya</w>": 1789,
    "under": 1790,
    "war": 1791,
    "system</w>": 1792,
    "bed</w>": 1793,
    "Cha": 1794,
    "fan": 1795,
    "ock</w>": 1796,
    "ler</w>": 1797,
    "support</w>": 1798,
    "ief</w>": 1799,
    "H</w>": 1800,
    "moved</w>": 1801,
    "gar": 1802,
    "times</w>": 1803,
    "ental</w>": 1804,
    "Mal": 1805,
    "raft</w>": 1806,
    "son": 1807,
    "na</w>": 1808,
    "met": 1809,
    "Counc": 1810,
    "é</w>": 1811,
    "equ": 1812,
    "George</w>": 1813,
    "mul": 1814,
    "war</w>": 1815,
    "European</w>": 1816,
    "Australia</w>": 1817,
    "fourth</w>": 1818,
    "ane</w>": 1819,
    "champi": 1820,
    "defen": 1821,
    "particip": 1822,
    "players</w>": 1823,
    "cording</w>": 1824,
    "Alex": 1825,
    "respon": 1826,
    "ish</w>": 1827,
    "ems</w>": 1828,
    "descri": 1829,
    "best</w>": 1830,
    "tre": 1831,
    "port": 1832,
    "13": 1833,
    "goal</w>": 1834,
    "career</w>": 1835,
    "There</w>": 1836,
    "188": 1837,
    "Pe": 1838,
    "utive</w>": 1839,
    "very</w>": 1840,
    "ously</w>": 1841,
    "gl": 1842,
    "!</w>": 1843,
    "3rd</w>": 1844,
    "Thom": 1845,
    "another</w>": 1846,
    "Wil": 1847,
    "Group</w>": 1848,
    "band</w>": 1849,
    "music</w>": 1850,
    "onom": 1851,
    "general</w>": 1852,
    "pur": 1853,
    "ature</w>": 1854,
    "The": 1855,
    "vol": 1856,
    "vel</w>": 1857,
    "East</w>": 1858,
    "near</w>": 1859,
    "total</w>": 1860,
    "differ": 1861,
    "proc": 1862,
    "ched</w>": 1863,
    "popul": 1864,
    "ority</w>": 1865,
    "started</w>": 1866,
    "ph</w>": 1867,
    "ject</w>": 1868,
    "Fir": 1869,
    "ghts</w>": 1870,
    "ures</w>": 1871,
    "appoin": 1872,
    "her": 1873,
    "ached</w>": 1874,
    "Pal": 1875,
    "tical</w>": 1876,
    "ran</w>": 1877,
    "zation</w>": 1878,
    "town</w>": 1879,
    "ects</w>": 1880,
    "ements</w>": 1881,
    "2005</w>": 1882,
    "acti": 1883,
    "curr": 1884,
    "Phil": 1885,
    "world</w>": 1886,
    "within</w>": 1887,
    "One</w>": 1888,
    "Bro": 1889,
    "major</w>": 1890,
    "again</w>": 1891,
    "late</w>": 1892,
    "Tur": 1893,
    "Cap": 1894,
    "using</w>": 1895,
    "aining</w>": 1896,
    "shing</w>": 1897,
    "tak": 1898,
    "located</w>": 1899,
    "Bra": 1900,
    "main</w>": 1901,
    "division</w>": 1902,
    "cep": 1903,
    "els</w>": 1904,
    "Sou": 1905,
    "search</w>": 1906,
    "ata</w>": 1907,
    "million</w>": 1908,
    "divi": 1909,
    "College</w>": 1910,
    "rul": 1911,
    "France</w>": 1912,
    "days</w>": 1913,
    "BC</w>": 1914,
    "ys": 1915,
    "elections</w>": 1916,
    "40</w>": 1917,
    "oon</w>": 1918,
    "Ag": 1919,
    "winning</w>": 1920,
    "quad": 1921,
    "ank</w>": 1922,
    "pen": 1923,
    "cr": 1924,
    "yard</w>": 1925,
    "incre": 1926,
    "sequ": 1927,
    "West": 1928,
    "Gl": 1929,
    "Tw": 1930,
    "finals</w>": 1931,
    "Hen": 1932,
    "may</w>": 1933,
    "fur": 1934,
    "ones</w>": 1935,
    "large</w>": 1936,
    "point</w>": 1937,
    "order</w>": 1938,
    "War": 1939,
    "attalion</w>": 1940,
    "ling</w>": 1941,
    "Lou": 1942,
    "Council</w>": 1943,
    "England</w>": 1944,
    "ax": 1945,
    "Air": 1946,
    "li</w>": 1947,
    "death</w>": 1948,
    "came</w>": 1949,
    "life</w>": 1950,
    "inj": 1951,
    "spe": 1952,
    "Rec": 1953,
    "nia</w>": 1954,
    "perform": 1955,
    "2004</w>": 1956,
    "tou": 1957,
    "ences</w>": 1958,
    "Gi": 1959,
    "even</w>": 1960,
    "allow": 1961,
    "ghter</w>": 1962,
    "Regiment</w>": 1963,
    "west</w>": 1964,
    "fantry</w>": 1965,
    "First</w>": 1966,
    "au</w>": 1967,
    "David</w>": 1968,
    "Association</w>": 1969,
    "district</w>": 1970,
    "take</w>": 1971,
    "tow": 1972,
    "sing</w>": 1973,
    "usin": 1974,
    "la</w>": 1975,
    "joined</w>": 1976,
    "acks</w>": 1977,
    "stage</w>": 1978,
    "having</w>": 1979,
    "ances</w>": 1980,
    "less</w>": 1981,
    "championship</w>": 1982,
    "dren</w>": 1983,
    "competition</w>": 1984,
    "ik": 1985,
    "sem": 1986,
    "political</w>": 1987,
    "because</w>": 1988,
    "Mat": 1989,
    "wards</w>": 1990,
    "chn": 1991,
    "country</w>": 1992,
    "esp": 1993,
    "sum": 1994,
    "alth</w>": 1995,
    "Football</w>": 1996,
    "lands</w>": 1997,
    "initi": 1998,
    "Al</w>": 1999,
    "Arm": 2000,
    "File</w>": 2001,
    "if</w>": 2002,
    "Cam": 2003,
    "just</w>": 2004,
    "view</w>": 2005,
    "nal</w>": 2006,
    "ri</w>": 2007,
    "gade</w>": 2008,
    "vill": 2009,
    "aster</w>": 2010,
    "ady</w>": 2011,
    "go</w>": 2012,
    "Minister</w>": 2013,
    "rown</w>": 2014,
    "craft</w>": 2015,
    "chang": 2016,
    "ago</w>": 2017,
    "building</w>": 2018,
    "ops</w>": 2019,
    "still</w>": 2020,
    "ped</w>": 2021,
    "nomin": 2022,
    "span</w>": 2023,
    "Med": 2024,
    "Tim": 2025,
    "vice</w>": 2026,
    "ketball</w>": 2027,
    "har": 2028,
    "187": 2029,
    "gest</w>": 2030,
    "aul": 2031,
    "Mis": 2032,
    "sions</w>": 2033,
    "period</w>": 2034,
    "ome": 2035,
    "away</w>": 2036,
    "Fre": 2037,
    "built</w>": 2038,
    "La": 2039,
    "iev": 2040,
    "Force</w>": 2041,
    "dro": 2042,
    "Award</w>": 2043,
    "Best</w>": 2044,
    "We": 2045,
    "yn": 2046,
    "writer</w>": 2047,
    "Women</w>": 2048,
    "tors</w>": 2049,
    "victory</w>": 2050,
    "Rich": 2051,
    "Pat": 2052,
    "mer": 2053,
    "campa": 2054,
    "avy</w>": 2055,
    "ether</w>": 2056,
    "driv": 2057,
    "beg": 2058,
    "father</w>": 2059,
    "head": 2060,
    "educ": 2061,
    "essional</w>": 2062,
    "grad": 2063,
    "Arch": 2064,
    "tem": 2065,
    "dist": 2066,
    "ena</w>": 2067,
    "previous</w>": 2068,
    "San</w>": 2069,
    "attack</w>": 2070,
    "ball": 2071,
    "Val": 2072,
    "cu": 2073,
    "Andre": 2074,
    "military</w>": 2075,
    "evision</w>": 2076,
    "formation</w>": 2077,
    "ano</w>": 2078,
    "ens": 2079,
    "2000</w>": 2080,
    "District</w>": 2081,
    "ymp": 2082,
    "Fil": 2083,
    "partment</w>": 2084,
    "ham</w>": 2085,
    "omb": 2086,
    "let": 2087,
    "reli": 2088,
    "arded</w>": 2089,
    "eded</w>": 2090,
    "Republ": 2091,
    "ploy": 2092,
    "India</w>": 2093,
    "Union</w>": 2094,
    "present</w>": 2095,
    "FC</w>": 2096,
    "those</w>": 2097,
    "liam": 2098,
    "main": 2099,
    "adium</w>": 2100,
    "ths</w>": 2101,
    "Bur": 2102,
    "forces</w>": 2103,
    "returned</w>": 2104,
    "itte": 2105,
    "ine": 2106,
    "ring</w>": 2107,
    "attemp": 2108,
    "Fin": 2109,
    "int</w>": 2110,
    "FA</w>": 2111,
    "Sal": 2112,
    "Russian</w>": 2113,
    "ateg": 2114,
    "book</w>": 2115,
    "bert</w>": 2116,
    "clos": 2117,
    "Pi": 2118,
    "charac": 2119,
    "Cour": 2120,
    "Ara": 2121,
    "invol": 2122,
    "background</w>": 2123,
    "species</w>": 2124,
    "oung</w>": 2125,
    "ona</w>": 2126,
    "Hist": 2127,
    "suppor": 2128,
    "ys</w>": 2129,
    "road</w>": 2130,
    "5th</w>": 2131,
    "astern</w>": 2132,
    "continued</w>": 2133,
    "Park</w>": 2134,
    "fri": 2135,
    "shire</w>": 2136,
    "2003</w>": 2137,
    "success": 2138,
    "ric": 2139,
    "president</w>": 2140,
    "community</w>": 2141,
    "100</w>": 2142,
    "ovi": 2143,
    "Conference</w>": 2144,
    "ially</w>": 2145,
    "ounds</w>": 2146,
    "anded</w>": 2147,
    "fication</w>": 2148,
    "house</w>": 2149,
    "compet": 2150,
    "ars</w>": 2151,
    "unic": 2152,
    "Itali": 2153,
    "killed</w>": 2154,
    "doc": 2155,
    "Du": 2156,
    "pg</w>": 2157,
    "Cali": 2158,
    "ots</w>": 2159,
    "14": 2160,
    "claim": 2161,
    "ments</w>": 2162,
    "stre": 2163,
    "ier</w>": 2164,
    "song</w>": 2165,
    "ald</w>": 2166,
    "US</w>": 2167,
    "hum": 2168,
    "Lu": 2169,
    "hom": 2170,
    "occ": 2171,
    "non</w>": 2172,
    "Democratic</w>": 2173,
    "action</w>": 2174,
    "result</w>": 2175,
    "Sha": 2176,
    "erc": 2177,
    "ani</w>": 2178,
    "ural</w>": 2179,
    "aged</w>": 2180,
    "stat": 2181,
    "\"|</w>": 2182,
    "rist": 2183,
    "till": 2184,
    "typ": 2185,
    "Ath": 2186,
    "among</w>": 2187,
    "Robert</w>": 2188,
    "jpg</w>": 2189,
    "King</w>": 2190,
    "ols</w>": 2191,
    "forc": 2192,
    "get</w>": 2193,
    "show</w>": 2194,
    "iter": 2195,
    "Indian</w>": 2196,
    "val": 2197,
    "expl": 2198,
    "small</w>": 2199,
    "ae</w>": 2200,
    "ee</w>": 2201,
    "Er": 2202,
    "established</w>": 2203,
    "Im": 2204,
    "ampionships</w>": 2205,
    "Thomas</w>": 2206,
    "ino</w>": 2207,
    "utes</w>": 2208,
    "den": 2209,
    "ici": 2210,
    "ours</w>": 2211,
    "ocial</w>": 2212,
    "With</w>": 2213,
    "ville</w>": 2214,
    "comb": 2215,
    "ution</w>": 2216,
    "pain": 2217,
    "seven</w>": 2218,
    "eight</w>": 2219,
    "Corps</w>": 2220,
    "ditional</w>": 2221,
    "ministr": 2222,
    "2001</w>": 2223,
    "\\</w>": 2224,
    "regular</w>": 2225,
    "Series</w>": 2226,
    "Si": 2227,
    "fif": 2228,
    "role</w>": 2229,
    "tly</w>": 2230,
    "show": 2231,
    "quadron</w>": 2232,
    "aul</w>": 2233,
    "Charles</w>": 2234,
    "what</w>": 2235,
    "2002</w>": 2236,
    "Micha": 2237,
    "make</w>": 2238,
    "include</w>": 2239,
    "term</w>": 2240,
    "ris</w>": 2241,
    "ittee</w>": 2242,
    "Por": 2243,
    "tian</w>": 2244,
    "Riv": 2245,
    "Ter": 2246,
    "Soci": 2247,
    "law</w>": 2248,
    "gener": 2249,
    "fail": 2250,
    "matches</w>": 2251,
    "Ap": 2252,
    "hy": 2253,
    "seum</w>": 2254,
    "Kar": 2255,
    "tural</w>": 2256,
    "Fer": 2257,
    "cy": 2258,
    "oned</w>": 2259,
    "NCA": 2260,
    "sci": 2261,
    "da</w>": 2262,
    "official</w>": 2263,
    "dou": 2264,
    "children</w>": 2265,
    "international</w>": 2266,
    "vir": 2267,
    "construc": 2268,
    "vo": 2269,
    "Califor": 2270,
    "list</w>": 2271,
    "Ver": 2272,
    "Company</w>": 2273,
    "Hi": 2274,
    "dic": 2275,
    "Vic": 2276,
    "works</w>": 2277,
    "row</w>": 2278,
    "umbent</w>": 2279,
    "Sain": 2280,
    "ico</w>": 2281,
    "sent</w>": 2282,
    "histor": 2283,
    "Hun": 2284,
    "California</w>": 2285,
    "director</w>": 2286,
    "ma</w>": 2287,
    "without</w>": 2288,
    "Franc": 2289,
    "An</w>": 2290,
    "Grand</w>": 2291,
    "Sw": 2292,
    "see</w>": 2293,
    "change</w>": 2294,
    "busin": 2295,
    "US": 2296,
    "professional</w>": 2297,
    "are": 2298,
    "stro": 2299,
    "Olymp": 2300,
    "By</w>": 2301,
    "atives</w>": 2302,
    "test</w>": 2303,
    "anish</w>": 2304,
    "appointed</w>": 2305,
    "agre": 2306,
    "start</w>": 2307,
    "ene</w>": 2308,
    "ound": 2309,
    "events</w>": 2310,
    "politician</w>": 2311,
    "burg</w>": 2312,
    "sible</w>": 2313,
    "Lab": 2314,
    "tran": 2315,
    "edition</w>": 2316,
    "AS": 2317,
    "Kh": 2318,
    "TV</w>": 2319,
    "Michael</w>": 2320,
    "acy</w>": 2321,
    "Stre": 2322,
    "On": 2323,
    "..": 2324,
    "From</w>": 2325,
    "Offic": 2326,
    "nov": 2327,
    "given</w>": 2328,
    "6th</w>": 2329,
    "ro</w>": 2330,
    "exten": 2331,
    "Tra": 2332,
    "water</w>": 2333,
    "Ze": 2334,
    "aircraft</w>": 2335,
    "different</w>": 2336,
    "]]</w>": 2337,
    "Wash": 2338,
    "flu": 2339,
    "night</w>": 2340,
    "idd": 2341,
    "ership</w>": 2342,
    "stant</w>": 2343,
    "mag": 2344,
    "sw": 2345,
    "edul": 2346,
    "ribu": 2347,
    "[</w>": 2348,
    "Republican</w>": 2349,
    "winner</w>": 2350,
    "population</w>": 2351,
    "hon": 2352,
    "America</w>": 2353,
    "Battle</w>": 2354,
    "ators</w>": 2355,
    "12": 2356,
    "Mac": 2357,
    "Paul</w>": 2358,
    "When</w>": 2359,
    "cel": 2360,
    "region</w>": 2361,
    "campaign</w>": 2362,
    "orial</w>": 2363,
    "actor</w>": 2364,
    "vote</w>": 2365,
    "power</w>": 2366,
    "station</w>": 2367,
    "ought</w>": 2368,
    "Op": 2369,
    "represented</w>": 2370,
    "reti": 2371,
    "promot": 2372,
    "Italian</w>": 2373,
    "become</w>": 2374,
    "saw</w>": 2375,
    "yards</w>": 2376,
    "duced</w>": 2377,
    "Washington</w>": 2378,
    "ib": 2379,
    "aut": 2380,
    "Sup": 2381,
    "lin</w>": 2382,
    "Flor": 2383,
    "Feder": 2384,
    "As": 2385,
    "Je": 2386,
    "Canadi": 2387,
    "1999</w>": 2388,
    "car</w>": 2389,
    "dependent</w>": 2390,
    "however</w>": 2391,
    "Don": 2392,
    "north</w>": 2393,
    "ania</w>": 2394,
    "7th</w>": 2395,
    "ep</w>": 2396,
    "aver": 2397,
    "candidate</w>": 2398,
    "Tor": 2399,
    "ders</w>": 2400,
    "ferred</w>": 2401,
    "level</w>": 2402,
    "ands</w>": 2403,
    "tillery</w>": 2404,
    "shop</w>": 2405,
    "various</w>": 2406,
    "reported</w>": 2407,
    "uten": 2408,
    "fire</w>": 2409,
    "del</w>": 2410,
    "Jer": 2411,
    "inning</w>": 2412,
    "NCAA</w>": 2413,
    "'t</w>": 2414,
    "across</w>": 2415,
    "Tex": 2416,
    "nific": 2417,
    "entary</w>": 2418,
    "television</w>": 2419,
    "Play": 2420,
    "leader</w>": 2421,
    "John": 2422,
    "colspan</w>": 2423,
    "south</w>": 2424,
    "goals</w>": 2425,
    "control</w>": 2426,
    "isl": 2427,
    "ail</w>": 2428,
    "X</w>": 2429,
    "making</w>": 2430,
    "sting</w>": 2431,
    "ester</w>": 2432,
    "further</w>": 2433,
    "estiv": 2434,
    "original</w>": 2435,
    "via</w>": 2436,
    "che": 2437,
    "mith</w>": 2438,
    "cast</w>": 2439,
    "new": 2440,
    "Isra": 2441,
    "Canada</w>": 2442,
    "arm": 2443,
    "quarter</w>": 2444,
    "These</w>": 2445,
    "ever": 2446,
    "pat": 2447,
    "yl": 2448,
    "tig": 2449,
    "euten": 2450,
    "cle": 2451,
    "retary</w>": 2452,
    "touch": 2453,
    "Vir": 2454,
    "nec": 2455,
    "debut</w>": 2456,
    "Germany</w>": 2457,
    "Hol": 2458,
    "Center</w>": 2459,
    "basketball</w>": 2460,
    "leading</w>": 2461,
    "rote</w>": 2462,
    "Ham": 2463,
    "short</w>": 2464,
    "Bor": 2465,
    "African</w>": 2466,
    "laun": 2467,
    "studi": 2468,
    "Mag": 2469,
    "za</w>": 2470,
    "version</w>": 2471,
    "track</w>": 2472,
    "Stadium</w>": 2473,
    "awarded</w>": 2474,
    "ivil</w>": 2475,
    "mary</w>": 2476,
    "much</w>": 2477,
    "acqu": 2478,
    "Angel": 2479,
    "wide</w>": 2480,
    "feder": 2481,
    "tar": 2482,
    "eutenant</w>": 2483,
    "overed</w>": 2484,
    "Western</w>": 2485,
    "replaced</w>": 2486,
    "ubs</w>": 2487,
    "full</w>": 2488,
    "jour": 2489,
    "Sim": 2490,
    "production</w>": 2491,
    "fre": 2492,
    "ob</w>": 2493,
    "anese</w>": 2494,
    "dom</w>": 2495,
    "front</w>": 2496,
    "board</w>": 2497,
    "embly</w>": 2498,
    "wrote</w>": 2499,
    "singer</w>": 2500,
    "ific</w>": 2501,
    "River</w>": 2502,
    "Az": 2503,
    "Central</w>": 2504,
    "aker</w>": 2505,
    "deo</w>": 2506,
    "suff": 2507,
    "eds</w>": 2508,
    "own": 2509,
    "era</w>": 2510,
    "overall</w>": 2511,
    "produced</w>": 2512,
    "described</w>": 2513,
    "anim": 2514,
    "ales</w>": 2515,
    "Rom": 2516,
    "ci": 2517,
    "Dev": 2518,
    "Infantry</w>": 2519,
    "According</w>": 2520,
    "tress</w>": 2521,
    "Liber": 2522,
    "Ak": 2523,
    "opened</w>": 2524,
    "Red</w>": 2525,
    "prov": 2526,
    "village</w>": 2527,
    "FL</w>": 2528,
    "Res": 2529,
    "langu": 2530,
    "score</w>": 2531,
    "essor</w>": 2532,
    "playing</w>": 2533,
    "intro": 2534,
    "signific": 2535,
    "respec": 2536,
    "CO": 2537,
    "Tro": 2538,
    "created</w>": 2539,
    "ene": 2540,
    "uck": 2541,
    "yr": 2542,
    "dam": 2543,
    "gin": 2544,
    "often</w>": 2545,
    "Club</w>": 2546,
    "8th</w>": 2547,
    "Que": 2548,
    "worked</w>": 2549,
    "Battalion</w>": 2550,
    "few</w>": 2551,
    "Chris": 2552,
    "1998</w>": 2553,
    "ida</w>": 2554,
    "Academ": 2555,
    "hind</w>": 2556,
    "inten": 2557,
    "List</w>": 2558,
    "ogether</w>": 2559,
    "eli": 2560,
    "exam": 2561,
    "Sam": 2562,
    "Court</w>": 2563,
    "Department</w>": 2564,
    "Regi": 2565,
    "ek": 2566,
    "|-</w>": 2567,
    "ara</w>": 2568,
    "development</w>": 2569,
    "King": 2570,
    "founded</w>": 2571,
    "come</w>": 2572,
    "Championships</w>": 2573,
    "epis": 2574,
    "60</w>": 2575,
    "BA</w>": 2576,
    "unicip": 2577,
    "Mex": 2578,
    "un</w>": 2579,
    "followed</w>": 2580,
    "ness</w>": 2581,
    "All": 2582,
    ":#</w>": 2583,
    "Ros": 2584,
    "ac</w>": 2585,
    "conference</w>": 2586,
    "gress</w>": 2587,
    "Gra": 2588,
    "vers": 2589,
    "aland</w>": 2590,
    "becom": 2591,
    "song": 2592,
    "Year</w>": 2593,
    "married</w>": 2594,
    "rest</w>": 2595,
    "draw</w>": 2596,
    "face</w>": 2597,
    "Ben": 2598,
    "broad": 2599,
    "1996</w>": 2600,
    "Africa</w>": 2601,
    "Alexander</w>": 2602,
    "ges</w>": 2603,
    "35</w>": 2604,
    "written</w>": 2605,
    "some": 2606,
    "ket</w>": 2607,
    "Sk": 2608,
    "Church</w>": 2609,
    "schedul": 2610,
    "agg": 2611,
    "opp": 2612,
    "Ire": 2613,
    "uses</w>": 2614,
    "loss</w>": 2615,
    "Mad": 2616,
    "activ": 2617,
    "berg</w>": 2618,
    "ases</w>": 2619,
    "force</w>": 2620,
    "conduc": 2621,
    "considered</w>": 2622,
    "9th</w>": 2623,
    "moder": 2624,
    "abor": 2625,
    "minutes</w>": 2626,
    "La</w>": 2627,
    "ox</w>": 2628,
    "Sci": 2629,
    "32</w>": 2630,
    "draw": 2631,
    "ented</w>": 2632,
    "wood</w>": 2633,
    "1997</w>": 2634,
    "Ireland</w>": 2635,
    "ason</w>": 2636,
    "Direc": 2637,
    "istan</w>": 2638,
    "ota</w>": 2639,
    "seats</w>": 2640,
    "Street</w>": 2641,
    "counc": 2642,
    "qualif": 2643,
    "hor": 2644,
    "itted</w>": 2645,
    "Brigade</w>": 2646,
    ";\"</w>": 2647,
    "ending</w>": 2648,
    "ically</w>": 2649,
    "Ev": 2650,
    "Henry</w>": 2651,
    "tries</w>": 2652,
    "Bul": 2653,
    "Canadian</w>": 2654,
    "itch": 2655,
    "Cal": 2656,
    "taken</w>": 2657,
    "case</w>": 2658,
    "estival</w>": 2659,
    "Smith</w>": 2660,
    "cro": 2661,
    "Prem": 2662,
    "origin": 2663,
    "nat": 2664,
    "anti": 2665,
    "thre": 2666,
    "ability</w>": 2667,
    "Two</w>": 2668,
    "Kor": 2669,
    "prot": 2670,
    "ological</w>": 2671,
    "tes</w>": 2672,
    "Tran": 2673,
    "import": 2674,
    "ope</w>": 2675,
    "):</w>": 2676,
    "Japan</w>": 2677,
    "v</w>": 2678,
    "office</w>": 2679,
    "roc": 2680,
    "1992</w>": 2681,
    "behind</w>": 2682,
    "Field</w>": 2683,
    "stitute</w>": 2684,
    "lig": 2685,
    "sey</w>": 2686,
    "constitu": 2687,
    "Bat": 2688,
    "put</w>": 2689,
    "anch": 2690,
    "simil": 2691,
    "econom": 2692,
    "Commis": 2693,
    "battle</w>": 2694,
    "return</w>": 2695,
    "yan</w>": 2696,
    "net": 2697,
    "ank": 2698,
    "anced</w>": 2699,
    "Europe</w>": 2700,
    "aly</w>": 2701,
    "spor": 2702,
    "Def": 2703,
    "indu": 2704,
    "eting</w>": 2705,
    "army</w>": 2706,
    "Gar": 2707,
    "ues</w>": 2708,
    "groups</w>": 2709,
    "Ri": 2710,
    "Chic": 2711,
    "185": 2712,
    "remained</w>": 2713,
    "Ho": 2714,
    "dau": 2715,
    "Texas</w>": 2716,
    "Zealand</w>": 2717,
    "1995</w>": 2718,
    "erg": 2719,
    "Cath": 2720,
    "si</w>": 2721,
    "ode</w>": 2722,
    "Ant": 2723,
    "gave</w>": 2724,
    "fifth</w>": 2725,
    "completed</w>": 2726,
    "tures</w>": 2727,
    "ination</w>": 2728,
    "Art</w>": 2729,
    "free</w>": 2730,
    "indivi": 2731,
    "individu": 2732,
    "gg": 2733,
    "Sun": 2734,
    "sidential</w>": 2735,
    "viol": 2736,
    "event": 2737,
    "Oper": 2738,
    "recorded</w>": 2739,
    "sport</w>": 2740,
    "Chief</w>": 2741,
    "oph": 2742,
    "stated</w>": 2743,
    "ways</w>": 2744,
    "III</w>": 2745,
    "Not": 2746,
    "Gol": 2747,
    "1994</w>": 2748,
    "winners</w>": 2749,
    "ini</w>": 2750,
    "int": 2751,
    "ipp": 2752,
    "Lor": 2753,
    "program</w>": 2754,
    "ses": 2755,
    "directed</w>": 2756,
    "post": 2757,
    "Major</w>": 2758,
    "liament</w>": 2759,
    "him": 2760,
    "Carol": 2761,
    "ap</w>": 2762,
    "occur": 2763,
    "Colon": 2764,
    "recog": 2765,
    "eign</w>": 2766,
    "appeared</w>": 2767,
    "radi": 2768,
    "FI": 2769,
    "Vol": 2770,
    "Ari": 2771,
    "Japanese</w>": 2772,
    "amb": 2773,
    "ends</w>": 2774,
    "police</w>": 2775,
    "Team</w>": 2776,
    "ittle</w>": 2777,
    "stead</w>": 2778,
    "Peter</w>": 2779,
    "ref": 2780,
    "sil": 2781,
    "organ": 2782,
    "ored</w>": 2783,
    "lies</w>": 2784,
    "New": 2785,
    "class</w>": 2786,
    "squ": 2787,
    "date</w>": 2788,
    "ense</w>": 2789,
    "Dar": 2790,
    "deter": 2791,
    "cir": 2792,
    "Press</w>": 2793,
    "key</w>": 2794,
    "dia</w>": 2795,
    "months</w>": 2796,
    "Second</w>": 2797,
    "High</w>": 2798,
    "Mel": 2799,
    "ensive</w>": 2800,
    "bg": 2801,
    "Hall</w>": 2802,
    "Paris</w>": 2803,
    "lied</w>": 2804,
    "Sovi": 2805,
    "ellow</w>": 2806,
    "Christ": 2807,
    "bgcolor</w>": 2808,
    "don": 2809,
    "Cr": 2810,
    "China</w>": 2811,
    "addition</w>": 2812,
    "least</w>": 2813,
    "urity</w>": 2814,
    "results</w>": 2815,
    "ooks</w>": 2816,
    "voc": 2817,
    "Chicago</w>": 2818,
    "Il": 2819,
    "gradu": 2820,
    "Tri": 2821,
    "reached</w>": 2822,
    "training</w>": 2823,
    "45</w>": 2824,
    "Moun": 2825,
    "ditions</w>": 2826,
    "active</w>": 2827,
    "Spanish</w>": 2828,
    "ples</w>": 2829,
    "uk": 2830,
    "stry</w>": 2831,
    "together</w>": 2832,
    "maj": 2833,
    "stra": 2834,
    "sett": 2835,
    "Big</w>": 2836,
    "Arg": 2837,
    "q</w>": 2838,
    "Del": 2839,
    "()</w>": 2840,
    "low</w>": 2841,
    "Saint</w>": 2842,
    "lish": 2843,
    "arriv": 2844,
    "Mur": 2845,
    "foot": 2846,
    "1991</w>": 2847,
    "fem": 2848,
    "exec": 2849,
    "0th</w>": 2850,
    "Met": 2851,
    "1993</w>": 2852,
    "ghout</w>": 2853,
    "influ": 2854,
    "range</w>": 2855,
    "Bow": 2856,
    "six": 2857,
    "plic": 2858,
    "we</w>": 2859,
    "Service</w>": 2860,
    "largest</w>": 2861,
    "Str": 2862,
    "Richard</w>": 2863,
    "Mer": 2864,
    "others</w>": 2865,
    "Hu": 2866,
    "While</w>": 2867,
    "sul": 2868,
    "aly": 2869,
    "week</w>": 2870,
    "ied</w>": 2871,
    "pped</w>": 2872,
    "ala</w>": 2873,
    "Music</w>": 2874,
    "once</w>": 2875,
    "identi": 2876,
    "ado</w>": 2877,
    "live</w>": 2878,
    "champion</w>": 2879,
    "Republic</w>": 2880,
    "tively</w>": 2881,
    "Follow": 2882,
    "unit</w>": 2883,
    "Cre": 2884,
    "prote": 2885,
    "ably</w>": 2886,
    "entered</w>": 2887,
    "icul": 2888,
    "dings</w>": 2889,
    "Michi": 2890,
    "cast": 2891,
    "going</w>": 2892,
    "pass</w>": 2893,
    "“</w>": 2894,
    "Soviet</w>": 2895,
    "running</w>": 2896,
    "500</w>": 2897,
    "Jose": 2898,
    "van</w>": 2899,
    "west": 2900,
    "previously</w>": 2901,
    "sion": 2902,
    "contribu": 2903,
    "Lieutenant</w>": 2904,
    "tured</w>": 2905,
    "consec": 2906,
    "fav": 2907,
    "hit</w>": 2908,
    "mor": 2909,
    "Following</w>": 2910,
    "stance</w>": 2911,
    "Fri": 2912,
    "Win": 2913,
    "1990</w>": 2914,
    "Arth": 2915,
    "Sum": 2916,
    "yn</w>": 2917,
    "erve</w>": 2918,
    "xim": 2919,
    "ski</w>": 2920,
    "80</w>": 2921,
    "+</w>": 2922,
    "Academy</w>": 2923,
    "east</w>": 2924,
    "sus": 2925,
    "Assembly</w>": 2926,
    "although</w>": 2927,
    "anta</w>": 2928,
    "them": 2929,
    "Pan": 2930,
    "eball</w>": 2931,
    "Michigan</w>": 2932,
    "design": 2933,
    "seat</w>": 2934,
    "body</w>": 2935,
    "airs</w>": 2936,
    "oli": 2937,
    "UK</w>": 2938,
    "tice</w>": 2939,
    "akes</w>": 2940,
    "activi": 2941,
    "himself</w>": 2942,
    "performance</w>": 2943,
    "Ear": 2944,
    "olic</w>": 2945,
    "units</w>": 2946,
    "Committee</w>": 2947,
    "qualified</w>": 2948,
    "aff</w>": 2949,
    "Society</w>": 2950,
    "Ot": 2951,
    "leav": 2952,
    "areas</w>": 2953,
    "enced</w>": 2954,
    "every</w>": 2955,
    "ayor</w>": 2956,
    "ung</w>": 2957,
    "story</w>": 2958,
    "votes</w>": 2959,
    "separ": 2960,
    "concer": 2961,
    "ists</w>": 2962,
    "ounded</w>": 2963,
    "ff</w>": 2964,
    "video</w>": 2965,
    "AT": 2966,
    "release</w>": 2967,
    "open</w>": 2968,
    "mother</w>": 2969,
    "33</w>": 2970,
    "wife</w>": 2971,
    "social</w>": 2972,
    "1945</w>": 2973,
    "Ru": 2974,
    "subsequ": 2975,
    "yer</w>": 2976,
    "techn": 2977,
    "Pen": 2978,
    "iddle</w>": 2979,
    "Eg": 2980,
    "selected</w>": 2981,
    "aching</w>": 2982,
    "Museum</w>": 2983,
    "ari</w>": 2984,
    "Tour</w>": 2985,
    "bridge</w>": 2986,
    "soldi": 2987,
    "close</w>": 2988,
    "finish</w>": 2989,
    "amed</w>": 2990,
    "ban</w>": 2991,
    "cent</w>": 2992,
    "Hor": 2993,
    "Institute</w>": 2994,
    "Sl": 2995,
    "iting</w>": 2996,
    "contract</w>": 2997,
    "troops</w>": 2998,
    "ills</w>": 2999,
    "ells</w>": 3000,
    "kers</w>": 3001,
    "mission</w>": 3002,
    "lier</w>": 3003,
    "tern": 3004,
    "Governor</w>": 3005,
    "research</w>": 3006,
    "Los</w>": 3007,
    "ron": 3008,
    "AC": 3009,
    "ective</w>": 3010,
    "evi": 3011,
    "elled</w>": 3012,
    "post</w>": 3013,
    "mem": 3014,
    "working</w>": 3015,
    "Camp": 3016,
    "Georgi": 3017,
    "Squadron</w>": 3018,
    "Kingdom</w>": 3019,
    "foc": 3020,
    "ource</w>": 3021,
    "decided</w>": 3022,
    "fully</w>": 3023,
    "primary</w>": 3024,
    "priv": 3025,
    "developed</w>": 3026,
    "Film</w>": 3027,
    "Northern</w>": 3028,
    "long": 3029,
    "let</w>": 3030,
    "ext": 3031,
    "Ash": 3032,
    "Arthur</w>": 3033,
    "estig": 3034,
    "Ah": 3035,
    "archit": 3036,
    "36</w>": 3037,
    "speci": 3038,
    "quarter": 3039,
    "featured</w>": 3040,
    "ba": 3041,
    "ls</w>": 3042,
    "taking</w>": 3043,
    "white</w>": 3044,
    "sus</w>": 3045,
    "forced</w>": 3046,
    "Open</w>": 3047,
    "daughter</w>": 3048,
    "church</w>": 3049,
    "34</w>": 3050,
    "kra": 3051,
    "ade": 3052,
    "similar</w>": 3053,
    "gres": 3054,
    "istry</w>": 3055,
    "language</w>": 3056,
    "special</w>": 3057,
    "majority</w>": 3058,
    "1989</w>": 3059,
    "ero": 3060,
    "champions</w>": 3061,
    "Dis": 3062,
    "ockey</w>": 3063,
    "cle</w>": 3064,
    "allowed</w>": 3065,
    "ko</w>": 3066,
    "aid</w>": 3067,
    "ois</w>": 3068,
    "ón</w>": 3069,
    "runs</w>": 3070,
    "indic": 3071,
    "ansas</w>": 3072,
    "Italy</w>": 3073,
    "Champi": 3074,
    "claimed</w>": 3075,
    "administr": 3076,
    "avail": 3077,
    "ption</w>": 3078,
    "hear": 3079,
    "docum": 3080,
    "conn": 3081,
    "Leg": 3082,
    "Secretary</w>": 3083,
    "involved</w>": 3084,
    "standing</w>": 3085,
    "dri": 3086,
    "Senate</w>": 3087,
    "anti</w>": 3088,
    "lines</w>": 3089,
    "Wat": 3090,
    "touchdown</w>": 3091,
    "ials</w>": 3092,
    "ghting</w>": 3093,
    "Dou": 3094,
    "employ": 3095,
    "Black</w>": 3096,
    "ready</w>": 3097,
    "White</w>": 3098,
    "Great</w>": 3099,
    "cal": 3100,
    "electr": 3101,
    "met</w>": 3102,
    "ott": 3103,
    "ests</w>": 3104,
    "aper</w>": 3105,
    "Florida</w>": 3106,
    "1944</w>": 3107,
    "ports</w>": 3108,
    "und": 3109,
    "1988</w>": 3110,
    "shot</w>": 3111,
    "ublic": 3112,
    "70</w>": 3113,
    "education</w>": 3114,
    "38</w>": 3115,
    "students</w>": 3116,
    "wing</w>": 3117,
    "fiel": 3118,
    "lab": 3119,
    "Eli": 3120,
    "ength</w>": 3121,
    "ev</w>": 3122,
    "nine</w>": 3123,
    "listed</w>": 3124,
    "atory</w>": 3125,
    "jud": 3126,
    "ieved</w>": 3127,
    "Cur": 3128,
    "wid": 3129,
    "gra": 3130,
    "Spec": 3131,
    "consecutive</w>": 3132,
    "experi": 3133,
    "candidates</w>": 3134,
    "bour": 3135,
    "originally</w>": 3136,
    "anted</w>": 3137,
    "lat": 3138,
    "atic": 3139,
    "web": 3140,
    "throughout</w>": 3141,
    "court</w>": 3142,
    "strong</w>": 3143,
    "Bang": 3144,
    "ened</w>": 3145,
    "acked</w>": 3146,
    "Sar": 3147,
    "rep": 3148,
    "Martin</w>": 3149,
    "media</w>": 3150,
    "Far": 3151,
    "added</w>": 3152,
    "regiment</w>": 3153,
    "meeting</w>": 3154,
    "Louis</w>": 3155,
    "performed</w>": 3156,
    "Sur": 3157,
    "vely</w>": 3158,
    "associ": 3159,
    "Den": 3160,
    "Wales</w>": 3161,
    "Chin": 3162,
    "Russia</w>": 3163,
    "remaining</w>": 3164,
    "ax</w>": 3165,
    "Carolina</w>": 3166,
    "Virgin": 3167,
    "Athle": 3168,
    "artist</w>": 3169,
    "Ob": 3170,
    "Games</w>": 3171,
    "Premier</w>": 3172,
    "ography</w>": 3173,
    "forms</w>": 3174,
    "tal": 3175,
    "ate": 3176,
    "sib": 3177,
    "Her</w>": 3178,
    "average</w>": 3179,
    "clubs</w>": 3180,
    "important</w>": 3181,
    "Pak": 3182,
    "Ukra": 3183,
    "37</w>": 3184,
    "recogni": 3185,
    "nar": 3186,
    "cou": 3187,
    "Elec": 3188,
    "sen</w>": 3189,
    "rights</w>": 3190,
    "rought</w>": 3191,
    "significant</w>": 3192,
    "hab": 3193,
    "Haw": 3194,
    "manager</w>": 3195,
    "Austri": 3196,
    "onto</w>": 3197,
    "moun": 3198,
    "no": 3199,
    "Recor": 3200,
    "Sol": 3201,
    "ide": 3202,
    "fle": 3203,
    "opening</w>": 3204,
    "Jack": 3205,
    "burgh</w>": 3206,
    "should</w>": 3207,
    "hous": 3208,
    "spital</w>": 3209,
    "Bre": 3210,
    "ories</w>": 3211,
    "48</w>": 3212,
    "tain": 3213,
    "phys": 3214,
    "raised</w>": 3215,
    ");</w>": 3216,
    "Government</w>": 3217,
    "brother</w>": 3218,
    "Day</w>": 3219,
    "eman</w>": 3220,
    "bb": 3221,
    "quarters</w>": 3222,
    "young</w>": 3223,
    "phi": 3224,
    "Virginia</w>": 3225,
    "Tre": 3226,
    "countries</w>": 3227,
    "promoted</w>": 3228,
    "Ca": 3229,
    "college</w>": 3230,
    "month</w>": 3231,
    "rol": 3232,
    "itor</w>": 3233,
    "History</w>": 3234,
    "edy</w>": 3235,
    "business</w>": 3236,
    "ades</w>": 3237,
    "Act</w>": 3238,
    "itz": 3239,
    "press</w>": 3240,
    "designed</w>": 3241,
    "ha</w>": 3242,
    "Prof": 3243,
    "soci": 3244,
    "ola</w>": 3245,
    "available</w>": 3246,
    "ita</w>": 3247,
    "never</w>": 3248,
    "Clar": 3249,
    "actress</w>": 3250,
    "ources</w>": 3251,
    "popular</w>": 3252,
    "ais": 3253,
    "resent": 3254,
    "ć</w>": 3255,
    "ading</w>": 3256,
    "Game</w>": 3257,
    "gun": 3258,
    "90</w>": 3259,
    "Roman</w>": 3260,
    "starting</w>": 3261,
    "project</w>": 3262,
    "eventually</w>": 3263,
    "failed</w>": 3264,
    "ae": 3265,
    "liter": 3266,
    "Cro": 3267,
    "teen</w>": 3268,
    "yed</w>": 3269,
    "Williams</w>": 3270,
    "western</w>": 3271,
    "nation": 3272,
    "design</w>": 3273,
    "To</w>": 3274,
    "operations</w>": 3275,
    "42</w>": 3276,
    "ye</w>": 3277,
    "Dr": 3278,
    "Joseph</w>": 3279,
    "sky</w>": 3280,
    "Braz": 3281,
    "study</w>": 3282,
    "ami</w>": 3283,
    "Angeles</w>": 3284,
    "thers</w>": 3285,
    "add": 3286,
    "lie</w>": 3287,
    "eks</w>": 3288,
    "Isl": 3289,
    "canc": 3290,
    "highest</w>": 3291,
    "Island</w>": 3292,
    "successful</w>": 3293,
    "episode</w>": 3294,
    "1987</w>": 3295,
    "occup": 3296,
    "Go": 3297,
    "Tel": 3298,
    "44</w>": 3299,
    "Officer</w>": 3300,
    "elling</w>": 3301,
    "Most</w>": 3302,
    "Anth": 3303,
    "towards</w>": 3304,
    "ested</w>": 3305,
    "Colonel</w>": 3306,
    "mater": 3307,
    "ularly</w>": 3308,
    "porary</w>": 3309,
    "alty</w>": 3310,
    "scri": 3311,
    "Scottish</w>": 3312,
    "construction</w>": 3313,
    "Pac": 3314,
    "losing</w>": 3315,
    "scoring</w>": 3316,
    "Although</w>": 3317,
    "pow": 3318,
    "Road</w>": 3319,
    "vs</w>": 3320,
    "Shi": 3321,
    "guit": 3322,
    "sign": 3323,
    "cam": 3324,
    "1986</w>": 3325,
    "effor": 3326,
    "Coll": 3327,
    "Sil": 3328,
    "Some</w>": 3329,
    "good</w>": 3330,
    "class": 3331,
    "base</w>": 3332,
    "seen</w>": 3333,
    "Super": 3334,
    "how</w>": 3335,
    "session</w>": 3336,
    "41</w>": 3337,
    "bloc": 3338,
    "current</w>": 3339,
    "200</w>": 3340,
    "destro": 3341,
    "Mary</w>": 3342,
    "declar": 3343,
    "Mot": 3344,
    "instead</w>": 3345,
    "wat": 3346,
    "Christian</w>": 3347,
    "disp": 3348,
    "und</w>": 3349,
    "xed</w>": 3350,
    "process</w>": 3351,
    "states</w>": 3352,
    "evol": 3353,
    "exist": 3354,
    "shar": 3355,
    ",\"</w>": 3356,
    "imp": 3357,
    "ault</w>": 3358,
    "tie</w>": 3359,
    "polic": 3360,
    "Edward</w>": 3361,
    "viron": 3362,
    "cat": 3363,
    "atre</w>": 3364,
    "rest": 3365,
    "Egyp": 3366,
    "gham</w>": 3367,
    "spir": 3368,
    "vent": 3369,
    "Hon": 3370,
    "Sir</w>": 3371,
    "75</w>": 3372,
    "Det": 3373,
    "High": 3374,
    "47</w>": 3375,
    "AR": 3376,
    "Prime</w>": 3377,
    "1943</w>": 3378,
    "phot": 3379,
    "related</w>": 3380,
    "Brit": 3381,
    "anda</w>": 3382,
    "mark</w>": 3383,
    "Ori": 3384,
    "Police</w>": 3385,
    "command</w>": 3386,
    "author</w>": 3387,
    "Dep": 3388,
    "chools</w>": 3389,
    "eter</w>": 3390,
    "onds</w>": 3391,
    "Congress</w>": 3392,
    "modern</w>": 3393,
    "sea</w>": 3394,
    "grow": 3395,
    "Ke": 3396,
    "defeat</w>": 3397,
    "dence</w>": 3398,
    "AC</w>": 3399,
    "common</w>": 3400,
    "Armen": 3401,
    "Chinese</w>": 3402,
    "Sing": 3403,
    "1984</w>": 3404,
    "person": 3405,
    "Johnson</w>": 3406,
    "Ni": 3407,
    "Mark</w>": 3408,
    "mid</w>": 3409,
    "ella</w>": 3410,
    "religi": 3411,
    "ece</w>": 3412,
    "***</w>": 3413,
    "ood": 3414,
    "eth</w>": 3415,
    "tin": 3416,
    "conclu": 3417,
    "premi": 3418,
    "azine</w>": 3419,
    "1942</w>": 3420,
    "Men</w>": 3421,
    "Philipp": 3422,
    "Andrew</w>": 3423,
    "Southern</w>": 3424,
    "conte": 3425,
    "ez</w>": 3426,
    "01</w>": 3427,
    "deg": 3428,
    "minute</w>": 3429,
    "1985</w>": 3430,
    "organized</w>": 3431,
    "investig": 3432,
    "Order</w>": 3433,
    "lap</w>": 3434,
    "Festival</w>": 3435,
    "Jus": 3436,
    "refer": 3437,
    "phy</w>": 3438,
    "fall</w>": 3439,
    "km</w>": 3440,
    "pic": 3441,
    "Greek</w>": 3442,
    "aries</w>": 3443,
    "great</w>": 3444,
    "bir": 3445,
    "ners</w>": 3446,
    "eth": 3447,
    "organization</w>": 3448,
    "din": 3449,
    "journ": 3450,
    "break</w>": 3451,
    "Mexico</w>": 3452,
    "Boston</w>": 3453,
    "outside</w>": 3454,
    "Green</w>": 3455,
    "Star</w>": 3456,
    "structure</w>": 3457,
    "domin": 3458,
    "provided</w>": 3459,
    "jects</w>": 3460,
    "thing</w>": 3461,
    "multi": 3462,
    "hibi": 3463,
    "football": 3464,
    "To": 3465,
    "ki</w>": 3466,
    "confir": 3467,
    "Awards</w>": 3468,
    "help</w>": 3469,
    "ny</w>": 3470,
    "releg": 3471,
    "Director</w>": 3472,
    "gold</w>": 3473,
    "Represent": 3474,
    "positions</w>": 3475,
    "plann": 3476,
    "39</w>": 3477,
    "erous</w>": 3478,
    "visions</w>": 3479,
    "Lar": 3480,
    "semi</w>": 3481,
    "Dun": 3482,
    "municip": 3483,
    "upon</w>": 3484,
    "passed</w>": 3485,
    "Jones</w>": 3486,
    "resid": 3487,
    "ura</w>": 3488,
    "possible</w>": 3489,
    "uty</w>": 3490,
    "got</w>": 3491,
    "hold</w>": 3492,
    "AA</w>": 3493,
    "ster": 3494,
    "hours</w>": 3495,
    "net</w>": 3496,
    "aled</w>": 3497,
    "count</w>": 3498,
    "section</w>": 3499,
    "dies</w>": 3500,
    "Rac": 3501,
    "Board</w>": 3502,
    "1980</w>": 3503,
    "”</w>": 3504,
    "Ban": 3505,
    "seasons</w>": 3506,
    "closed</w>": 3507,
    "compos": 3508,
    "exc": 3509,
    ";–</w>": 3510,
    "Inc": 3511,
    "toral</w>": 3512,
    "meas": 3513,
    "sa</w>": 3514,
    "cop": 3515,
    "plays</w>": 3516,
    "Eastern</w>": 3517,
    "bat": 3518,
    "critic": 3519,
    "Its</w>": 3520,
    "tra</w>": 3521,
    "Albert</w>": 3522,
    "caused</w>": 3523,
    "Bank</w>": 3524,
    "ze": 3525,
    "brought</w>": 3526,
    "don</w>": 3527,
    "survi": 3528,
    "Brown</w>": 3529,
    "ecture</w>": 3530,
    "Since</w>": 3531,
    "ident</w>": 3532,
    "either</w>": 3533,
    "offs</w>": 3534,
    "legal</w>": 3535,
    "Desp": 3536,
    "ranked</w>": 3537,
    "ician</w>": 3538,
    "black</w>": 3539,
    "wins</w>": 3540,
    "ads</w>": 3541,
    "aval": 3542,
    "43</w>": 3543,
    "includes</w>": 3544,
    "Ba": 3545,
    "People</w>": 3546,
    "Parliament</w>": 3547,
    "1983</w>": 3548,
    "changed</w>": 3549,
    "Conserv": 3550,
    "1982</w>": 3551,
    "Educ": 3552,
    "Ram": 3553,
    "practi": 3554,
    "Cri": 3555,
    "rail": 3556,
    "woman</w>": 3557,
    "participated</w>": 3558,
    "Victor": 3559,
    "so": 3560,
    "human</w>": 3561,
    "Iri": 3562,
    "sixth</w>": 3563,
    "fer</w>": 3564,
    "presidential</w>": 3565,
    "saf": 3566,
    "Bay</w>": 3567,
    "independent</w>": 3568,
    "65</w>": 3569,
    "aches</w>": 3570,
    "information</w>": 3571,
    "advanced</w>": 3572,
    "manu": 3573,
    "earned</w>": 3574,
    "Anton": 3575,
    "Gal": 3576,
    "producer</w>": 3577,
    "inian</w>": 3578,
    "territ": 3579,
    "zing</w>": 3580,
    "decision</w>": 3581,
    "prepar": 3582,
    "person</w>": 3583,
    "Hum": 3584,
    "beginning</w>": 3585,
    "11": 3586,
    "pot": 3587,
    "Luc": 3588,
    "host</w>": 3589,
    "ized</w>": 3590,
    "senior</w>": 3591,
    "appearance</w>": 3592,
    "ening</w>": 3593,
    "sim": 3594,
    "ink</w>": 3595,
    "unity</w>": 3596,
    "Jr</w>": 3597,
    "aying</w>": 3598,
    "cept</w>": 3599,
    "footballer</w>": 3600,
    "Tenn": 3601,
    "Artillery</w>": 3602,
    "ows</w>": 3603,
    "oot</w>": 3604,
    "46</w>": 3605,
    "ligh": 3606,
    "public": 3607,
    "Pu": 3608,
    "val</w>": 3609,
    "ention</w>": 3610,
    "level": 3611,
    "anies</w>": 3612,
    "parts</w>": 3613,
    "tained</w>": 3614,
    "oul": 3615,
    "pire</w>": 3616,
    "ept</w>": 3617,
    "alls</w>": 3618,
    "Sin": 3619,
    "49</w>": 3620,
    "pers": 3621,
    "Hel": 3622,
    "proper": 3623,
    "hio</w>": 3624,
    "Stan": 3625,
    "va</w>": 3626,
    "ati</w>": 3627,
    "chester</w>": 3628,
    "table</w>": 3629,
    "website</w>": 3630,
    "Cas": 3631,
    "1979</w>": 3632,
    "zz": 3633,
    "Despite</w>": 3634,
    "Arts</w>": 3635,
    "earlier</w>": 3636,
    "venue</w>": 3637,
    "Argent": 3638,
    "Hill</w>": 3639,
    "coming</w>": 3640,
    "films</w>": 3641,
    ".)</w>": 3642,
    "vention</w>": 3643,
    "oms</w>": 3644,
    "Ohio</w>": 3645,
    "Lee</w>": 3646,
    "meth": 3647,
    "gun</w>": 3648,
    "space</w>": 3649,
    "...</w>": 3650,
    "operation</w>": 3651,
    "Georgia</w>": 3652,
    "example</w>": 3653,
    "Ministry</w>": 3654,
    "func": 3655,
    "introduced</w>": 3656,
    "Studi": 3657,
    "launched</w>": 3658,
    "Super</w>": 3659,
    "Olympic</w>": 3660,
    "law": 3661,
    "almost</w>": 3662,
    "sym": 3663,
    "desp": 3664,
    "sports</w>": 3665,
    "sold</w>": 3666,
    "soldiers</w>": 3667,
    "trade</w>": 3668,
    "probl": 3669,
    "lik": 3670,
    "scre": 3671,
    "susp": 3672,
    "competed</w>": 3673,
    "vis": 3674,
    "Dut": 3675,
    "officer</w>": 3676,
    "movement</w>": 3677,
    "Irish</w>": 3678,
    "icans</w>": 3679,
    "radio</w>": 3680,
    "classi": 3681,
    "Civil</w>": 3682,
    "1972</w>": 3683,
    "San": 3684,
    "compar": 3685,
    "central</w>": 3686,
    "situ": 3687,
    "approxim": 3688,
    "Ira": 3689,
    "VI": 3690,
    "incumbent</w>": 3691,
    "die</w>": 3692,
    "medal</w>": 3693,
    "according</w>": 3694,
    "stribu": 3695,
    "move</w>": 3696,
    "Pacific</w>": 3697,
    "Dav": 3698,
    "above</w>": 3699,
    "award</w>": 3700,
    "1981</w>": 3701,
    "ebr": 3702,
    "presented</w>": 3703,
    "Sat": 3704,
    "Spe": 3705,
    "views</w>": 3706,
    "Office</w>": 3707,
    "Scotland</w>": 3708,
    "aur": 3709,
    "erb": 3710,
    "win": 3711,
    "ab</w>": 3712,
    "Ken": 3713,
    "hic": 3714,
    "acted</w>": 3715,
    "Bir": 3716,
    "@</w>": 3717,
    "character</w>": 3718,
    "Spain</w>": 3719,
    "55</w>": 3720,
    "estim": 3721,
    "Atlan": 3722,
    "retired</w>": 3723,
    "unc": 3724,
    "you</w>": 3725,
    "1978</w>": 3726,
    "chall": 3727,
    "prec": 3728,
    "aggreg": 3729,
    "Bah": 3730,
    "Mah": 3731,
    "tery</w>": 3732,
    "whose</w>": 3733,
    "ious</w>": 3734,
    "supported</w>": 3735,
    "already</w>": 3736,
    "Rail": 3737,
    "Catholic</w>": 3738,
    "degree</w>": 3739,
    "Other</w>": 3740,
    "ply</w>": 3741,
    "mur": 3742,
    "brary</w>": 3743,
    "Town</w>": 3744,
    "Ko": 3745,
    "Portu": 3746,
    "Arab": 3747,
    "hand": 3748,
    ".&</w>": 3749,
    "titled</w>": 3750,
    "com</w>": 3751,
    "hand</w>": 3752,
    "Ok": 3753,
    "dish</w>": 3754,
    "Dani": 3755,
    "Prov": 3756,
    "assigned</w>": 3757,
    "Commission</w>": 3758,
    "atis": 3759,
    "attended</w>": 3760,
    "does</w>": 3761,
    "autom": 3762,
    "view": 3763,
    "ero</w>": 3764,
    "tan": 3765,
    "prior</w>": 3766,
    "She": 3767,
    "features</w>": 3768,
    "1976</w>": 3769,
    "designated</w>": 3770,
    "Bet": 3771,
    "elim": 3772,
    "transl": 3773,
    "Final</w>": 3774,
    "sign</w>": 3775,
    "chief</w>": 3776,
    "gin</w>": 3777,
    "despite</w>": 3778,
    "ancial</w>": 3779,
    "rick</w>": 3780,
    "1974</w>": 3781,
    "plat": 3782,
    "additional</w>": 3783,
    "Young</w>": 3784,
    "ump</w>": 3785,
    "soon</w>": 3786,
    "Lo": 3787,
    "owned</w>": 3788,
    "super": 3789,
    "becoming</w>": 3790,
    "ef</w>": 3791,
    "sta</w>": 3792,
    "Mill": 3793,
    "must</w>": 3794,
    "ova</w>": 3795,
    "draft</w>": 3796,
    "drew</w>": 3797,
    "ray</w>": 3798,
    "academ": 3799,
    "ion</w>": 3800,
    "awa</w>": 3801,
    "heavy</w>": 3802,
    "You</w>": 3803,
    "Israel</w>": 3804,
    "1970</w>": 3805,
    "nel</w>": 3806,
    "aded</w>": 3807,
    "annual</w>": 3808,
    "Spr": 3809,
    "audi": 3810,
    "far</w>": 3811,
    "Incumbent</w>": 3812,
    "Empire</w>": 3813,
    "Atl": 3814,
    "ull</w>": 3815,
    "cross": 3816,
    "sor": 3817,
    "iled</w>": 3818,
    "1975</w>": 3819,
    "scheduled</w>": 3820,
    "stone</w>": 3821,
    "aval</w>": 3822,
    "impro": 3823,
    "duction</w>": 3824,
    "legisl": 3825,
    "complete</w>": 3826,
    "aya</w>": 3827,
    "initially</w>": 3828,
    "eigh": 3829,
    "overs</w>": 3830,
    "princ": 3831,
    "ilities</w>": 3832,
    "commis": 3833,
    "Dr</w>": 3834,
    "1973</w>": 3835,
    "Military</w>": 3836,
    "(\"</w>": 3837,
    "type</w>": 3838,
    "enth</w>": 3839,
    "Jean</w>": 3840,
    "qualifying</w>": 3841,
    "rug": 3842,
    "Prix</w>": 3843,
    "changes</w>": 3844,
    "poet</w>": 3845,
    "pical</w>": 3846,
    "conc": 3847,
    "double</w>": 3848,
    "asi": 3849,
    "officially</w>": 3850,
    "health</w>": 3851,
    "Av": 3852,
    "lv": 3853,
    "2026</w>": 3854,
    "sugg": 3855,
    "eria</w>": 3856,
    "ken</w>": 3857,
    "Bill</w>": 3858,
    "reve": 3859,
    "anth": 3860,
    "parties</w>": 3861,
    "Cy": 3862,
    "1971</w>": 3863,
    "stu": 3864,
    "syn": 3865,
    "living</w>": 3866,
    "aim</w>": 3867,
    "1941</w>": 3868,
    "rain</w>": 3869,
    "pu": 3870,
    "wal": 3871,
    "ingu": 3872,
    "ayl": 3873,
    "loo": 3874,
    "Chil": 3875,
    "songs</w>": 3876,
    "AP</w>": 3877,
    "duce</w>": 3878,
    "tis": 3879,
    "itiz": 3880,
    "1968</w>": 3881,
    "mond</w>": 3882,
    "governor</w>": 3883,
    "success</w>": 3884,
    "asc": 3885,
    "ume</w>": 3886,
    "wish</w>": 3887,
    "emic</w>": 3888,
    "required</w>": 3889,
    "novel</w>": 3890,
    "Gir": 3891,
    "composer</w>": 3892,
    "pool</w>": 3893,
    "1977</w>": 3894,
    "size</w>": 3895,
    "Radi": 3896,
    "aps</w>": 3897,
    "ex</w>": 3898,
    "currently</w>": 3899,
    "Under</w>": 3900,
    "ahead</w>": 3901,
    "immedi": 3902,
    "52</w>": 3903,
    "00": 3904,
    "itation</w>": 3905,
    "equip": 3906,
    "Mike</w>": 3907,
    "minister</w>": 3908,
    "Joe</w>": 3909,
    "Tom": 3910,
    "hi</w>": 3911,
    "rather</w>": 3912,
    "analy": 3913,
    "illa</w>": 3914,
    "deb": 3915,
    "mot": 3916,
    "64</w>": 3917,
    "Navy</w>": 3918,
    "keep": 3919,
    "tation</w>": 3920,
    "fol": 3921,
    "acher</w>": 3922,
    "migr": 3923,
    "icket</w>": 3924,
    "tun": 3925,
    "clim": 3926,
    "inst": 3927,
    "ineer</w>": 3928,
    "ude</w>": 3929,
    "future</w>": 3930,
    "ela</w>": 3931,
    "attempt</w>": 3932,
    "report</w>": 3933,
    "Swe": 3934,
    "nie</w>": 3935,
    "mir": 3936,
    "hosted</w>": 3937,
    "issues</w>": 3938,
    "Ott": 3939,
    "Mem": 3940,
    "dition": 3941,
    "Education</w>": 3942,
    "Gri": 3943,
    "liance</w>": 3944,
    "mid": 3945,
    "schools</w>": 3946,
    "here</w>": 3947,
    "alleg": 3948,
    "distribu": 3949,
    "Ti": 3950,
    "Asian</w>": 3951,
    "Frank</w>": 3952,
    "practice</w>": 3953,
    "Labour</w>": 3954,
    "expres": 3955,
    "pick</w>": 3956,
    "ticle</w>": 3957,
    "Princ": 3958,
    "schol": 3959,
    "provide</w>": 3960,
    "ga</w>": 3961,
    "Asia</w>": 3962,
    "there": 3963,
    "council</w>": 3964,
    "Scott</w>": 3965,
    "actions</w>": 3966,
    "enge</w>": 3967,
    "phil": 3968,
    "writing</w>": 3969,
    "private</w>": 3970,
    "adel": 3971,
    "oor</w>": 3972,
    "past</w>": 3973,
    "southern</w>": 3974,
    "vehic": 3975,
    "1969</w>": 3976,
    "data</w>": 3977,
    "companies</w>": 3978,
    "ids</w>": 3979,
    "verse</w>": 3980,
    "flight</w>": 3981,
    "Queen</w>": 3982,
    "ient</w>": 3983,
    "forward</w>": 3984,
    "lear": 3985,
    "Der": 3986,
    "weeks</w>": 3987,
    "Wel": 3988,
    "ordered</w>": 3989,
    "Bru": 3990,
    "Ku": 3991,
    "turn</w>": 3992,
    "annel</w>": 3993,
    "dom": 3994,
    "otion</w>": 3995,
    "oods</w>": 3996,
    "ador</w>": 3997,
    "bury</w>": 3998,
    "ette</w>": 3999,
    "managed</w>": 4000,
    "oppon": 4001,
    "ace": 4002,
    "nin": 4003,
    "ape</w>": 4004,
    "aging</w>": 4005,
    "mental</w>": 4006,
    "aggregate</w>": 4007,
    "sters</w>": 4008,
    "northern</w>": 4009,
    "AI": 4010,
    "onic</w>": 4011,
    "eli</w>": 4012,
    "Ren": 4013,
    "Sports</w>": 4014,
    "Techn": 4015,
    "ategory</w>": 4016,
    "gir": 4017,
    "whom</w>": 4018,
    "hou": 4019,
    "51</w>": 4020,
    "Captain</w>": 4021,
    "gers</w>": 4022,
    "ja</w>": 4023,
    "increased</w>": 4024,
    "isi": 4025,
    "hur": 4026,
    "cycl": 4027,
    "deal</w>": 4028,
    "beat</w>": 4029,
    "regional</w>": 4030,
    "Steph": 4031,
    "respectively</w>": 4032,
    "Bowl</w>": 4033,
    "Ra": 4034,
    "Tig": 4035,
    "singles</w>": 4036,
    "model</w>": 4037,
    "Francis": 4038,
    "ilian</w>": 4039,
    ";\"|</w>": 4040,
    "issue</w>": 4041,
    "Sul": 4042,
    "thus</w>": 4043,
    "issued</w>": 4044,
    "Three</w>": 4045,
    "ising</w>": 4046,
    "hood</w>": 4047,
    "attacks</w>": 4048,
    "19th</w>": 4049,
    "Dutch</w>": 4050,
    "ongside</w>": 4051,
    "flic": 4052,
    "Anthony</w>": 4053,
    "pe</w>": 4054,
    "Hou": 4055,
    "noted</w>": 4056,
    "Cul": 4057,
    "occurred</w>": 4058,
    "aught</w>": 4059,
    "female</w>": 4060,
    ".]]</w>": 4061,
    "Mont": 4062,
    "avalry</w>": 4063,
    "eter": 4064,
    "limited</w>": 4065,
    "AM": 4066,
    "ES": 4067,
    "bus</w>": 4068,
    "cher</w>": 4069,
    "summer</w>": 4070,
    "bal": 4071,
    "river</w>": 4072,
    "Member</w>": 4073,
    "arre": 4074,
    "security</w>": 4075,
    "wa": 4076,
    "uck</w>": 4077,
    "leaders</w>": 4078,
    "ming</w>": 4079,
    "Wol": 4080,
    "chair": 4081,
    "money</w>": 4082,
    "ira</w>": 4083,
    "pil": 4084,
    "course</w>": 4085,
    "Centre</w>": 4086,
    "How": 4087,
    "alized</w>": 4088,
    "ario</w>": 4089,
    "emy</w>": 4090,
    "=\"": 4091,
    "tour</w>": 4092,
    "ians</w>": 4093,
    "drawn</w>": 4094,
    "Syd": 4095,
    "marked</w>": 4096,
    "Jour": 4097,
    "opposition</w>": 4098,
    "lo</w>": 4099,
    "j</w>": 4100,
    "adesh</w>": 4101,
    "advance</w>": 4102,
    "officers</w>": 4103,
    "give</w>": 4104,
    "eding</w>": 4105,
    "Net": 4106,
    "worth</w>": 4107,
    "lit</w>": 4108,
    "rup": 4109,
    "1940</w>": 4110,
    "squad</w>": 4111,
    "Times</w>": 4112,
    "acts</w>": 4113,
    "adop": 4114,
    "elop": 4115,
    "enz": 4116,
    "So": 4117,
    "neigh": 4118,
    "1967</w>": 4119,
    "seven": 4120,
    "uel</w>": 4121,
    "Senior</w>": 4122,
    "Bab": 4123,
    "Public</w>": 4124,
    "Both</w>": 4125,
    "doub": 4126,
    "Round</w>": 4127,
    "Belgi": 4128,
    "bank</w>": 4129,
    "too</w>": 4130,
    "commerc": 4131,
    "stly</w>": 4132,
    "ques": 4133,
    "ox": 4134,
    "carried</w>": 4135,
    "aylor</w>": 4136,
    "transferred</w>": 4137,
    "mine</w>": 4138,
    "Nig": 4139,
    "ria</w>": 4140,
    "omet": 4141,
    "subsequently</w>": 4142,
    "espec": 4143,
    "remov": 4144,
    "Champions</w>": 4145,
    "theast</w>": 4146,
    "Prize</w>": 4147,
    "capital</w>": 4148,
    "inson</w>": 4149,
    "Penn": 4150,
    "Research</w>": 4151,
    "scienti": 4152,
    "tier</w>": 4153,
    "ropol": 4154,
    "individual</w>": 4155,
    "Atlantic</w>": 4156,
    "ader</w>": 4157,
    "El</w>": 4158,
    "Bec": 4159,
    "rock</w>": 4160,
    "zona</w>": 4161,
    "bran": 4162,
    "regul": 4163,
    "dig": 4164,
    "particularly</w>": 4165,
    "seconds</w>": 4166,
    "20th</w>": 4167,
    "usually</w>": 4168,
    "plan</w>": 4169,
    "AP": 4170,
    "If</w>": 4171,
    "Gall": 4172,
    "asing</w>": 4173,
    "Sydney</w>": 4174,
    "54</w>": 4175,
    "multiple</w>": 4176,
    "industry</w>": 4177,
    "ineering</w>": 4178,
    "books</w>": 4179,
    "phia</w>": 4180,
    "suffered</w>": 4181,
    "eligi": 4182,
    "56</w>": 4183,
    "especially</w>": 4184,
    "hib": 4185,
    "lived</w>": 4186,
    "Ay": 4187,
    "buildings</w>": 4188,
    "1966</w>": 4189,
    "rey</w>": 4190,
    "turned</w>": 4191,
    "conver": 4192,
    "defense</w>": 4193,
    "broadcast</w>": 4194,
    "ix</w>": 4195,
    "fight</w>": 4196,
    "sex</w>": 4197,
    "faced</w>": 4198,
    "\")</w>": 4199,
    "higher</w>": 4200,
    "exper": 4201,
    "celebr": 4202,
    "Ali</w>": 4203,
    "entry</w>": 4204,
    "Moh": 4205,
    "Sub": 4206,
    "authori": 4207,
    "cerem": 4208,
    "Le</w>": 4209,
    "von</w>": 4210,
    "confirmed</w>": 4211,
    "Lan": 4212,
    "thwest</w>": 4213,
    "response</w>": 4214,
    "fred</w>": 4215,
    "rian</w>": 4216,
    "Mov": 4217,
    "shows</w>": 4218,
    "1964</w>": 4219,
    "Arizona</w>": 4220,
    "lower</w>": 4221,
    "itself</w>": 4222,
    "leaving</w>": 4223,
    "cars</w>": 4224,
    "weight</w>": 4225,
    "Jack</w>": 4226,
    "ordin": 4227,
    "1946</w>": 4228,
    "ua</w>": 4229,
    "approximately</w>": 4230,
    "fighting</w>": 4231,
    "Later</w>": 4232,
    "below</w>": 4233,
    "Philadel": 4234,
    "Records</w>": 4235,
    "Y</w>": 4236,
    "prev": 4237,
    "Tom</w>": 4238,
    "determin": 4239,
    "federal</w>": 4240,
    "ld": 4241,
    "Ker": 4242,
    "Sa": 4243,
    "Mass": 4244,
    "driver</w>": 4245,
    "mm</w>": 4246,
    "spent</w>": 4247,
    "IS": 4248,
    "alongside</w>": 4249,
    "bul": 4250,
    "Rod": 4251,
    "union</w>": 4252,
    "1960</w>": 4253,
    "ils</w>": 4254,
    "1918</w>": 4255,
    "hibition</w>": 4256,
    "Philadelphia</w>": 4257,
    "Freder": 4258,
    "manufac": 4259,
    "Tha": 4260,
    "defeating</w>": 4261,
    "Britain</w>": 4262,
    "ali</w>": 4263,
    "prison": 4264,
    "Cra": 4265,
    "ric</w>": 4266,
    "iga</w>": 4267,
    "rant</w>": 4268,
    "alism</w>": 4269,
    "Prince</w>": 4270,
    "fell</w>": 4271,
    "VID</w>": 4272,
    "Ul": 4273,
    "Musli": 4274,
    "ren</w>": 4275,
    "staff</w>": 4276,
    "sides</w>": 4277,
    "Pakistan</w>": 4278,
    "aug": 4279,
    "read</w>": 4280,
    "Minn": 4281,
    "bu</w>": 4282,
    "alists</w>": 4283,
    "1965</w>": 4284,
    "NBA</w>": 4285,
    "Chris</w>": 4286,
    "resi": 4287,
    "studio</w>": 4288,
    "seventh</w>": 4289,
    "serving</w>": 4290,
    "COVID</w>": 4291,
    "sets</w>": 4292,
    "mann</w>": 4293,
    "enty</w>": 4294,
    "acting</w>": 4295,
    "du</w>": 4296,
    "entire</w>": 4297,
    "declared</w>": 4298,
    "little</w>": 4299,
    "ec</w>": 4300,
    "pan": 4301,
    "races</w>": 4302,
    "Histor": 4303,
    "1939</w>": 4304,
    "frequ": 4305,
    "commander</w>": 4306,
    "fig": 4307,
    "captured</w>": 4308,
    "Est": 4309,
    "Lord</w>": 4310,
    "mean": 4311,
    "sal": 4312,
    "shoot": 4313,
    "environ": 4314,
    "Sab": 4315,
    "Do": 4316,
    "53</w>": 4317,
    "Jewish</w>": 4318,
    "Toronto</w>": 4319,
    "newsp": 4320,
    "bomb": 4321,
    "itch</w>": 4322,
    "bar</w>": 4323,
    "collection</w>": 4324,
    "studied</w>": 4325,
    "kins</w>": 4326,
    "Cat": 4327,
    "occer</w>": 4328,
    "stra</w>": 4329,
    "batt": 4330,
    "That</w>": 4331,
    "Ly": 4332,
    "apol": 4333,
    "Science</w>": 4334,
    "Ander": 4335,
    "mitted</w>": 4336,
    "child</w>": 4337,
    "rid</w>": 4338,
    "replac": 4339,
    "succe": 4340,
    "interest</w>": 4341,
    "Juli": 4342,
    "economic</w>": 4343,
    "dar": 4344,
    "discus": 4345,
    "Life</w>": 4346,
    "58</w>": 4347,
    "Chair": 4348,
    "Develop": 4349,
    "Health</w>": 4350,
    "ide</w>": 4351,
    "Player</w>": 4352,
    "kh": 4353,
    "drive</w>": 4354,
    "Turk": 4355,
    "Nic": 4356,
    "Fe": 4357,
    "Federation</w>": 4358,
    "Fort</w>": 4359,
    "ologist</w>": 4360,
    "better</w>": 4361,
    "sin</w>": 4362,
    "Afgh": 4363,
    "room</w>": 4364,
    "08</w>": 4365,
    "Dor": 4366,
    "Ann": 4367,
    "market</w>": 4368,
    "inte": 4369,
    "Islam": 4370,
    "09</w>": 4371,
    "Francisco</w>": 4372,
    "injury</w>": 4373,
    "85</w>": 4374,
    "pre</w>": 4375,
    "happ": 4376,
    "Mun": 4377,
    "ott</w>": 4378,
    "1948</w>": 4379,
    "57</w>": 4380,
    "Hur": 4381,
    "88</w>": 4382,
    "vocals</w>": 4383,
    "contested</w>": 4384,
    "rich</w>": 4385,
    "Radio</w>": 4386,
    "sure</w>": 4387,
    "stitution</w>": 4388,
    "BS</w>": 4389,
    "Their</w>": 4390,
    "Rog": 4391,
    "kes</w>": 4392,
    "Cast": 4393,
    "bers</w>": 4394,
    "Olympics</w>": 4395,
    "stered</w>": 4396,
    "72</w>": 4397,
    "Jam": 4398,
    "AF</w>": 4399,
    "systems</w>": 4400,
    "Law": 4401,
    "Arab</w>": 4402,
    "ok</w>": 4403,
    "arran": 4404,
    "Liberal</w>": 4405,
    "cred": 4406,
    "mayor</w>": 4407,
    "tru": 4408,
    "short": 4409,
    "ca</w>": 4410,
    "Avi": 4411,
    "05</w>": 4412,
    "battalion</w>": 4413,
    "Valley</w>": 4414,
    "terms</w>": 4415,
    "atin</w>": 4416,
    "asked</w>": 4417,
    "My": 4418,
    "Manag": 4419,
    "Illin": 4420,
    "bourne</w>": 4421,
    "studies</w>": 4422,
    "Special</w>": 4423,
    "ustr": 4424,
    "lishing</w>": 4425,
    "purch": 4426,
    "á</w>": 4427,
    "Adam</w>": 4428,
    "78</w>": 4429,
    "chem": 4430,
    "relation": 4431,
    "ites</w>": 4432,
    "ont": 4433,
    "hard</w>": 4434,
    "ilies</w>": 4435,
    "AN": 4436,
    "far": 4437,
    "agreement</w>": 4438,
    "pose</w>": 4439,
    "voted</w>": 4440,
    "Polish</w>": 4441,
    "Minnes": 4442,
    "1962</w>": 4443,
    "arrived</w>": 4444,
    "Tem": 4445,
    "defending</w>": 4446,
    "magazine</w>": 4447,
    "route</w>": 4448,
    "injured</w>": 4449,
    "Summer</w>": 4450,
    "1963</w>": 4451,
    "Tru": 4452,
    "07</w>": 4453,
    "reach</w>": 4454,
    "anding</w>": 4455,
    "Minnesota</w>": 4456,
    "ries</w>": 4457,
    "onstr": 4458,
    "painter</w>": 4459,
    "lif": 4460,
    "Tournament</w>": 4461,
    "colon": 4462,
    "66</w>": 4463,
    "Alab": 4464,
    "traditional</w>": 4465,
    "cover</w>": 4466,
    "Shar": 4467,
    "ere": 4468,
    "civ": 4469,
    "deploy": 4470,
    "medical</w>": 4471,
    "Bad": 4472,
    "Love</w>": 4473,
    "dest</w>": 4474,
    "financial</w>": 4475,
    "border</w>": 4476,
    "vey</w>": 4477,
    "ilton</w>": 4478,
    "bes</w>": 4479,
    "imum</w>": 4480,
    "Lim": 4481,
    "Ali": 4482,
    "ul</w>": 4483,
    "conditions</w>": 4484,
    "cover": 4485,
    "latter</w>": 4486,
    "difficul": 4487,
    "allow</w>": 4488,
    "Forces</w>": 4489,
    "offensive</w>": 4490,
    "Kn": 4491,
    "likely</w>": 4492,
    "AF": 4493,
    "foreign</w>": 4494,
    "crow": 4495,
    "Gil": 4496,
    "star</w>": 4497,
    "leadership</w>": 4498,
    "collabor": 4499,
    "diss": 4500,
    "Station</w>": 4501,
    "uries</w>": 4502,
    "Lake</w>": 4503,
    "onia</w>": 4504,
    "sych": 4505,
    "sylv": 4506,
    "Man</w>": 4507,
    "Fu": 4508,
    "preme</w>": 4509,
    "£</w>": 4510,
    "1947</w>": 4511,
    "tis</w>": 4512,
    "Law</w>": 4513,
    "rounds</w>": 4514,
    "Kir": 4515,
    "nis</w>": 4516,
    "any": 4517,
    "aska</w>": 4518,
    "59</w>": 4519,
    "62</w>": 4520,
    "Jackson</w>": 4521,
    "Anna</w>": 4522,
    "Cross</w>": 4523,
    "rison</w>": 4524,
    "Loc": 4525,
    "fought</w>": 4526,
    "ching</w>": 4527,
    "77</w>": 4528,
    "centre</w>": 4529,
    "friend</w>": 4530,
    "numerous</w>": 4531,
    "anian</w>": 4532,
    "obal</w>": 4533,
    "owns</w>": 4534,
    "1952</w>": 4535,
    "mach": 4536,
    "ato</w>": 4537,
    "95</w>": 4538,
    "Wis": 4539,
    "acquired</w>": 4540,
    "ty": 4541,
    "tains</w>": 4542,
    "tied</w>": 4543,
    "door</w>": 4544,
    "bishop</w>": 4545,
    "join</w>": 4546,
    "Ox": 4547,
    "executive</w>": 4548,
    "Aff": 4549,
    "Raj": 4550,
    "UE": 4551,
    "primar": 4552,
    "sn": 4553,
    "house": 4554,
    "holds</w>": 4555,
    "hus": 4556,
    "Ball": 4557,
    "1961</w>": 4558,
    "76</w>": 4559,
    "alties</w>": 4560,
    "dependence</w>": 4561,
    "Time</w>": 4562,
    "near": 4563,
    "06</w>": 4564,
    "deli": 4565,
    "enger</w>": 4566,
    "nation</w>": 4567,
    "word</w>": 4568,
    "Coast</w>": 4569,
    "gained</w>": 4570,
    "Justice</w>": 4571,
    "my": 4572,
    "isation</w>": 4573,
    "records</w>": 4574,
    "De</w>": 4575,
    "brigade</w>": 4576,
    "Sand": 4577,
    "grand": 4578,
    "amoun": 4579,
    "location</w>": 4580,
    "assistant</w>": 4581,
    "We</w>": 4582,
    "Found": 4583,
    "Corpor": 4584,
    "reas": 4585,
    "wan</w>": 4586,
    "treat": 4587,
    "ging</w>": 4588,
    "finishing</w>": 4589,
    "straight</w>": 4590,
    "divided</w>": 4591,
    "Blue</w>": 4592,
    "HL</w>": 4593,
    "professor</w>": 4594,
    "island</w>": 4595,
    "Pitt": 4596,
    "avo": 4597,
    "Nations</w>": 4598,
    "hun": 4599,
    "1958</w>": 4600,
    "Rang": 4601,
    "Donald</w>": 4602,
    "Illinois</w>": 4603,
    "giving</w>": 4604,
    "Bangl": 4605,
    "ensus</w>": 4606,
    "master</w>": 4607,
    "1957</w>": 4608,
    "cles</w>": 4609,
    "promin": 4610,
    "Taylor</w>": 4611,
    "Alabama</w>": 4612,
    "Mosc": 4613,
    "63</w>": 4614,
    "composed</w>": 4615,
    "Alan</w>": 4616,
    "mit</w>": 4617,
    "top": 4618,
    "Chairman</w>": 4619,
    "sylvania</w>": 4620,
    "strike</w>": 4621,
    "Wilson</w>": 4622,
    "eing</w>": 4623,
    "ew": 4624,
    "missed</w>": 4625,
    "feature</w>": 4626,
    "1950</w>": 4627,
    "67</w>": 4628,
    "youn": 4629,
    "conducted</w>": 4630,
    "selves</w>": 4631,
    "semi": 4632,
    "unities</w>": 4633,
    "citiz": 4634,
    "remains</w>": 4635,
    "bott": 4636,
    "iz": 4637,
    "personal</w>": 4638,
    "altern": 4639,
    "promotion</w>": 4640,
    "Sel": 4641,
    "penalty</w>": 4642,
    "abeth</w>": 4643,
    "Arena</w>": 4644,
    "civil</w>": 4645,
    "science</w>": 4646,
    "dian</w>": 4647,
    "1956</w>": 4648,
    "EC</w>": 4649,
    "Four</w>": 4650,
    "esses</w>": 4651,
    "ji</w>": 4652,
    "network</w>": 4653,
    "BBC</w>": 4654,
    "baseball</w>": 4655,
    "ora</w>": 4656,
    "portra": 4657,
    "increase</w>": 4658,
    "Som": 4659,
    "Rel": 4660,
    "care</w>": 4661,
    "ulp": 4662,
    "proposed</w>": 4663,
    "News</w>": 4664,
    "cases</w>": 4665,
    "Junior</w>": 4666,
    "bs</w>": 4667,
    "seed</w>": 4668,
    "02</w>": 4669,
    "nearly</w>": 4670,
    "Anne</w>": 4671,
    "gy</w>": 4672,
    "Ark": 4673,
    "olled</w>": 4674,
    "adap": 4675,
    "ila</w>": 4676,
    "erson</w>": 4677,
    "alled</w>": 4678,
    "artillery</w>": 4679,
    "04</w>": 4680,
    "conv": 4681,
    "Bud": 4682,
    "elect</w>": 4683,
    "status</w>": 4684,
    "riage</w>": 4685,
    "Victoria</w>": 4686,
    "03</w>": 4687,
    "stop</w>": 4688,
    "inger</w>": 4689,
    "akers</w>": 4690,
    "inated</w>": 4691,
    "92</w>": 4692,
    "Old</w>": 4693,
    "61</w>": 4694,
    "Fac": 4695,
    "extended</w>": 4696,
    "plant</w>": 4697,
    "nes</w>": 4698,
    "Jim</w>": 4699,
    "Racing</w>": 4700,
    "length</w>": 4701,
    "Ran": 4702,
    "71</w>": 4703,
    "awards</w>": 4704,
    "oil</w>": 4705,
    "serve</w>": 4706,
    "Alexand": 4707,
    "Malay": 4708,
    "operated</w>": 4709,
    "Maj": 4710,
    "sk</w>": 4711,
    "antly</w>": 4712,
    "itan</w>": 4713,
    "surr": 4714,
    "99</w>": 4715,
    "Development</w>": 4716,
    "artists</w>": 4717,
    "expected</w>": 4718,
    "ees</w>": 4719,
    "alition</w>": 4720,
    "Airport</w>": 4721,
    "speed</w>": 4722,
    "infantry</w>": 4723,
    "engine</w>": 4724,
    "Bag": 4725,
    "demonstr": 4726,
    "eless</w>": 4727,
    "plom": 4728,
    "rement</w>": 4729,
    "evidence</w>": 4730,
    "direct</w>": 4731,
    "68</w>": 4732,
    "10th</w>": 4733,
    "Israeli</w>": 4734,
    "Swi": 4735,
    "ession</w>": 4736,
    "Bob</w>": 4737,
    "ultim": 4738,
    "ett</w>": 4739,
    "án</w>": 4740,
    "arding</w>": 4741,
    "argu": 4742,
    "Moscow</w>": 4743,
    "ao</w>": 4744,
    "believed</w>": 4745,
    "Rober": 4746,
    "And": 4747,
    "rate</w>": 4748,
    "cc</w>": 4749,
    "done": 4750,
    "aw</w>": 4751,
    "gen</w>": 4752,
    "Serge": 4753,
    "Indone": 4754,
    "Sea</w>": 4755,
    "religious</w>": 4756,
    "damage</w>": 4757,
    "No": 4758,
    "cut</w>": 4759,
    "cities</w>": 4760,
    "82</w>": 4761,
    "73</w>": 4762,
    "74</w>": 4763,
    "quick": 4764,
    "Davis</w>": 4765,
    "Khan</w>": 4766,
    "Steve</w>": 4767,
    "Mir": 4768,
    "los</w>": 4769,
    "settl": 4770,
    "Pitts": 4771,
    "Ven": 4772,
    "Daniel</w>": 4773,
    "thy</w>": 4774,
    "onze</w>": 4775,
    "student</w>": 4776,
    "ple": 4777,
    "planned</w>": 4778,
    "cas": 4779,
    "struction</w>": 4780,
    "UEFA</w>": 4781,
    "follows</w>": 4782,
    "Tar": 4783,
    "1955</w>": 4784,
    "directly</w>": 4785,
    "sent": 4786,
    "Des": 4787,
    "regim": 4788,
    "Kansas</w>": 4789,
    "week": 4790,
    "Bon": 4791,
    "Many</w>": 4792,
    "attacked</w>": 4793,
    "unte": 4794,
    "86</w>": 4795,
    "Legisl": 4796,
    "Mid": 4797,
    "Kel": 4798,
    "franch": 4799,
    "mostly</w>": 4800,
    "clear</w>": 4801,
    "associated</w>": 4802,
    "Antonio</w>": 4803,
    "thir": 4804,
    "ce": 4805,
    "Francis</w>": 4806,
    "Nat": 4807,
    "Theatre</w>": 4808,
    "pul": 4809,
    "USA</w>": 4810,
    "aci": 4811,
    "destroyed</w>": 4812,
    "helped</w>": 4813,
    "owle": 4814,
    "policy</w>": 4815,
    "vices</w>": 4816,
    "Hy": 4817,
    "bin</w>": 4818,
    "rule</w>": 4819,
    "shown</w>": 4820,
    "claim</w>": 4821,
    "oured</w>": 4822,
    "IV</w>": 4823,
    "1959</w>": 4824,
    "zer</w>": 4825,
    "Gard": 4826,
    "Duke</w>": 4827,
    "management</w>": 4828,
    "sons</w>": 4829,
    "81</w>": 4830,
    "tered</w>": 4831,
    "strum": 4832,
    "commercial</w>": 4833,
    "Co</w>": 4834,
    "Representatives</w>": 4835,
    "erly</w>": 4836,
    "Hal": 4837,
    "Mul": 4838,
    "ping</w>": 4839,
    "themselves</w>": 4840,
    "squadron</w>": 4841,
    "conflic": 4842,
    "applic": 4843,
    "real</w>": 4844,
    "arrested</w>": 4845,
    "Chall": 4846,
    "legi": 4847,
    "But</w>": 4848,
    "minor</w>": 4849,
    "Supreme</w>": 4850,
    "standard</w>": 4851,
    "voice</w>": 4852,
    "Base</w>": 4853,
    "reb": 4854,
    "wall</w>": 4855,
    "eastern</w>": 4856,
    "Kur": 4857,
    "actu": 4858,
    "finally</w>": 4859,
    "minal</w>": 4860,
    "ugg": 4861,
    "Berlin</w>": 4862,
    "format</w>": 4863,
    "captain</w>": 4864,
    "certain</w>": 4865,
    "means</w>": 4866,
    "leg</w>": 4867,
    "1949</w>": 4868,
    "tellig": 4869,
    "math": 4870,
    "Don</w>": 4871,
    "guns</w>": 4872,
    "NFL</w>": 4873,
    "jected</w>": 4874,
    "Cu": 4875,
    "featuring</w>": 4876,
    "Tam": 4877,
    "enough</w>": 4878,
    "ums</w>": 4879,
    "takes</w>": 4880,
    "Alber": 4881,
    "Pittsburgh</w>": 4882,
    "hu": 4883,
    "uted</w>": 4884,
    "Alex</w>": 4885,
    "resulted</w>": 4886,
    "stand</w>": 4887,
    "Org": 4888,
    "Mas": 4889,
    "Command</w>": 4890,
    "84</w>": 4891,
    "bra": 4892,
    "Alfred</w>": 4893,
    "Syst": 4894,
    "train</w>": 4895,
    "journalist</w>": 4896,
    "Assi": 4897,
    "sumed</w>": 4898,
    "300</w>": 4899,
    "enter</w>": 4900,
    "sell</w>": 4901,
    "inem": 4902,
    "odes</w>": 4903,
    "sometimes</w>": 4904,
    "saying</w>": 4905,
    "families</w>": 4906,
    "Tennes": 4907,
    "find</w>": 4908,
    "names</w>": 4909,
    "accep": 4910,
    "83</w>": 4911,
    "1953</w>": 4912,
    "storm</w>": 4913,
    "FF": 4914,
    "Bern": 4915,
    "guitar</w>": 4916,
    "activities</w>": 4917,
    "Foundation</w>": 4918,
    "1951</w>": 4919,
    "Ur": 4920,
    "yo</w>": 4921,
    "ann</w>": 4922,
    "Star": 4923,
    "Arti": 4924,
    "Bol": 4925,
    "twice</w>": 4926,
    "Revol": 4927,
    "prob": 4928,
    "explo": 4929,
    "Tennessee</w>": 4930,
    "Eliz": 4931,
    "generally</w>": 4932,
    "Q</w>": 4933,
    "agreed</w>": 4934,
    "Pennsylvania</w>": 4935,
    "elle</w>": 4936,
    "Black": 4937,
    "89</w>": 4938,
    "get": 4939,
    "guard</w>": 4940,
    "defin": 4941,
    "lag</w>": 4942,
    "ayed</w>": 4943,
    "1954</w>": 4944,
    "longer</w>": 4945,
    "jan</w>": 4946,
    "lic": 4947,
    "stein</w>": 4948,
    "Home</w>": 4949,
    "occa": 4950,
    "69</w>": 4951,
    "ammad</w>": 4952,
    "continue</w>": 4953,
    "Andr": 4954,
    "79</w>": 4955,
    "Gord": 4956,
    "Lew": 4957,
    "Social</w>": 4958,
    "Exec": 4959,
    "roit</w>": 4960,
    "nominated</w>": 4961,
    "Commander</w>": 4962,
    "ello</w>": 4963,
    "Columb": 4964,
    "news</w>": 4965,
    "Ta": 4966,
    "repe": 4967,
    "separate</w>": 4968,
    "87</w>": 4969,
    "Boy": 4970,
    "Latin</w>": 4971,
    "discovered</w>": 4972,
    "officials</w>": 4973,
    "founder</w>": 4974,
    "Top</w>": 4975,
    "Agr": 4976,
    "uter</w>": 4977,
    "railway</w>": 4978,
    "Dre": 4979,
    "Hong</w>": 4980,
    "natural</w>": 4981,
    "garian</w>": 4982,
    "Out": 4983,
    "ucky</w>": 4984,
    "activated</w>": 4985,
    "Fam": 4986,
    "ão</w>": 4987,
    "Another</w>": 4988,
    "Ty": 4989,
    "96</w>": 4990,
    "aka</w>": 4991,
    "combined</w>": 4992,
    "Mos": 4993,
    "Detroit</w>": 4994,
    "tionary</w>": 4995,
    "cross</w>": 4996,
    "sity</w>": 4997,
    "1917</w>": 4998,
    "food</w>": 4999,
    "moving</w>": 5000,
    "Tu": 5001,
    "istic</w>": 5002,
    "ía</w>": 5003,
    "Islands</w>": 5004,
    "Mart": 5005,
    "Sem": 5006,
    "appearances</w>": 5007,
    "relegated</w>": 5008,
    "headquarters</w>": 5009,
    "pal": 5010,
    "Palest": 5011,
    "sex": 5012,
    "My</w>": 5013,
    "historical</w>": 5014,
    "revol": 5015,
    "Gro": 5016,
    "culture</w>": 5017,
    "consisted</w>": 5018,
    "Hamilton</w>": 5019,
    "university</w>": 5020,
    "Kong</w>": 5021,
    "aves</w>": 5022,
    "charge</w>": 5023,
    "zi": 5024,
    "fel": 5025,
    "=\"#</w>": 5026,
    "iro</w>": 5027,
    "Iran</w>": 5028,
    "Sun</w>": 5029,
    "shi</w>": 5030,
    "oke</w>": 5031,
    "chos": 5032,
    "middle</w>": 5033,
    "12th</w>": 5034,
    "Frank": 5035,
    "access</w>": 5036,
    "1914</w>": 5037,
    "91</w>": 5038,
    "dly</w>": 5039,
    "Federal</w>": 5040,
    "leave</w>": 5041,
    "TC</w>": 5042,
    "ba</w>": 5043,
    "county</w>": 5044,
    "tropical</w>": 5045,
    "becomes</w>": 5046,
    "elements</w>": 5047,
    "fact</w>": 5048,
    "ailed</w>": 5049,
    "renamed</w>": 5050,
    "province</w>": 5051,
    "ght": 5052,
    "Week</w>": 5053,
    "ashi": 5054,
    "ucle": 5055,
    "sister</w>": 5056,
    "kin</w>": 5057,
    "ingly</w>": 5058,
    "Confeder": 5059,
    "1936</w>": 5060,
    "observ": 5061,
    "Athletic</w>": 5062,
    "11th</w>": 5063,
    "Library</w>": 5064,
    "AD": 5065,
    "Bishop</w>": 5066,
    "chairman</w>": 5067,
    "escap": 5068,
    "impl": 5069,
    "93</w>": 5070,
    "Manchester</w>": 5071,
    "editor</w>": 5072,
    "sburg</w>": 5073,
    "UC": 5074,
    "Pur": 5075,
    "percent</w>": 5076,
    "playoff</w>": 5077,
    "combat</w>": 5078,
    "Line</w>": 5079,
    "incor": 5080,
    "Front</w>": 5081,
    "Golden</w>": 5082,
    "Jersey</w>": 5083,
    "ematic": 5084,
    "recent</w>": 5085,
    "cust": 5086,
    "Cir": 5087,
    "thought</w>": 5088,
    "Red": 5089,
    "lack</w>": 5090,
    "immediately</w>": 5091,
    "parents</w>": 5092,
    "Holl": 5093,
    "inf": 5094,
    "houses</w>": 5095,
    "bb</w>": 5096,
    "Medical</w>": 5097,
    "98</w>": 5098,
    "eral</w>": 5099,
    "1920</w>": 5100,
    "Professor</w>": 5101,
    "yes</w>": 5102,
    "Hockey</w>": 5103,
    "ceremony</w>": 5104,
    "tracks</w>": 5105,
    "Executive</w>": 5106,
    "Korea</w>": 5107,
    "400</w>": 5108,
    "Kenn": 5109,
    "nit": 5110,
    "wil": 5111,
    "thum": 5112,
    "strateg": 5113,
    "accomp": 5114,
    "ech</w>": 5115,
    "Beng": 5116,
    "Aus": 5117,
    "split</w>": 5118,
    "broke</w>": 5119,
    "cuit</w>": 5120,
    "otel</w>": 5121,
    "cultural</w>": 5122,
    "quickly</w>": 5123,
    "CC</w>": 5124,
    "inner</w>": 5125,
    "97</w>": 5126,
    "evin</w>": 5127,
    "character": 5128,
    "owner</w>": 5129,
    "representative</w>": 5130,
    "mal</w>": 5131,
    "pp</w>": 5132,
    "playoffs</w>": 5133,
    "tment</w>": 5134,
    "encies</w>": 5135,
    "love</w>": 5136,
    "Melbourne</w>": 5137,
    "strial</w>": 5138,
    "Cel": 5139,
    "gary</w>": 5140,
    "divisions</w>": 5141,
    "genus</w>": 5142,
    "camp</w>": 5143,
    "plans</w>": 5144,
    "bow": 5145,
    "che</w>": 5146,
    "mod": 5147,
    "Tal": 5148,
    "zes</w>": 5149,
    "cli": 5150,
    "May": 5151,
    "workers</w>": 5152,
    "Pic": 5153,
    "referred</w>": 5154,
    "Kal": 5155,
    "article</w>": 5156,
    "provinc": 5157,
    "Fur": 5158,
    "Each</w>": 5159,
    "Brazil</w>": 5160,
    "Elizabeth</w>": 5161,
    "CE": 5162,
    "property</w>": 5163,
    "committee</w>": 5164,
    "Maria</w>": 5165,
    "Satur": 5166,
    "rap": 5167,
    "ditionally</w>": 5168,
    "Rou": 5169,
    "Swedish</w>": 5170,
    "Foreign</w>": 5171,
    "fic</w>": 5172,
    "ounding</w>": 5173,
    "youth</w>": 5174,
    "1938</w>": 5175,
    "E9": 5176,
    "qualify</w>": 5177,
    "Egypt</w>": 5178,
    "ques</w>": 5179,
    "initial</w>": 5180,
    "distric": 5181,
    "Doc": 5182,
    "az</w>": 5183,
    "Mich": 5184,
    "av</w>": 5185,
    "Sher": 5186,
    "ghters</w>": 5187,
    "inaug": 5188,
    "killing</w>": 5189,
    "1919</w>": 5190,
    "18th</w>": 5191,
    "review</w>": 5192,
    "Mr</w>": 5193,
    "eighth</w>": 5194,
    "contains</w>": 5195,
    "pand": 5196,
    "Wing</w>": 5197,
    "communic": 5198,
    "opher</w>": 5199,
    "distance</w>": 5200,
    "elev": 5201,
    "aine</w>": 5202,
    "ret</w>": 5203,
    "Ha": 5204,
    "Book</w>": 5205,
    "Little</w>": 5206,
    "effect</w>": 5207,
    "Pier": 5208,
    "Nether": 5209,
    "94</w>": 5210,
    "Columbia</w>": 5211,
    "Frederick</w>": 5212,
    "arian</w>": 5213,
    "LA</w>": 5214,
    "aller</w>": 5215,
    "Gen": 5216,
    "Mol": 5217,
    "agu": 5218,
    "responsible</w>": 5219,
    "But": 5220,
    "Independent</w>": 5221,
    "sibility</w>": 5222,
    "Web": 5223,
    "ger": 5224,
    "Enter": 5225,
    "Gordon</w>": 5226,
    "ube</w>": 5227,
    "ails</w>": 5228,
    "Broad": 5229,
    "Up": 5230,
    "Bak": 5231,
    "athle": 5232,
    "13th</w>": 5233,
    "administration</w>": 5234,
    "rules</w>": 5235,
    "Islamic</w>": 5236,
    "advant": 5237,
    "online</w>": 5238,
    "exclu": 5239,
    "pursu": 5240,
    "Hus": 5241,
    "newly</w>": 5242,
    "integr": 5243,
    "Rome</w>": 5244,
    "places</w>": 5245,
    "atively</w>": 5246,
    "Whit": 5247,
    "create</w>": 5248,
    "husband</w>": 5249,
    "ben": 5250,
    "ished</w>": 5251,
    "association</w>": 5252,
    "need</w>": 5253,
    "Baseball</w>": 5254,
    "Lewis</w>": 5255,
    "covered</w>": 5256,
    "ecting</w>": 5257,
    "inside</w>": 5258,
    "Hospital</w>": 5259,
    "territory</w>": 5260,
    "tioned</w>": 5261,
    "recording</w>": 5262,
    "aling</w>": 5263,
    "CA</w>": 5264,
    "offered</w>": 5265,
    "Ow": 5266,
    "down": 5267,
    "Bangladesh</w>": 5268,
    "Vill": 5269,
    "tennis</w>": 5270,
    "Middle</w>": 5271,
    "dedic": 5272,
    "Jon": 5273,
    "deleg": 5274,
    "asp": 5275,
    "ror</w>": 5276,
    "enni": 5277,
    "exchange</w>": 5278,
    "Vice</w>": 5279,
    "efforts</w>": 5280,
    "mob": 5281,
    "Z</w>": 5282,
    "Ukraine</w>": 5283,
    "men": 5284,
    "Brian</w>": 5285,
    "yet</w>": 5286,
    "Viet": 5287,
    "ancing</w>": 5288,
    "consider": 5289,
    "ée</w>": 5290,
    "Fal": 5291,
    "ego</w>": 5292,
    "achu": 5293,
    "famous</w>": 5294,
    "shes</w>": 5295,
    "log": 5296,
    "16th</w>": 5297,
    "break": 5298,
    "Indu": 5299,
    "earth": 5300,
    "prac": 5301,
    "pun": 5302,
    "mainly</w>": 5303,
    "Jord": 5304,
    "Tigers</w>": 5305,
    "philos": 5306,
    "opposed</w>": 5307,
    "Inv": 5308,
    "programs</w>": 5309,
    "poll": 5310,
    "rom": 5311,
    "coast</w>": 5312,
    "weap": 5313,
    "reduced</w>": 5314,
    "search": 5315,
    "plan": 5316,
    "Sig": 5317,
    "ricul": 5318,
    "Color": 5319,
    "Operation</w>": 5320,
    "ipal</w>": 5321,
    "Stephen</w>": 5322,
    "distinc": 5323,
    "crew</w>": 5324,
    "By": 5325,
    "trial</w>": 5326,
    "Eag": 5327,
    "Dur": 5328,
    "pressure</w>": 5329,
    "wounded</w>": 5330,
    "1916</w>": 5331,
    "musical</w>": 5332,
    "Third</w>": 5333,
    "zone</w>": 5334,
    "Tony</w>": 5335,
    "Lam": 5336,
    "specific</w>": 5337,
    "Bil": 5338,
    "Atlanta</w>": 5339,
    "defensive</w>": 5340,
    "17th</w>": 5341,
    "een</w>": 5342,
    "Austria</w>": 5343,
    "academic</w>": 5344,
    "Ten</w>": 5345,
    "complex</w>": 5346,
    "Walter</w>": 5347,
    "Turkish</w>": 5348,
    "twel": 5349,
    "Pres": 5350,
    "establish": 5351,
    "passing</w>": 5352,
    "pt</w>": 5353,
    "Quar": 5354,
    "organiz": 5355,
    "franchise</w>": 5356,
    "racing</w>": 5357,
    "primarily</w>": 5358,
    "Netherlands</w>": 5359,
    "Aut": 5360,
    "formerly</w>": 5361,
    "notable</w>": 5362,
    "goal": 5363,
    "influence</w>": 5364,
    "subject</w>": 5365,
    "estimated</w>": 5366,
    "liamentary</w>": 5367,
    "telligence</w>": 5368,
    "tainment</w>": 5369,
    "ius</w>": 5370,
    "rs</w>": 5371,
    "owa</w>": 5372,
    "letter</w>": 5373,
    "pson</w>": 5374,
    "ni</w>": 5375,
    "pandemic</w>": 5376,
    "Armenian</w>": 5377,
    "fare</w>": 5378,
    "Memorial</w>": 5379,
    "App": 5380,
    "aired</w>": 5381,
    "1937</w>": 5382,
    "aily</w>": 5383,
    "loan</w>": 5384,
    "revealed</w>": 5385,
    "contro": 5386,
    "Swed": 5387,
    "arms</w>": 5388,
    "asion</w>": 5389,
    "told</w>": 5390,
    "temporary</w>": 5391,
    "Ut": 5392,
    "sioner</w>": 5393,
    "Jac": 5394,
    "abin": 5395,
    "Province</w>": 5396,
    "azz</w>": 5397,
    "titles</w>": 5398,
    "han</w>": 5399,
    "resulting</w>": 5400,
    "sculp": 5401,
    "refl": 5402,
    "prominent</w>": 5403,
    "Jes": 5404,
    "Of</w>": 5405,
    "rist</w>": 5406,
    "acking</w>": 5407,
    "ods</w>": 5408,
    "meaning</w>": 5409,
    "voters</w>": 5410,
    "Sergeant</w>": 5411,
    "astr": 5412,
    "older</w>": 5413,
    "surface</w>": 5414,
    "etry</w>": 5415,
    "intended</w>": 5416,
    "Anderson</w>": 5417,
    "begins</w>": 5418,
    "Deputy</w>": 5419,
    "dance</w>": 5420,
    "call</w>": 5421,
    "athan</w>": 5422,
    "Oli": 5423,
    "Cop": 5424,
    "Class": 5425,
    "eive</w>": 5426,
    "instrum": 5427,
    "allowing</w>": 5428,
    "Alban": 5429,
    "requi": 5430,
    "larger</w>": 5431,
    "kings</w>": 5432,
    "engineer</w>": 5433,
    "td</w>": 5434,
    "stations</w>": 5435,
    "Sunday</w>": 5436,
    "cost</w>": 5437,
    "authorities</w>": 5438,
    "relationship</w>": 5439,
    "done</w>": 5440,
    "sli": 5441,
    "15th</w>": 5442,
    "receiving</w>": 5443,
    "Rug": 5444,
    "Van</w>": 5445,
    "ody</w>": 5446,
    "Allen</w>": 5447,
    "material</w>": 5448,
    "attr": 5449,
    "NAS": 5450,
    "newspaper</w>": 5451,
    "ky</w>": 5452,
    "Regional</w>": 5453,
    "Houston</w>": 5454,
    "Missou": 5455,
    "meet</w>": 5456,
    "ides</w>": 5457,
    "Arn": 5458,
    "Source</w>": 5459,
    "Hay": 5460,
    "unable</w>": 5461,
    "Port": 5462,
    "nam</w>": 5463,
    "dropped</w>": 5464,
    "setts</w>": 5465,
    "homa</w>": 5466,
    "morning</w>": 5467,
    "Pro</w>": 5468,
    "Patrick</w>": 5469,
    "rein": 5470,
    "Abd": 5471,
    "Econ": 5472,
    "MP</w>": 5473,
    "Massachu": 5474,
    "Rh": 5475,
    "estic</w>": 5476,
    "Gh": 5477,
    "emerg": 5478,
    "rated</w>": 5479,
    "ancy</w>": 5480,
    "sional</w>": 5481,
    "Massachusetts</w>": 5482,
    "particular</w>": 5483,
    "Oxford</w>": 5484,
    "silver</w>": 5485,
    "Adel": 5486,
    "experience</w>": 5487,
    "edom</w>": 5488,
    "Class</w>": 5489,
    "lahoma</w>": 5490,
    "mixed</w>": 5491,
    "Azerb": 5492,
    "orders</w>": 5493,
    "rea</w>": 5494,
    "basis</w>": 5495,
    "Azerbai": 5496,
    "determined</w>": 5497,
    "Pap": 5498,
    "wanted</w>": 5499,
    "Colorado</w>": 5500,
    "diplom": 5501,
    "resigned</w>": 5502,
    "ask</w>": 5503,
    "chap": 5504,
    "Reserve</w>": 5505,
    "problems</w>": 5506,
    "Serb": 5507,
    "twenty</w>": 5508,
    "Ltd</w>": 5509,
    "bottom</w>": 5510,
    "Philippines</w>": 5511,
    "Iv": 5512,
    "numbers</w>": 5513,
    "graduated</w>": 5514,
    "Journal</w>": 5515,
    "innings</w>": 5516,
    "wa</w>": 5517,
    "withdrew</w>": 5518,
    "Santa</w>": 5519,
    "Wiscon": 5520,
    "Jos": 5521,
    "whe": 5522,
    "wealth</w>": 5523,
    "historian</w>": 5524,
    "Patri": 5525,
    "Dougl": 5526,
    "Wisconsin</w>": 5527,
    "Hav": 5528,
    "wind": 5529,
    "fellow</w>": 5530,
    "ieve</w>": 5531,
    "rier</w>": 5532,
    "alities</w>": 5533,
    "successfully</w>": 5534,
    "prin": 5535,
    "poor</w>": 5536,
    "Guards</w>": 5537,
    "Official</w>": 5538,
    "Head</w>": 5539,
    "kil": 5540,
    "rugby</w>": 5541,
    "God</w>": 5542,
    "makes</w>": 5543,
    "remain</w>": 5544,
    "yl</w>": 5545,
    "fy</w>": 5546,
    "goti": 5547,
    "Oklahoma</w>": 5548,
    "individuals</w>": 5549,
    "attempted</w>": 5550,
    "Due</w>": 5551,
    "Const": 5552,
    "Lind": 5553,
    "hard": 5554,
    "Missouri</w>": 5555,
    "chi</w>": 5556,
    "aiss": 5557,
    "ium</w>": 5558,
    "needed</w>": 5559,
    "safety</w>": 5560,
    "Philli": 5561,
    "itting</w>": 5562,
    "perman": 5563,
    "temper": 5564,
    "whether</w>": 5565,
    "reports</w>": 5566,
    "Iraq</w>": 5567,
    "Econom": 5568,
    "Kent": 5569,
    "source</w>": 5570,
    "Lat": 5571,
    "1935</w>": 5572,
    "ancient</w>": 5573,
    "hospital</w>": 5574,
    "ula</w>": 5575,
    "Stor": 5576,
    "Administr": 5577,
    "cru": 5578,
    "rie</w>": 5579,
    "parti": 5580,
    "extra</w>": 5581,
    "Marsh": 5582,
    "pitch": 5583,
    "Muslim</w>": 5584,
    "Nik": 5585,
    "appears</w>": 5586,
    "aband": 5587,
    "Sm": 5588,
    "ception</w>": 5589,
    "Anti": 5590,
    "Territ": 5591,
    "Montre": 5592,
    "hour</w>": 5593,
    "potential</w>": 5594,
    "ram": 5595,
    "starring</w>": 5596,
    "cause</w>": 5597,
    "spot</w>": 5598,
    "Mary": 5599,
    "Also</w>": 5600,
    "opponents</w>": 5601,
    "contem": 5602,
    "clin": 5603,
    "oes</w>": 5604,
    "Eth": 5605,
    "mes</w>": 5606,
    "native</w>": 5607,
    "itage</w>": 5608,
    "ook": 5609,
    "icine</w>": 5610,
    "travel": 5611,
    "Argentina</w>": 5612,
    "alog": 5613,
    "Ret": 5614,
    "Liga</w>": 5615,
    "aissance</w>": 5616,
    "aten</w>": 5617,
    "Poland</w>": 5618,
    "colum": 5619,
    "personnel</w>": 5620,
    "classification</w>": 5621,
    "Democrats</w>": 5622,
    "Guard</w>": 5623,
    "Light</w>": 5624,
    "Squ": 5625,
    "gas</w>": 5626,
    "dated</w>": 5627,
    "returning</w>": 5628,
    "*\"</w>": 5629,
    "Gab": 5630,
    "voting</w>": 5631,
    "Sau": 5632,
    "Affairs</w>": 5633,
    "agricul": 5634,
    "park</w>": 5635,
    "teacher</w>": 5636,
    "after": 5637,
    "consists</w>": 5638,
    "might</w>": 5639,
    "Sever": 5640,
    "DC</w>": 5641,
    "1930</w>": 5642,
    "ayne</w>": 5643,
    "losses</w>": 5644,
    "Ryan</w>": 5645,
    "Kevin</w>": 5646,
    "ando</w>": 5647,
    "Harry</w>": 5648,
    "compete</w>": 5649,
    "Night</w>": 5650,
    "electoral</w>": 5651,
    "Rock": 5652,
    "Before</w>": 5653,
    "billion</w>": 5654,
    "Buil": 5655,
    "Indiana</w>": 5656,
    "dead</w>": 5657,
    "1915</w>": 5658,
    "standings</w>": 5659,
    "incorpor": 5660,
    "Ukrainian</w>": 5661,
    "tives</w>": 5662,
    "Hear": 5663,
    "belong": 5664,
    "peror</w>": 5665,
    "male</w>": 5666,
    "tack": 5667,
    "sites</w>": 5668,
    "Muh": 5669,
    "thous": 5670,
    "Arkansas</w>": 5671,
    "Anim": 5672,
    "max": 5673,
    "bom": 5674,
    "bon": 5675,
    "incident</w>": 5676,
    "Miller</w>": 5677,
    "tan</w>": 5678,
    "opport": 5679,
    "entation</w>": 5680,
    "bronze</w>": 5681,
    "nearby</w>": 5682,
    "Trophy</w>": 5683,
    "box</w>": 5684,
    "itt</w>": 5685,
    "society</w>": 5686,
    "ateur</w>": 5687,
    "Ir": 5688,
    "Pun": 5689,
    "positive</w>": 5690,
    "kick</w>": 5691,
    "receive</w>": 5692,
    "marriage</w>": 5693,
    "Es": 5694,
    "diseas": 5695,
    "unist</w>": 5696,
    "reserve</w>": 5697,
    "oto</w>": 5698,
    "Defence</w>": 5699,
    "gal</w>": 5700,
    "whole</w>": 5701,
    "today</w>": 5702,
    "Os": 5703,
    "anna</w>": 5704,
    "green</w>": 5705,
    "approved</w>": 5706,
    "Yan": 5707,
    "Domin": 5708,
    "Gold</w>": 5709,
    "situation</w>": 5710,
    "Naz": 5711,
    "prison</w>": 5712,
    "tar</w>": 5713,
    "ote</w>": 5714,
    "TA</w>": 5715,
    "earthqu": 5716,
    "14th</w>": 5717,
    "habit": 5718,
    "Tok": 5719,
    "aces</w>": 5720,
    "districts</w>": 5721,
    "aga</w>": 5722,
    "enemy</w>": 5723,
    "loy": 5724,
    "necess": 5725,
    "AS</w>": 5726,
    "Basketball</w>": 5727,
    "dy": 5728,
    "Abu</w>": 5729,
    "removed</w>": 5730,
    "ble": 5731,
    "Douglas</w>": 5732,
    "sess": 5733,
    "bon</w>": 5734,
    "ections</w>": 5735,
    "Mari": 5736,
    "Long</w>": 5737,
    "identified</w>": 5738,
    "holding</w>": 5739,
    "appe": 5740,
    "Montreal</w>": 5741,
    "songwriter</w>": 5742,
    "Municip": 5743,
    "visional</w>": 5744,
    "transi": 5745,
    "Medal</w>": 5746,
    "Bay": 5747,
    "arity</w>": 5748,
    "chestra</w>": 5749,
    "Senator</w>": 5750,
    "representing</w>": 5751,
    "Dod": 5752,
    "stars</w>": 5753,
    "Rangers</w>": 5754,
    "Sweden</w>": 5755,
    "equipment</w>": 5756,
    "strong": 5757,
    "pay</w>": 5758,
    "Mayor</w>": 5759,
    "Corporation</w>": 5760,
    "Pub": 5761,
    "say</w>": 5762,
    "acity</w>": 5763,
    "Railway</w>": 5764,
    "aths</w>": 5765,
    "Miami</w>": 5766,
    "manufactur": 5767,
    "gar</w>": 5768,
    "perial</w>": 5769,
    "grade</w>": 5770,
    "Rugby</w>": 5771,
    "drama</w>": 5772,
    "affili": 5773,
    "Baron</w>": 5774,
    "itz</w>": 5775,
    "residents</w>": 5776,
    "1928</w>": 5777,
    "census</w>": 5778,
    "illed</w>": 5779,
    "Jim": 5780,
    "Han": 5781,
    "ights</w>": 5782,
    "bell</w>": 5783,
    "metres</w>": 5784,
    "Over": 5785,
    "value</w>": 5786,
    "1929</w>": 5787,
    "larg": 5788,
    "1921</w>": 5789,
    "comes</w>": 5790,
    "ninth</w>": 5791,
    "pole</w>": 5792,
    "Cze": 5793,
    "nob": 5794,
    "Saturday</w>": 5795,
    "fted</w>": 5796,
    "appear</w>": 5797,
    "activity</w>": 5798,
    "FIFA</w>": 5799,
    "fielder</w>": 5800,
    "compared</w>": 5801,
    "scale</w>": 5802,
    "Mountain</w>": 5803,
    "castle</w>": 5804,
    "challeng": 5805,
    "laps</w>": 5806,
    "Gul": 5807,
    "ava</w>": 5808,
    "ner": 5809,
    "Defense</w>": 5810,
    "lets</w>": 5811,
    "ror": 5812,
    "NA</w>": 5813,
    "fast</w>": 5814,
    "energy</w>": 5815,
    "transfer</w>": 5816,
    "mechan": 5817,
    "sources</w>": 5818,
    "Chap": 5819,
    "MS</w>": 5820,
    "1922</w>": 5821,
    "amount</w>": 5822,
    "schedule</w>": 5823,
    "presence</w>": 5824,
    "reasons</w>": 5825,
    "Sus": 5826,
    "registered</w>": 5827,
    "drivers</w>": 5828,
    "bit</w>": 5829,
    "vin</w>": 5830,
    "relations</w>": 5831,
    "una</w>": 5832,
    "entioned</w>": 5833,
    "Kentucky</w>": 5834,
    "Austrian</w>": 5835,
    "characters</w>": 5836,
    "Aar": 5837,
    "negoti": 5838,
    "except</w>": 5839,
    "found": 5840,
    "thu": 5841,
    "Fern": 5842,
    "asters</w>": 5843,
    "eligible</w>": 5844,
    "mas</w>": 5845,
    "1934</w>": 5846,
    "gram</w>": 5847,
    "hockey</w>": 5848,
    "adul": 5849,
    "Naval</w>": 5850,
    "fans</w>": 5851,
    "width</w>": 5852,
    "downs</w>": 5853,
    "tario</w>": 5854,
    "1933</w>": 5855,
    "1924</w>": 5856,
    "Ben</w>": 5857,
    "resol": 5858,
    "ropolitan</w>": 5859,
    "Conn": 5860,
    "seeded</w>": 5861,
    "extrem": 5862,
    "depar": 5863,
    "ag</w>": 5864,
    "showed</w>": 5865,
    "Head": 5866,
    "outs</w>": 5867,
    "Barbar": 5868,
    "onist</w>": 5869,
    "akh": 5870,
    "model": 5871,
    "protests</w>": 5872,
    "concluded</w>": 5873,
    "technology</w>": 5874,
    "Conservative</w>": 5875,
    "Assistant</w>": 5876,
    "dit</w>": 5877,
    "Electr": 5878,
    "liber": 5879,
    "Turkey</w>": 5880,
    "gures</w>": 5881,
    "án": 5882,
    "Security</w>": 5883,
    "lined</w>": 5884,
    "wart</w>": 5885,
    "recognized</w>": 5886,
    "accepted</w>": 5887,
    "constructed</w>": 5888,
    "ele</w>": 5889,
    "?</w>": 5890,
    "Rem": 5891,
    "rad": 5892,
    "Brun": 5893,
    "participate</w>": 5894,
    "Portugu": 5895,
    "propos": 5896,
    "Kil": 5897,
    "mand": 5898,
    "Iowa</w>": 5899,
    "department</w>": 5900,
    "Earth</w>": 5901,
    "Kaz": 5902,
    "words</w>": 5903,
    "tried</w>": 5904,
    "ML": 5905,
    "ondary</w>": 5906,
    "quarterback</w>": 5907,
    "Dam": 5908,
    "regions</w>": 5909,
    "nominee</w>": 5910,
    "gain</w>": 5911,
    "Ep": 5912,
    "1932</w>": 5913,
    "Maur": 5914,
    "margin</w>": 5915,
    "Ever": 5916,
    "Ron": 5917,
    "owers</w>": 5918,
    "ineers</w>": 5919,
    "oo</w>": 5920,
    "Region</w>": 5921,
    "alg": 5922,
    "heav": 5923,
    "Lady</w>": 5924,
    "eas": 5925,
    "runner</w>": 5926,
    "1927</w>": 5927,
    "Rif": 5928,
    "dedicated</w>": 5929,
    "pression</w>": 5930,
    "bid</w>": 5931,
    "AL": 5932,
    "invasion</w>": 5933,
    "neighbor": 5934,
    "Americans</w>": 5935,
    "yond</w>": 5936,
    "kept</w>": 5937,
    "Auth": 5938,
    "lights</w>": 5939,
    "friend": 5940,
    "amber</w>": 5941,
    "MA</w>": 5942,
    "strugg": 5943,
    "mic": 5944,
    "ultimately</w>": 5945,
    "1931</w>": 5946,
    "alling</w>": 5947,
    "Hamp": 5948,
    "oe</w>": 5949,
    "figure</w>": 5950,
    "Contr": 5951,
    "Me</w>": 5952,
    "José</w>": 5953,
    "aki</w>": 5954,
    "Cer": 5955,
    "succeeded</w>": 5956,
    "Marc": 5957,
    "yal</w>": 5958,
    "ks": 5959,
    "musician</w>": 5960,
    "invest": 5961,
    "armed</w>": 5962,
    "largely</w>": 5963,
    "Born</w>": 5964,
    "accoun": 5965,
    "spring</w>": 5966,
    "SC</w>": 5967,
    "direction</w>": 5968,
    "ises</w>": 5969,
    "peti": 5970,
    "Alliance</w>": 5971,
    "Post</w>": 5972,
    "alo</w>": 5973,
    "Ki": 5974,
    "deployed</w>": 5975,
    "South": 5976,
    "advantage</w>": 5977,
    "(;</w>": 5978,
    "institu": 5979,
    "establishment</w>": 5980,
    "pati": 5981,
    "CD</w>": 5982,
    "dam</w>": 5983,
    "every": 5984,
    "half": 5985,
    "ranking</w>": 5986,
    "psych": 5987,
    "joint</w>": 5988,
    "Juan</w>": 5989,
    "signing</w>": 5990,
    "domestic</w>": 5991,
    "Ontario</w>": 5992,
    "category</w>": 5993,
    "Singap": 5994,
    "restor": 5995,
    "provides</w>": 5996,
    "lives</w>": 5997,
    "mas": 5998,
    "Cambridge</w>": 5999,
    "contest</w>": 6000,
    "enna</w>": 6001,
    "expanded</w>": 6002,
    "itter</w>": 6003,
    "Pra": 6004,
    "onian</w>": 6005,
    "mula</w>": 6006,
    "Land": 6007,
    "Network</w>": 6008,
    "effort</w>": 6009,
    "Media</w>": 6010,
    "Stra": 6011,
    "grew</w>": 6012,
    "rely</w>": 6013,
    "Bos": 6014,
    "Ga": 6015,
    "Diego</w>": 6016,
    "mom": 6017,
    "olf</w>": 6018,
    "ori</w>": 6019,
    "revi": 6020,
    "Howard</w>": 6021,
    "selection</w>": 6022,
    "Wall": 6023,
    "illustr": 6024,
    "UN": 6025,
    "tili": 6026,
    "emer": 6027,
    "card</w>": 6028,
    "nucle": 6029,
    "dru": 6030,
    "account</w>": 6031,
    "Portuguese</w>": 6032,
    "DP</w>": 6033,
    "sound</w>": 6034,
    "deriv": 6035,
    "conflict</w>": 6036,
    "spons": 6037,
    "Giants</w>": 6038,
    "1926</w>": 6039,
    "achieved</w>": 6040,
    "restric": 6041,
    "Politic": 6042,
    "Gon": 6043,
    "Avenue</w>": 6044,
    "unknown</w>": 6045,
    "obtained</w>": 6046,
    "depic": 6047,
    "build</w>": 6048,
    "lu": 6049,
    "adopted</w>": 6050,
    "determine</w>": 6051,
    "coalition</w>": 6052,
    "ardo</w>": 6053,
    "Jordan</w>": 6054,
    "xing</w>": 6055,
    "pping</w>": 6056,
    "ashed</w>": 6057,
    "Athletics</w>": 6058,
    "Is</w>": 6059,
    "spired</w>": 6060,
    "havi": 6061,
    "capacity</w>": 6062,
    "refused</w>": 6063,
    "Mrs</w>": 6064,
    "theory</w>": 6065,
    "expan": 6066,
    "figures</w>": 6067,
    "tax": 6068,
    "operating</w>": 6069,
    "chosen</w>": 6070,
    "timore</w>": 6071,
    "eu": 6072,
    "Democrat</w>": 6073,
    "MP": 6074,
    "stages</w>": 6075,
    "low": 6076,
    "occupied</w>": 6077,
    "bad": 6078,
    "Queens": 6079,
    "1925</w>": 6080,
    "highly</w>": 6081,
    "yellow</w>": 6082,
    "Writ": 6083,
    "Formula</w>": 6084,
    "always</w>": 6085,
    "Bun": 6086,
    "versary</w>": 6087,
    "affected</w>": 6088,
    "enter": 6089,
    "overy</w>": 6090,
    "Bou": 6091,
    "ilip</w>": 6092,
    "share</w>": 6093,
    "Austin</w>": 6094,
    "och": 6095,
    "rough</w>": 6096,
    "Rad": 6097,
    "variety</w>": 6098,
    "Rock</w>": 6099,
    "Sox</w>": 6100,
    "supp": 6101,
    "smaller</w>": 6102,
    "Charl": 6103,
    "Liver": 6104,
    "gate</w>": 6105,
    "levels</w>": 6106,
    "nature</w>": 6107,
    "wel": 6108,
    "Lev": 6109,
    "idea</w>": 6110,
    "interpre": 6111,
    "widely</w>": 6112,
    "RA</w>": 6113,
    "keep</w>": 6114,
    "granted</w>": 6115,
    "performances</w>": 6116,
    "page</w>": 6117,
    "hop": 6118,
    "rise</w>": 6119,
    "Country</w>": 6120,
    "vac": 6121,
    "investigation</w>": 6122,
    "Nar": 6123,
    "Baltimore</w>": 6124,
    "joining</w>": 6125,
    "othing</w>": 6126,
    "passes</w>": 6127,
    "ographer</w>": 6128,
    "roles</w>": 6129,
    "Community</w>": 6130,
    "yst": 6131,
    "ulation</w>": 6132,
    "oni</w>": 6133,
    "1923</w>": 6134,
    "af</w>": 6135,
    "paid</w>": 6136,
    "ison</w>": 6137,
    "conserv": 6138,
    "business": 6139,
    "Nation": 6140,
    "ocese</w>": 6141,
    "Clevel": 6142,
    "Early</w>": 6143,
    "Ach": 6144,
    "Rifle</w>": 6145,
    "(),</w>": 6146,
    "thr": 6147,
    "quality</w>": 6148,
    "Margar": 6149,
    "scene</w>": 6150,
    "Nich": 6151,
    "gs</w>": 6152,
    "Alice</w>": 6153,
    "attention</w>": 6154,
    "focus</w>": 6155,
    "literature</w>": 6156,
    "zh": 6157,
    "abinet</w>": 6158,
    "Trump</w>": 6159,
    "dor": 6160,
    "Cleveland</w>": 6161,
    "commonly</w>": 6162,
    "Oreg": 6163,
    "1980s</w>": 6164,
    "stood</w>": 6165,
    "chni": 6166,
    "concent": 6167,
    "eva</w>": 6168,
    "leaves</w>": 6169,
    "anning</w>": 6170,
    "Paul": 6171,
    "but": 6172,
    "ei</w>": 6173,
    "solo</w>": 6174,
    "recru": 6175,
    "plane</w>": 6176,
    "lah</w>": 6177,
    "jus": 6178,
    "Matt</w>": 6179,
    "Flight</w>": 6180,
    "pet": 6181,
    "claims</w>": 6182,
    "Camp</w>": 6183,
    "viewed</w>": 6184,
    "1912</w>": 6185,
    "Over</w>": 6186,
    "Che": 6187,
    "blue</w>": 6188,
    "Fighter</w>": 6189,
    "letes</w>": 6190,
    "wise</w>": 6191,
    "pper</w>": 6192,
    "gets</w>": 6193,
    "movie</w>": 6194,
    "invited</w>": 6195,
    "Bob": 6196,
    "critical</w>": 6197,
    "mass</w>": 6198,
    "pra": 6199,
    "treatment</w>": 6200,
    "Brad": 6201,
    "swi": 6202,
    "mel": 6203,
    "fish</w>": 6204,
    "pm</w>": 6205,
    "sof": 6206,
    "retre": 6207,
    "begin</w>": 6208,
    "Studies</w>": 6209,
    "great": 6210,
    "ief": 6211,
    "products</w>": 6212,
    "phase</w>": 6213,
    "therefore</w>": 6214,
    "Port</w>": 6215,
    "August": 6216,
    "ssi": 6217,
    "oud</w>": 6218,
    "Lanc": 6219,
    "felt</w>": 6220,
    "effective</w>": 6221,
    "Albu": 6222,
    "meant</w>": 6223,
    "fast": 6224,
    "setting</w>": 6225,
    "Eric</w>": 6226,
    "Leon": 6227,
    "dium</w>": 6228,
    "Oregon</w>": 6229,
    "oral</w>": 6230,
    "step": 6231,
    "Maryland</w>": 6232,
    "erland</w>": 6233,
    "Afghan": 6234,
    "qualification</w>": 6235,
    "Kam": 6236,
    "Korean</w>": 6237,
    "providing</w>": 6238,
    "ables</w>": 6239,
    "stories</w>": 6240,
    "channel</w>": 6241,
    "agent</w>": 6242,
    "sively</w>": 6243,
    "Tot": 6244,
    "niversary</w>": 6245,
    "inary</w>": 6246,
    "forming</w>": 6247,
    "symb": 6248,
    "subsequent</w>": 6249,
    "platform</w>": 6250,
    "Corn": 6251,
    "Lin": 6252,
    "approach</w>": 6253,
    "eliminated</w>": 6254,
    "friends</w>": 6255,
    "advoc": 6256,
    "Simon</w>": 6257,
    "Afghanistan</w>": 6258,
    "growth</w>": 6259,
    "mar</w>": 6260,
    "Liv": 6261,
    "Services</w>": 6262,
    "Queensland</w>": 6263,
    "upper</w>": 6264,
    "fired</w>": 6265,
    "Vo": 6266,
    "Cub": 6267,
    "bud": 6268,
    "vard</w>": 6269,
    "kets</w>": 6270,
    "Andy</w>": 6271,
    "SA</w>": 6272,
    "borough</w>": 6273,
    "produce</w>": 6274,
    "compl": 6275,
    "Produc": 6276,
    "projects</w>": 6277,
    "visit</w>": 6278,
    "Alb": 6279,
    "Technology</w>": 6280,
    "dinals</w>": 6281,
    "floor</w>": 6282,
    "ér": 6283,
    "Pop": 6284,
    "Bomb": 6285,
    "Stanley</w>": 6286,
    "esc": 6287,
    "violence</w>": 6288,
    "Mexican</w>": 6289,
    "architect</w>": 6290,
    "ogs</w>": 6291,
    "weather</w>": 6292,
    "Liverpool</w>": 6293,
    "sust": 6294,
    "lor": 6295,
    "SR</w>": 6296,
    "AFC</w>": 6297,
    "Greece</w>": 6298,
    "Singh</w>": 6299,
    "deputy</w>": 6300,
    "ts": 6301,
    "causing</w>": 6302,
    "twelve</w>": 6303,
    "Dra": 6304,
    "creation</w>": 6305,
    "pro</w>": 6306,
    "cup</w>": 6307,
    "Ann</w>": 6308,
    "Slov": 6309,
    "scen": 6310,
    "Song</w>": 6311,
    "proce": 6312,
    "Stud": 6313,
    "necessary</w>": 6314,
    "Samuel</w>": 6315,
    "Sam</w>": 6316,
    "credited</w>": 6317,
    "enh": 6318,
    "dez</w>": 6319,
    "owledge</w>": 6320,
    "sha</w>": 6321,
    "secretary</w>": 6322,
    "probably</w>": 6323,
    "une</w>": 6324,
    "judge</w>": 6325,
    "North": 6326,
    "lov": 6327,
    "bing</w>": 6328,
    "juni": 6329,
    "Gallery</w>": 6330,
    "CC": 6331,
    "uckland</w>": 6332,
    "prize</w>": 6333,
    "converted</w>": 6334,
    "lock</w>": 6335,
    "boys</w>": 6336,
    "Earl</w>": 6337,
    "',</w>": 6338,
    "Several</w>": 6339,
    "Na": 6340,
    "Tech</w>": 6341,
    "Among</w>": 6342,
    "street</w>": 6343,
    "Missi": 6344,
    "rop": 6345,
    "statement</w>": 6346,
    "shortly</w>": 6347,
    "amme</w>": 6348,
    "tified</w>": 6349,
    "deep</w>": 6350,
    "travel</w>": 6351,
    "Men": 6352,
    "Sud": 6353,
    "surg": 6354,
    "organizations</w>": 6355,
    "And</w>": 6356,
    "shap": 6357,
    "analysis</w>": 6358,
    "branch</w>": 6359,
    "eda</w>": 6360,
    "iland</w>": 6361,
    "Lis": 6362,
    "borne</w>": 6363,
    "Ky": 6364,
    "zu": 6365,
    "Lau": 6366,
    "independence</w>": 6367,
    "Vietnam</w>": 6368,
    "sit": 6369,
    "Ford</w>": 6370,
    "neg": 6371,
    "Sav": 6372,
    "1908</w>": 6373,
    "prime</w>": 6374,
    "apers</w>": 6375,
    "AM</w>": 6376,
    "murder</w>": 6377,
    "interview</w>": 6378,
    "ument</w>": 6379,
    "gian</w>": 6380,
    "casting</w>": 6381,
    "Bill": 6382,
    "Singapore</w>": 6383,
    "communities</w>": 6384,
    "endor": 6385,
    "Hungarian</w>": 6386,
    "charged</w>": 6387,
    "mentioned</w>": 6388,
    "effects</w>": 6389,
    "heart</w>": 6390,
    "subs": 6391,
    "apolis</w>": 6392,
    "Master</w>": 6393,
    "IN": 6394,
    "oy</w>": 6395,
    "keeper</w>": 6396,
    "itable</w>": 6397,
    "attempts</w>": 6398,
    "ig</w>": 6399,
    "festival</w>": 6400,
    "Tan": 6401,
    "marine</w>": 6402,
    "Legislative</w>": 6403,
    "fields</w>": 6404,
    "Madrid</w>": 6405,
    "nomination</w>": 6406,
    "supporting</w>": 6407,
    "traff": 6408,
    "elli</w>": 6409,
    "=|</w>": 6410,
    "°</w>": 6411,
    "oll</w>": 6412,
    "tax</w>": 6413,
    "spar": 6414,
    "Linc": 6415,
    "eller</w>": 6416,
    "Tai": 6417,
    "Matthe": 6418,
    "difficult</w>": 6419,
    "accused</w>": 6420,
    "oss": 6421,
    "tac": 6422,
    "diam": 6423,
    "Stewart</w>": 6424,
    "reser": 6425,
    "lay": 6426,
    "Ray": 6427,
    "museum</w>": 6428,
    "competitions</w>": 6429,
    "ores</w>": 6430,
    "olas</w>": 6431,
    "Louisi": 6432,
    "Philip</w>": 6433,
    "Brazilian</w>": 6434,
    "esday</w>": 6435,
    "practic": 6436,
    "cy</w>": 6437,
    "impact</w>": 6438,
    "elson</w>": 6439,
    "Beach</w>": 6440,
    "Clark</w>": 6441,
    "agues</w>": 6442,
    "Training</w>": 6443,
    "bered</w>": 6444,
    "Ell": 6445,
    "tedly</w>": 6446,
    "eff</w>": 6447,
    "Show</w>": 6448,
    "Kat": 6449,
    "Iran": 6450,
    "ry": 6451,
    "exhibition</w>": 6452,
    "municipality</w>": 6453,
    "doubles</w>": 6454,
    "21st</w>": 6455,
    "Youth</w>": 6456,
    "Challenge</w>": 6457,
    "bat</w>": 6458,
    "Miss</w>": 6459,
    "Fox</w>": 6460,
    "1910</w>": 6461,
    "Louisiana</w>": 6462,
    "Green": 6463,
    "Dall": 6464,
    "Auckland</w>": 6465,
    "1990s</w>": 6466,
    "1900</w>": 6467,
    "historic</w>": 6468,
    "expressed</w>": 6469,
    "Sciences</w>": 6470,
    "sector</w>": 6471,
    "Only</w>": 6472,
    "Lt</w>": 6473,
    "strength</w>": 6474,
    "vehicles</w>": 6475,
    "appar": 6476,
    "progres": 6477,
    "Dig": 6478,
    "Barbara</w>": 6479,
    "Peter": 6480,
    "Staff</w>": 6481,
    "courts</w>": 6482,
    "1970s</w>": 6483,
    "Muhammad</w>": 6484,
    "CE</w>": 6485,
    "offer</w>": 6486,
    "Fire</w>": 6487,
    "gn": 6488,
    "Switz": 6489,
    "maximum</w>": 6490,
    "Between</w>": 6491,
    "Aber": 6492,
    "lightly</w>": 6493,
    "suggested</w>": 6494,
    "Dan": 6495,
    "typically</w>": 6496,
    "Barry</w>": 6497,
    "laws</w>": 6498,
    "aide</w>": 6499,
    "resp": 6500,
    "jur": 6501,
    "peace</w>": 6502,
    "shooting</w>": 6503,
    "eroid</w>": 6504,
    "driving</w>": 6505,
    "ley": 6506,
    "arts</w>": 6507,
    "ABC</w>": 6508,
    "yers</w>": 6509,
    "Yanke": 6510,
    "lawyer</w>": 6511,
    "inguished</w>": 6512,
    "prevent</w>": 6513,
    "sam": 6514,
    "tile</w>": 6515,
    "Mount</w>": 6516,
    "casu": 6517,
    "ng</w>": 6518,
    "ppi</w>": 6519,
    "circ": 6520,
    "Brow": 6521,
    "aming</w>": 6522,
    "capture</w>": 6523,
    "implem": 6524,
    "bass</w>": 6525,
    "recomm": 6526,
    "chart</w>": 6527,
    "refu": 6528,
    "speech</w>": 6529,
    "Chi": 6530,
    "encour": 6531,
    "insul": 6532,
    "adi</w>": 6533,
    "protest</w>": 6534,
    "ange</w>": 6535,
    "reaching</w>": 6536,
    "ake": 6537,
    "fying</w>": 6538,
    "seg": 6539,
    "ogra": 6540,
    "ruled</w>": 6541,
    "expansion</w>": 6542,
    "Dave</w>": 6543,
    "contemporary</w>": 6544,
    "arg": 6545,
    "Power</w>": 6546,
    "Rose</w>": 6547,
    "ham": 6548,
    "Cardinals</w>": 6549,
    "Sri</w>": 6550,
    "Television</w>": 6551,
    "termin": 6552,
    "rying</w>": 6553,
    "torate</w>": 6554,
    "streak</w>": 6555,
    "Switzerland</w>": 6556,
    "Nev": 6557,
    "Pierre</w>": 6558,
    "birth</w>": 6559,
    "ballot</w>": 6560,
    "Moder": 6561,
    "power": 6562,
    "retirement</w>": 6563,
    "reviews</w>": 6564,
    "headed</w>": 6565,
    "flag</w>": 6566,
    "stream</w>": 6567,
    "sty": 6568,
    "Nag": 6569,
    "recently</w>": 6570,
    "Forest</w>": 6571,
    "she": 6572,
    "Cru": 6573,
    "Common": 6574,
    "1913</w>": 6575,
    "inspired</w>": 6576,
    "painting</w>": 6577,
    "iner</w>": 6578,
    "ographic</w>": 6579,
    "folk</w>": 6580,
    "edway</w>": 6581,
    "rear</w>": 6582,
    "supply</w>": 6583,
    "sport": 6584,
    "Project</w>": 6585,
    "í</w>": 6586,
    "Cou": 6587,
    "junior</w>": 6588,
    "big": 6589,
    "cell</w>": 6590,
    "represent</w>": 6591,
    "irates</w>": 6592,
    "Cavalry</w>": 6593,
    "Var": 6594,
    "AD</w>": 6595,
    "Lincol": 6596,
    "pair</w>": 6597,
    "debu": 6598,
    "Ottoman</w>": 6599,
    "constituency</w>": 6600,
    "Busin": 6601,
    "sson</w>": 6602,
    "counter": 6603,
    "eri</w>": 6604,
    "Aqu": 6605,
    "Cow": 6606,
    "Greg": 6607,
    "Aub": 6608,
    "Gor": 6609,
    "comedy</w>": 6610,
    "teenth</w>": 6611,
    "Commissioner</w>": 6612,
    "Harris</w>": 6613,
    "omo": 6614,
    "mess": 6615,
    "Id": 6616,
    "Arc": 6617,
    "Bran": 6618,
    "Mississi": 6619,
    "prop": 6620,
    "Marie</w>": 6621,
    "dark</w>": 6622,
    "runners</w>": 6623,
    "politics</w>": 6624,
    "earthquake</w>": 6625,
    "ype</w>": 6626,
    "minist": 6627,
    "architecture</w>": 6628,
    "failure</w>": 6629,
    "eline</w>": 6630,
    "consul": 6631,
    "hill</w>": 6632,
    "Teams</w>": 6633,
    "compiled</w>": 6634,
    "Carlos</w>": 6635,
    "paper</w>": 6636,
    "ethn": 6637,
    "Walker</w>": 6638,
    "firm</w>": 6639,
    "machine</w>": 6640,
    "visited</w>": 6641,
    "spread</w>": 6642,
    "eme</w>": 6643,
    "Belgium</w>": 6644,
    "sought</w>": 6645,
    "plus</w>": 6646,
    "existing</w>": 6647,
    "soccer</w>": 6648,
    "portion</w>": 6649,
    "documentary</w>": 6650,
    "Bridge</w>": 6651,
    "stating</w>": 6652,
    "Associ": 6653,
    "og</w>": 6654,
    "immigr": 6655,
    "Buc": 6656,
    "launch</w>": 6657,
    "qi</w>": 6658,
    "semifinals</w>": 6659,
    "collap": 6660,
    "Seattle</w>": 6661,
    "Commonwealth</w>": 6662,
    "graduate</w>": 6663,
    "mir</w>": 6664,
    "mathematic": 6665,
    "crisis</w>": 6666,
    "attalions</w>": 6667,
    "anist</w>": 6668,
    "physical</w>": 6669,
    "Leban": 6670,
    "Colomb": 6671,
    "big</w>": 6672,
    "winter</w>": 6673,
    "programm": 6674,
    "Buff": 6675,
    "disb": 6676,
    "substit": 6677,
    "growing</w>": 6678,
    "mans</w>": 6679,
    "aqu": 6680,
    "ima</w>": 6681,
    "piece</w>": 6682,
    "rebel": 6683,
    "Winter</w>": 6684,
    "athletes</w>": 6685,
    "parliament</w>": 6686,
    "Pope</w>": 6687,
    "Mississippi</w>": 6688,
    "1864</w>": 6689,
    "Swiss</w>": 6690,
    "missing</w>": 6691,
    "Moore</w>": 6692,
    "Norwe": 6693,
    "miles</w>": 6694,
    "Pad": 6695,
    "otes</w>": 6696,
    "partn": 6697,
    "astic</w>": 6698,
    "facilities</w>": 6699,
    "Portugal</w>": 6700,
    "wer</w>": 6701,
    "behavi": 6702,
    "struck</w>": 6703,
    "alone</w>": 6704,
    "enko</w>": 6705,
    "1911</w>": 6706,
    "Agricul": 6707,
    "acu": 6708,
    "Murray</w>": 6709,
    "Pot": 6710,
    "mo</w>": 6711,
    "aked</w>": 6712,
    "focused</w>": 6713,
    "Note</w>": 6714,
    "SU</w>": 6715,
    "stadium</w>": 6716,
    "cos</w>": 6717,
    "Campbell</w>": 6718,
    "purpose</w>": 6719,
    "iders</w>": 6720,
    "ais</w>": 6721,
    "Bell</w>": 6722,
    "quarterfinals</w>": 6723,
    "burn</w>": 6724,
    "Gaz": 6725,
    "System</w>": 6726,
    "adver": 6727,
    "ricane</w>": 6728,
    "code</w>": 6729,
    "couple</w>": 6730,
    "accident</w>": 6731,
    "Bruce</w>": 6732,
    "proved</w>": 6733,
    "ffi": 6734,
    "crash</w>": 6735,
    "oa</w>": 6736,
    "publish": 6737,
    "Lions</w>": 6738,
    "buried</w>": 6739,
    "piano</w>": 6740,
    "Palace</w>": 6741,
    "150</w>": 6742,
    "Organi": 6743,
    "hydro": 6744,
    "Five</w>": 6745,
    "ive</w>": 6746,
    "Leader</w>": 6747,
    "Bron": 6748,
    "fastest</w>": 6749,
    "ollow</w>": 6750,
    "bring</w>": 6751,
    "Indonesia</w>": 6752,
    "permanent</w>": 6753,
    "Ray</w>": 6754,
    "modi": 6755,
    "contributed</w>": 6756,
    "councill": 6757,
    "gro": 6758,
    "broken</w>": 6759,
    "threat": 6760,
    "intend": 6761,
    "Christmas</w>": 6762,
    "Margaret</w>": 6763,
    "eries</w>": 6764,
    "spr": 6765,
    "mort": 6766,
    "tely</w>": 6767,
    "pit": 6768,
    "suspended</w>": 6769,
    "Area</w>": 6770,
    "veter": 6771,
    "campaig": 6772,
    "Anti</w>": 6773,
    "disease</w>": 6774,
    "cavalry</w>": 6775,
    "sav": 6776,
    "urn</w>": 6777,
    "cycle</w>": 6778,
    "Danish</w>": 6779,
    "pop</w>": 6780,
    "terror": 6781,
    "Merc": 6782,
    "techni": 6783,
    "Ful": 6784,
    "bey</w>": 6785,
    "citizens</w>": 6786,
    "oring</w>": 6787,
    "farm": 6788,
    "computer</w>": 6789,
    "regarding</w>": 6790,
    "benef": 6791,
    "Tim</w>": 6792,
    "assault</w>": 6793,
    "Edin": 6794,
    "fa</w>": 6795,
    "deliver": 6796,
    "eta</w>": 6797,
    "chose</w>": 6798,
    "oper</w>": 6799,
    "vehicle</w>": 6800,
    "engaged</w>": 6801,
    "anne</w>": 6802,
    "din</w>": 6803,
    "Dom": 6804,
    "ame": 6805,
    "one": 6806,
    "Marine</w>": 6807,
    "engers</w>": 6808,
    "attached</w>": 6809,
    "Norwegian</w>": 6810,
    "aux</w>": 6811,
    "stop": 6812,
    "Reb": 6813,
    "ür": 6814,
    "rence</w>": 6815,
    "Ferr": 6816,
    "publication</w>": 6817,
    "rif": 6818,
    "Malaysia</w>": 6819,
    "activist</w>": 6820,
    "%.</w>": 6821,
    "mont</w>": 6822,
    "beating</w>": 6823,
    "entran": 6824,
    "ublin</w>": 6825,
    "boy</w>": 6826,
    "enny</w>": 6827,
    "Les": 6828,
    "ergy</w>": 6829,
    "Ai": 6830,
    "anger</w>": 6831,
    "simul": 6832,
    "toward</w>": 6833,
    "emen</w>": 6834,
    "method</w>": 6835,
    "transport</w>": 6836,
    "Adams</w>": 6837,
    "rank</w>": 6838,
    "connected</w>": 6839,
    "digital</w>": 6840,
    "disci": 6841,
    "Egyptian</w>": 6842,
    "Eagles</w>": 6843,
    "CAR</w>": 6844,
    "Sev": 6845,
    "uber": 6846,
    "eling</w>": 6847,
    "job</w>": 6848,
    "illing</w>": 6849,
    "Mean": 6850,
    "Local</w>": 6851,
    "engineering</w>": 6852,
    "shor": 6853,
    "shared</w>": 6854,
    "rett</w>": 6855,
    "spok": 6856,
    "younger</w>": 6857,
    "completely</w>": 6858,
    "Norway</w>": 6859,
    "trav": 6860,
    "TD</w>": 6861,
    "uk</w>": 6862,
    "1960s</w>": 6863,
    "Sn": 6864,
    "gath": 6865,
    "Col</w>": 6866,
    "Dy": 6867,
    "preser": 6868,
    "villages</w>": 6869,
    "damaged</w>": 6870,
    "Family</w>": 6871,
    "Champion</w>": 6872,
    "controlled</w>": 6873,
    "Kim</w>": 6874,
    "sat": 6875,
    "dates</w>": 6876,
    "function</w>": 6877,
    "apti": 6878,
    "weapons</w>": 6879,
    "caught</w>": 6880,
    "kilomet": 6881,
    "eck</w>": 6882,
    "qui": 6883,
    "lion</w>": 6884,
    "Jeff</w>": 6885,
    "cancelled</w>": 6886,
    "Edinburgh</w>": 6887,
    "content</w>": 6888,
    "democr": 6889,
    "purchased</w>": 6890,
    "Zh": 6891,
    "rejected</w>": 6892,
    "Adv": 6893,
    "tree</w>": 6894,
    "foot</w>": 6895,
    "income</w>": 6896,
    "assador</w>": 6897,
    "surrounding</w>": 6898,
    "Abb": 6899,
    "achment</w>": 6900,
    "chair</w>": 6901,
    "fleet</w>": 6902,
    "pay": 6903,
    "tware</w>": 6904,
    "hits</w>": 6905,
    "Tit": 6906,
    "Revolution</w>": 6907,
    "existence</w>": 6908,
    "Engineering</w>": 6909,
    "Welsh</w>": 6910,
    "Business</w>": 6911,
    "parliamentary</w>": 6912,
    "oted</w>": 6913,
    "urban</w>": 6914,
    "utionary</w>": 6915,
    "casualties</w>": 6916,
    "Operations</w>": 6917,
    "authority</w>": 6918,
    "Finals</w>": 6919,
    "Entertainment</w>": 6920,
    "sioned</w>": 6921,
    "Creek</w>": 6922,
    "rez</w>": 6923,
    "consisting</w>": 6924,
    "CS</w>": 6925,
    "resistance</w>": 6926,
    "surpri": 6927,
    "solid": 6928,
    "Roy</w>": 6929,
    "pur</w>": 6930,
    "global</w>": 6931,
    "Queb": 6932,
    "Barcel": 6933,
    "Azerbaijan</w>": 6934,
    "inity</w>": 6935,
    "Dan</w>": 6936,
    "Prior</w>": 6937,
    "businessman</w>": 6938,
    "trained</w>": 6939,
    "Like</w>": 6940,
    "Imperial</w>": 6941,
    "estate</w>": 6942,
    "Hom": 6943,
    "ibn</w>": 6944,
    "UTC</w>": 6945,
    "label</w>": 6946,
    "Season</w>": 6947,
    "nations</w>": 6948,
    "pilot</w>": 6949,
    "Mach": 6950,
    "haw": 6951,
    "slightly</w>": 6952,
    "ín</w>": 6953,
    "alia</w>": 6954,
    "suit</w>": 6955,
    "distribution</w>": 6956,
    "settlement</w>": 6957,
    "Mik": 6958,
    "Roger</w>": 6959,
    "swe": 6960,
    "icient</w>": 6961,
    "aud</w>": 6962,
    "owing</w>": 6963,
    "stic</w>": 6964,
    "Human</w>": 6965,
    "horse</w>": 6966,
    "ović</w>": 6967,
    "attribu": 6968,
    "Live</w>": 6969,
    "aer": 6970,
    "ulty</w>": 6971,
    "Vol</w>": 6972,
    "episodes</w>": 6973,
    "Kon": 6974,
    "Wy": 6975,
    "achiev": 6976,
    "fron": 6977,
    "otte</w>": 6978,
    "Brook": 6979,
    "exhib": 6980,
    "Fame</w>": 6981,
    "Fle": 6982,
    "presents</w>": 6983,
    "kov": 6984,
    "applied</w>": 6985,
    "missions</w>": 6986,
    "Dallas</w>": 6987,
    "Drag": 6988,
    "FF</w>": 6989,
    "PA</w>": 6990,
    "Graham</w>": 6991,
    "Rand": 6992,
    "Stars</w>": 6993,
    "ration</w>": 6994,
    "Iranian</w>": 6995,
    "sher</w>": 6996,
    "limin": 6997,
    "kshire</w>": 6998,
    "Croati": 6999,
    "inging</w>": 7000,
    "sexual</w>": 7001,
    "risk</w>": 7002,
    "With": 7003,
    "mi</w>": 7004,
    "block</w>": 7005,
    "Ye": 7006,
    "poll</w>": 7007,
    "earning</w>": 7008,
    "Land</w>": 7009,
    "bal</w>": 7010,
    "eph": 7011,
    "greater</w>": 7012,
    "AE": 7013,
    "championships</w>": 7014,
    "competing</w>": 7015,
    "Russell</w>": 7016,
    "1862</w>": 7017,
    "Quebec</w>": 7018,
    "know</w>": 7019,
    "600</w>": 7020,
    "advis": 7021,
    "Quali": 7022,
    "lose</w>": 7023,
    "achel": 7024,
    "inaugural</w>": 7025,
    "ore": 7026,
    "gri": 7027,
    "retained</w>": 7028,
    "lists</w>": 7029,
    "ophy</w>": 7030,
    "Glas": 7031,
    "Cape</w>": 7032,
    "secondary</w>": 7033,
    "metal</w>": 7034,
    "PG</w>": 7035,
    "su</w>": 7036,
    "IT": 7037,
    "dges</w>": 7038,
    "theatre</w>": 7039,
    "ME": 7040,
    "convic": 7041,
    "Robinson</w>": 7042,
    "Ahm": 7043,
    "bill</w>": 7044,
    "Because</w>": 7045,
    "You": 7046,
    "adj": 7047,
    "touchdowns</w>": 7048,
    "Ral": 7049,
    "bann": 7050,
    "recognition</w>": 7051,
    "oration</w>": 7052,
    "rural</w>": 7053,
    "heim</w>": 7054,
    "div": 7055,
    "ern": 7056,
    "ask": 7057,
    "crime</w>": 7058,
    "eng</w>": 7059,
    "mos": 7060,
    "crowd</w>": 7061,
    "enders</w>": 7062,
    "utting</w>": 7063,
    "jam": 7064,
    "rell</w>": 7065,
    "hall</w>": 7066,
    "specific": 7067,
    "More</w>": 7068,
    "→</w>": 7069,
    "obj": 7070,
    "stay</w>": 7071,
    "Lyn": 7072,
    "Tokyo</w>": 7073,
    "organised</w>": 7074,
    "dul</w>": 7075,
    "•</w>": 7076,
    "Books</w>": 7077,
    "jo</w>": 7078,
    "scientific</w>": 7079,
    "Ross</w>": 7080,
    "Channel</w>": 7081,
    "may": 7082,
    "Will": 7083,
    "ambi": 7084,
    "Son": 7085,
    "sin": 7086,
    "oldest</w>": 7087,
    "Vene": 7088,
    "replace</w>": 7089,
    "Dal": 7090,
    "Stand": 7091,
    "Nob": 7092,
    "campus</w>": 7093,
    "Jason</w>": 7094,
    "referend": 7095,
    "dissol": 7096,
    "Pa": 7097,
    "medals</w>": 7098,
    "Free</w>": 7099,
    "tual</w>": 7100,
    "iden</w>": 7101,
    "ector</w>": 7102,
    "Inc</w>": 7103,
    "Nigeria</w>": 7104,
    "icks</w>": 7105,
    "Aviation</w>": 7106,
    "Dublin</w>": 7107,
    "attend": 7108,
    "settled</w>": 7109,
    "stock</w>": 7110,
    "maintained</w>": 7111,
    "formally</w>": 7112,
    "Kelly</w>": 7113,
    "secure</w>": 7114,
    "Thompson</w>": 7115,
    "goes</w>": 7116,
    "image</w>": 7117,
    "1863</w>": 7118,
    "improved</w>": 7119,
    "Initi": 7120,
    "Jan</w>": 7121,
    "edo</w>": 7122,
    "brothers</w>": 7123,
    "Grant</w>": 7124,
    "hands</w>": 7125,
    "coordin": 7126,
    "adier</w>": 7127,
    "surren": 7128,
    "mingham</w>": 7129,
    "Pho": 7130,
    "charges</w>": 7131,
    "Cla": 7132,
    "Camer": 7133,
    "Barcelona</w>": 7134,
    "ided</w>": 7135,
    "perc": 7136,
    "compon": 7137,
    "edly</w>": 7138,
    "shops</w>": 7139,
    "founding</w>": 7140,
    "non": 7141,
    "Arsen": 7142,
    "var": 7143,
    "apar": 7144,
    "DS</w>": 7145,
    "Wind": 7146,
    "sev": 7147,
    "brand</w>": 7148,
    "conf": 7149,
    "GA</w>": 7150,
    "Max</w>": 7151,
    "Jeff": 7152,
    "guil": 7153,
    "getting</w>": 7154,
    "flying</w>": 7155,
    "Christopher</w>": 7156,
    "atus</w>": 7157,
    "serves</w>": 7158,
    "ma": 7159,
    "concept</w>": 7160,
    "tories</w>": 7161,
    "contact</w>": 7162,
    "thedr": 7163,
    "desc": 7164,
    "cricket</w>": 7165,
    "asty</w>": 7166,
    "Rap": 7167,
    "nest</w>": 7168,
    "Sym": 7169,
    "bodies</w>": 7170,
    "secured</w>": 7171,
    "tia</w>": 7172,
    "work": 7173,
    "ournaments</w>": 7174,
    "orary</w>": 7175,
    "gives</w>": 7176,
    "Meanwhile</w>": 7177,
    "Vinc": 7178,
    "heavily</w>": 7179,
    "chance</w>": 7180,
    "::</w>": 7181,
    "eness</w>": 7182,
    "Liter": 7183,
    "Kr": 7184,
    "multi</w>": 7185,
    "Children</w>": 7186,
    "1905</w>": 7187,
    "duty</w>": 7188,
    "eces</w>": 7189,
    "icians</w>": 7190,
    "Players</w>": 7191,
    "commanded</w>": 7192,
    "partner</w>": 7193,
    "owski</w>": 7194,
    "true</w>": 7195,
    "Then</w>": 7196,
    "Alp": 7197,
    "Pil": 7198,
    "representatives</w>": 7199,
    "concert</w>": 7200,
    "bound": 7201,
    "ente</w>": 7202,
    "Management</w>": 7203,
    "NHL</w>": 7204,
    "fix": 7205,
    "defined</w>": 7206,
    "theastern</w>": 7207,
    "beyond</w>": 7208,
    "vi</w>": 7209,
    "Chel": 7210,
    "pit</w>": 7211,
    "rati": 7212,
    "Ast": 7213,
    "recep": 7214,
    "Birmingham</w>": 7215,
    "collected</w>": 7216,
    "develop</w>": 7217,
    "1906</w>": 7218,
    "critics</w>": 7219,
    "tank</w>": 7220,
    "increasing</w>": 7221,
    "lyr": 7222,
    "Abdul</w>": 7223,
    "arist</w>": 7224,
    "sman</w>": 7225,
    "erce</w>": 7226,
    "ival": 7227,
    "pitcher</w>": 7228,
    "patter": 7229,
    "says</w>": 7230,
    "actually</w>": 7231,
    "Ian</w>": 7232,
    "girl</w>": 7233,
    "mut": 7234,
    "sle": 7235,
    "emet": 7236,
    "endar</w>": 7237,
    "aire</w>": 7238,
    "Carl</w>": 7239,
    "1865</w>": 7240,
    "ō</w>": 7241,
    "sley</w>": 7242,
    "fal": 7243,
    "fan</w>": 7244,
    "Constitution</w>": 7245,
    "committed</w>": 7246,
    "tz</w>": 7247,
    "kov</w>": 7248,
    "Rab": 7249,
    "Connec": 7250,
    "aders</w>": 7251,
    "thor": 7252,
    "Well": 7253,
    "aria</w>": 7254,
    "urs</w>": 7255,
    "Oak": 7256,
    "tims</w>": 7257,
    "liminary</w>": 7258,
    "Real</w>": 7259,
    "dale</w>": 7260,
    "Jar": 7261,
    "administrative</w>": 7262,
    "taught</w>": 7263,
    "avoid</w>": 7264,
    "Former</w>": 7265,
    "Att": 7266,
    "1909</w>": 7267,
    "housing</w>": 7268,
    "Pas": 7269,
    "types</w>": 7270,
    "Aaron</w>": 7271,
    "brief": 7272,
    "motor": 7273,
    "lia</w>": 7274,
    "relegation</w>": 7275,
    "beaten</w>": 7276,
    "Kin": 7277,
    "Labor</w>": 7278,
    "Stu": 7279,
    "Bla": 7280,
    "aware</w>": 7281,
    "Saudi</w>": 7282,
    "literary</w>": 7283,
    "sibly</w>": 7284,
    "olling</w>": 7285,
    "technical</w>": 7286,
    "Race</w>": 7287,
    "measures</w>": 7288,
    "Unit</w>": 7289,
    "municipal</w>": 7290,
    "Highway</w>": 7291,
    "Admir": 7292,
    "Mod": 7293,
    "Clin": 7294,
    "Thor": 7295,
    "continues</w>": 7296,
    "models</w>": 7297,
    "gie</w>": 7298,
    "Wild": 7299,
    "lyn</w>": 7300,
    "yc": 7301,
    "serious</w>": 7302,
    "roads</w>": 7303,
    "disbanded</w>": 7304,
    "ymn": 7305,
    "Cinc": 7306,
    "tha</w>": 7307,
    "corpor": 7308,
    "empha": 7309,
    "tradition</w>": 7310,
    "Castle</w>": 7311,
    "eved</w>": 7312,
    "gio</w>": 7313,
    "sal</w>": 7314,
    "traded</w>": 7315,
    "ampton</w>": 7316,
    "abandoned</w>": 7317,
    "VI</w>": 7318,
    "Adelaide</w>": 7319,
    "Archit": 7320,
    "path": 7321,
    "_</w>": 7322,
    "other": 7323,
    "Wood": 7324,
    "Denmark</w>": 7325,
    "nish</w>": 7326,
    "traffic</w>": 7327,
    "Nebr": 7328,
    "BI</w>": 7329,
    "Metropolitan</w>": 7330,
    "languages</w>": 7331,
    "pedition</w>": 7332,
    "connec": 7333,
    "Dol": 7334,
    "reason</w>": 7335,
    "Ped": 7336,
    "eval</w>": 7337,
    "Gary</w>": 7338,
    "fly</w>": 7339,
    "knowledge</w>": 7340,
    "climate</w>": 7341,
    "infr": 7342,
    "ashes</w>": 7343,
    "Ci": 7344,
    "corner</w>": 7345,
    "relatively</w>": 7346,
    "Building</w>": 7347,
    "legs</w>": 7348,
    "Communist</w>": 7349,
    "Morgan</w>": 7350,
    "resign": 7351,
    "rivers</w>": 7352,
    "emed</w>": 7353,
    "poetry</w>": 7354,
    "eton</w>": 7355,
    "stopped</w>": 7356,
    "erto</w>": 7357,
    "anniversary</w>": 7358,
    "wick</w>": 7359,
    "assass": 7360,
    "à</w>": 7361,
    "forest</w>": 7362,
    "Bh": 7363,
    "leagues</w>": 7364,
    "Nebraska</w>": 7365,
    "automatic</w>": 7366,
    "plants</w>": 7367,
    "fiction</w>": 7368,
    "porting</w>": 7369,
    "research": 7370,
    "Saf": 7371,
    "allows</w>": 7372,
    "esting</w>": 7373,
    "posite</w>": 7374,
    "Space</w>": 7375,
    "Amaz": 7376,
    "Battery</w>": 7377,
    "royal</w>": 7378,
    "Norman</w>": 7379,
    "eled</w>": 7380,
    "appointment</w>": 7381,
    "Friday</w>": 7382,
    "provincial</w>": 7383,
    "Headquarters</w>": 7384,
    "Belgian</w>": 7385,
    "Victor</w>": 7386,
    "chron": 7387,
    "Prot": 7388,
    "roll</w>": 7389,
    "fort</w>": 7390,
    "antine</w>": 7391,
    "Engineers</w>": 7392,
    "notes</w>": 7393,
    "gow</w>": 7394,
    "evening</w>": 7395,
    "ym</w>": 7396,
    "contra": 7397,
    "Czech</w>": 7398,
    "Math": 7399,
    "alu": 7400,
    "Observ": 7401,
    "NASCAR</w>": 7402,
    "creating</w>": 7403,
    "offense</w>": 7404,
    "Kan": 7405,
    "mountain</w>": 7406,
    "ulated</w>": 7407,
    "calling</w>": 7408,
    "SS</w>": 7409,
    "injuries</w>": 7410,
    "1907</w>": 7411,
    "Ward</w>": 7412,
    "details</w>": 7413,
    "Gonz": 7414,
    "Lincoln</w>": 7415,
    "auti": 7416,
    "Nick</w>": 7417,
    "responded</w>": 7418,
    "Brig": 7419,
    "‘</w>": 7420,
    "Six</w>": 7421,
    "tournaments</w>": 7422,
    "Fel": 7423,
    "animals</w>": 7424,
    "tically</w>": 7425,
    "Thur": 7426,
    "Additionally</w>": 7427,
    "hosts</w>": 7428,
    "emetery</w>": 7429,
    "jer": 7430,
    "follow</w>": 7431,
    "merged</w>": 7432,
    "protection</w>": 7433,
    "idae</w>": 7434,
    "Hungary</w>": 7435,
    "elist</w>": 7436,
    "establish</w>": 7437,
    "icop": 7438,
    "target</w>": 7439,
    "usual</w>": 7440,
    "thedral</w>": 7441,
    "ashion</w>": 7442,
    "Holy</w>": 7443,
    "lec": 7444,
    "Campa": 7445,
    "1904</w>": 7446,
    "What</w>": 7447,
    "wind</w>": 7448,
    "Movement</w>": 7449,
    "ett": 7450,
    "Christi": 7451,
    "mist": 7452,
    "debate</w>": 7453,
    "Lawrence</w>": 7454,
    "Abdul": 7455,
    "dest": 7456,
    "Review</w>": 7457,
    "problem</w>": 7458,
    "argued</w>": 7459,
    "ATP</w>": 7460,
    "product</w>": 7461,
    "Log": 7462,
    "alloc": 7463,
    "Vis": 7464,
    "Cincinn": 7465,
    "versions</w>": 7466,
    "Thailand</w>": 7467,
    "electric</w>": 7468,
    "ho</w>": 7469,
    "deaths</w>": 7470,
    "mol": 7471,
    "Hand": 7472,
    "Arabic</w>": 7473,
    "Goo": 7474,
    "Mitch": 7475,
    "Brand": 7476,
    "Hir": 7477,
    "filed</w>": 7478,
    "cannot</w>": 7479,
    "fuel</w>": 7480,
    "Category</w>": 7481,
    "showing</w>": 7482,
    "predic": 7483,
    "writers</w>": 7484,
    "ldwide</w>": 7485,
    "Stock": 7486,
    "Trans": 7487,
    "Jews</w>": 7488,
    "core</w>": 7489,
    "institutions</w>": 7490,
    "Cincinnati</w>": 7491,
    "where": 7492,
    "cue</w>": 7493,
    "és</w>": 7494,
    "Aj": 7495,
    "employed</w>": 7496,
    "Nelson</w>": 7497,
    "Emperor</w>": 7498,
    "audience</w>": 7499,
    "observed</w>": 7500,
    "instruc": 7501,
    "Wright</w>": 7502,
    "icide</w>": 7503,
    "rad</w>": 7504,
    "gle</w>": 7505,
    "gol": 7506,
    "Ka": 7507,
    "Vla": 7508,
    "iefs</w>": 7509,
    "lately</w>": 7510,
    "ules</w>": 7511,
    "square</w>": 7512,
    "visu": 7513,
    "rating</w>": 7514,
    "uration</w>": 7515,
    "Has": 7516,
    "Mand": 7517,
    "Milan</w>": 7518,
    "AN</w>": 7519,
    "nuclear</w>": 7520,
    "signs</w>": 7521,
    "Fo": 7522,
    "Wood</w>": 7523,
    "'.</w>": 7524,
    "Jimmy</w>": 7525,
    "Spart": 7526,
    "atures</w>": 7527,
    "performing</w>": 7528,
    "looking</w>": 7529,
    "offers</w>": 7530,
    "volunte": 7531,
    "arrang": 7532,
    "vess": 7533,
    "Works</w>": 7534,
    "articles</w>": 7535,
    "nights</w>": 7536,
    "formal</w>": 7537,
    "\"),</w>": 7538,
    "referendum</w>": 7539,
    "Ry": 7540,
    "apped</w>": 7541,
    "250</w>": 7542,
    "Yankees</w>": 7543,
    "riders</w>": 7544,
    "1903</w>": 7545,
    "equipped</w>": 7546,
    "bi</w>": 7547,
    "achelor</w>": 7548,
    "PS": 7549,
    "graph": 7550,
    "drug</w>": 7551,
    "environment</w>": 7552,
    "fighter</w>": 7553,
    "sile</w>": 7554,
    "ywood</w>": 7555,
    "look</w>": 7556,
    "Ax": 7557,
    "experienced</w>": 7558,
    "Mak": 7559,
    "homes</w>": 7560,
    "teamm": 7561,
    "ressed</w>": 7562,
    "att</w>": 7563,
    "height</w>": 7564,
    "frequently</w>": 7565,
    "kind</w>": 7566,
    "Fol": 7567,
    "Fair": 7568,
    "Gun": 7569,
    "Laur": 7570,
    "ooth</w>": 7571,
    "astal</w>": 7572,
    "liga</w>": 7573,
    "rising</w>": 7574,
    "containing</w>": 7575,
    "supporters</w>": 7576,
    "Dak": 7577,
    "marks</w>": 7578,
    "arily</w>": 7579,
    "thumb</w>": 7580,
    "sanc": 7581,
    "Acc": 7582,
    "cancer</w>": 7583,
    "subst": 7584,
    "maker</w>": 7585,
    "edge</w>": 7586,
    "800</w>": 7587,
    "Armenia</w>": 7588,
    "ebre": 7589,
    "Square</w>": 7590,
    "UP</w>": 7591,
    "screen": 7592,
    "Soccer</w>": 7593,
    "thesis</w>": 7594,
    "households</w>": 7595,
    "encoun": 7596,
    "participating</w>": 7597,
    "unique</w>": 7598,
    "Garc": 7599,
    "Gran": 7600,
    "astronom": 7601,
    "Stage</w>": 7602,
    "discipl": 7603,
    "alleged</w>": 7604,
    "anny</w>": 7605,
    "connection</w>": 7606,
    "Sport</w>": 7607,
    "AL</w>": 7608,
    "Abra": 7609,
    "Kl": 7610,
    "organis": 7611,
    "wit": 7612,
    "Ele": 7613,
    "powerful</w>": 7614,
    "rements</w>": 7615,
    "effec": 7616,
    "intelligence</w>": 7617,
    "zo</w>": 7618,
    "1902</w>": 7619,
    "victims</w>": 7620,
    "Connectic": 7621,
    "archae": 7622,
    "agan</w>": 7623,
    "Kra": 7624,
    "Connecticut</w>": 7625,
    "blood</w>": 7626,
    "materials</w>": 7627,
    "osa</w>": 7628,
    "Glasgow</w>": 7629,
    "EP</w>": 7630,
    "key": 7631,
    "Kennedy</w>": 7632,
    "sac": 7633,
    "Rights</w>": 7634,
    "inema</w>": 7635,
    "vertical</w>": 7636,
    "seas</w>": 7637,
    "liest</w>": 7638,
    "Contin": 7639,
    "experim": 7640,
    "carry</w>": 7641,
    "Rud": 7642,
    "emergency</w>": 7643,
    "AB": 7644,
    "eland</w>": 7645,
    "Upon</w>": 7646,
    "Pon": 7647,
    "origin</w>": 7648,
    "store</w>": 7649,
    "carrying</w>": 7650,
    "competitive</w>": 7651,
    "desi": 7652,
    "Knight</w>": 7653,
    "eleven</w>": 7654,
    "Esp": 7655,
    "favor": 7656,
    "grounds</w>": 7657,
    "Age</w>": 7658,
    "Len": 7659,
    "ynasty</w>": 7660,
    "vian</w>": 7661,
    "categ": 7662,
    "#\"</w>": 7663,
    "1901</w>": 7664,
    "severe</w>": 7665,
    "resignation</w>": 7666,
    "Wayne</w>": 7667,
    "structures</w>": 7668,
    "alt</w>": 7669,
    "Fab": 7670,
    "Gener": 7671,
    "istics</w>": 7672,
    "ost": 7673,
    "Pow": 7674,
    "parish</w>": 7675,
    "Pin": 7676,
    "ainder</w>": 7677,
    "less": 7678,
    "AR</w>": 7679,
    "Speedway</w>": 7680,
    "threw</w>": 7681,
    "volume</w>": 7682,
    "opin": 7683,
    "battalions</w>": 7684,
    "guest</w>": 7685,
    "asteroid</w>": 7686,
    "Herbert</w>": 7687,
    "Rah": 7688,
    "Vas": 7689,
    "aud": 7690,
    "bie</w>": 7691,
    "taining</w>": 7692,
    "ud</w>": 7693,
    "diameter</w>": 7694,
    "alization</w>": 7695,
    "reference</w>": 7696,
    "Low": 7697,
    "perf": 7698,
    "AT</w>": 7699,
    "arm</w>": 7700,
    "trying</w>": 7701,
    "trip</w>": 7702,
    "Baker</w>": 7703,
    "principal</w>": 7704,
    "ram</w>": 7705,
    "rot": 7706,
    "uma</w>": 7707,
    "God": 7708,
    "Hud": 7709,
    "sales</w>": 7710,
    "Alg": 7711,
    "funding</w>": 7712,
    "SP": 7713,
    "ockout</w>": 7714,
    "sche</w>": 7715,
    "agency</w>": 7716,
    "Veg": 7717,
    "shaped</w>": 7718,
    "starts</w>": 7719,
    "backs</w>": 7720,
    "Convention</w>": 7721,
    "Saints</w>": 7722,
    "towns</w>": 7723,
    "evacu": 7724,
    "offices</w>": 7725,
    "Syria</w>": 7726,
    "concerns</w>": 7727,
    "Cricket</w>": 7728,
    "temple</w>": 7729,
    "Puerto</w>": 7730,
    "aith</w>": 7731,
    "breaking</w>": 7732,
    "Transport</w>": 7733,
    "industrial</w>": 7734,
    "Masters</w>": 7735,
    "landing</w>": 7736,
    "identity</w>": 7737,
    "ackers</w>": 7738,
    "involving</w>": 7739,
    "Nu": 7740,
    "economy</w>": 7741,
    "weekend</w>": 7742,
    "Phoen": 7743,
    "Barn": 7744,
    "albums</w>": 7745,
    "atically</w>": 7746,
    "Rio</w>": 7747,
    "mouth</w>": 7748,
    "Manager</w>": 7749,
    "clo": 7750,
    "Iraqi</w>": 7751,
    "CS": 7752,
    "statis": 7753,
    "defence</w>": 7754,
    "honor</w>": 7755,
    "CI": 7756,
    "ule</w>": 7757,
    "wrest": 7758,
    "roster</w>": 7759,
    "remainder</w>": 7760,
    "Hind": 7761,
    "iring</w>": 7762,
    "CH": 7763,
    "Kent</w>": 7764,
    "Wed": 7765,
    "Ric": 7766,
    "Billboard</w>": 7767,
    "rival</w>": 7768,
    "cats</w>": 7769,
    "Agency</w>": 7770,
    "civili": 7771,
    "things</w>": 7772,
    "dram": 7773,
    "30": 7774,
    "XX": 7775,
    "ESP": 7776,
    "Motor": 7777,
    "Band": 7778,
    "praised</w>": 7779,
    "Copa</w>": 7780,
    "aus</w>": 7781,
    "replacing</w>": 7782,
    "classes</w>": 7783,
    "alised</w>": 7784,
    "percent": 7785,
    "perform</w>": 7786,
    "locations</w>": 7787,
    "postp": 7788,
    "choice</w>": 7789,
    "improve</w>": 7790,
    "teaching</w>": 7791,
    "sla": 7792,
    "Georg": 7793,
    "condition</w>": 7794,
    "dd": 7795,
    "doing</w>": 7796,
    "question</w>": 7797,
    "gard": 7798,
    "organisation</w>": 7799,
    "gressional</w>": 7800,
    "grand</w>": 7801,
    "hired</w>": 7802,
    "assemb": 7803,
    "etc</w>": 7804,
    "Evans</w>": 7805,
    "tings</w>": 7806,
    "lot</w>": 7807,
    "stret": 7808,
    "ik</w>": 7809,
    "alogue</w>": 7810,
    "Bus": 7811,
    "Utah</w>": 7812,
    "budget</w>": 7813,
    "junc": 7814,
    "cells</w>": 7815,
    "factory</w>": 7816,
    "Dodgers</w>": 7817,
    "50": 7818,
    "lip": 7819,
    "pha</w>": 7820,
    "programme</w>": 7821,
    "Alaska</w>": 7822,
    "Gen</w>": 7823,
    "MV": 7824,
    "alternative</w>": 7825,
    "amp</w>": 7826,
    "brown</w>": 7827,
    "versal</w>": 7828,
    "internal</w>": 7829,
    "recovered</w>": 7830,
    "ints</w>": 7831,
    "dged</w>": 7832,
    "Tol": 7833,
    "Marshall</w>": 7834,
    "Administration</w>": 7835,
    "Kei": 7836,
    "Kings</w>": 7837,
    "ech": 7838,
    "request</w>": 7839,
    "Carter</w>": 7840,
    "Cab": 7841,
    "Harvard</w>": 7842,
    "Daw": 7843,
    "possession</w>": 7844,
    "gall": 7845,
    "Last</w>": 7846,
    "Ocean</w>": 7847,
    "rows</w>": 7848,
    "contained</w>": 7849,
    "petition</w>": 7850,
    "Franç": 7851,
    "ardment</w>": 7852,
    "escape</w>": 7853,
    "rowspan</w>": 7854,
    "ruption</w>": 7855,
    "battery</w>": 7856,
    "genous</w>": 7857,
    "challenge</w>": 7858,
    "titude</w>": 7859,
    "line": 7860,
    "ruling</w>": 7861,
    "Gold": 7862,
    "address</w>": 7863,
    "entitled</w>": 7864,
    "Comple": 7865,
    "ford": 7866,
    "rushing</w>": 7867,
    "aj</w>": 7868,
    "Bour": 7869,
    "animal</w>": 7870,
    "use": 7871,
    "friendly</w>": 7872,
    "Steven": 7873,
    "erine</w>": 7874,
    "Point</w>": 7875,
    "calendar</w>": 7876,
    "Bad</w>": 7877,
    "Confederate</w>": 7878,
    "Tak": 7879,
    "turn": 7880,
    "Arsenal</w>": 7881,
    "zi</w>": 7882,
    "Run": 7883,
    "reading</w>": 7884,
    "ign": 7885,
    "consist": 7886,
    "AI</w>": 7887,
    "normal</w>": 7888,
    "send</w>": 7889,
    "anks</w>": 7890,
    "wich</w>": 7891,
    "Richmond</w>": 7892,
    "naval</w>": 7893,
    "assembly</w>": 7894,
    "counter</w>": 7895,
    "Allied</w>": 7896,
    "bership</w>": 7897,
    "fighters</w>": 7898,
    "criticized</w>": 7899,
    "iop": 7900,
    "Pav": 7901,
    "onso</w>": 7902,
    "iz</w>": 7903,
    "matter</w>": 7904,
    "bit": 7905,
    "simply</w>": 7906,
    "olo</w>": 7907,
    "ilst</w>": 7908,
    "Wo": 7909,
    "Gabri": 7910,
    "Ed</w>": 7911,
    "Vienna</w>": 7912,
    "tle</w>": 7913,
    "Jacqu": 7914,
    "owed</w>": 7915,
    "denied</w>": 7916,
    "facility</w>": 7917,
    "attor": 7918,
    "opportunity</w>": 7919,
    "edited</w>": 7920,
    "reau</w>": 7921,
    "Benjam": 7922,
    "ensis</w>": 7923,
    "oss</w>": 7924,
    "AFL</w>": 7925,
    "sun": 7926,
    "Story</w>": 7927,
    "Les</w>": 7928,
    "Buffalo</w>": 7929,
    "oma</w>": 7930,
    "selling</w>": 7931,
    "isc": 7932,
    "replacement</w>": 7933,
    "clear": 7934,
    "Deb": 7935,
    "Hotel</w>": 7936,
    "extensive</w>": 7937,
    "dual</w>": 7938,
    "entering</w>": 7939,
    "sv": 7940,
    "Athens</w>": 7941,
    "kin": 7942,
    "Temple</w>": 7943,
    "classical</w>": 7944,
    "Matthew</w>": 7945,
    "stan</w>": 7946,
    "worn</w>": 7947,
    "Billy</w>": 7948,
    "boat</w>": 7949,
    "About</w>": 7950,
    "bad</w>": 7951,
    "OS</w>": 7952,
    "circuit</w>": 7953,
    "Orchestra</w>": 7954,
    "Representative</w>": 7955,
    "ska</w>": 7956,
    "err": 7957,
    "tower</w>": 7958,
    "generation</w>": 7959,
    "heat</w>": 7960,
    "Philippine</w>": 7961,
    "tanks</w>": 7962,
    "1861</w>": 7963,
    "pieces</w>": 7964,
    "software</w>": 7965,
    "participation</w>": 7966,
    "valu": 7967,
    "want</w>": 7968,
    "ck</w>": 7969,
    "funds</w>": 7970,
    "Gulf</w>": 7971,
    "Information</w>": 7972,
    "postseason</w>": 7973,
    "leyball</w>": 7974,
    "possibly</w>": 7975,
    "abilities</w>": 7976,
    "Moroc": 7977,
    "Constitu": 7978,
    "zen</w>": 7979,
    "AV": 7980,
    "assy</w>": 7981,
    "ester": 7982,
    "tenth</w>": 7983,
    "translated</w>": 7984,
    "commissioned</w>": 7985,
    "protect</w>": 7986,
    "fth</w>": 7987,
    "tribu": 7988,
    "boards</w>": 7989,
    "incorporated</w>": 7990,
    "thod": 7991,
    "Kum": 7992,
    "rough": 7993,
    "Not</w>": 7994,
    "Trust</w>": 7995,
    "Guar": 7996,
    "decre": 7997,
    "agn": 7998,
    "'m</w>": 7999,
    "conduct</w>": 8000,
    "ly": 8001,
    "Johnny</w>": 8002,
    "critic</w>": 8003,
    "daily</w>": 8004,
    "Campaign</w>": 8005,
    "bor</w>": 8006,
    "specifically</w>": 8007,
    "olished</w>": 8008,
    "map</w>": 8009,
    "essed</w>": 8010,
    "opera</w>": 8011,
    "poses</w>": 8012,
    "Argentine</w>": 8013,
    "influenced</w>": 8014,
    "lieutenant</w>": 8015,
    "sor</w>": 8016,
    "bo</w>": 8017,
    "relief</w>": 8018,
    "theme</w>": 8019,
    "feet</w>": 8020,
    "planning</w>": 8021,
    "eck": 8022,
    "weak": 8023,
    "convention</w>": 8024,
    "Comics</w>": 8025,
    "Perform": 8026,
    "achers</w>": 8027,
    "Hampshire</w>": 8028,
    "spit": 8029,
    "resources</w>": 8030,
    "sequence</w>": 8031,
    "premiered</w>": 8032,
    "Out</w>": 8033,
    "aro</w>": 8034,
    "intercep": 8035,
    "ouring</w>": 8036,
    "handed</w>": 8037,
    "NS": 8038,
    "Jonathan</w>": 8039,
    "ck": 8040,
    "imm": 8041,
    "Apple</w>": 8042,
    "1899</w>": 8043,
    "Ottawa</w>": 8044,
    "acker</w>": 8045,
    "drove</w>": 8046,
    "Fred</w>": 8047,
    "Guin": 8048,
    "Delhi</w>": 8049,
    "iddle": 8050,
    "Kol": 8051,
    "stan": 8052,
    "exerc": 8053,
    "Volunte": 8054,
    "write</w>": 8055,
    "abs": 8056,
    "Andrea</w>": 8057,
    "Aw": 8058,
    "Coach</w>": 8059,
    "RC</w>": 8060,
    "briefly</w>": 8061,
    "letters</w>": 8062,
    "regarded</w>": 8063,
    "abad</w>": 8064,
    "recip": 8065,
    "Dame</w>": 8066,
    "−</w>": 8067,
    "Bears</w>": 8068,
    "odi": 8069,
    "dominated</w>": 8070,
    "trees</w>": 8071,
    "Chair</w>": 8072,
    "Socialist</w>": 8073,
    "har</w>": 8074,
    "Communic": 8075,
    "calls</w>": 8076,
    "controversi": 8077,
    "assumed</w>": 8078,
    "intendent</w>": 8079,
    "prisoners</w>": 8080,
    "Yug": 8081,
    "Four": 8082,
    "overtime</w>": 8083,
    "introduction</w>": 8084,
    "mass": 8085,
    "Ahmed</w>": 8086,
    "tos</w>": 8087,
    "nor</w>": 8088,
    "ccff": 8089,
    "AG": 8090,
    "decade</w>": 8091,
    "Indians</w>": 8092,
    "jazz</w>": 8093,
    "attendance</w>": 8094,
    "scrip": 8095,
    "kill</w>": 8096,
    "Airlines</w>": 8097,
    "Fem": 8098,
    "cm</w>": 8099,
    "Rev": 8100,
    "umin": 8101,
    "imprison": 8102,
    "Nur": 8103,
    "actors</w>": 8104,
    "ccffcc</w>": 8105,
    "landers</w>": 8106,
    "Republicans</w>": 8107,
    "eo</w>": 8108,
    "guitarist</w>": 8109,
    "Global</w>": 8110,
    "centuries</w>": 8111,
    "contributions</w>": 8112,
    "didn</w>": 8113,
    "filled</w>": 8114,
    "hr": 8115,
    "Luis</w>": 8116,
    "micro": 8117,
    "Benjamin</w>": 8118,
    "Back</w>": 8119,
    "Lithu": 8120,
    "leads</w>": 8121,
    "tells</w>": 8122,
    "Tamp": 8123,
    "spector</w>": 8124,
    "airport</w>": 8125,
    "Shah</w>": 8126,
    "Town": 8127,
    "banks</w>": 8128,
    "1898</w>": 8129,
    "1896</w>": 8130,
    "Mitchell</w>": 8131,
    "motion</w>": 8132,
    "conqu": 8133,
    "kg</w>": 8134,
    "utr": 8135,
    "emo": 8136,
    "edia</w>": 8137,
    "princi": 8138,
    "rive</w>": 8139,
    "alem</w>": 8140,
    "NE": 8141,
    "ey": 8142,
    "ingham</w>": 8143,
    "Classic</w>": 8144,
    "Today</w>": 8145,
    "display</w>": 8146,
    "Band</w>": 8147,
    "ither</w>": 8148,
    "percentage</w>": 8149,
    "counties</w>": 8150,
    "Rav": 8151,
    "worldwide</w>": 8152,
    "custom": 8153,
    "Hugh</w>": 8154,
    "mon</w>": 8155,
    "Day": 8156,
    "bringing</w>": 8157,
    "agricultural</w>": 8158,
    "drawing</w>": 8159,
    "×</w>": 8160,
    "Aur": 8161,
    "tant</w>": 8162,
    "crossing</w>": 8163,
    "application</w>": 8164,
    "reportedly</w>": 8165,
    "tol": 8166,
    "extr": 8167,
    "confi": 8168,
    "Political</w>": 8169,
    "Electoral</w>": 8170,
    "memory</w>": 8171,
    "Trade</w>": 8172,
    "prepared</w>": 8173,
    "coup</w>": 8174,
    "responsibility</w>": 8175,
    "def</w>": 8176,
    "enberg</w>": 8177,
    "list": 8178,
    "Part</w>": 8179,
    "criminal</w>": 8180,
    "Bapti": 8181,
    "Morris</w>": 8182,
    "kick": 8183,
    "jum": 8184,
    "().</w>": 8185,
    "iv</w>": 8186,
    "promp": 8187,
    "onn": 8188,
    "equal</w>": 8189,
    "kic": 8190,
    "Authority</w>": 8191,
    "Up</w>": 8192,
    "(,</w>": 8193,
    "Las</w>": 8194,
    "alp": 8195,
    "Modern</w>": 8196,
    "umes</w>": 8197,
    "Venezu": 8198,
    "Hawai": 8199,
    "Motor</w>": 8200,
    "arrest</w>": 8201,
    "icity</w>": 8202,
    "save</w>": 8203,
    "unt": 8204,
    "shape</w>": 8205,
    "abled</w>": 8206,
    "preliminary</w>": 8207,
    "classified</w>": 8208,
    "something</w>": 8209,
    "walls</w>": 8210,
    "Zone</w>": 8211,
    "Attor": 8212,
    "decades</w>": 8213,
    "Action</w>": 8214,
    "ovo</w>": 8215,
    "wave</w>": 8216,
    "lasted</w>": 8217,
    "claiming</w>": 8218,
    "decor": 8219,
    "Fried": 8220,
    "subsi": 8221,
    "covers</w>": 8222,
    "educational</w>": 8223,
    "je": 8224,
    "restaur": 8225,
    "Bac": 8226,
    "sponsor": 8227,
    "pressed</w>": 8228,
    "Pear": 8229,
    "scape</w>": 8230,
    "ege</w>": 8231,
    "Romanian</w>": 8232,
    "aks</w>": 8233,
    "fications</w>": 8234,
    "novelist</w>": 8235,
    "Cher": 8236,
    "Harold</w>": 8237,
    "delivered</w>": 8238,
    "Charlie</w>": 8239,
    "aser</w>": 8240,
    "turing</w>": 8241,
    "DF</w>": 8242,
    "occurs</w>": 8243,
    "scholar</w>": 8244,
    "Tac": 8245,
    "Batman</w>": 8246,
    "ectural</w>": 8247,
    "Support</w>": 8248,
    "facing</w>": 8249,
    "Denn": 8250,
    "Alberta</w>": 8251,
    "\").</w>": 8252,
    "ives</w>": 8253,
    "constitutional</w>": 8254,
    "xon</w>": 8255,
    "irs</w>": 8256,
    "sy</w>": 8257,
    "Ahmad</w>": 8258,
    "Environ": 8259,
    "FM</w>": 8260,
    "legiate</w>": 8261,
    "Edmon": 8262,
    "crossed</w>": 8263,
    "picked</w>": 8264,
    "Bobby</w>": 8265,
    "soldier</w>": 8266,
    "step</w>": 8267,
    "inners</w>": 8268,
    "fru": 8269,
    "ementary</w>": 8270,
    "situated</w>": 8271,
    "Sky</w>": 8272,
    "Hil": 8273,
    "amateur</w>": 8274,
    "bought</w>": 8275,
    "guar": 8276,
    "subur": 8277,
    "earing</w>": 8278,
    "etings</w>": 8279,
    "Will</w>": 8280,
    "threat</w>": 8281,
    "insula</w>": 8282,
    "meters</w>": 8283,
    "difference</w>": 8284,
    "obile</w>": 8285,
    "Persian</w>": 8286,
    "reform</w>": 8287,
    "inher": 8288,
    "narr": 8289,
    "Phoenix</w>": 8290,
    "Historic</w>": 8291,
    "Chile</w>": 8292,
    "Collins</w>": 8293,
    "Yorkshire</w>": 8294,
    "interests</w>": 8295,
    "vis</w>": 8296,
    "priest</w>": 8297,
    "E9</w>": 8298,
    "emerged</w>": 8299,
    "ante": 8300,
    "Program</w>": 8301,
    "opponent</w>": 8302,
    "reduce</w>": 8303,
    "respective</w>": 8304,
    "Rid": 8305,
    "fine</w>": 8306,
    "So</w>": 8307,
    "inking</w>": 8308,
    "ancell": 8309,
    "Election</w>": 8310,
    "favor</w>": 8311,
    "promote</w>": 8312,
    "biggest</w>": 8313,
    "library</w>": 8314,
    "Salv": 8315,
    "Once</w>": 8316,
    "Finland</w>": 8317,
    "Rub": 8318,
    "rons</w>": 8319,
    "CEO</w>": 8320,
    "Engineer</w>": 8321,
    "developing</w>": 8322,
    "happened</w>": 8323,
    "ults</w>": 8324,
    "fore": 8325,
    "pension</w>": 8326,
    "Advent": 8327,
    "equival": 8328,
    "scorer</w>": 8329,
    "Jane</w>": 8330,
    "Seven</w>": 8331,
    "zon</w>": 8332,
    "collaboration</w>": 8333,
    "E9E9": 8334,
    "E9E9E9</w>": 8335,
    "Seb": 8336,
    "religion</w>": 8337,
    "admitted</w>": 8338,
    "see": 8339,
    "Car</w>": 8340,
    "composition</w>": 8341,
    "Num": 8342,
    "bun": 8343,
    "Hawks</w>": 8344,
    "Yugos": 8345,
    "ellite</w>": 8346,
    "Nav": 8347,
    "Test</w>": 8348,
    "chur": 8349,
    "Jerus": 8350,
    "cell": 8351,
    "nationally</w>": 8352,
    "fat": 8353,
    "tackle</w>": 8354,
    "emor": 8355,
    "Catal": 8356,
    "sized</w>": 8357,
    "tom": 8358,
    "Romania</w>": 8359,
    "entirely</w>": 8360,
    "sportation</w>": 8361,
    "knockout</w>": 8362,
    "iling</w>": 8363,
    "leans</w>": 8364,
    "lyrics</w>": 8365,
    "Diam": 8366,
    "tane": 8367,
    "bility</w>": 8368,
    "learning</w>": 8369,
    "Priv": 8370,
    "operate</w>": 8371,
    "Regular</w>": 8372,
    "Adri": 8373,
    "WC</w>": 8374,
    "1895</w>": 8375,
    "Sid": 8376,
    "Kab": 8377,
    "Though</w>": 8378,
    "sense</w>": 8379,
    "acid</w>": 8380,
    "entially</w>": 8381,
    "Roo": 8382,
    "rose</w>": 8383,
    "longest</w>": 8384,
    "Attorney</w>": 8385,
    "Ethiop": 8386,
    "agen</w>": 8387,
    "assistance</w>": 8388,
    "ser</w>": 8389,
    "Bengal</w>": 8390,
    "Magazine</w>": 8391,
    "Gur": 8392,
    "joy": 8393,
    "ize</w>": 8394,
    "CAF</w>": 8395,
    "Sultan</w>": 8396,
    "condem": 8397,
    "cabinet</w>": 8398,
    "sentenced</w>": 8399,
    "backing</w>": 8400,
    "eers</w>": 8401,
    "coverage</w>": 8402,
    "Jerusalem</w>": 8403,
    "surance</w>": 8404,
    "rain": 8405,
    "Tun": 8406,
    "assists</w>": 8407,
    "%)</w>": 8408,
    "Brooklyn</w>": 8409,
    "Cubs</w>": 8410,
    "drop</w>": 8411,
    "Rank": 8412,
    "legislative</w>": 8413,
    "1950s</w>": 8414,
    "closely</w>": 8415,
    "André</w>": 8416,
    "а</w>": 8417,
    "membership</w>": 8418,
    "indicated</w>": 8419,
    "Good</w>": 8420,
    "Good": 8421,
    "Germans</w>": 8422,
    "Eug": 8423,
    "Franklin</w>": 8424,
    "negative</w>": 8425,
    "progress</w>": 8426,
    "girls</w>": 8427,
    "Ernest</w>": 8428,
    "Professional</w>": 8429,
    "correc": 8430,
    "Arnold</w>": 8431,
    "regiments</w>": 8432,
    "hund": 8433,
    "qualifi": 8434,
    "etta</w>": 8435,
    "profit</w>": 8436,
    "Crown</w>": 8437,
    "ić</w>": 8438,
    "Cho": 8439,
    "derived</w>": 8440,
    "Water": 8441,
    "fire": 8442,
    "ander": 8443,
    "arrival</w>": 8444,
    "Bell": 8445,
    "partnership</w>": 8446,
    "Long": 8447,
    "je</w>": 8448,
    "1890</w>": 8449,
    "wi</w>": 8450,
    "CB": 8451,
    "streng": 8452,
    "stayed</w>": 8453,
    "Lag": 8454,
    "journal</w>": 8455,
    "Grand": 8456,
    "slow</w>": 8457,
    "tica</w>": 8458,
    "Stone</w>": 8459,
    "LP</w>": 8460,
    "iller</w>": 8461,
    "methods</w>": 8462,
    "1897</w>": 8463,
    "Brist": 8464,
    "oul</w>": 8465,
    "Municipal</w>": 8466,
    "dead": 8467,
    "Shel": 8468,
    "alco": 8469,
    "milit": 8470,
    "120</w>": 8471,
    "Batt": 8472,
    "Spir": 8473,
    "SS": 8474,
    "riors</w>": 8475,
    "ère</w>": 8476,
    "Orleans</w>": 8477,
    "Yu": 8478,
    "wick": 8479,
    "criticism</w>": 8480,
    "Charlotte</w>": 8481,
    "Kos": 8482,
    "versities</w>": 8483,
    "Bry": 8484,
    "walk</w>": 8485,
    "easily</w>": 8486,
    "gins</w>": 8487,
    "sole</w>": 8488,
    "Cav": 8489,
    "Vit": 8490,
    "commission</w>": 8491,
    "executed</w>": 8492,
    "parall": 8493,
    "Apoll": 8494,
    "oning</w>": 8495,
    "trains</w>": 8496,
    "tial</w>": 8497,
    "herself</w>": 8498,
    "swim": 8499,
    "ento</w>": 8500,
    "owners</w>": 8501,
    "producing</w>": 8502,
    "mal": 8503,
    "designer</w>": 8504,
    "Cad": 8505,
    "anni</w>": 8506,
    "lift</w>": 8507,
    "endment</w>": 8508,
    "onym": 8509,
    "Culture</w>": 8510,
    "note</w>": 8511,
    "bowl</w>": 8512,
    "ocks</w>": 8513,
    "Sac": 8514,
    "Garden</w>": 8515,
    "igh</w>": 8516,
    "oles</w>": 8517,
    "anied</w>": 8518,
    "posted</w>": 8519,
    "Pref": 8520,
    "alid</w>": 8521,
    "copies</w>": 8522,
    "distributed</w>": 8523,
    "Place</w>": 8524,
    "Let": 8525,
    "Karl</w>": 8526,
    "frame</w>": 8527,
    "ias</w>": 8528,
    "holder</w>": 8529,
    "significantly</w>": 8530,
    "Dean</w>": 8531,
    "Aer": 8532,
    "Bail": 8533,
    "nominations</w>": 8534,
    "Cum": 8535,
    "Hunter</w>": 8536,
    "trou": 8537,
    "Serbia</w>": 8538,
    "declined</w>": 8539,
    "kee</w>": 8540,
    "rel</w>": 8541,
    "oli</w>": 8542,
    "screen</w>": 8543,
    "linked</w>": 8544,
    "Din": 8545,
    "mate</w>": 8546,
    "Elli": 8547,
    "Silver</w>": 8548,
    "sections</w>": 8549,
    "worst</w>": 8550,
    "lowest</w>": 8551,
    "Energy</w>": 8552,
    "king": 8553,
    "(#</w>": 8554,
    "ensure</w>": 8555,
    "gender</w>": 8556,
    "hundred</w>": 8557,
    "theat": 8558,
    "insi": 8559,
    "PS</w>": 8560,
    "^</w>": 8561,
    "by": 8562,
    "programming</w>": 8563,
    "proposal</w>": 8564,
    "Main</w>": 8565,
    "Palestinian</w>": 8566,
    "dinal</w>": 8567,
    "maintain</w>": 8568,
    "Historical</w>": 8569,
    "ternoon</w>": 8570,
    "augh": 8571,
    "Peace</w>": 8572,
    "extension</w>": 8573,
    "Prom": 8574,
    "1892</w>": 8575,
    "Performance</w>": 8576,
    "adding</w>": 8577,
    "farm</w>": 8578,
    "proced": 8579,
    "fts</w>": 8580,
    "alliance</w>": 8581,
    "Stri": 8582,
    "circum": 8583,
    "oh": 8584,
    "passengers</w>": 8585,
    "sessions</w>": 8586,
    "laid</w>": 8587,
    "Lloy": 8588,
    "Minor</w>": 8589,
    "ras</w>": 8590,
    "frag": 8591,
    "chen</w>": 8592,
    "Abraham</w>": 8593,
    "appeal</w>": 8594,
    "ovich</w>": 8595,
    "Edwards</w>": 8596,
    "simple</w>": 8597,
    "Storm</w>": 8598,
    "VD</w>": 8599,
    "Hai": 8600,
    "sti": 8601,
    "shift</w>": 8602,
    "Phys": 8603,
    "notably</w>": 8604,
    "powers</w>": 8605,
    "conven": 8606,
    "ski": 8607,
    "Neil</w>": 8608,
    "Fun": 8609,
    "flow</w>": 8610,
    "Nad": 8611,
    "Wellington</w>": 8612,
    "tempor": 8613,
    "ikh</w>": 8614,
    "vement</w>": 8615,
    "Hin": 8616,
    "Whe": 8617,
    "theater</w>": 8618,
    "asy</w>": 8619,
    "guez</w>": 8620,
    "ongoing</w>": 8621,
    "Bernard</w>": 8622,
    "opping</w>": 8623,
    "kel": 8624,
    "Middle": 8625,
    "anity</w>": 8626,
    "helicop": 8627,
    "Ranking</w>": 8628,
    "dden</w>": 8629,
    ":*</w>": 8630,
    "Tou": 8631,
    "accompanied</w>": 8632,
    "ton": 8633,
    "justice</w>": 8634,
    "attorney</w>": 8635,
    "UN</w>": 8636,
    "JPG</w>": 8637,
    "employees</w>": 8638,
    "ethnic</w>": 8639,
    "25th</w>": 8640,
    "esa</w>": 8641,
    "nur": 8642,
    "seek</w>": 8643,
    "Islam</w>": 8644,
    "translation</w>": 8645,
    "astructure</w>": 8646,
    "CO</w>": 8647,
    "foundation</w>": 8648,
    "basic</w>": 8649,
    "sale</w>": 8650,
    "installed</w>": 8651,
    "Sax": 8652,
    "mediate</w>": 8653,
    "ancer</w>": 8654,
    "Prote": 8655,
    "cht</w>": 8656,
    "standards</w>": 8657,
    "ocked</w>": 8658,
    "atar</w>": 8659,
    "Treat": 8660,
    "Vladi": 8661,
    "announces</w>": 8662,
    "heads</w>": 8663,
    "Dick</w>": 8664,
    "Amb": 8665,
    "accur": 8666,
    "etown</w>": 8667,
    "eon</w>": 8668,
    "heard</w>": 8669,
    "occupation</w>": 8670,
    "Tennis</w>": 8671,
    "Syrian</w>": 8672,
    "Cooper</w>": 8673,
    "inhabit": 8674,
    "ailing</w>": 8675,
    "Vanc": 8676,
    "successor</w>": 8677,
    "Lang": 8678,
    "fashion</w>": 8679,
    "**": 8680,
    "driven</w>": 8681,
    "hat</w>": 8682,
    "Phil</w>": 8683,
    "--": 8684,
    "asa</w>": 8685,
    "entrance</w>": 8686,
    "fill</w>": 8687,
    "orph": 8688,
    "rare</w>": 8689,
    "annon</w>": 8690,
    "Astro": 8691,
    "erk</w>": 8692,
    "peak</w>": 8693,
    "flo": 8694,
    "diocese</w>": 8695,
    "Hart": 8696,
    "greatest</w>": 8697,
    "isol": 8698,
    "Indian": 8699,
    "paintings</w>": 8700,
    "patients</w>": 8701,
    "females</w>": 8702,
    "substanti": 8703,
    "ducing</w>": 8704,
    "covering</w>": 8705,
    "ST": 8706,
    "dry</w>": 8707,
    "20s</w>": 8708,
    "narrow": 8709,
    "atch</w>": 8710,
    "documents</w>": 8711,
    "thousands</w>": 8712,
    "obs</w>": 8713,
    "Allan</w>": 8714,
    "policies</w>": 8715,
    "Coaches</w>": 8716,
    "ficial</w>": 8717,
    "suicide</w>": 8718,
    "comic</w>": 8719,
    "meetings</w>": 8720,
    "arranged</w>": 8721,
    "hotel</w>": 8722,
    "Jud": 8723,
    "Tube</w>": 8724,
    "passenger</w>": 8725,
    "chant</w>": 8726,
    "bands</w>": 8727,
    "Image</w>": 8728,
    "junction</w>": 8729,
    "ment": 8730,
    "duties</w>": 8731,
    "rally</w>": 8732,
    "Lud": 8733,
    "rob": 8734,
    "aste</w>": 8735,
    "Just</w>": 8736,
    "keeping</w>": 8737,
    "Bed": 8738,
    "Chem": 8739,
    "Control</w>": 8740,
    "Outstanding</w>": 8741,
    "ouver</w>": 8742,
    "Our</w>": 8743,
    "ACC</w>": 8744,
    "shr": 8745,
    "incid": 8746,
    "bane</w>": 8747,
    "ender</w>": 8748,
    "red": 8749,
    "operational</w>": 8750,
    "Your</w>": 8751,
    "Vancouver</w>": 8752,
    "Circuit</w>": 8753,
    "=#": 8754,
    "versy</w>": 8755,
    "Turner</w>": 8756,
    "PC</w>": 8757,
    "reign</w>": 8758,
    "constitution</w>": 8759,
    "minimum</w>": 8760,
    "odd</w>": 8761,
    "mation</w>": 8762,
    "Events</w>": 8763,
    "sub</w>": 8764,
    "1889</w>": 8765,
    "SEC</w>": 8766,
    "embar": 8767,
    "pread</w>": 8768,
    "whilst</w>": 8769,
    "utions</w>": 8770,
    "aint</w>": 8771,
    "environmental</w>": 8772,
    "Blo": 8773,
    "lan</w>": 8774,
    "cards</w>": 8775,
    "station": 8776,
    "Economic</w>": 8777,
    "Who</w>": 8778,
    "importance</w>": 8779,
    "1893</w>": 8780,
    "specim": 8781,
    "narrow</w>": 8782,
    "occur</w>": 8783,
    "Water</w>": 8784,
    "flat</w>": 8785,
    "soft</w>": 8786,
    "Cook</w>": 8787,
    "hol</w>": 8788,
    "Video</w>": 8789,
    "IT</w>": 8790,
    "finds</w>": 8791,
    "ru</w>": 8792,
    "stable</w>": 8793,
    "1894</w>": 8794,
    "%,</w>": 8795,
    "Tul": 8796,
    "residence</w>": 8797,
    "Derby</w>": 8798,
    "scription</w>": 8799,
    "Mé": 8800,
    "stands</w>": 8801,
    "Sor": 8802,
    "ashi</w>": 8803,
    "temperature</w>": 8804,
    "enne</w>": 8805,
    "abortion</w>": 8806,
    "gu</w>": 8807,
    "defended</w>": 8808,
    "colonial</w>": 8809,
    "ession": 8810,
    "ante</w>": 8811,
    "gus</w>": 8812,
    "Lib": 8813,
    "Vel": 8814,
    "Boys</w>": 8815,
    "thodox</w>": 8816,
    "bomb</w>": 8817,
    "rol</w>": 8818,
    "Astr": 8819,
    "mounted</w>": 8820,
    "DA</w>": 8821,
    "chemical</w>": 8822,
    "ographical</w>": 8823,
    "Seg": 8824,
    "emi": 8825,
    "Clau": 8826,
    "Keith</w>": 8827,
    "bound</w>": 8828,
    "angle</w>": 8829,
    "ucks</w>": 8830,
    "Warner</w>": 8831,
    "bases</w>": 8832,
    "respect</w>": 8833,
    "tenance</w>": 8834,
    "Around</w>": 8835,
    "Provinc": 8836,
    "Terry</w>": 8837,
    "Treas": 8838,
    "Indianapolis</w>": 8839,
    "Villa</w>": 8840,
    "andro</w>": 8841,
    "rail</w>": 8842,
    "oba</w>": 8843,
    "inch</w>": 8844,
    "Section</w>": 8845,
    "eb</w>": 8846,
    "accor": 8847,
    "Sarah</w>": 8848,
    "Lloyd</w>": 8849,
    "returns</w>": 8850,
    "winds</w>": 8851,
    "Ken</w>": 8852,
    "shore</w>": 8853,
    "sponsorship</w>": 8854,
    "Freedom</w>": 8855,
    "Petersburg</w>": 8856,
    "Princess</w>": 8857,
    "Om": 8858,
    "Ple": 8859,
    "Panthers</w>": 8860,
    "fortun": 8861,
    "Bureau</w>": 8862,
    "Light": 8863,
    "print</w>": 8864,
    "sit</w>": 8865,
    "combination</w>": 8866,
    "Short": 8867,
    "Tank</w>": 8868,
    "Down</w>": 8869,
    "Dennis</w>": 8870,
    "Beg": 8871,
    "needs</w>": 8872,
    "RO": 8873,
    "Manuel</w>": 8874,
    "Greg</w>": 8875,
    "Kath": 8876,
    "wild": 8877,
    "Industry</w>": 8878,
    "Cov": 8879,
    "anes</w>": 8880,
    "Song": 8881,
    "Tampa</w>": 8882,
    "49": 8883,
    "Palestine</w>": 8884,
    "spective</w>": 8885,
    "Dakota</w>": 8886,
    "box": 8887,
    "Napol": 8888,
    "eh</w>": 8889,
    "Dub": 8890,
    "Studios</w>": 8891,
    "educated</w>": 8892,
    "Concer": 8893,
    "anga</w>": 8894,
    "medicine</w>": 8895,
    "Stuart</w>": 8896,
    "freedom</w>": 8897,
    "Digital</w>": 8898,
    "kar</w>": 8899,
    "sidency</w>": 8900,
    "seeking</w>": 8901,
    "itors</w>": 8902,
    "survived</w>": 8903,
    "pot</w>": 8904,
    "think</w>": 8905,
    ".”</w>": 8906,
    "ins": 8907,
    "price</w>": 8908,
    "oller</w>": 8909,
    "choo": 8910,
    "Armed</w>": 8911,
    "NBC</w>": 8912,
    "Combat</w>": 8913,
    "child": 8914,
    "falling</w>": 8915,
    "tus</w>": 8916,
    "enr": 8917,
    "nic": 8918,
    "rebounds</w>": 8919,
    "Bot": 8920,
    "Guil": 8921,
    "forcing</w>": 8922,
    "squad": 8923,
    "inhabitants</w>": 8924,
    "demand</w>": 8925,
    "respond": 8926,
    ")\"</w>": 8927,
    "scenes</w>": 8928,
    "Warren</w>": 8929,
    "Post": 8930,
    "diction</w>": 8931,
    "age": 8932,
    "Cle": 8933,
    "Now</w>": 8934,
    "corps</w>": 8935,
    "involvement</w>": 8936,
    "link</w>": 8937,
    "audio</w>": 8938,
    "=#|</w>": 8939,
    "Non</w>": 8940,
    "wides": 8941,
    "Acting</w>": 8942,
    "Guinea</w>": 8943,
    "speaking</w>": 8944,
    "afternoon</w>": 8945,
    "fli": 8946,
    "Theater</w>": 8947,
    "describes</w>": 8948,
    "Kri": 8949,
    "avier</w>": 8950,
    "shell</w>": 8951,
    "Mack": 8952,
    "gor": 8953,
    "inist</w>": 8954,
    "EU</w>": 8955,
    "Nam": 8956,
    "Raymond</w>": 8957,
    "Hot</w>": 8958,
    "lay</w>": 8959,
    "absence</w>": 8960,
    "atom": 8961,
    "Kyle</w>": 8962,
    "inde": 8963,
    "outbreak</w>": 8964,
    "Roberts</w>": 8965,
    "northeast</w>": 8966,
    "upri": 8967,
    "ux</w>": 8968,
    "Bristol</w>": 8969,
    "come": 8970,
    "ör": 8971,
    "representation</w>": 8972,
    "glass</w>": 8973,
    "mobile</w>": 8974,
    "Under": 8975,
    "unt</w>": 8976,
    ".),</w>": 8977,
    "Heart</w>": 8978,
    "Serie</w>": 8979,
    "Hob": 8980,
    "Byz": 8981,
    "prosec": 8982,
    "separated</w>": 8983,
    "Bush</w>": 8984,
    "acre</w>": 8985,
    "throw</w>": 8986,
    "Yo": 8987,
    "approval</w>": 8988,
    "Wallace</w>": 8989,
    "fled</w>": 8990,
    "illegal</w>": 8991,
    "Publishing</w>": 8992,
    "Divisi": 8993,
    "Taiwan</w>": 8994,
    "sequently</w>": 8995,
    "equivalent</w>": 8996,
    "sphere</w>": 8997,
    "enting</w>": 8998,
    "images</w>": 8999,
    "ologies</w>": 9000,
    "bean</w>": 9001,
    "pitch</w>": 9002,
    "drafted</w>": 9003,
    "Craig</w>": 9004,
    "mile</w>": 9005,
    "motor</w>": 9006,
    "option</w>": 9007,
    "plot</w>": 9008,
    "colli": 9009,
    "Larry</w>": 9010,
    "refers</w>": 9011,
    "Ron</w>": 9012,
    "YouTube</w>": 9013,
    "Organization</w>": 9014,
    "column</w>": 9015,
    "floo": 9016,
    "calcul": 9017,
    "Glen": 9018,
    "functions</w>": 9019,
    "attend</w>": 9020,
    "brief</w>": 9021,
    "distinct</w>": 9022,
    "Ug": 9023,
    "ubernat": 9024,
    "victories</w>": 9025,
    "Design</w>": 9026,
    "Parker</w>": 9027,
    "your</w>": 9028,
    "dating</w>": 9029,
    "ubernatorial</w>": 9030,
    "utili": 9031,
    "strikes</w>": 9032,
    "Punj": 9033,
    "Heritage</w>": 9034,
    "ayan</w>": 9035,
    "Ji": 9036,
    "bombing</w>": 9037,
    "erra</w>": 9038,
    "Prus": 9039,
    "Maz": 9040,
    "Denver</w>": 9041,
    "Tamil</w>": 9042,
    "px</w>": 9043,
    "robin</w>": 9044,
    "rooms</w>": 9045,
    "believe</w>": 9046,
    "ginal</w>": 9047,
    "regularly</w>": 9048,
    "Rovers</w>": 9049,
    "yi</w>": 9050,
    "otic</w>": 9051,
    "Colum": 9052,
    "renew": 9053,
    "plate</w>": 9054,
    "causes</w>": 9055,
    "Vari": 9056,
    "pel": 9057,
    "Albanian</w>": 9058,
    "amo</w>": 9059,
    "Medicine</w>": 9060,
    "Van": 9061,
    "continuing</w>": 9062,
    "Rho": 9063,
    "retreat</w>": 9064,
    "Winners</w>": 9065,
    "Madi": 9066,
    "flowers</w>": 9067,
    "Ess": 9068,
    "Tas": 9069,
    "essing</w>": 9070,
    "vation</w>": 9071,
    "estyle</w>": 9072,
    "exter": 9073,
    "suffering</w>": 9074,
    "Kun": 9075,
    "earliest</w>": 9076,
    "auc": 9077,
    "Bris": 9078,
    "Wa": 9079,
    "interior</w>": 9080,
    "Blues</w>": 9081,
    "ña</w>": 9082,
    "Native</w>": 9083,
    "senator</w>": 9084,
    "completing</w>": 9085,
    "Nicholas</w>": 9086,
    "water": 9087,
    "Girl</w>": 9088,
    "Jose</w>": 9089,
    "1885</w>": 9090,
    "Newcastle</w>": 9091,
    "Vil": 9092,
    "appropri": 9093,
    "Arabia</w>": 9094,
    "lington</w>": 9095,
    "Tab": 9096,
    "1888</w>": 9097,
    "torn": 9098,
    "bol": 9099,
    "communication</w>": 9100,
    "1000</w>": 9101,
    "Actor</w>": 9102,
    "Archbishop</w>": 9103,
    "yon</w>": 9104,
    "hawks</w>": 9105,
    "pulled</w>": 9106,
    "Quarter": 9107,
    "1887</w>": 9108,
    "depression</w>": 9109,
    "northwest</w>": 9110,
    "delayed</w>": 9111,
    "Chand": 9112,
    "adult</w>": 9113,
    "End</w>": 9114,
    "ager</w>": 9115,
    "Anglo</w>": 9116,
    "protesters</w>": 9117,
    "ellow": 9118,
    "defend</w>": 9119,
    "enburg</w>": 9120,
    "youngest</w>": 9121,
    "delegates</w>": 9122,
    "encing</w>": 9123,
    "install": 9124,
    "Thi": 9125,
    "itia</w>": 9126,
    "Braves</w>": 9127,
    "widespread</w>": 9128,
    "Late</w>": 9129,
    "Justin</w>": 9130,
    "user</w>": 9131,
    "ffield</w>": 9132,
    "Portland</w>": 9133,
    "legislation</w>": 9134,
    "dynasty</w>": 9135,
    "ennial</w>": 9136,
    "dering</w>": 9137,
    "Capit": 9138,
    "ider</w>": 9139,
    "Ve": 9140,
    "goalkeeper</w>": 9141,
    "Maced": 9142,
    "Vincent</w>": 9143,
    "fair</w>": 9144,
    "shel": 9145,
    "None</w>": 9146,
    "cyclone</w>": 9147,
    "neur": 9148,
    "boo": 9149,
    "neutr": 9150,
    "Stanford</w>": 9151,
    "Hop": 9152,
    "Lebanon</w>": 9153,
    "Years</w>": 9154,
    "Vie": 9155,
    "load</w>": 9156,
    "Asp": 9157,
    "starred</w>": 9158,
    "cited</w>": 9159,
    "ESPN</w>": 9160,
    "Superintendent</w>": 9161,
    "ilit": 9162,
    "negotiations</w>": 9163,
    "cali": 9164,
    "Oliver</w>": 9165,
    "1891</w>": 9166,
    "recogn": 9167,
    "Lanka</w>": 9168,
    "isa</w>": 9169,
    "Filip": 9170,
    "shut": 9171,
    "artistic</w>": 9172,
    "assess": 9173,
    "debuted</w>": 9174,
    "SE": 9175,
    "haz": 9176,
    "Jen": 9177,
    "dismissed</w>": 9178,
    "postponed</w>": 9179,
    "juris": 9180,
    "tested</w>": 9181,
    "oria</w>": 9182,
    "Hollywood</w>": 9183,
    "traveled</w>": 9184,
    "Hit": 9185,
    "Pengu": 9186,
    "Lov": 9187,
    "agon</w>": 9188,
    "Maine</w>": 9189,
    "objects</w>": 9190,
    "sop": 9191,
    "threatened</w>": 9192,
    "surve": 9193,
    "believ": 9194,
    "Advis": 9195,
    "assist</w>": 9196,
    "Broadway</w>": 9197,
    "...": 9198,
    "opposite</w>": 9199,
    "svg</w>": 9200,
    "Fitz": 9201,
    "iterran": 9202,
    "Girls</w>": 9203,
    "Pel": 9204,
    "earn</w>": 9205,
    "eived</w>": 9206,
    "kilometers</w>": 9207,
    "visual</w>": 9208,
    "Indonesian</w>": 9209,
    "magnit": 9210,
    "Od": 9211,
    "Budd": 9212,
    "Artist</w>": 9213,
    "Harrison</w>": 9214,
    "Ice</w>": 9215,
    "Murphy</w>": 9216,
    "Afghan</w>": 9217,
    "tivity</w>": 9218,
    "gubernatorial</w>": 9219,
    "effectively</w>": 9220,
    "rever": 9221,
    "liqu": 9222,
    "IM": 9223,
    "immediate</w>": 9224,
    "ticip": 9225,
    "CBS</w>": 9226,
    "iser</w>": 9227,
    "ji": 9228,
    "Opera</w>": 9229,
    "gene": 9230,
    "scores</w>": 9231,
    "Arms</w>": 9232,
    "chor": 9233,
    "controversy</w>": 9234,
    "script</w>": 9235,
    "agement</w>": 9236,
    "Six": 9237,
    "rowing</w>": 9238,
    "sponsored</w>": 9239,
    "Benn": 9240,
    "leton</w>": 9241,
    "Leeds</w>": 9242,
    "testing</w>": 9243,
    "harmon": 9244,
    "orship</w>": 9245,
    "Thus</w>": 9246,
    "pas": 9247,
    "Judge</w>": 9248,
    "Members</w>": 9249,
    "Spring</w>": 9250,
    "Hab": 9251,
    "southwest</w>": 9252,
    "vised</w>": 9253,
    "essive</w>": 9254,
    "Jerry</w>": 9255,
    "eve</w>": 9256,
    "ideas</w>": 9257,
    "controversial</w>": 9258,
    "Aircraft</w>": 9259,
    "enjoy": 9260,
    "closing</w>": 9261,
    "utation</w>": 9262,
    "thirty</w>": 9263,
    "atab": 9264,
    "nell</w>": 9265,
    "Rot": 9266,
    "Zi": 9267,
    "phony</w>": 9268,
    "Amster": 9269,
    "opinion</w>": 9270,
    "asha</w>": 9271,
    "physician</w>": 9272,
    "Plat": 9273,
    "scholars</w>": 9274,
    "Brisbane</w>": 9275,
    "encer</w>": 9276,
    "conclusion</w>": 9277,
    "Moon</w>": 9278,
    "Through</w>": 9279,
    "solid</w>": 9280,
    "regime</w>": 9281,
    "Nep": 9282,
    "Admiral</w>": 9283,
    "istani</w>": 9284,
    "perior</w>": 9285,
    "dreds</w>": 9286,
    "market": 9287,
    "diary</w>": 9288,
    "Auburn</w>": 9289,
    "Grade</w>": 9290,
    "properties</w>": 9291,
    "teries</w>": 9292,
    "Rankings</w>": 9293,
    "Beat": 9294,
    "Hill": 9295,
    "represents</w>": 9296,
    "posing</w>": 9297,
    "Century</w>": 9298,
    "distinguished</w>": 9299,
    "ingen</w>": 9300,
    "participants</w>": 9301,
    "Express</w>": 9302,
    "Sz": 9303,
    "Carib": 9304,
    "infl": 9305,
    "males</w>": 9306,
    "Lane</w>": 9307,
    "Polic": 9308,
    "Scienti": 9309,
    "Inspector</w>": 9310,
    "Wedn": 9311,
    "asks</w>": 9312,
    "fles</w>": 9313,
    "Nazi</w>": 9314,
    "iron</w>": 9315,
    "enos</w>": 9316,
    "safe</w>": 9317,
    "Pan</w>": 9318,
    "Upper</w>": 9319,
    "strongly</w>": 9320,
    "Orange</w>": 9321,
    "ags</w>": 9322,
    "path</w>": 9323,
    "none</w>": 9324,
    "outdoor</w>": 9325,
    "lob": 9326,
    "congressional</w>": 9327,
    "strategic</w>": 9328,
    "dad</w>": 9329,
    "itarian</w>": 9330,
    "24": 9331,
    "Costa</w>": 9332,
    "reaction</w>": 9333,
    "aimed</w>": 9334,
    "Die</w>": 9335,
    "onau": 9336,
    "ump": 9337,
    "Results</w>": 9338,
    "Angel</w>": 9339,
    ":\"</w>": 9340,
    "expedition</w>": 9341,
    "kid": 9342,
    "birds</w>": 9343,
    "erian</w>": 9344,
    "bac": 9345,
    "jing</w>": 9346,
    "Clinton</w>": 9347,
    "Finnish</w>": 9348,
    "unition</w>": 9349,
    "venues</w>": 9350,
    "really</w>": 9351,
    "contrast</w>": 9352,
    "haps</w>": 9353,
    "Short</w>": 9354,
    "receiver</w>": 9355,
    "Serbian</w>": 9356,
    "iss</w>": 9357,
    "700</w>": 9358,
    "publications</w>": 9359,
    "Calgary</w>": 9360,
    "restored</w>": 9361,
    "eye</w>": 9362,
    "phen": 9363,
    "hurricane</w>": 9364,
    "supplies</w>": 9365,
    "lett</w>": 9366,
    "Raf": 9367,
    "vor</w>": 9368,
    "Anto": 9369,
    "investment</w>": 9370,
    "Watson</w>": 9371,
    "Ib": 9372,
    "rivals</w>": 9373,
    "uments</w>": 9374,
    "Cameron</w>": 9375,
    "measure</w>": 9376,
    "teammate</w>": 9377,
    "CP": 9378,
    "protected</w>": 9379,
    "pianist</w>": 9380,
    "bin": 9381,
    "ros</w>": 9382,
    "neth</w>": 9383,
    "Chelsea</w>": 9384,
    "shoot</w>": 9385,
    "woo": 9386,
    "autonom": 9387,
    "Patriots</w>": 9388,
    "ucc": 9389,
    "chez</w>": 9390,
    "pack": 9391,
    "chi": 9392,
    "mit": 9393,
    "gro</w>": 9394,
    "ste</w>": 9395,
    "Capital</w>": 9396,
    "Hond": 9397,
    "Disney</w>": 9398,
    "initiative</w>": 9399,
    "Dick": 9400,
    "mund</w>": 9401,
    "engines</w>": 9402,
    "scar</w>": 9403,
    "Hugh": 9404,
    "inn</w>": 9405,
    "Curr": 9406,
    "Reds</w>": 9407,
    "categories</w>": 9408,
    "Alt": 9409,
    "Ralph</w>": 9410,
    "kl": 9411,
    "ker": 9412,
    "printed</w>": 9413,
    "Jacob</w>": 9414,
    "ounced</w>": 9415,
    "hyth": 9416,
    "strategy</w>": 9417,
    "Goth": 9418,
    "25": 9419,
    "exist</w>": 9420,
    "Amsterdam</w>": 9421,
    "affairs</w>": 9422,
    "publishing</w>": 9423,
    "mean</w>": 9424,
    "Carl": 9425,
    "nothing</w>": 9426,
    "Count</w>": 9427,
    "Origin": 9428,
    "medium</w>": 9429,
    "flank</w>": 9430,
    "attributed</w>": 9431,
    "film": 9432,
    "ogy</w>": 9433,
    "elimination</w>": 9434,
    "Volume</w>": 9435,
    "Phot": 9436,
    "quite</w>": 9437,
    "philosophy</w>": 9438,
    "magnitude</w>": 9439,
    "Jay</w>": 9440,
    "Cathedral</w>": 9441,
    "completion</w>": 9442,
    "secret</w>": 9443,
    "23": 9444,
    "affiliated</w>": 9445,
    "discovery</w>": 9446,
    "althy</w>": 9447,
    "guel</w>": 9448,
    "painted</w>": 9449,
    "bet</w>": 9450,
    "Gray</w>": 9451,
    "bach</w>": 9452,
    "deep": 9453,
    "Notre</w>": 9454,
    "Row": 9455,
    "Album</w>": 9456,
    "refuge": 9457,
    "actual</w>": 9458,
    "Death</w>": 9459,
    "Edmonton</w>": 9460,
    "Chamber</w>": 9461,
    "clay</w>": 9462,
    "ó</w>": 9463,
    "otherwise</w>": 9464,
    "Joint</w>": 9465,
    "coached</w>": 9466,
    "Cair": 9467,
    "Langu": 9468,
    "appearing</w>": 9469,
    "astery</w>": 9470,
    "ferences</w>": 9471,
    "bye</w>": 9472,
    "profile</w>": 9473,
[...]
