{
  "version": "2.0",
  "vocab_size": 7998,
  "encoder": {
    "<|pad|>": 0,
    "<|start|>": 1,
    "<|end|>": 2,
    "<|unk|>": 3,
    "<|sep|>": 4,
    "<|mask|>": 5,
    "<|Q|>": 6,
    "<|A|>": 7,
    "<|user|>": 8,
    "<|bot|>": 9,
    "<|system|>": 10,
    "<|newline|>": 11,
    "!": 12,
    "\"": 13,
    "#": 14,
    "$": 15,
    "%": 16,
    "&": 17,
    "'": 18,
    "(": 19,
    ")": 20,
    "*": 21,
    "+": 22,
    ",": 23,
    "-": 24,
    ".": 25,
    "/": 26,
    "0": 27,
    "1": 28,
    "2": 29,
    "3": 30,
    "4": 31,
    "5": 32,
    "6": 33,
    "7": 34,
    "8": 35,
    "9": 36,
    ":": 37,
    ";": 38,
    "<": 39,
    "=": 40,
    ">": 41,
    "?": 42,
    "@": 43,
    "A": 44,
    "B": 45,
    "C": 46,
    "D": 47,
    "E": 48,
    "F": 49,
    "G": 50,
    "H": 51,
    "I": 52,
    "J": 53,
    "K": 54,
    "L": 55,
    "M": 56,
    "N": 57,
    "O": 58,
    "P": 59,
    "Q": 60,
    "R": 61,
    "S": 62,
    "T": 63,
    "U": 64,
    "V": 65,
    "W": 66,
    "X": 67,
    "Y": 68,
    "Z": 69,
    "[": 70,
    "\\": 71,
    "]": 72,
    "^": 73,
    "_": 74,
    "`": 75,
    "a": 76,
    "b": 77,
    "c": 78,
    "d": 79,
    "e": 80,
    "f": 81,
    "g": 82,
    "h": 83,
    "i": 84,
    "j": 85,
    "k": 86,
    "l": 87,
    "m": 88,
    "n": 89,
    "o": 90,
    "p": 91,
    "q": 92,
    "r": 93,
    "s": 94,
    "t": 95,
    "u": 96,
    "v": 97,
    "w": 98,
    "x": 99,
    "y": 100,
    "z": 101,
    "{": 102,
    "|": 103,
    "}": 104,
    "~": 105,
    "¡": 106,
    "¢": 107,
    "£": 108,
    "¤": 109,
    "¥": 110,
    "¦": 111,
    "§": 112,
    "¨": 113,
    "©": 114,
    "ª": 115,
    "«": 116,
    "¬": 117,
    "®": 118,
    "¯": 119,
    "°": 120,
    "±": 121,
    "²": 122,
    "³": 123,
    "´": 124,
    "µ": 125,
    "¶": 126,
    "·": 127,
    "¸": 128,
    "¹": 129,
    "º": 130,
    "»": 131,
    "¼": 132,
    "½": 133,
    "¾": 134,
    "¿": 135,
    "À": 136,
    "Á": 137,
    "Â": 138,
    "Ã": 139,
    "Ä": 140,
    "Å": 141,
    "Æ": 142,
    "Ç": 143,
    "È": 144,
    "É": 145,
    "Ê": 146,
    "Ë": 147,
    "Ì": 148,
    "Í": 149,
    "Î": 150,
    "Ï": 151,
    "Ð": 152,
    "Ñ": 153,
    "Ò": 154,
    "Ó": 155,
    "Ô": 156,
    "Õ": 157,
    "Ö": 158,
    "×": 159,
    "Ø": 160,
    "Ù": 161,
    "Ú": 162,
    "Û": 163,
    "Ü": 164,
    "Ý": 165,
    "Þ": 166,
    "ß": 167,
    "à": 168,
    "á": 169,
    "â": 170,
    "ã": 171,
    "ä": 172,
    "å": 173,
    "æ": 174,
    "ç": 175,
    "è": 176,
    "é": 177,
    "ê": 178,
    "ë": 179,
    "ì": 180,
    "í": 181,
    "î": 182,
    "ï": 183,
    "ð": 184,
    "ñ": 185,
    "ò": 186,
    "ó": 187,
    "ô": 188,
    "õ": 189,
    "ö": 190,
    "÷": 191,
    "ø": 192,
    "ù": 193,
    "ú": 194,
    "û": 195,
    "ü": 196,
    "ý": 197,
    "þ": 198,
    "ÿ": 199,
    "Ā": 200,
    "ā": 201,
    "Ă": 202,
    "ă": 203,
    "Ą": 204,
    "ą": 205,
    "Ć": 206,
    "ć": 207,
    "Ĉ": 208,
    "ĉ": 209,
    "Ċ": 210,
    "ċ": 211,
    "Č": 212,
    "č": 213,
    "Ď": 214,
    "ď": 215,
    "Đ": 216,
    "đ": 217,
    "Ē": 218,
    "ē": 219,
    "Ĕ": 220,
    "ĕ": 221,
    "Ė": 222,
    "ė": 223,
    "Ę": 224,
    "ę": 225,
    "Ě": 226,
    "ě": 227,
    "Ĝ": 228,
    "ĝ": 229,
    "Ğ": 230,
    "ğ": 231,
    "Ġ": 232,
    "ġ": 233,
    "Ģ": 234,
    "ģ": 235,
    "Ĥ": 236,
    "ĥ": 237,
    "Ħ": 238,
    "ħ": 239,
    "Ĩ": 240,
    "ĩ": 241,
    "Ī": 242,
    "ī": 243,
    "Ĭ": 244,
    "ĭ": 245,
    "Į": 246,
    "į": 247,
    "İ": 248,
    "ı": 249,
    "Ĳ": 250,
    "ĳ": 251,
    "Ĵ": 252,
    "ĵ": 253,
    "Ķ": 254,
    "ķ": 255,
    "ĸ": 256,
    "Ĺ": 257,
    "ĺ": 258,
    "Ļ": 259,
    "ļ": 260,
    "Ľ": 261,
    "ľ": 262,
    "Ŀ": 263,
    "ŀ": 264,
    "Ł": 265,
    "ł": 266,
    "Ń": 267,
    "in": 268,
    "<|": 269,
    "|>": 270,
    "Ġc": 271,
    "on": 272,
    "Ġa": 273,
    "Ġt": 274,
    "at": 275,
    "re": 276,
    "it": 277,
    "ing": 278,
    "Ġs": 279,
    "Ġm": 280,
    "er": 281,
    "<|Q": 282,
    "<|A": 283,
    "es": 284,
    "en": 285,
    "Ġb": 286,
    "al": 287,
    "an": 288,
    "Ġw": 289,
    "or": 290,
    "is": 291,
    "im": 292,
    "Ġd": 293,
    "ou": 294,
    "Ġre": 295,
    "ĠI": 296,
    "nd": 297,
    "le": 298,
    "om": 299,
    "ed": 300,
    "Ġand": 301,
    "Ġp": 302,
    "Ġin": 303,
    "ic": 304,
    "ar": 305,
    "ro": 306,
    "ke": 307,
    "Ġf": 308,
    "Ġto": 309,
    "he": 310,
    "imp": 311,
    "ra": 312,
    "hat": 313,
    "as": 314,
    "ion": 315,
    "ec": 316,
    "ow": 317,
    "ĠW": 318,
    "Ġcon": 319,
    "ity": 320,
    "us": 321,
    "Ġe": 322,
    "Ġcom": 323,
    "Ġme": 324,
    "Ġl": 325,
    "Ġis": 326,
    "ts": 327,
    "Ġdo": 328,
    "ĠWhat": 329,
    "ly": 330,
    "Ġthe": 331,
    "Ġon": 332,
    "ĠH": 333,
    "ve": 334,
    "st": 335,
    "Ġo": 336,
    "ĠHow": 337,
    "ce": 338,
    "ent": 339,
    "Ġcomm": 340,
    "ff": 341,
    "Ġg": 342,
    "Ġimp": 343,
    "ter": 344,
    "ta": 345,
    "id": 346,
    "il": 347,
    "ith": 348,
    "âĢ": 349,
    "Ġwith": 350,
    "Ġy": 351,
    "Ġimpro": 352,
    "Ġyou": 353,
    "ĠA": 354,
    "Ġcommon": 355,
    "ation": 356,
    "ac": 357,
    "de": 358,
    "ĠIn": 359,
    "âĢĻ": 360,
    "Ġit": 361,
    "Ġor": 362,
    "Ġmis": 363,
    "Ġsimp": 364,
    "Ġcan": 365,
    "pt": 366,
    "out": 367,
    "ig": 368,
    "Ġn": 369,
    "Ġone": 370,
    "eed": 371,
    "ab": 372,
    "et": 373,
    "Ġtra": 374,
    "ot": 375,
    "ate": 376,
    "su": 377,
    "Ġmista": 378,
    "ual": 379,
    "Ġh": 380,
    "Ġus": 381,
    "ĠS": 382,
    "ep": 383,
    "atter": 384,
    "ving": 385,
    "Ġgo": 386,
    "Ġli": 387,
    "vi": 388,
    "vo": 389,
    "off": 390,
    "Ġmatter": 391,
    "Ġlike": 392,
    "Ġbas": 393,
    "Ġrel": 394,
    "Ġtrade": 395,
    "Ġcl": 396,
    "Ġtradeoff": 397,
    "am": 398,
    "ated": 399,
    "Ġke": 400,
    "ur": 401,
    "iz": 402,
    "ine": 403,
    "Ġco": 404,
    "Ġgoal": 405,
    "Ġmean": 406,
    "ort": 407,
    "Ġdoes": 408,
    "ct": 409,
    "Ġmeas": 410,
    "est": 411,
    "Ġst": 412,
    "ut": 413,
    "Ġmistake": 414,
    "ay": 415,
    "if": 416,
    "Ġrelated": 417,
    "ag": 418,
    "el": 419,
    "ack": 420,
    "Ġbe": 421,
    "Ġq": 422,
    "Ġex": 423,
    "art": 424,
    "all": 425,
    "ers": 426,
    "Ġen": 427,
    "ment": 428,
    "Ġwh": 429,
    "Ġsimple": 430,
    "lic": 431,
    "Ġsp": 432,
    "king": 433,
    "Ġsm": 434,
    "ble": 435,
    "pp": 436,
    "Ġpro": 437,
    "Ġsmall": 438,
    "ir": 439,
    "ime": 440,
    "un": 441,
    "ility": 442,
    "ĠSt": 443,
    "se": 444,
    "Ġyour": 445,
    "Ġconf": 446,
    "Ġde": 447,
    "lts": 448,
    "back": 449,
    "Ġimprove": 450,
    "ick": 451,
    "ple": 452,
    "Ġresu": 453,
    "Ġresults": 454,
    "ence": 455,
    "Ġtime": 456,
    "are": 457,
    "Ġrem": 458,
    "Ġqual": 459,
    "Ġquality": 460,
    "ner": 461,
    "ĠStart": 462,
    "gin": 463,
    "Ġclar": 464,
    "Ġbegin": 465,
    "Ġbeginner": 466,
    "cept": 467,
    "ri": 468,
    "Ġeff": 469,
    "Ġway": 470,
    "Ġout": 471,
    "ect": 472,
    "ĠC": 473,
    "ints": 474,
    "Ġob": 475,
    "ove": 476,
    "void": 477,
    "aus": 478,
    "Ġfeed": 479,
    "Ġfeedback": 480,
    "Ġma": 481,
    "Ġfor": 482,
    "Ġwhat": 483,
    "age": 484,
    "ability": 485,
    "ew": 486,
    "arly": 487,
    "Ġsimplic": 488,
    "Ġsimplicity": 489,
    "ify": 490,
    "ause": 491,
    "Ġiter": 492,
    "Ġmatters": 493,
    "Ġconst": 494,
    "Ġavoid": 495,
    "Ġconstra": 496,
    "lving": 497,
    "Ġconstraints": 498,
    "Ġbec": 499,
    "com": 500,
    "Ġbecause": 501,
    "Ġtoo": 502,
    "Ġsc": 503,
    "ous": 504,
    "irst": 505,
    "lo": 506,
    "ver": 507,
    "imiz": 508,
    "Ġfirst": 509,
    "Ġkey": 510,
    "ves": 511,
    "Ġopt": 512,
    "uring": 513,
    "ĠD": 514,
    "Ġwithout": 515,
    "Ġof": 516,
    "Ġremove": 517,
    "Ġkeep": 518,
    "Ġeffort": 519,
    "ract": 520,
    "igg": 521,
    "anc": 522,
    "Ġth": 523,
    "ice": 524,
    "Ġoutcom": 525,
    "Ġspeed": 526,
    "Ġmeasu": 527,
    "Ġbot": 528,
    "ĠIt": 529,
    "==": 530,
    "ist": 531,
    "ually": 532,
    "ps": 533,
    "Ġoptimiz": 534,
    "idence": 535,
    "Ġoutcomes": 536,
    "ess": 537,
    "Ġbigg": 538,
    "view": 539,
    "Ġpick": 540,
    "Ġearly": 541,
    "Ġbal": 542,
    "Ġcost": 543,
    "tl": 544,
    "Ġwhy": 545,
    "Ġbased": 546,
    "Ġbalanc": 547,
    "vious": 548,
    "Ġbottl": 549,
    "Ġclarify": 550,
    "eck": 551,
    "Ġmeans": 552,
    "ad": 553,
    "eline": 554,
    "rable": 555,
    "Ġmeasurable": 556,
    "Ġconfidence": 557,
    "Ġiterate": 558,
    "Ġbottlen": 559,
    "Ġbottleneck": 560,
    "Ġimproving": 561,
    "Ġimproves": 562,
    "Ġobvious": 563,
    "Ġusually": 564,
    "Ġbiggest": 565,
    "Ġmeasuring": 566,
    "Ġclarifying": 567,
    "Ġbu": 568,
    "Ġinvo": 569,
    "Ġinvolving": 570,
    "Ġbalancing": 571,
    "Ġoptimizing": 572,
    "Ġbaseline": 573,
    "ĠU": 574,
    "Ġpract": 575,
    "Ġr": 576,
    "th": 577,
    "ions": 578,
    "Ġconcept": 579,
    "ust": 580,
    "ck": 581,
    "ore": 582,
    "Ġwe": 583,
    "Ġso": 584,
    "Ġhe": 585,
    "Ġle": 586,
    "rit": 587,
    "ĠUse": 588,
    "ding": 589,
    "Ġuse": 590,
    "ure": 591,
    "Ġreview": 592,
    "Ġman": 593,
    "ive": 594,
    "Ġcons": 595,
    "Ġpractice": 596,
    "ample": 597,
    "ul": 598,
    "Ġv": 599,
    "sure": 600,
    "Ġare": 601,
    "Ġexample": 602,
    "ch": 603,
    "Ġnot": 604,
    "ning": 605,
    "and": 606,
    "Ġensure": 607,
    "ld": 608,
    "Ġmanage": 609,
    "ĠT": 610,
    "wor": 611,
    "Ġapp": 612,
    "put": 613,
    "Ġu": 614,
    "Ġlo": 615,
    "ical": 616,
    "unic": 617,
    "Ġsu": 618,
    "Ġcommunic": 619,
    "enc": 620,
    "ry": 621,
    "ies": 622,
    "abit": 623,
    "ss": 624,
    "Ġhabit": 625,
    "igh": 626,
    "Ġal": 627,
    "em": 628,
    "Ġpl": 629,
    "od": 630,
    "Ġcommunication": 631,
    "Ġbuil": 632,
    "pl": 633,
    "Ġpre": 634,
    "Ġmon": 635,
    "ĠP": 636,
    "Ġfr": 637,
    "ang": 638,
    "pe": 639,
    "Ġsh": 640,
    "Ġcle": 641,
    "row": 642,
    "Ġconsist": 643,
    "Ġte": 644,
    "Ġch": 645,
    "ency": 646,
    "kes": 647,
    "ks": 648,
    "itor": 649,
    "Ġro": 650,
    "ach": 651,
    "end": 652,
    "Ġdat": 653,
    "gg": 654,
    "ject": 655,
    "du": 656,
    "ware": 657,
    "Ġcoo": 658,
    "Ġper": 659,
    "ft": 660,
    "Ġmanagement": 661,
    "Ġsa": 662,
    "ant": 663,
    "Ġlear": 664,
    "Ġmonitor": 665,
    "Ġan": 666,
    "for": 667,
    "ĠDe": 668,
    "ain": 669,
    "ents": 670,
    "Ġmistakes": 671,
    "Ġmake": 672,
    "ight": 673,
    "Ġwor": 674,
    "etwor": 675,
    "Ġhel": 676,
    "ign": 677,
    "te": 678,
    "ech": 679,
    "Ġnetwor": 680,
    "Ġwrit": 681,
    "====": 682,
    "pport": 683,
    "als": 684,
    "ering": 685,
    "Ġgrow": 686,
    "bers": 687,
    "ric": 688,
    "oud": 689,
    "Ġat": 690,
    "Ġcare": 691,
    "Ġweb": 692,
    "Ġtech": 693,
    "Ġqu": 694,
    "Ġad": 695,
    "Ġdata": 696,
    "velo": 697,
    "Ġsoft": 698,
    "Ġcy": 699,
    "Ġgrowth": 700,
    "Ġteam": 701,
    "Ġfrom": 702,
    "Ġsupport": 703,
    "ization": 704,
    "Ġcloud": 705,
    "Ġcooking": 706,
    "ide": 707,
    "tain": 708,
    "qu": 709,
    "Ġsoftware": 710,
    "Ġbuilding": 711,
    "velop": 712,
    "ecur": 713,
    "ecurity": 714,
    "Ġdevelop": 715,
    "ail": 716,
    "one": 717,
    "Ġtechn": 718,
    "Ġeng": 719,
    "Ġproject": 720,
    "Ġwriting": 721,
    "Ġcust": 722,
    "Ġcustom": 723,
    "ll": 724,
    "puting": 725,
    "ineering": 726,
    "ĠWh": 727,
    "Ġcomputing": 728,
    "Ġengineering": 729,
    "ĠR": 730,
    "Ġdevelopment": 731,
    "Ġcareer": 732,
    "ath": 733,
    "duce": 734,
    "Ġtechnical": 735,
    "Ġnetworking": 736,
    "Ops": 737,
    "Ġcybers": 738,
    "Ġcybersecurity": 739,
    "Ġcustomer": 740,
    "ĠDev": 741,
    "ĠDevOps": 742,
    "Ġif": 743,
    "able": 744,
    "Ġexp": 745,
    "Ġlearning": 746,
    "Ġmo": 747,
    "Ġfo": 748,
    "ard": 749,
    "Ġcomple": 750,
    "Ġas": 751,
    "Ġmore": 752,
    "vent": 753,
    "form": 754,
    "Ġover": 755,
    "erv": 756,
    "ill": 757,
    "con": 758,
    "Ġup": 759,
    "ance": 760,
    "heck": 761,
    "Ġwhen": 762,
    "Ġsec": 763,
    "Ġconsistent": 764,
    "Ġstep": 765,
    "Ġpri": 766,
    "Ġbet": 767,
    "Ġby": 768,
    "gging": 769,
    "Ġmain": 770,
    "Ġac": 771,
    "Ġdec": 772,
    "fe": 773,
    "Ġcomplex": 774,
    "cu": 775,
    "ould": 776,
    "ast": 777,
    "ge": 778,
    "ations": 779,
    "Ġprevent": 780,
    "Ġplan": 781,
    "und": 782,
    "Ġres": 783,
    "ize": 784,
    "Ġcor": 785,
    "ress": 786,
    "Ġ3": 787,
    "Ġtest": 788,
    "Ġun": 789,
    "ens": 790,
    "rect": 791,
    "imit": 792,
    "Ġcomplexity": 793,
    "iv": 794,
    "Ġpo": 795,
    "ors": 796,
    "Ġhelps": 797,
    "Ġreduce": 798,
    "Ġinc": 799,
    "Ġdeb": 800,
    "cess": 801,
    "aking": 802,
    "Ġhand": 803,
    "Ġrec": 804,
    "ud": 805,
    "Ġmaintain": 806,
    "Ġthat": 807,
    "Ġread": 808,
    "ĠE": 809,
    "Ġneed": 810,
    "Ġdis": 811,
    "Ġcheck": 812,
    "lu": 813,
    "gh": 814,
    "Ġdep": 815,
    "Ġtes": 816,
    "rou": 817,
    "Ġsteps": 818,
    "Ġchang": 819,
    "Ġfund": 820,
    "Ġdecis": 821,
    "cus": 822,
    "Ġmiscon": 823,
    "Ġclarity": 824,
    "Ġhow": 825,
    "Ġund": 826,
    "gan": 827,
    "Ġfundam": 828,
    "Ġfundament": 829,
    "cument": 830,
    "Ġdebu": 831,
    "very": 832,
    "Ġorgan": 833,
    "Ġdef": 834,
    "Ġfundamentals": 835,
    "Ġmisconcept": 836,
    "Ġmisconception": 837,
    "Ġmet": 838,
    "orit": 839,
    "Ġunder": 840,
    "err": 841,
    "Ġab": 842,
    "Ġfi": 843,
    "alid": 844,
    "Ġlimit": 845,
    "Ġcorrect": 846,
    "Ġdocument": 847,
    "ell": 848,
    "Ġmetric": 849,
    "um": 850,
    "hing": 851,
    "Ġback": 852,
    "just": 853,
    "ĠL": 854,
    "Ġset": 855,
    "ome": 856,
    "ĠF": 857,
    "Ġsta": 858,
    "Ġdebugging": 859,
    "ĠCan": 860,
    "ons": 861,
    "Ġbetter": 862,
    "oo": 863,
    "get": 864,
    "tent": 865,
    "Ġreli": 866,
    "own": 867,
    "Ġsafe": 868,
    "Ġpriorit": 869,
    "ind": 870,
    "ci": 871,
    "ness": 872,
    "Ġ1": 873,
    "Ġerr": 874,
    "act": 875,
    "bility": 876,
    "Ġlat": 877,
    "Ġlog": 878,
    "Ġfl": 879,
    "Ġroll": 880,
    "ink": 881,
    "Ġem": 882,
    "ms": 883,
    "Ġfocus": 884,
    "Ġwork": 885,
    "Ġclear": 886,
    "Ġaud": 887,
    "ĠM": 888,
    "Ġstart": 889,
    "Ġabout": 890,
    "Ġuser": 891,
    "our": 892,
    "Ġha": 893,
    "Ġfe": 894,
    "Ġed": 895,
    "ience": 896,
    "serv": 897,
    "Ġmin": 898,
    "Ġconc": 899,
    "Ġmetrics": 900,
    "Ġthen": 901,
    "ound": 902,
    "fter": 903,
    "ution": 904,
    "ron": 905,
    "ren": 906,
    "ef": 907,
    "Ġsk": 908,
    "========": 909,
    "Ġreal": 910,
    "Ġsle": 911,
    "lude": 912,
    "ru": 913,
    "Ġunderst": 914,
    "Ġsleep": 915,
    "ber": 916,
    "Ġact": 917,
    "Ġmem": 918,
    "Ġproble": 919,
    "Ġapply": 920,
    "isk": 921,
    "Ġclean": 922,
    "Ġav": 923,
    "tro": 924,
    "Ġperform": 925,
    "aries": 926,
    "Ġmonitoring": 927,
    "Ġmemor": 928,
    "ich": 929,
    "Ġsco": 930,
    "Ġbud": 931,
    "ible": 932,
    "os": 933,
    "Ġgood": 934,
    "les": 935,
    "ari": 936,
    "Ġrequ": 937,
    "ĠB": 938,
    "omet": 939,
    "tention": 940,
    "ĠDo": 941,
    "pping": 942,
    "Ġtradeoffs": 943,
    "Ġeach": 944,
    "xt": 945,
    "Ġdecision": 946,
    "Ġlatency": 947,
    "ap": 948,
    "ates": 949,
    "sum": 950,
    "Ġconflic": 951,
    "Ġobserv": 952,
    "Ġproblem": 953,
    "ĠTh": 954,
    "ĠPro": 955,
    "Ġbasic": 956,
    "Ġday": 957,
    "Ġafter": 958,
    "Ġsomet": 959,
    "rough": 960,
    "Ġperformance": 961,
    "Ġtry": 962,
    "rief": 963,
    "Ġ(": 964,
    "Ġplanning": 965,
    "Ġalign": 966,
    "Ġreliability": 967,
    "Ġrisk": 968,
    "PI": 969,
    "ak": 970,
    "ĠY": 971,
    "Ġbrief": 972,
    "Ġcomp": 973,
    "Ġrest": 974,
    "ĠK": 975,
    "Ġsomething": 976,
    "Ġmode": 977,
    "Ġconflict": 978,
    "Ġ2": 979,
    "ire": 980,
    "Ġaut": 981,
    "Ġnote": 982,
    "Ġthrough": 983,
    "nect": 984,
    "Ġhome": 985,
    "Ġavail": 986,
    "Ġscal": 987,
    "Ġk": 988,
    "ip": 989,
    "Ġget": 990,
    "Ġadd": 991,
    "Ġunderstand": 992,
    "Ġbudget": 993,
    "Ġreg": 994,
    "Ġscope": 995,
    "Ġrun": 996,
    "ature": 997,
    "ds": 998,
    "Ġobservability": 999,
    "âĢĶ": 1000,
    "Ġinclude": 1001,
    "Ġtone": 1002,
    "Ġdon": 1003,
    "Ġwould": 1004,
    "Ġdes": 1005,
    "Ġsecre": 1006,
    "Ġstress": 1007,
    "Ġappro": 1008,
    "Ġbound": 1009,
    "Ġadjust": 1010,
    "bo": 1011,
    "op": 1012,
    "ting": 1013,
    "Ġcorrectness": 1014,
    "Ġpe": 1015,
    "Ġmot": 1016,
    "Ġconnect": 1017,
    "Ġbre": 1018,
    "Ġcode": 1019,
    "angu": 1020,
    "ful": 1021,
    "Ġavailability": 1022,
    "ash": 1023,
    "Ġlangu": 1024,
    "Ġbudgeting": 1025,
    "Ġmotiv": 1026,
    "Ġprioritization": 1027,
    "riend": 1028,
    "ĠIs": 1029,
    "arch": 1030,
    "Ġexec": 1031,
    "Ġmaking": 1032,
    "ans": 1033,
    "Ġtr": 1034,
    "iting": 1035,
    "ember": 1036,
    "ptions": 1037,
    "ace": 1038,
    "Ġreco": 1039,
    "Ġide": 1040,
    "Ġne": 1041,
    "Ġlanguage": 1042,
    "Ġmotivation": 1043,
    "Ġret": 1044,
    "sh": 1045,
    "Ġconsistency": 1046,
    "ective": 1047,
    "Ġaudience": 1048,
    "Ġtaking": 1049,
    "plain": 1050,
    "Ġconfig": 1051,
    "Ġvalid": 1052,
    "ages": 1053,
    "ending": 1054,
    "Ġremember": 1055,
    "ass": 1056,
    "ipping": 1057,
    "Ġbriefly": 1058,
    "Ġmemory": 1059,
    "Ġaler": 1060,
    "Ġediting": 1061,
    "tability": 1062,
    "Ġiteration": 1063,
    "Ġemp": 1064,
    "Ġboundaries": 1065,
    "Ġdocumentation": 1066,
    "here": 1067,
    "ments": 1068,
    "Ġexecution": 1069,
    "ĠYou": 1070,
    "vers": 1071,
    "Ġhave": 1072,
    "ek": 1073,
    "Ġempath": 1074,
    "ĠCom": 1075,
    "Ġeffective": 1076,
    "ĠAPI": 1077,
    "tle": 1078,
    "Ġideas": 1079,
    "Ġscalability": 1080,
    "Ġempathy": 1081,
    "riendly": 1082,
    "eep": 1083,
    "Ġrecovery": 1084,
    "Ġorganization": 1085,
    "Ġwhich": 1086,
    "mon": 1087,
    "Ġchanges": 1088,
    "Ġimport": 1089,
    "Ġgive": 1090,
    "Ġest": 1091,
    "Ġestim": 1092,
    "cipl": 1093,
    "Ġattention": 1094,
    "Ġhabits": 1095,
    "Ġassum": 1096,
    "Ġbef": 1097,
    "Ġbefore": 1098,
    "Ġfeature": 1099,
    "Ġexplain": 1100,
    "Ġmaintainability": 1101,
    "Ġdiscipl": 1102,
    "Ġdiscipline": 1103,
    "ĠWhy": 1104,
    "Ġhelp": 1105,
    "ĠWhen": 1106,
    "ems": 1107,
    "Ġmodel": 1108,
    "Ġrese": 1109,
    "Ġassumptions": 1110,
    "Ġimportant": 1111,
    "Ġthroughput": 1112,
    "Ġsecure": 1113,
    "Ġfail": 1114,
    "Ġsaving": 1115,
    "Ġthis": 1116,
    "up": 1117,
    "Ġthem": 1118,
    "led": 1119,
    "Ġusing": 1120,
    "Ġwant": 1121,
    "Ġworks": 1122,
    "Ġresp": 1123,
    "Ġalignment": 1124,
    "friendly": 1125,
    "Ġsecrets": 1126,
    "ree": 1127,
    "Ġsolving": 1128,
    "Ġspending": 1129,
    "Ġinter": 1130,
    "ĠCons": 1131,
    "Ġresearch": 1132,
    "ific": 1133,
    "ol": 1134,
    "low": 1135,
    "ĠKeep": 1136,
    "Ġhandle": 1137,
    "ople": 1138,
    "Ġupd": 1139,
    "ĠG": 1140,
    "Ġse": 1141,
    "Ġj": 1142,
    "Ġdefine": 1143,
    "Ġter": 1144,
    "Ġview": 1145,
    "Ġreadability": 1146,
    "hem": 1147,
    "Ġpeople": 1148,
    "Ġconsistently": 1149,
    "Ġestimation": 1150,
    "rition": 1151,
    "Ġnut": 1152,
    "Ġneeded": 1153,
    "ental": 1154,
    "Ġpractic": 1155,
    "Ġnutrition": 1156,
    "Ġtestability": 1157,
    "Ġaccess": 1158,
    "Ġwat": 1159,
    "ili": 1160,
    "Ġdi": 1161,
    "Ġlit": 1162,
    "per": 1163,
    "Ġeffectively": 1164,
    "Ġtas": 1165,
    "Ġconcre": 1166,
    "Ġconcrete": 1167,
    "Ġplain": 1168,
    "rent": 1169,
    "Ġquick": 1170,
    "Ġskipping": 1171,
    "Ġno": 1172,
    "ags": 1173,
    "Ġerrors": 1174,
    "Ġlittle": 1175,
    "'s": 1176,
    "Ġstarted": 1177,
    "Ġfam": 1178,
    "Ġscen": 1179,
    "Ġev": 1180,
    "Ġterms": 1181,
    "ier": 1182,
    "Ġpros": 1183,
    "Ġstore": 1184,
    "Ġrot": 1185,
    "Ġweek": 1186,
    "Ġdepend": 1187,
    "ise": 1188,
    "Ġar": 1189,
    "Ġeas": 1190,
    "ĠThink": 1191,
    "ĠAre": 1192,
    "Ġregul": 1193,
    "Ġmental": 1194,
    "Ġpracticing": 1195,
    "Ġadjusting": 1196,
    "oth": 1197,
    "oun": 1198,
    "ĠQ": 1199,
    "Ġscenari": 1200,
    "Ġfamili": 1201,
    "Ġfamiliar": 1202,
    "ĠCommon": 1203,
    "Ġreviewing": 1204,
    "ĠPros": 1205,
    "ache": 1206,
    "âĤ": 1207,
    "Ġtests": 1208,
    "Ġvers": 1209,
    "ces": 1210,
    "ĠV": 1211,
    "ics": 1212,
    "load": 1213,
    "ruct": 1214,
    "Ã¢": 1215,
    "âĤ¬": 1216,
    "ue": 1217,
    "Ġoff": 1218,
    "ient": 1219,
    "we": 1220,
    "world": 1221,
    "red": 1222,
    "Ġscenario": 1223,
    "Ġrollback": 1224,
    "Ġbl": 1225,
    "ily": 1226,
    "Ġrequire": 1227,
    "Ġph": 1228,
    "Ġwell": 1229,
    "ices": 1230,
    "ial": 1231,
    "Ġauth": 1232,
    "Ġsy": 1233,
    "ult": 1234,
    "ules": 1235,
    "ame": 1236,
    "Ġdesign": 1237,
    "ose": 1238,
    "ake": 1239,
    "ĠO": 1240,
    "itive": 1241,
    "Ġpr": 1242,
    "urn": 1243,
    "ings": 1244,
    "Ġshort": 1245,
    "li": 1246,
    "aily": 1247,
    "ĠQu": 1248,
    "Ġschem": 1249,
    "Ġshare": 1250,
    "atch": 1251,
    "Ġfil": 1252,
    "way": 1253,
    "trol": 1254,
    "Ġpath": 1255,
    "ys": 1256,
    "Ġfix": 1257,
    "Ġkn": 1258,
    "ĠSh": 1259,
    "Ġwater": 1260,
    "Ġgu": 1261,
    "Ġinform": 1262,
    "Ġim": 1263,
    "Ġgra": 1264,
    "ase": 1265,
    "Ġserv": 1266,
    "ary": 1267,
    "Ġam": 1268,
    "ĠSet": 1269,
    "Ġid": 1270,
    "Ġwhere": 1271,
    "Ġtrack": 1272,
    "ffe": 1273,
    "Ġwill": 1274,
    "Ġsens": 1275,
    "lect": 1276,
    "ĠAI": 1277,
    "emp": 1278,
    "ĠQuick": 1279,
    "Ġlimits": 1280,
    "Ġdry": 1281,
    "rict": 1282,
    "Ġblo": 1283,
    "ters": 1284,
    "outs": 1285,
    "'m": 1286,
    "Ġquest": 1287,
    "Ġdaily": 1288,
    "Ġver": 1289,
    "ipe": 1290,
    "Ġeasier": 1291,
    "sing": 1292,
    "Ġinformation": 1293,
    "ards": 1294,
    "ĠN": 1295,
    "Ġtop": 1296,
    "Ġcach": 1297,
    "min": 1298,
    "Ġcontrol": 1299,
    "Ġrep": 1300,
    "ten": 1301,
    "time": 1302,
    "resh": 1303,
    "Ġstor": 1304,
    "Ġrepe": 1305,
    "Ġlearn": 1306,
    "Ġstat": 1307,
    "Ġkeys": 1308,
    "Ġweekly": 1309,
    "Ġinte": 1310,
    "ling": 1311,
    "Ġcache": 1312,
    "Ġlogs": 1313,
    "vide": 1314,
    "Ġapproach": 1315,
    "ile": 1316,
    "Ġdefa": 1317,
    "ized": 1318,
    "âĤ¬â": 1319,
    "âĤ¬âĦ": 1320,
    "âĤ¬âĦ¢": 1321,
    "ĠAd": 1322,
    "ĠEn": 1323,
    "ructure": 1324,
    "epar": 1325,
    "to": 1326,
    "ills": 1327,
    "Ġbuild": 1328,
    "================": 1329,
    "nal": 1330,
    "'t": 1331,
    "Ġregularly": 1332,
    "Ġerror": 1333,
    "ross": 1334,
    "cks": 1335,
    "Ġmy": 1336,
    "Ġdiffe": 1337,
    "Ġfailure": 1338,
    "Ġpar": 1339,
    "Ġflags": 1340,
    "âĢľ": 1341,
    "ries": 1342,
    "Ġitems": 1343,
    "ong": 1344,
    "âĢĿ": 1345,
    "used": 1346,
    "Ġdeplo": 1347,
    "av": 1348,
    "Ġchange": 1349,
    "ween": 1350,
    "ssible": 1351,
    "Ġstop": 1352,
    "Ġbut": 1353,
    "Ġbetween": 1354,
    "Ġmight": 1355,
    "ĠâĢľ": 1356,
    "Ġsensitive": 1357,
    "Ġnon": 1358,
    "Ġstate": 1359,
    "gra": 1360,
    "Ġpossible": 1361,
    "uts": 1362,
    "Ġaction": 1363,
    "Ġcrit": 1364,
    "Ġtasks": 1365,
    "alth": 1366,
    "Ġcur": 1367,
    "Ġty": 1368,
    "itch": 1369,
    "edi": 1370,
    "Ġlab": 1371,
    "eparate": 1372,
    "Ġappli": 1373,
    "Ġmove": 1374,
    "gr": 1375,
    "Ġchecks": 1376,
    "utes": 1377,
    "Ġintro": 1378,
    "ĠCI": 1379,
    "ĠAdd": 1380,
    "Ġcont": 1381,
    "ute": 1382,
    "Ġag": 1383,
    "ines": 1384,
    "force": 1385,
    "ĠFast": 1386,
    "indly": 1387,
    "Ġapplied": 1388,
    "Ġmess": 1389,
    "Ġacc": 1390,
    "Ġown": 1391,
    "ients": 1392,
    "Ġhead": 1393,
    "Ġimpact": 1394,
    "Ġintegr": 1395,
    "Ġtim": 1396,
    "Ġtrans": 1397,
    "Ġvalidate": 1398,
    "ule": 1399,
    "Ġcal": 1400,
    "line": 1401,
    "tion": 1402,
    "igr": 1403,
    "Ġexper": 1404,
    "int": 1405,
    "Ġintroduce": 1406,
    "),": 1407,
    "Ġmigr": 1408,
    "Ġlight": 1409,
    "Ġproper": 1410,
    "Ġblindly": 1411,
    "air": 1412,
    "Ġalerts": 1413,
    "Ġdown": 1414,
    "Ġhealth": 1415,
    "asy": 1416,
    "Ġduring": 1417,
    "Ġschema": 1418,
    "ĠSimp": 1419,
    "Ġonly": 1420,
    "ĠRe": 1421,
    "hed": 1422,
    "Ġalert": 1423,
    "old": 1424,
    "Ġversion": 1425,
    "Ġconte": 1426,
    "Ġtool": 1427,
    "Ġquestions": 1428,
    "ins": 1429,
    "pri": 1430,
    "Ġevery": 1431,
    "Ġjo": 1432,
    "Ġshared": 1433,
    "Ġlow": 1434,
    "read": 1435,
    "Ġrepeated": 1436,
    "ues": 1437,
    "Ġrate": 1438,
    "Ġrestrict": 1439,
    "ĠSimple": 1440,
    "ati": 1441,
    "Ġfiel": 1442,
    "Ġref": 1443,
    "Ġlist": 1444,
    "Ġstructure": 1445,
    "Ġpaths": 1446,
    "Ġnext": 1447,
    "Ġknow": 1448,
    "Ġcut": 1449,
    "Ġcre": 1450,
    "Ġvs": 1451,
    "puts": 1452,
    "rypt": 1453,
    "Ġretries": 1454,
    "Ġrotate": 1455,
    "Ġconfigs": 1456,
    "Ġsched": 1457,
    "ough": 1458,
    "ĠIf": 1459,
    "Ġconvers": 1460,
    "Ġnew": 1461,
    "viron": 1462,
    "ite": 1463,
    "aly": 1464,
    "ically": 1465,
    "Ġ-": 1466,
    "Ġbr": 1467,
    "Ġhigh": 1468,
    "Ġenviron": 1469,
    "Ġdifferent": 1470,
    "ĠEasy": 1471,
    "Ġser": 1472,
    "ists": 1473,
    "els": 1474,
    "Ġminutes": 1475,
    "mm": 1476,
    "Ġverify": 1477,
    "Ġidemp": 1478,
    "Ġidempot": 1479,
    "Ġque": 1480,
    "ows": 1481,
    "Ġminim": 1482,
    "ĠStore": 1483,
    "Ġdecisions": 1484,
    "Ġrespons": 1485,
    "ood": 1486,
    "Ġimm": 1487,
    "Ġlong": 1488,
    "ĠHT": 1489,
    "Ġmeth": 1490,
    "Ġmethod": 1491,
    "Ġvi": 1492,
    "Ġmay": 1493,
    "ooks": 1494,
    "Ġupf": 1495,
    "Ġupfron": 1496,
    "Ġupfront": 1497,
    "ups": 1498,
    "ampl": 1499,
    "Ġany": 1500,
    "Ġra": 1501,
    "bs": 1502,
    "TP": 1503,
    "Ġass": 1504,
    "Ġscre": 1505,
    "Ġupdate": 1506,
    "Ġupdates": 1507,
    "Ġtok": 1508,
    "log": 1509,
    "Ġprocess": 1510,
    "ining": 1511,
    "ns": 1512,
    "Ġquickly": 1513,
    "Ġpart": 1514,
    "ials": 1515,
    "Ġusers": 1516,
    "Ġstatus": 1517,
    "Ġpass": 1518,
    "Ġsafely": 1519,
    "crypt": 1520,
    "Ġpers": 1521,
    "Ġbreak": 1522,
    "ward": 1523,
    "Ġfast": 1524,
    "Ġacross": 1525,
    "Ġlogging": 1526,
    "Ġhum": 1527,
    "Ġanaly": 1528,
    "Ġdele": 1529,
    "Ġprom": 1530,
    "ging": 1531,
    "Ġcoun": 1532,
    "ĠAvoid": 1533,
    "box": 1534,
    "Ġspec": 1535,
    "Ġminimal": 1536,
    "Ġdr": 1537,
    "ases": 1538,
    "Ġvo": 1539,
    "Ġfields": 1540,
    "ener": 1541,
    "ables": 1542,
    "Ġsw": 1543,
    "Ġdeploy": 1544,
    "Ġhy": 1545,
    "Ġgoals": 1546,
    "ale": 1547,
    "Ġinternal": 1548,
    "sw": 1549,
    "Ġappropri": 1550,
    "Ġappropriate": 1551,
    "encies": 1552,
    "Ġmeet": 1553,
    "Ġend": 1554,
    "Ġincid": 1555,
    "Ġoth": 1556,
    "Ġvalidation": 1557,
    "Ġsyst": 1558,
    "Ġright": 1559,
    "ults": 1560,
    "Ġtokens": 1561,
    "Ġlosing": 1562,
    "Ġprot": 1563,
    "Ġdra": 1564,
    "alidate": 1565,
    "Ġvari": 1566,
    "Ġinf": 1567,
    "Ġbo": 1568,
    "Ġval": 1569,
    "Ġthere": 1570,
    "ĠSL": 1571,
    "Ġowners": 1572,
    "Ġsaf": 1573,
    "thing": 1574,
    "Ġresponses": 1575,
    "Ġansw": 1576,
    "Ġload": 1577,
    "ook": 1578,
    "ĠCle": 1579,
    "ĠHTTP": 1580,
    "othes": 1581,
    "Ġmod": 1582,
    "Ġcompu": 1583,
    "Ġenforce": 1584,
    "aks": 1585,
    "po": 1586,
    "og": 1587,
    "Ġservices": 1588,
    "Ġvis": 1589,
    "arg": 1590,
    "Ġblock": 1591,
    "ub": 1592,
    "Ġsour": 1593,
    "minute": 1594,
    "alk": 1595,
    "ating": 1596,
    "Ġrules": 1597,
    "Ġmult": 1598,
    "Ġsol": 1599,
    "imize": 1600,
    "entials": 1601,
    "pare": 1602,
    "Ġthan": 1603,
    "Ġdefaults": 1604,
    "Ġsign": 1605,
    "co": 1606,
    "Ġjust": 1607,
    "nc": 1608,
    "oose": 1609,
    "Ġmat": 1610,
    "Ġtesting": 1611,
    "ĠDef": 1612,
    "Ġfree": 1613,
    "Ġmigrations": 1614,
    "arm": 1615,
    "Ġrout": 1616,
    "ways": 1617,
    "Ġinst": 1618,
    "iss": 1619,
    "pen": 1620,
    "Ġcritical": 1621,
    "done": 1622,
    "Ġslow": 1623,
    "Ġinto": 1624,
    "ather": 1625,
    "Ġdoc": 1626,
    "Ġusage": 1627,
    "vel": 1628,
    "rack": 1629,
    "Ġprovide": 1630,
    "Ġdependency": 1631,
    "what": 1632,
    "rib": 1633,
    "Ġpatter": 1634,
    "Ġdependencies": 1635,
    "Ġinput": 1636,
    "Ġmost": 1637,
    "Ġagain": 1638,
    "Ġcommunicate": 1639,
    "Ġgl": 1640,
    "Ġperi": 1641,
    "Ġperiod": 1642,
    "ĠShould": 1643,
    "ush": 1644,
    "Ġclients": 1645,
    "Ġart": 1646,
    "ative": 1647,
    "Ġoften": 1648,
    "cking": 1649,
    "Ġcaching": 1650,
    "Ġintegration": 1651,
    "Ġstorage": 1652,
    "Ġla": 1653,
    "llow": 1654,
    "Ġair": 1655,
    "elines": 1656,
    "miss": 1657,
    "Ġsess": 1658,
    "uration": 1659,
    "ave": 1660,
    "Ġbeh": 1661,
    "Ġallow": 1662,
    "Ġencrypt": 1663,
    "Ġhandling": 1664,
    "cle": 1665,
    "Ġorganized": 1666,
    "Ġpolic": 1667,
    "ĠAPIs": 1668,
    "sp": 1669,
    "Ġfeel": 1670,
    "Ġresour": 1671,
    "ral": 1672,
    "Ls": 1673,
    "Ġprotect": 1674,
    "Ġreus": 1675,
    "Ġfrid": 1676,
    "Ġask": 1677,
    "Ġinv": 1678,
    "Ġform": 1679,
    "Ġnum": 1680,
    "Ġpack": 1681,
    "Ġexpect": 1682,
    "Ġcontain": 1683,
    "Ġrequest": 1684,
    "fully": 1685,
    "anit": 1686,
    "Ġsho": 1687,
    "Ġfailures": 1688,
    "Ġaudit": 1689,
    "ĠTrack": 1690,
    "vile": 1691,
    "Ġdev": 1692,
    "Ġevents": 1693,
    "Ġtext": 1694,
    "ne": 1695,
    "des": 1696,
    "Ġenvironments": 1697,
    "Ġheaders": 1698,
    "Ġmisused": 1699,
    "Ġoverdone": 1700,
    "ccess": 1701,
    "ph": 1702,
    "Ġnetwork": 1703,
    "Ġlin": 1704,
    "Ġclient": 1705,
    "ĠThat": 1706,
    "iness": 1707,
    "Ġhere": 1708,
    "Ġfridge": 1709,
    "acts": 1710,
    "Ġfun": 1711,
    "Ġseparate": 1712,
    "Ġstay": 1713,
    "ze": 1714,
    "ĠWhich": 1715,
    "Ġalways": 1716,
    "net": 1717,
    "Ġservice": 1718,
    "Ġretry": 1719,
    "Ġshow": 1720,
    "elf": 1721,
    "Ġpatterns": 1722,
    "Ġdist": 1723,
    "uth": 1724,
    "Ġwas": 1725,
    "Ġmulti": 1726,
    "Ġca": 1727,
    "Ġsize": 1728,
    "Ġprompt": 1729,
    "loads": 1730,
    "Ġminimize": 1731,
    "Ġwind": 1732,
    "ĠValidate": 1733,
    "ĠCheck": 1734,
    "Ġnight": 1735,
    "Ġcol": 1736,
    "Ġdel": 1737,
    "Ġcontext": 1738,
    "Ġloo": 1739,
    "table": 1740,
    "Ġsur": 1741,
    "ser": 1742,
    "avi": 1743,
    "aster": 1744,
    "orts": 1745,
    "ason": 1746,
    "ĠThe": 1747,
    "rip": 1748,
    "cal": 1749,
    "ĠDoes": 1750,
    "Ġtake": 1751,
    "ashbo": 1752,
    "Ġready": 1753,
    "Ġbatch": 1754,
    "rate": 1755,
    "erg": 1756,
    "ects": 1757,
    "Ġautom": 1758,
    "Ġbed": 1759,
    "Ġsn": 1760,
    "aces": 1761,
    "Ġbest": 1762,
    "ĠID": 1763,
    "Ġcurrent": 1764,
    "ĠCS": 1765,
    "Ġthings": 1766,
    "Ġswitch": 1767,
    "Ġ10": 1768,
    "ests": 1769,
    "Ġhapp": 1770,
    "ĠJ": 1771,
    "Ġqueues": 1772,
    "Ġcap": 1773,
    "Ġstale": 1774,
    "ĠSc": 1775,
    "Ġsetting": 1776,
    "Ġrespon": 1777,
    "Ġgener": 1778,
    "round": 1779,
    "Ġimprovement": 1780,
    "let": 1781,
    "Ġcar": 1782,
    "oms": 1783,
    "Ġmessages": 1784,
    "Ġcaus": 1785,
    "Ġnumbers": 1786,
    "Ġequ": 1787,
    "Ġstand": 1788,
    "Ġtype": 1789,
    "Ġapps": 1790,
    "ĠDefine": 1791,
    "Ġdocs": 1792,
    "ination": 1793,
    "Ġleast": 1794,
    "Ġnow": 1795,
    "Ġspace": 1796,
    "iction": 1797,
    "Ġold": 1798,
    "Ġfresh": 1799,
    "Ġimmedi": 1800,
    "Ġsumm": 1801,
    "Ġcheckl": 1802,
    "Ġdoor": 1803,
    "Ġstre": 1804,
    "Ġcaches": 1805,
    "Ġvoice": 1806,
    "ights": 1807,
    ").": 1808,
    "Ġspecific": 1809,
    "Ġprop": 1810,
    "igate": 1811,
    "Ġenv": 1812,
    "Ġclut": 1813,
    "Ġprivile": 1814,
    "Ġprod": 1815,
    "ently": 1816,
    "Ġshould": 1817,
    "Ġwon": 1818,
    "side": 1819,
    "Ġcho": 1820,
    "Ġimmediate": 1821,
    "Ġopen": 1822,
    "Ġgre": 1823,
    "Ġmiss": 1824,
    "Ġinputs": 1825,
    "Ġbehavi": 1826,
    "ition": 1827,
    "Ġtask": 1828,
    "Ġgrace": 1829,
    "ĠPre": 1830,
    "Ġprodu": 1831,
    "Ġversions": 1832,
    "Ġoverload": 1833,
    "Ġpolicies": 1834,
    "ix": 1835,
    "Ġschedule": 1836,
    "Ġmonth": 1837,
    "Ġpermiss": 1838,
    "ashboards": 1839,
    "rub": 1840,
    "Ġtw": 1841,
    "Ġthree": 1842,
    "ety": 1843,
    "Ġphone": 1844,
    "ild": 1845,
    "ities": 1846,
    "asses": 1847,
    "Ġorganize": 1848,
    "Ġencryption": 1849,
    "Ġequations": 1850,
    "Ġvia": 1851,
    "Ġperson": 1852,
    "irm": 1853,
    "ĠThan": 1854,
    "Ġwash": 1855,
    "Ġmeasure": 1856,
    "Ġpromptly": 1857,
    "amp": 1858,
    "Ġtools": 1859,
    "Ġrunb": 1860,
    "ĠProvide": 1861,
    "Ġcases": 1862,
    "Ġedge": 1863,
    "Ġactions": 1864,
    "Ġconcise": 1865,
    "Ġtem": 1866,
    "Ġsuccess": 1867,
    "ory": 1868,
    "Ġagainst": 1869,
    "Ġclose": 1870,
    "ear": 1871,
    "que": 1872,
    "ames": 1873,
    "Ġdefault": 1874,
    "Ġunt": 1875,
    "Ġprogra": 1876,
    "Ġcontin": 1877,
    "ats": 1878,
    "ĠPR": 1879,
    "Ġresol": 1880,
    "Ġelect": 1881,
    "Ġcodes": 1882,
    "requ": 1883,
    "ĠCh": 1884,
    "ges": 1885,
    "Ġclearly": 1886,
    "ĠGood": 1887,
    "Ġperiodically": 1888,
    "Ġoptimize": 1889,
    "arge": 1890,
    "Ġcalm": 1891,
    "Ġthey": 1892,
    "Ġdeep": 1893,
    "Ġtyp": 1894,
    "Ġwipe": 1895,
    "Ġful": 1896,
    "Ġbasics": 1897,
    "Ġartif": 1898,
    "Ġweather": 1899,
    "ĠDN": 1900,
    "Ġhas": 1901,
    "Ġren": 1902,
    "Ġunit": 1903,
    "Ġisol": 1904,
    "Ġrele": 1905,
    "ark": 1906,
    "Ġdish": 1907,
    "tra": 1908,
    "ffic": 1909,
    "reshold": 1910,
    "entral": 1911,
    "points": 1912,
    "Ġbackoff": 1913,
    "ĠAl": 1914,
    "Ġpermissions": 1915,
    "Ġanom": 1916,
    "Ġserver": 1917,
    "ĠIDs": 1918,
    "Ġsampl": 1919,
    "Ġsurf": 1920,
    "rong": 1921,
    "eled": 1922,
    "Ġtrust": 1923,
    "Ġexperim": 1924,
    "Ġfunct": 1925,
    "ips": 1926,
    "reg": 1927,
    "Ġfollow": 1928,
    "Ġfood": 1929,
    "Ġspills": 1930,
    "Ġfile": 1931,
    "Ġthreshold": 1932,
    "Ġpag": 1933,
    "ĠDB": 1934,
    "Ġpet": 1935,
    "LS": 1936,
    "ish": 1937,
    "me": 1938,
    "Ġnoise": 1939,
    "Ġbackups": 1940,
    "Ġpub": 1941,
    "Ġevidence": 1942,
    "ĠPI": 1943,
    "ĠPII": 1944,
    "istic": 1945,
    "ils": 1946,
    "Ġconversations": 1947,
    "Ġsent": 1948,
    "Ġtraining": 1949,
    "Ġhard": 1950,
    "Ġbag": 1951,
    "Ġlabeled": 1952,
    "ĠWipe": 1953,
    "Ġincident": 1954,
    "Ġmust": 1955,
    "osy": 1956,
    "Ġfaster": 1957,
    "Ġfiles": 1958,
    "esis": 1959,
    "Ġpriv": 1960,
    "Ġsl": 1961,
    "Ġassist": 1962,
    "Ġstaging": 1963,
    "Ġrepl": 1964,
    "Ġheat": 1965,
    "run": 1966,
    "Ġmic": 1967,
    "Ġreliable": 1968,
    "uplic": 1969,
    "Ġtimeouts": 1970,
    "Ġcred": 1971,
    "Ġschemas": 1972,
    "ĠdonÃ¢": 1973,
    "Ġroles": 1974,
    "ift": 1975,
    "Ġpip": 1976,
    "how": 1977,
    "Ġdashboards": 1978,
    "Ġexist": 1979,
    "Ġleaking": 1980,
    "Ġissu": 1981,
    "Ġconversation": 1982,
    "ased": 1983,
    "tell": 1984,
    "ie": 1985,
    "Ġunused": 1986,
    "Ġimmediately": 1987,
    "Ġother": 1988,
    "Ġregular": 1989,
    "ences": 1990,
    "Ġidempotent": 1991,
    "ĠLimit": 1992,
    "Ġsanit": 1993,
    "Ġplace": 1994,
    "Ġthresholds": 1995,
    "Ġprivilege": 1996,
    "Ġinde": 1997,
    "Ġprepare": 1998,
    "Ġnav": 1999,
    "Ġbigger": 2000,
    "Ġbeat": 2001,
    "================================": 2002,
    "Ġfin": 2003,
    "Ġrollbacks": 2004,
    "Ġwho": 2005,
    "ead": 2006,
    "Ġall": 2007,
    "Ġpublic": 2008,
    "Ġdone": 2009,
    "ost": 2010,
    "Ġatt": 2011,
    "Ġresources": 2012,
    "ived": 2013,
    "ets": 2014,
    "hel": 2015,
    "Ġtwo": 2016,
    "eness": 2017,
    "Ġbehavior": 2018,
    "ex": 2019,
    "ressions": 2020,
    "ĠRE": 2021,
    "ST": 2022,
    "Ġpur": 2023,
    "Ġsource": 2024,
    "anding": 2025,
    "Ġhelpful": 2026,
    "Ġ5": 2027,
    "'re": 2028,
    "Ġcleare": 2029,
    "ĠSeparate": 2030,
    "gs": 2031,
    "Ġquer": 2032,
    "hip": 2033,
    "cts": 2034,
    "Ġreset": 2035,
    "Ġpair": 2036,
    "Ġdri": 2037,
    "res": 2038,
    "ecess": 2039,
    "val": 2040,
    "Ġexpos": 2041,
    "Ġcover": 2042,
    "tellig": 2043,
    "Ġour": 2044,
    "Ġanswer": 2045,
    "day": 2046,
    "ism": 2047,
    "Ġchecklist": 2048,
    "Ġtalk": 2049,
    "Ġphot": 2050,
    "Ġcall": 2051,
    "ĠClean": 2052,
    "jects": 2053,
    "Ġidempotency": 2054,
    "Ġretention": 2055,
    "Ġfrequ": 2056,
    "cent": 2057,
    "Ġstable": 2058,
    "Ġtid": 2059,
    "ally": 2060,
    "Ġve": 2061,
    "Ġclutter": 2062,
    "Ġwindows": 2063,
    "ord": 2064,
    "roll": 2065,
    "Ġrollout": 2066,
    "Ġgrad": 2067,
    "tics": 2068,
    "Ġendpoints": 2069,
    "Ġsolve": 2070,
    "ert": 2071,
    "Ġhour": 2072,
    "Ġbreaking": 2073,
    "Ġcompati": 2074,
    "Ġcompatibility": 2075,
    "clude": 2076,
    "Ġel": 2077,
    "Ġcollect": 2078,
    "Ġchoices": 2079,
    "Ġsampling": 2080,
    "Ġcontinu": 2081,
    "Ġenough": 2082,
    "Ġsome": 2083,
    "isy": 2084,
    "Ġlook": 2085,
    "Ġcleaner": 2086,
    "Ġpasswor": 2087,
    "Ġscan": 2088,
    "Ġline": 2089,
    "Ġwhile": 2090,
    "Ġactive": 2091,
    "rel": 2092,
    "Ġsame": 2093,
    "pro": 2094,
    "Ġtopic": 2095,
    "Ġcontainers": 2096,
    "acy": 2097,
    "Ġsnack": 2098,
    "Ġremind": 2099,
    "Ġfilters": 2100,
    "Ġclothes": 2101,
    "Ġsystems": 2102,
    "etect": 2103,
    "Ġpriorities": 2104,
    "Ġname": 2105,
    "Ġduplic": 2106,
    "Ġanalytics": 2107,
    "Ġdrift": 2108,
    "Ġcook": 2109,
    "Ġclearer": 2110,
    "Ġvalue": 2111,
    "Ġlast": 2112,
    "Ġanomal": 2113,
    "Ġstar": 2114,
    "Ġsample": 2115,
    "Ġpages": 2116,
    "self": 2117,
    "Ġbi": 2118,
    "Ġhuman": 2119,
    "Ġsub": 2120,
    "do": 2121,
    "ĠUR": 2122,
    "Ġsafety": 2123,
    "Ġmanag": 2124,
    "Ġchoose": 2125,
    "Ġz": 2126,
    "Ġartifacts": 2127,
    "Ġident": 2128,
    "Ġhit": 2129,
    "gu": 2130,
    "Ġauthor": 2131,
    "Ġexperiments": 2132,
    "Ġmag": 2133,
    "Ġmodules": 2134,
    "urs": 2135,
    "Ġrenew": 2136,
    "ma": 2137,
    "Ġsecret": 2138,
    "Ġpersonal": 2139,
    "Ġchat": 2140,
    "down": 2141,
    "sets": 2142,
    "Ġeverything": 2143,
    "less": 2144,
    "Ġsoap": 2145,
    "Ġoil": 2146,
    "Ġtidy": 2147,
    "Ġreason": 2148,
    "Ġcomputer": 2149,
    "Ġarch": 2150,
    "room": 2151,
    "ĠTest": 2152,
    "Ġproduct": 2153,
    "Ġjobs": 2154,
    "Ġgradually": 2155,
    "Ġanalyze": 2156,
    "based": 2157,
    "Ġrotation": 2158,
    "Ġguide": 2159,
    "Ġing": 2160,
    "Ġscreen": 2161,
    "une": 2162,
    "Ġmap": 2163,
    "Ġaccoun": 2164,
    "Ġanomalies": 2165,
    "Ġelse": 2166,
    "Ġcontrolled": 2167,
    "Ġexpir": 2168,
    "ower": 2169,
    "ouch": 2170,
    "Ġmeals": 2171,
    "of": 2172,
    "ye": 2173,
    "Ġskills": 2174,
    "onents": 2175,
    "ĠJS": 2176,
    "Ġmedi": 2177,
    "Ġstandard": 2178,
    "ee": 2179,
    "Ġimages": 2180,
    "ĠLet": 2181,
    "Ġdate": 2182,
    "ged": 2183,
    "Ġdelete": 2184,
    "Ġreplace": 2185,
    "ask": 2186,
    "Ġstick": 2187,
    "Ġflo": 2188,
    "Ġmonthly": 2189,
    "Ġdetect": 2190,
    "orm": 2191,
    "Ġpost": 2192,
    "Ġguid": 2193,
    "ĠRem": 2194,
    "Ġrunbooks": 2195,
    "Ġpipelines": 2196,
    "Ġprioritize": 2197,
    "ibility": 2198,
    "Ġboth": 2199,
    "other": 2200,
    "Ġpain": 2201,
    "Ġcra": 2202,
    "Ġactionable": 2203,
    "Ġscient": 2204,
    "Ġissues": 2205,
    "ĠWho": 2206,
    "Ġexperience": 2207,
    "ĠNo": 2208,
    "Ġyourself": 2209,
    "Ġcontinuous": 2210,
    "Ġsync": 2211,
    "ĠURLs": 2212,
    "Ġnoisy": 2213,
    "Ġauthent": 2214,
    "Ġauthentic": 2215,
    "inse": 2216,
    "Ġreusable": 2217,
    "ĠRet": 2218,
    "light": 2219,
    "Ġtimes": 2220,
    "Ġresolution": 2221,
    "Ġcorrel": 2222,
    "Ġcorrelation": 2223,
    "Ġlater": 2224,
    "ortions": 2225,
    "Ġstates": 2226,
    "izing": 2227,
    "rt": 2228,
    "Ġfold": 2229,
    "ĠCon": 2230,
    "Ġflows": 2231,
    "rence": 2232,
    "atible": 2233,
    "Ġmit": 2234,
    "Ġlevel": 2235,
    "Ġinfra": 2236,
    "Ġhandles": 2237,
    "Ġmor": 2238,
    "Ġburn": 2239,
    "Ġfive": 2240,
    "overs": 2241,
    "Ġbul": 2242,
    "call": 2243,
    "Ġmeaning": 2244,
    "Ġcredentials": 2245,
    "Ġindex": 2246,
    "Ġpagination": 2247,
    "ĠFo": 2248,
    "Ġtempl": 2249,
    "Ġpartial": 2250,
    "amples": 2251,
    "Ġflak": 2252,
    "Ġlocal": 2253,
    "Ġcontex": 2254,
    "Ġcontexts": 2255,
    "Ġanother": 2256,
    "Ġdevice": 2257,
    "Ġdid": 2258,
    "not": 2259,
    "Ġwa": 2260,
    "Ġsystem": 2261,
    "ĠSLO": 2262,
    "Ġlinks": 2263,
    "Ġprob": 2264,
    "Ġsessions": 2265,
    "Ġdoesn": 2266,
    "Ġquestion": 2267,
    "telligence": 2268,
    "Ġneeds": 2269,
    "lived": 2270,
    "ives": 2271,
    "Ġoper": 2272,
    "Ġpap": 2273,
    "Ġdeploys": 2274,
    "Ġoverw": 2275,
    "ingle": 2276,
    "Ġauthentication": 2277,
    "endar": 2278,
    "unch": 2279,
    "Ġjob": 2280,
    "Ġauthorization": 2281,
    "Ġenerg": 2282,
    "Ġcounter": 2283,
    "Ġoutputs": 2284,
    "Ġvariables": 2285,
    "Ġ+": 2286,
    "rat": 2287,
    "Ġrati": 2288,
    "afe": 2289,
    "nt": 2290,
    "Ġcomputers": 2291,
    "over": 2292,
    "Ġkitch": 2293,
    "Ġglass": 2294,
    "Ġscreens": 2295,
    "essentials": 2296,
    "Ġ4": 2297,
    "itting": 2298,
    "pose": 2299,
    "free": 2300,
    "Ġownership": 2301,
    "ecessary": 2302,
    "Ġdates": 2303,
    "Ġguard": 2304,
    "Ġorig": 2305,
    "Ġent": 2306,
    "ĠBest": 2307,
    "ique": 2308,
    "ĠOne": 2309,
    "ĠCache": 2310,
    "Ġrequests": 2311,
    "Ġhear": 2312,
    "Ġenergy": 2313,
    "Ġreturn": 2314,
    "ON": 2315,
    "Ġmeal": 2316,
    "Ġsentences": 2317,
    "ever": 2318,
    "Ġwrite": 2319,
    "bile": 2320,
    "Ġkitchen": 2321,
    "Ġshoes": 2322,
    "ots": 2323,
    "Ġreviews": 2324,
    "rain": 2325,
    "ars": 2326,
    "Ġleft": 2327,
    "fi": 2328,
    "Ġconsum": 2329,
    "urate": 2330,
    "Ġcross": 2331,
    "Ġexamples": 2332,
    "ĠTLS": 2333,
    "Ġaren": 2334,
    "Ġmu": 2335,
    "Ġingred": 2336,
    "Ġingredients": 2337,
    "board": 2338,
    "rop": 2339,
    "Ġcharg": 2340,
    "no": 2341,
    "rec": 2342,
    "Ġrestart": 2343,
    "Ġfixes": 2344,
    "Ġthink": 2345,
    "Ġtraces": 2346,
    "Ġdowntime": 2347,
    "Ġsafer": 2348,
    "Ġanything": 2349,
    "Ġconfiguration": 2350,
    "ening": 2351,
    "ledge": 2352,
    "ote": 2353,
    "Ġmeeting": 2354,
    "Ġroutine": 2355,
    "TA": 2356,
    "Ġbrow": 2357,
    "Ġpres": 2358,
    "ractions": 2359,
    "Ġfunctions": 2360,
    "vity": 2361,
    "Ġhyp": 2362,
    "Ġhypothes": 2363,
    "Ġmultiple": 2364,
    "Ġimmu": 2365,
    "Ġmagnet": 2366,
    "Ġlimiting": 2367,
    "Ġdeta": 2368,
    "Ġothers": 2369,
    "ĠChoose": 2370,
    "Ġunderstanding": 2371,
    "ored": 2372,
    "Ġfall": 2373,
    "Ġhot": 2374,
    "Ġdeter": 2375,
    "Ġpage": 2376,
    "Ġexpectations": 2377,
    "Ġlaund": 2378,
    "Ġdays": 2379,
    "ĠThank": 2380,
    "Ġbreaks": 2381,
    "Ġbaking": 2382,
    "Ġincre": 2383,
    "its": 2384,
    "ural": 2385,
    "ĠClear": 2386,
    "Ġless": 2387,
    "ĠRemove": 2388,
    "ider": 2389,
    "Ġaccurate": 2390,
    "comp": 2391,
    "Ġrollouts": 2392,
    "Ġoverc": 2393,
    "comm": 2394,
    "ĠInclude": 2395,
    "licit": 2396,
    "Ġcompart": 2397,
    "kay": 2398,
    "ven": 2399,
    "Ġmessage": 2400,
    "ata": 2401,
    "Ġmany": 2402,
    "Ġexposing": 2403,
    "Ġtested": 2404,
    "ĠAs": 2405,
    "Ġagg": 2406,
    "ground": 2407,
    "Ġrates": 2408,
    "Ġsingle": 2409,
    "ĠMake": 2410,
    "Ġbags": 2411,
    "gress": 2412,
    "Ġinvalid": 2413,
    "amer": 2414,
    "Ġdead": 2415,
    "Ġcell": 2416,
    "imate": 2417,
    "Ġoptions": 2418,
    "pect": 2419,
    "Ġpackages": 2420,
    "Ġprivacy": 2421,
    "Ġlink": 2422,
    "Ġcriter": 2423,
    "Ġsession": 2424,
    "dry": 2425,
    "Ġbuff": 2426,
    "Ġessentials": 2427,
    "Ġoverf": 2428,
    "Ġpaper": 2429,
    "Ġrule": 2430,
    "ads": 2431,
    "Ġpurpose": 2432,
    "ĠLog": 2433,
    "rite": 2434,
    "ĠHe": 2435,
    "Ġincidents": 2436,
    "Ġpay": 2437,
    "ript": 2438,
    "Ġmobile": 2439,
    "ones": 2440,
    "fer": 2441,
    "Ġlock": 2442,
    "Ġcontent": 2443,
    "Ġresponse": 2444,
    "ird": 2445,
    "Ġfeatures": 2446,
    "Ġdatab": 2447,
    "ĠSLA": 2448,
    "ape": 2449,
    "rest": 2450,
    "kets": 2451,
    "Ġfra": 2452,
    "Ġrecipe": 2453,
    "Ġtogg": 2454,
    "ooth": 2455,
    "ceptions": 2456,
    "Ġdirect": 2457,
    "ĠWill": 2458,
    "ĠAn": 2459,
    "ious": 2460,
    "Ġdeprec": 2461,
    "Ġkeeps": 2462,
    "Ġits": 2463,
    "Ġsettings": 2464,
    "Ġscop": 2465,
    "Ġunn": 2466,
    "ivers": 2467,
    "ĠKPI": 2468,
    "Ġbeing": 2469,
    "Ġbias": 2470,
    "Ġphys": 2471,
    "ied": 2472,
    "ĠAut": 2473,
    "Ġdiction": 2474,
    "sc": 2475,
    "ential": 2476,
    "Ġtoday": 2477,
    "Ġbatter": 2478,
    "Ġsummar": 2479,
    "Ġdou": 2480,
    "Ġprogress": 2481,
    "ont": 2482,
    "Ġatoms": 2483,
    "gar": 2484,
    "met": 2485,
    "Ġgit": 2486,
    "Ġhashing": 2487,
    "Ġcond": 2488,
    "Ġlists": 2489,
    "her": 2490,
    "ialization": 2491,
    "Ġsets": 2492,
    "Ġhyg": 2493,
    "Ġhygi": 2494,
    "Ġhygien": 2495,
    "Ġvariance": 2496,
    "Ġscientific": 2497,
    "Ġcycle": 2498,
    "Ġtypes": 2499,
    "Ġvalues": 2500,
    "itions": 2501,
    "ĠMy": 2502,
    "Ġcarefully": 2503,
    "tern": 2504,
    "Ġgracefully": 2505,
    "Ġpol": 2506,
    "tch": 2507,
    "Ġwal": 2508,
    "ĠWash": 2509,
    "imes": 2510,
    "Ġbreath": 2511,
    "Ġmissed": 2512,
    "Ġsod": 2513,
    "Ġsoda": 2514,
    "Ġlabel": 2515,
    "ĠEx": 2516,
    "Ġbin": 2517,
    "etch": 2518,
    "fiber": 2519,
    "Ġtow": 2520,
    "ĠRep": 2521,
    "aming": 2522,
    "Ġconfirm": 2523,
    "right": 2524,
    "Ġautomate": 2525,
    "ĠVers": 2526,
    "ĠVersion": 2527,
    "ĠCentral": 2528,
    "ĠUI": 2529,
    "Ġlabels": 2530,
    "Ġoverloading": 2531,
    "Ġbox": 2532,
    "Ġaway": 2533,
    "itter": 2534,
    "Ġscrip": 2535,
    "Ġscripts": 2536,
    "Ġcompartments": 2537,
    "Ġapproaches": 2538,
    "Ġexceptions": 2539,
    "anity": 2540,
    "ĠWe": 2541,
    "Ġlife": 2542,
    "Ġflag": 2543,
    "Ġsure": 2544,
    "Ġsources": 2545,
    "Ġuntil": 2546,
    "Ġ\"": 2547,
    "cious": 2548,
    "Ġanswers": 2549,
    "atching": 2550,
    "ivity": 2551,
    "rint": 2552,
    "Ġbackground": 2553,
    "Ġtre": 2554,
    "Ġdouble": 2555,
    "ooking": 2556,
    "Ġproof": 2557,
    "ĠTT": 2558,
    "Ġargu": 2559,
    "Ġargument": 2560,
    "Ġclasses": 2561,
    "Ġformat": 2562,
    "Ġpin": 2563,
    "Ġhypotheses": 2564,
    "ĠJSON": 2565,
    "Ġpercent": 2566,
    "Ġratios": 2567,
    "Ġsim": 2568,
    "gets": 2569,
    "Ġfallback": 2570,
    "Ġsil": 2571,
    "ired": 2572,
    "ains": 2573,
    "Ġvisible": 2574,
    "Ġmorning": 2575,
    "Ġstretch": 2576,
    "offee": 2577,
    "Ġbins": 2578,
    "Ġsurfaces": 2579,
    "Ġspot": 2580,
    "Ġvegg": 2581,
    "Ġsal": 2582,
    "Ġmach": 2583,
    "ĠEnforce": 2584,
    "Ġoverl": 2585,
    "ĠDis": 2586,
    "Ġavat": 2587,
    "ĠSta": 2588,
    "Ġbund": 2589,
    "Ġthird": 2590,
    "part": 2591,
    "Ġplans": 2592,
    "Ġexplicit": 2593,
    "Ġdelay": 2594,
    "Ġdest": 2595,
    "vents": 2596,
    "Ġlint": 2597,
    "Ġred": 2598,
    "Ġflaky": 2599,
    "Ġnavigate": 2600,
    "bound": 2601,
    "Ġinstead": 2602,
    "where": 2603,
    "Ġcompl": 2604,
    "Ġscrub": 2605,
    "Ġturn": 2606,
    "Ġhumans": 2607,
    "Ġuseful": 2608,
    "Ġmid": 2609,
    "rot": 2610,
    "Ġrestore": 2611,
    "Ġsimpl": 2612,
    "Ġbright": 2613,
    "Ġspe": 2614,
    "Ġfully": 2615,
    "Ġemail": 2616,
    "ĠDon": 2617,
    "Ġnotes": 2618,
    "Ġcalendar": 2619,
    "Ġded": 2620,
    "Ġtopics": 2621,
    "Ġhealthy": 2622,
    "Ġcir": 2623,
    "Ġnear": 2624,
    "avy": 2625,
    "amera": 2626,
    "Ġfront": 2627,
    "Ġcoh": 2628,
    "lock": 2629,
    "Ġstoring": 2630,
    "Ġclimate": 2631,
    "Ġcausation": 2632,
    "Ġbuilds": 2633,
    "Ġlookup": 2634,
    "Ġmovement": 2635,
    "Ġgravity": 2636,
    "Ġsort": 2637,
    "roup": 2638,
    "hra": 2639,
    "Ġrecurs": 2640,
    "Ġexpressions": 2641,
    "ĠREST": 2642,
    "Ġhygiene": 2643,
    "Ġstatist": 2644,
    "Ġstatistics": 2645,
    "Ġstatements": 2646,
    "safe": 2647,
    "Ġprogramm": 2648,
    "Ġatta": 2649,
    "Ġassets": 2650,
    "ĠCl": 2651,
    "ides": 2652,
    "Ġbudgets": 2653,
    "ritical": 2654,
    "Ġsay": 2655,
    "ternal": 2656,
    "Ġduration": 2657,
    "Ġroom": 2658,
    "Ġcoffee": 2659,
    "Ġcab": 2660,
    "date": 2661,
    "Ġtrash": 2662,
    "Ġveggies": 2663,
    "Ġshar": 2664,
    "Ġtact": 2665,
    "Ġtactic": 2666,
    "acu": 2667,
    "acuum": 2668,
    "rofiber": 2669,
    "Ġfew": 2670,
    "ket": 2671,
    "Ġscale": 2672,
    "Ġrepeat": 2673,
    "Ġavatar": 2674,
    "ĠBe": 2675,
    "ners": 2676,
    "ĠSS": 2677,
    "Ġwarm": 2678,
    "Ġexcess": 2679,
    "Ġinfo": 2680,
    "Ġqueries": 2681,
    "ĠPRs": 2682,
    "Ġcreate": 2683,
    "party": 2684,
    "Ġcookies": 2685,
    "Ġeasy": 2686,
    "Ġlower": 2687,
    "Ġspl": 2688,
    "Ġod": 2689,
    "Ġtoolbox": 2690,
    "Ġmemorize": 2691,
    "Ġmemorization": 2692,
    "only": 2693,
    "spec": 2694,
    "Ġinternet": 2695,
    "Ġrequired": 2696,
    "ax": 2697,
    "Ġstack": 2698,
    "impact": 2699,
    "Ġtag": 2700,
    "Ġgenerate": 2701,
    "Ġsee": 2702,
    "Ġphysical": 2703,
    "Ġdesc": 2704,
    "ĠRest": 2705,
    "Ġdisable": 2706,
    "actor": 2707,
    "pped": 2708,
    "Ġheavy": 2709,
    "tered": 2710,
    "ĠTTLs": 2711,
    "ilities": 2712,
    "Ġidentity": 2713,
    "br": 2714,
    "Ġcounterarg": 2715,
    "Ġcounterargum": 2716,
    "Ġcounterarguments": 2717,
    "Ġeffic": 2718,
    "Ġmole": 2719,
    "Ġenvironment": 2720,
    "Ġelectric": 2721,
    "Ġfractions": 2722,
    "Ġlinear": 2723,
    "Ġmedian": 2724,
    "Ġtoget": 2725,
    "Ġtogether": 2726,
    "Ġpassive": 2727,
    "Ġrece": 2728,
    "rust": 2729,
    "reading": 2730,
    "Ġproportions": 2731,
    "Ġrecursion": 2732,
    "Ġrenewable": 2733,
    "Ġstacks": 2734,
    "Ġhints": 2735,
    "Ġvect": 2736,
    "Ġconnection": 2737,
    "Ġear": 2738,
    "Ġassistant": 2739,
    "critical": 2740,
    "ym": 2741,
    "ia": 2742,
    "Ġmeetings": 2743,
    "Ġprote": 2744,
    "Ġreminders": 2745,
    "Ġqueue": 2746,
    "Ġlaundry": 2747,
    "Ġlightly": 2748,
    "Ġ20": 2749,
    "Ġdust": 2750,
    "Ġcool": 2751,
    "entil": 2752,
    "Ġwatch": 2753,
    "lace": 2754,
    "Ġbacklog": 2755,
    "Ġord": 2756,
    "Ġtraffic": 2757,
    "Ġconsumers": 2758,
    "ĠTake": 2759,
    "Ġbackward": 2760,
    "Ġcircu": 2761,
    "Ġleaks": 2762,
    "Ġnames": 2763,
    "ĠDNS": 2764,
    "ĠLab": 2765,
    "Ġfrequently": 2766,
    "Ġleak": 2767,
    "Ġassign": 2768,
    "rences": 2769,
    "vals": 2770,
    "Ġsecurely": 2771,
    "ĠDisable": 2772,
    "ecure": 2773,
    "ĠTell": 2774,
    "igma": 2775,
    "Ġprevents": 2776,
    "erts": 2777,
    "Ġcompli": 2778,
    "Ġsignals": 2779,
    "Ġconscious": 2780,
    "olog": 2781,
    "ificial": 2782,
    "jo": 2783,
    "erge": 2784,
    "Ġsubject": 2785,
    "ync": 2786,
    "Ġcanary": 2787,
    "Ġunique": 2788,
    "ands": 2789,
    "Ġlunch": 2790,
    "Ġrole": 2791,
    "uild": 2792,
    "fil": 2793,
    "Ġcore": 2794,
    "Ġblocks": 2795,
    "iration": 2796,
    "Ġstructures": 2797,
    "Ġefficient": 2798,
    "Ġimmutability": 2799,
    "ithms": 2800,
    "Ġmoving": 2801,
    "ular": 2802,
    "lining": 2803,
    "Ġdistrib": 2804,
    "aphra": 2805,
    "vert": 2806,
    "Ġprobability": 2807,
    "Ġexpected": 2808,
    "Ġvirt": 2809,
    "yth": 2810,
    "app": 2811,
    "Ġcamera": 2812,
    "fl": 2813,
    "cy": 2814,
    "Ġaggreg": 2815,
    "Ġmask": 2816,
    "lat": 2817,
    "Ġsticky": 2818,
    "Ġprotein": 2819,
    "illing": 2820,
    "Ġlights": 2821,
    "Ġtrigg": 2822,
    "Ġcutting": 2823,
    "Ġsmell": 2824,
    "ls": 2825,
    "ormal": 2826,
    "Ġtray": 2827,
    "ĠRun": 2828,
    "Ġspra": 2829,
    "ĠHel": 2830,
    "ĠMain": 2831,
    "ites": 2832,
    "Ġinvalidation": 2833,
    "ĠScrub": 2834,
    "Ġsanitize": 2835,
    "ĠLabel": 2836,
    "Ġareas": 2837,
    "away": 2838,
    "Ġscr": 2839,
    "Ġprojects": 2840,
    "Ġcurs": 2841,
    "Ġcontra": 2842,
    "Ġattemp": 2843,
    "Ġattempts": 2844,
    "ĠMon": 2845,
    "Ġcriteria": 2846,
    "ĠEnigma": 2847,
    "Ġ--": 2848,
    "Ġ---": 2849,
    "Ġpush": 2850,
    "Ġworking": 2851,
    "Ġreach": 2852,
    "owner": 2853,
    "Ġsmallest": 2854,
    "ĠFor": 2855,
    "Ġfind": 2856,
    "acing": 2857,
    "Ġdrop": 2858,
    "ashes": 2859,
    "Ġrob": 2860,
    "be": 2861,
    "Ġcould": 2862,
    "ertain": 2863,
    "Ġtell": 2864,
    "inal": 2865,
    "dic": 2866,
    "Ġwords": 2867,
    "ional": 2868,
    "Ġenjo": 2869,
    "Ġenjoy": 2870,
    "Ġobject": 2871,
    "Ġdiscus": 2872,
    "Ġappropriately": 2873,
    "ection": 2874,
    "Ġship": 2875,
    "Ġslic": 2876,
    "Ġrefresh": 2877,
    "Ġdesk": 2878,
    "ĠPick": 2879,
    "Ġmanager": 2880,
    "Ġstrong": 2881,
    "âĢĵ": 2882,
    "aw": 2883,
    "offs": 2884,
    "ĠETA": 2885,
    "Ġintegrity": 2886,
    "Ġstrate": 2887,
    "Ġstrateg": 2888,
    "Ġfixed": 2889,
    "Ġrespiration": 2890,
    "Ġconcis": 2891,
    "Ġconciseness": 2892,
    "ĠCSV": 2893,
    "Ġdictionaries": 2894,
    "ĠDNA": 2895,
    "Ġstores": 2896,
    "Ġec": 2897,
    "Ġecosy": 2898,
    "Ġecosyst": 2899,
    "Ġecosystems": 2900,
    "Ġelectricity": 2901,
    "Ġexponents": 2902,
    "Ġlogar": 2903,
    "Ġlogarithms": 2904,
    "Ġmagnetism": 2905,
    "Ġmatric": 2906,
    "Ġmatrices": 2907,
    "head": 2908,
    "Ġmolec": 2909,
    "Ġmolecules": 2910,
    "Ġoutlining": 2911,
    "Ġparaphra": 2912,
    "Ġparaphrasing": 2913,
    "Ġpercentages": 2914,
    "Ġphotosy": 2915,
    "Ġphotosyn": 2916,
    "Ġphotosynth": 2917,
    "Ġphotosynthesis": 2918,
    "Ġplate": 2919,
    "Ġtect": 2920,
    "Ġtecton": 2921,
    "Ġtectonics": 2922,
    "Ġprime": 2923,
    "Ġproofreading": 2924,
    "Ġquad": 2925,
    "Ġquadrat": 2926,
    "Ġquadratic": 2927,
    "Ġserialization": 2928,
    "Ġdevi": 2929,
    "Ġdeviation": 2930,
    "Ġsummarizing": 2931,
    "Ġthesis": 2932,
    "Ġvectors": 2933,
    "Ġvirtual": 2934,
    "ython": 2935,
    "so": 2936,
    "Ġsecurity": 2937,
    "DN": 2938,
    "Ġspi": 2939,
    "Ġrelease": 2940,
    "Ġknown": 2941,
    "Ġdesigned": 2942,
    "Ġmitigate": 2943,
    "Ġrunning": 2944,
    "Ġpoint": 2945,
    "ring": 2946,
    "ĠRinse": 2947,
    "Ġdraw": 2948,
    "gth": 2949,
    "ĠRo": 2950,
    "ris": 2951,
    "wash": 2952,
    "Ġbus": 2953,
    "ggs": 2954,
    "Ġbrain": 2955,
    "ification": 2956,
    "Ġboards": 2957,
    "ĠFe": 2958,
    "Ġquar": 2959,
    "Ġrealistic": 2960,
    "ĠMaintain": 2961,
    "TC": 2962,
    "Ġgraceful": 2963,
    "actions": 2964,
    "Ġwebh": 2965,
    "Ġdetails": 2966,
    "Ġovercooking": 2967,
    "acity": 2968,
    "Ġrunaway": 2969,
    "Ġcron": 2970,
    "Ġredu": 2971,
    "rollback": 2972,
    "Ġproperly": 2973,
    "ĠMonitor": 2974,
    "Ġglo": 2975,
    "Ġcabin": 2976,
    "Ġmuch": 2977,
    "Ġfinish": 2978,
    "FA": 2979,
    "Ġconta": 2980,
    "versible": 2981,
    "specific": 2982,
    "Ġchar": 2983,
    "Ġdeletion": 2984,
    "Ġdeli": 2985,
    "ced": 2986,
    "logs": 2987,
    "Ġreflect": 2988,
    "Ġnever": 2989,
    "Ġlead": 2990,
    "Ġrepet": 2991,
    "Ġexpiry": 2992,
    "Ġmigration": 2993,
    "Ġintelligence": 2994,
    "Ġbel": 2995,
    "Ġdiscuss": 2996,
    "ĠYes": 2997,
    "ĠAsk": 2998,
    "ĠAuth": 2999,
    "Ġgets": 3000,
    "âĢĿ?": 3001,
    "Ġwalk": 3002,
    "Ġplus": 3003,
    "quick": 3004,
    "Ġtemp": 3005,
    "Ġbrowser": 3006,
    "Ġsomeone": 3007,
    "iding": 3008,
    "Ġinstruct": 3009,
    "size": 3010,
    "Ġcreated": 3011,
    "ond": 3012,
    "Ġruntime": 3013,
    "itu": 3014,
    "itude": 3015,
    "ĠPython": 3016,
    "Ġslowly": 3017,
    "wh": 3018,
    "Ġprior": 3019,
    "Ġaltern": 3020,
    "Ġoffer": 3021,
    "tenant": 3022,
    "arget": 3023,
    "Ġcompliance": 3024,
    "Ġfair": 3025,
    "Ġsoon": 3026,
    "ream": 3027,
    "Ġthing": 3028,
    "Ġpans": 3029,
    "Ġcompletion": 3030,
    "ĠSame": 3031,
    "Ġtimer": 3032,
    "Ġeggs": 3033,
    "gent": 3034,
    "Ġneural": 3035,
    "Ġmachine": 3036,
    "flow": 3037,
    "mp": 3038,
    "ĠBre": 3039,
    "Ġseparately": 3040,
    "Ġsnacks": 3041,
    "Ġtowels": 3042,
    "ĠReplace": 3043,
    "Ġbath": 3044,
    "Ġcleanup": 3045,
    "Ġresource": 3046,
    "pth": 3047,
    "Ġpos": 3048,
    "compatible": 3049,
    "cl": 3050,
    "peak": 3051,
    "Ġcontrols": 3052,
    "Ġcapacity": 3053,
    "ĠRate": 3054,
    "Ġru": 3055,
    "Ġinject": 3056,
    "rap": 3057,
    "Ġtemplates": 3058,
    "ĠShare": 3059,
    "ures": 3060,
    "ĠAutom": 3061,
    "Ġlay": 3062,
    "Ġdatabase": 3063,
    "ME": 3064,
    "aps": 3065,
    "Ġes": 3066,
    "Ġinterest": 3067,
    "Ġsupp": 3068,
    "arding": 3069,
    "Ġrestor": 3070,
    "Ġdifference": 3071,
    "Ġgreat": 3072,
    "Ġfiling": 3073,
    "Ġcabinet": 3074,
    "Ġkeyboard": 3075,
    "ĠAir": 3076,
    "Ġvisibility": 3077,
    "Ġwait": 3078,
    "Ġparal": 3079,
    "Ġversioning": 3080,
    "ĠApp": 3081,
    "Ġoffline": 3082,
    "data": 3083,
    "Ġunnecessary": 3084,
    "Ġdocumented": 3085,
    "Ġpoints": 3086,
    "Ġdebug": 3087,
    "Ġmainten": 3088,
    "Ġmaintenance": 3089,
    "Ġrespond": 3090,
    "now": 3091,
    "io": 3092,
    "Ġsugg": 3093,
    "ĠPl": 3094,
    "Ġaccounts": 3095,
    "Ġpassword": 3096,
    "Ġpasswords": 3097,
    "Ġtracking": 3098,
    "Ġbook": 3099,
    "Ġprep": 3100,
    "Ġext": 3101,
    "check": 3102,
    "Ġsmaller": 3103,
    "Ġwrong": 3104,
    "Ġmind": 3105,
    "Ġtheir": 3106,
    "Ġblu": 3107,
    "Ġoperations": 3108,
    "Ġrepro": 3109,
    "Ġinstructions": 3110,
    "Ġparts": 3111,
    "Ġquant": 3112,
    "ances": 3113,
    "use": 3114,
    "Ġsearch": 3115,
    "Ġmonit": 3116,
    "Ġmonitored": 3117,
    "inter": 3118,
    "ightly": 3119,
    "grade": 3120,
    "ĠThis": 3121,
    "Ġexternal": 3122,
    "andom": 3123,
    "tic": 3124,
    "onym": 3125,
    "latency": 3126,
    "Ġfilter": 3127,
    "fig": 3128,
    "top": 3129,
    "Ġmed": 3130,
    "Ġbreathing": 3131,
    "Ġpairs": 3132,
    "ock": 3133,
    "Ġeat": 3134,
    "rink": 3135,
    "Ġincrease": 3136,
    "Ġlarge": 3137,
    "cing": 3138,
    "ĠPh": 3139,
    "Ġbow": 3140,
    "Ġleftovers": 3141,
    "Ġonce": 3142,
    "Ġtri": 3143,
    "mes": 3144,
    "Ġouts": 3145,
    "Ġoutside": 3146,
    "ĠWrite": 3147,
    "Ġaligned": 3148,
    "Ġtom": 3149,
    "ĠFil": 3150,
    "ĠVer": 3151,
    "ĠVerify": 3152,
    "Ġadmin": 3153,
    "Ġdepth": 3154,
    "apt": 3155,
    "Ġcoll": 3156,
    "Ġcircuit": 3157,
    "Ġcold": 3158,
    "Ġsensible": 3159,
    "Ġhours": 3160,
    "anitize": 3161,
    "aging": 3162,
    "Ġmix": 3163,
    "ĠHTTPS": 3164,
    "Ġpayloads": 3165,
    "Ġmicrofiber": 3166,
    "Ġwar": 3167,
    "Ġtranspare": 3168,
    "Ġcontracts": 3169,
    "ĠTag": 3170,
    "ĠStand": 3171,
    "Ġeval": 3172,
    "rusted": 3173,
    "Ġwithin": 3174,
    "ferences": 3175,
    "Ġlocks": 3176,
    "Ġten": 3177,
    "LI": 3178,
    "ĠLear": 3179,
    "Ġfocused": 3180,
    "boarding": 3181,
    "Ġforward": 3182,
    "Ġhist": 3183,
    "Ġfloors": 3184,
    "Ġrestorative": 3185,
    "ĠX": 3186,
    "ange": 3187,
    "Ġside": 3188,
    "Ġplay": 3189,
    "Ġfat": 3190,
    "Ġtune": 3191,
    "Ġowner": 3192,
    "raph": 3193,
    "Ġvanity": 3194,
    "Ġunivers": 3195,
    "Ġoutcome": 3196,
    "ĠKPIs": 3197,
    "ved": 3198,
    "vis": 3199,
    "ĠCSP": 3200,
    "ense": 3201,
    "Ġmade": 3202,
    "Ġsend": 3203,
    "Ġcounts": 3204,
    "ty": 3205,
    "ribe": 3206,
    "Ġfeeling": 3207,
    "ieve": 3208,
    "Ġknowledge": 3209,
    "ĠOn": 3210,
    "Ġcables": 3211,
    "set": 3212,
    "Ġtimebox": 3213,
    "Ġshed": 3214,
    "Ġsurface": 3215,
    "Ġstarter": 3216,
    "ouse": 3217,
    "ret": 3218,
    "icated": 3219,
    "Ġche": 3220,
    "cul": 3221,
    "ĠReturn": 3222,
    "eal": 3223,
    "Ġpresent": 3224,
    "term": 3225,
    "Ġrespect": 3226,
    "Ġgen": 3227,
    "erp": 3228,
    "Ġstructured": 3229,
    "dle": 3230,
    "Ġevent": 3231,
    "Ġtooling": 3232,
    "Ġenable": 3233,
    "Ġfeelings": 3234,
    "ĠThanks": 3235,
    "Ġcrash": 3236,
    "flag": 3237,
    "Ġexpo": 3238,
    "Ġexposure": 3239,
    "Ġmark": 3240,
    "verity": 3241,
    "Ġtrend": 3242,
    "Ġrisky": 3243,
    "igation": 3244,
    "Ġworld": 3245,
    "ants": 3246,
    "Ġpause": 3247,
    "fail": 3248,
    "Ġreadiness": 3249,
    "Ġbuffer": 3250,
    "Ġpolite": 3251,
    "Ġreading": 3252,
    "reen": 3253,
    "Ġfull": 3254,
    "bles": 3255,
    "inegar": 3256,
    "Ġcable": 3257,
    "itect": 3258,
    "Ġstartup": 3259,
    "ump": 3260,
    "ĠList": 3261,
    "Ġuploads": 3262,
    "Ġpropose": 3263,
    "cation": 3264,
    "RS": 3265,
    "ĠHello": 3266,
    "ĠUp": 3267,
    "ĠReg": 3268,
    "Ġblocking": 3269,
    "Ġstaged": 3270,
    "QL": 3271,
    "Ġshel": 3272,
    "Ġdeps": 3273,
    "Ġexcessive": 3274,
    "Ġlogic": 3275,
    "ĠSanitize": 3276,
    "Ġchair": 3277,
    "Ġallowl": 3278,
    "Ġallowlists": 3279,
    "Ġclos": 3280,
    "ĠRequ": 3281,
    "Ġversioned": 3282,
    "allen": 3283,
    "ression": 3284,
    "ĠSD": 3285,
    "ĠAutomate": 3286,
    "Ġlif": 3287,
    "Ġexports": 3288,
    "Ġsmooth": 3289,
    "Ġonline": 3290,
    "bal": 3291,
    "rics": 3292,
    "ĠDry": 3293,
    "ann": 3294,
    "Ġonboarding": 3295,
    "Ġdamp": 3296,
    "Ġmil": 3297,
    "Ġpads": 3298,
    "Ġtal": 3299,
    "ĠOkay": 3300,
    "hold": 3301,
    "Ġaccount": 3302,
    "Ġhon": 3303,
    "ilos": 3304,
    "ilosop": 3305,
    "ilosoph": 3306,
    "irr": 3307,
    "Ġemot": 3308,
    "ined": 3309,
    "Ġsuggest": 3310,
    "Ġcommit": 3311,
    "ĠBack": 3312,
    "Ġmax": 3313,
    "Ġforget": 3314,
    "antry": 3315,
    "Ġdedicated": 3316,
    "Ġskip": 3317,
    "Ġmoist": 3318,
    "by": 3319,
    "ĠRes": 3320,
    "Ġhappens": 3321,
    "ended": 3322,
    "come": 3323,
    "ructive": 3324,
    "value": 3325,
    "lication": 3326,
    "ator": 3327,
    "Ġshap": 3328,
    "like": 3329,
    "ording": 3330,
    "Ġused": 3331,
    "Ġmiddle": 3332,
    "Ġgroup": 3333,
    "Ġcapt": 3334,
    "ĠCO": 3335,
    "yle": 3336,
    "Ġhold": 3337,
    "Ġreuse": 3338,
    "Ġspread": 3339,
    "ody": 3340,
    "'ll": 3341,
    "Ġcoding": 3342,
    "Ġprogramming": 3343,
    "Ġspikes": 3344,
    "Ġaccid": 3345,
    "ĠWhere": 3346,
    "ifications": 3347,
    "Ġaccept": 3348,
    "Ġcauses": 3349,
    "Ġkill": 3350,
    "Ġtarget": 3351,
    "Ġsynt": 3352,
    "Ġsynthe": 3353,
    "Ġsynthetic": 3354,
    "ĠWould": 3355,
    "uck": 3356,
    "Ġstove": 3357,
    "Ġbreakf": 3358,
    "pty": 3359,
    "Ġtouch": 3360,
    "ater": 3361,
    "ĠUn": 3362,
    "Ġdishes": 3363,
    "Ġadv": 3364,
    "Ġcarry": 3365,
    "Ġvacuum": 3366,
    "Ġwins": 3367,
    "Ġarchitect": 3368,
    "Ġparalle": 3369,
    "Ġparallel": 3370,
    "istent": 3371,
    "Ġlevels": 3372,
    "Ġentry": 3373,
    "Ġhooks": 3374,
    "ĠSm": 3375,
    "Ġdevices": 3376,
    "Ġcontainer": 3377,
    "Ġ15": 3378,
    "ĠSlow": 3379,
    "Ġcloth": 3380,
    "ĠFeel": 3381,
    "Ġrotations": 3382,
    "ords": 3383,
    "Ġisolate": 3384,
    "Ġbranc": 3385,
    "Ġbranch": 3386,
    "Ġvisual": 3387,
    "Ġcentral": 3388,
    "alls": 3389,
    "Ġbundle": 3390,
    "Ġnaming": 3391,
    "Ġaudits": 3392,
    "Ġgr": 3393,
    "Åĵ": 3394,
    "âĤ¬Â": 3395,
    "âĤ¬ÂĿ": 3396,
    "Ġremote": 3397,
    "ĠReview": 3398,
    "cou": 3399,
    "coura": 3400,
    "courage": 3401,
    "ĠFollow": 3402,
    "tight": 3403,
    "Ġexpose": 3404,
    "Ġpool": 3405,
    "ĠTime": 3406,
    "Ġrecord": 3407,
    "ĠShow": 3408,
    "uce": 3409,
    "Ġteams": 3410,
    "Ġcert": 3411,
    "Ġguidance": 3412,
    "ĠStandard": 3413,
    "sums": 3414,
    "ĠSDK": 3415,
    "Ġdisco": 3416,
    "Ġtimelines": 3417,
    "Ġblue": 3418,
    "Ġtenant": 3419,
    "Ġproduction": 3420,
    "lement": 3421,
    "Ġchann": 3422,
    "Ġuntrusted": 3423,
    "structure": 3424,
    "ĠLearn": 3425,
    "Ġprof": 3426,
    "gor": 3427,
    "ĠFocus": 3428,
    "Ġinside": 3429,
    "ĠShort": 3430,
    "Ġseal": 3431,
    "Ġshower": 3432,
    "Ġhistory": 3433,
    "Ġris": 3434,
    "Ġrisks": 3435,
    "sl": 3436,
    "Ġodors": 3437,
    "Ġthor": 3438,
    "Ġthorough": 3439,
    "Ġthoroughly": 3440,
    "Ġmicrow": 3441,
    "Ġmicrowave": 3442,
    "Ġfav": 3443,
    "ĠEnable": 3444,
    "Fi": 3445,
    "Ġvolu": 3446,
    "Ġfatig": 3447,
    "Ġfatigue": 3448,
    "Ġreversible": 3449,
    "Ġlet": 3450,
    "ĠSLOs": 3451,
    "Ġbill": 3452,
    "Ġthough": 3453,
    "Ġones": 3454,
    "Ġdrive": 3455,
    "Ġop": 3456,
    "impacting": 3457,
    "bed": 3458,
    "action": 3459,
    "Ġconsciousness": 3460,
    "Ġsense": 3461,
    "ying": 3462,
    "ified": 3463,
    "ĠLower": 3464,
    "Ġavailable": 3465,
    "ĠPlan": 3466,
    "Ġoverwhel": 3467,
    "Ġoverwhelm": 3468,
    "Ġsqu": 3469,
    "Ġtang": 3470,
    "Ġchargers": 3471,
    "Ġpets": 3472,
    "Ġevening": 3473,
    "Ġhost": 3474,
    "lose": 3475,
    "Ġmal": 3476,
    "Ġpois": 3477,
    "Ġpoison": 3478,
    "Ġvalidated": 3479,
    "Ġstrategy": 3480,
    "Ġcalls": 3481,
    "Ġmerge": 3482,
    "abilities": 3483,
    "cate": 3484,
    "Ġreprodu": 3485,
    "Ġreproduci": 3486,
    "Ġpower": 3487,
    "Ġdistribut": 3488,
    "Ġisolated": 3489,
    "pts": 3490,
    "Ġeven": 3491,
    "Ġhappy": 3492,
    "ĠSure": 3493,
    "Ġattach": 3494,
    "Ġshut": 3495,
    "ĠSp": 3496,
    "ĠCDN": 3497,
    "Ġoption": 3498,
    "ool": 3499,
    "umps": 3500,
    "Ġindo": 3501,
    "Ġrecon": 3502,
    "Ġdetermin": 3503,
    "erc": 3504,
    "Ġleave": 3505,
    "kn": 3506,
    "Ġfriend": 3507,
    "Ġrelations": 3508,
    "Ġrelationsh": 3509,
    "Ġrelationships": 3510,
    "ciate": 3511,
    "Ġhyd": 3512,
    "after": 3513,
    "got": 3514,
    "Ġdig": 3515,
    "Ġdigit": 3516,
    "Ġshe": 3517,
    "Ġsun": 3518,
    "Ġtrigger": 3519,
    "ids": 3520,
    "Ġlonger": 3521,
    "Ġbeans": 3522,
    "bre": 3523,
    "mar": 3524,
    "level": 3525,
    "Ġuses": 3526,
    "ode": 3527,
    "ĠRetry": 3528,
    "Ġnormal": 3529,
    "Ġtravel": 3530,
    "Ġaim": 3531,
    "entilate": 3532,
    "Ġlate": 3533,
    "Ġcos": 3534,
    "Ġfriction": 3535,
    "Ġtomor": 3536,
    "Ġtomorrow": 3537,
    "Ġgoing": 3538,
    "Ġverification": 3539,
    "ĠUpdate": 3540,
    "Ġbusiness": 3541,
    "ĠId": 3542,
    "Ġscript": 3543,
    "Ġruns": 3544,
    "ĠUTC": 3545,
    "Ġconcur": 3546,
    "Ġprefer": 3547,
    "Ġduplicate": 3548,
    "Ġcat": 3549,
    "ĠRestrict": 3550,
    "Ġinternally": 3551,
    "Ġconsider": 3552,
    "ĠÃ¢": 3553,
    "Ġorigins": 3554,
    "erve": 3555,
    "Ġquery": 3556,
    "ĠRed": 3557,
    "Ġinjection": 3558,
    "Ġairtight": 3559,
    "Ġbalance": 3560,
    "Ġoc": 3561,
    "Ġocc": 3562,
    "Ġchallen": 3563,
    "site": 3564,
    "grad": 3565,
    "ĠDocument": 3566,
    "Ġrecomm": 3567,
    "Ġfallbacks": 3568,
    "Ġdetection": 3569,
    "ĠRequire": 3570,
    "Ġchecksums": 3571,
    "ĠarenÃ¢": 3572,
    "ĠSign": 3573,
    "ĠSDKs": 3574,
    "service": 3575,
    "Ġbackend": 3576,
    "AD": 3577,
    "ADME": 3578,
    "irect": 3579,
    "Ġou": 3580,
    "Ġouta": 3581,
    "dep": 3582,
    "ĠSu": 3583,
    "Ġimplement": 3584,
    "izes": 3585,
    "Ġfit": 3586,
    "Ġstain": 3587,
    "ĠPract": 3588,
    "review": 3589,
    "Ġfreez": 3590,
    "Ġbatteries": 3591,
    "Ġcleaning": 3592,
    "Ġtruth": 3593,
    "ife": 3594,
    "slip": 3595,
    "Ġconfus": 3596,
    "RF": 3597,
    "Ġsolution": 3598,
    "Ġtalking": 3599,
    "step": 3600,
    "ĠWi": 3601,
    "âĢĳ": 3602,
    "fix": 3603,
    ")?": 3604,
    "Ġscoped": 3605,
    "oring": 3606,
    "Ġenfor": 3607,
    "Ġcollection": 3608,
    "Ġrolling": 3609,
    "Ġreport": 3610,
    "cost": 3611,
    "Ġprogram": 3612,
    "Ġself": 3613,
    "Ġmirr": 3614,
    "Ġpredic": 3615,
    "utral": 3616,
    "Ġsmart": 3617,
    "Ġprocessing": 3618,
    "orrect": 3619,
    "Ġauto": 3620,
    "Ġchanging": 3621,
    "Ġperf": 3622,
    "Ġlisten": 3623,
    "rupt": 3624,
    "Ġsummary": 3625,
    "Ġtin": 3626,
    "Ġstories": 3627,
    "any": 3628,
    "ĠTo": 3629,
    "ĠClose": 3630,
    "Ġcohort": 3631,
    "Ġfing": 3632,
    "Ġskill": 3633,
    "Ġdiv": 3634,
    "Ġdistributed": 3635,
    "Ġcalcul": 3636,
    "ern": 3637,
    "'ve": 3638,
    "Ġfut": 3639,
    "Ġfuture": 3640,
    "Ġstored": 3641,
    "Ġdownloads": 3642,
    "risk": 3643,
    "Ġprivate": 3644,
    "Ġcompatible": 3645,
    "Ġrandom": 3646,
    "sign": 3647,
    "Ġseverity": 3648,
    "Ġharm": 3649,
    "Ġlive": 3650,
    "urt": 3651,
    "Ġfield": 3652,
    "Ġmakes": 3653,
    "stream": 3654,
    "Ġstovetop": 3655,
    "Ġbreakfast": 3656,
    "ĠLe": 3657,
    "Ġcards": 3658,
    "Ġdue": 3659,
    "Ġexerc": 3660,
    "gl": 3661,
    "Ġspare": 3662,
    "00": 3663,
    "tables": 3664,
    "Ġdin": 3665,
    "Ġspots": 3666,
    "Ġsmelling": 3667,
    "Ġvinegar": 3668,
    "Ġthread": 3669,
    "ĠEnsure": 3670,
    "Ġscience": 3671,
    "Ġproblems": 3672,
    "Ġtransform": 3673,
    "Ġhealthier": 3674,
    "Ġarchive": 3675,
    "ĠRec": 3676,
    "asure": 3677,
    "clean": 3678,
    "ilar": 3679,
    "Ġjour": 3680,
    "ĠAlright": 3681,
    "bye": 3682,
    "ĠHand": 3683,
    "Ġobservable": 3684,
    "ib": 3685,
    "Ġdebt": 3686,
    "Ġbatches": 3687,
    "ĠIdent": 3688,
    "ĠIdentify": 3689,
    "cles": 3690,
    "Ġrepos": 3691,
    "faces": 3692,
    "dri": 3693,
    "ology": 3694,
    "Ġloose": 3695,
    "Ġcase": 3696,
    "Ġpantry": 3697,
    "Ġasync": 3698,
    "figure": 3699,
    "etching": 3700,
    "ĠNot": 3701,
    "Ġscratching": 3702,
    "bounded": 3703,
    "Ġice": 3704,
    "Ġtransparent": 3705,
    "Ġdegrad": 3706,
    "Ġfru": 3707,
    "Ġfruit": 3708,
    "Ġfa": 3709,
    "Ġapprovals": 3710,
    "Ġschedul": 3711,
    "Ġevalu": 3712,
    "Ġrevert": 3713,
    "ators": 3714,
    "ĠSecure": 3715,
    "Site": 3716,
    "Ġquarter": 3717,
    "Ġdelet": 3718,
    "ĠEncrypt": 3719,
    "ĠFilter": 3720,
    "Ġconnections": 3721,
    "Ġdestructive": 3722,
    "Ġtoggles": 3723,
    "riptions": 3724,
    "Ġlogin": 3725,
    "limit": 3726,
    "Ġdeployment": 3727,
    "loy": 3728,
    "ĠSupport": 3729,
    "AC": 3730,
    "Ġrobust": 3731,
    "Ġrestrictions": 3732,
    "Ġregressions": 3733,
    "Ġreject": 3734,
    "Ġsetup": 3735,
    "ĠREADME": 3736,
    "ĠLink": 3737,
    "ĠPractice": 3738,
    "Ġach": 3739,
    "Ġtrends": 3740,
    "ĠSLAs": 3741,
    "Ġmats": 3742,
    "Ġreadable": 3743,
    "Ġbrush": 3744,
    "Ġexpand": 3745,
    "gment": 3746,
    "Ġrust": 3747,
    "Ġparame": 3748,
    "Ġaggregate": 3749,
    "Ġplast": 3750,
    "Ġemerg": 3751,
    "Ġfreeze": 3752,
    "Ġglobal": 3753,
    "Ġmoves": 3754,
    "ĠIP": 3755,
    "Ġcomponents": 3756,
    "Ġfavorit": 3757,
    "Ġtic": 3758,
    "Ġ================================": 3759,
    "Ġ================================================================": 3760,
    "Ġ========================================================================": 3761,
    "Ġ============================================================================": 3762,
    "Ġ=============================================================================": 3763,
    "orth": 3764,
    "ods": 3765,
    "Ġuniverse": 3766,
    "Ġconsent": 3767,
    "Ġintern": 3768,
    "Ġinternals": 3769,
    "Ġsignal": 3770,
    "ĠEach": 3771,
    "Ġcomplete": 3772,
    "Ġphilosoph": 3773,
    "cknow": 3774,
    "Ġcop": 3775,
    "ĠBut": 3776,
    "gn": 3777,
    "Ġcertain": 3778,
    "Ġhardware": 3779,
    "Ġaff": 3780,
    "Ġho": 3781,
    "Ġends": 3782,
    "fill": 3783,
    "Ġthrot": 3784,
    "Ġslice": 3785,
    "Ġsimplest": 3786,
    "Ġbattery": 3787,
    "Ġrad": 3788,
    "Ġrecent": 3789,
    "week": 3790,
    "Ġforgetting": 3791,
    "Ġrinse": 3792,
    "Ġpouch": 3793,
    "Ġtiny": 3794,
    "Ġexisting": 3795,
    "Ġnail": 3796,
    "Ġcomms": 3797,
    "Ġextens": 3798,
    "arily": 3799,
    "ĠBuild": 3800,
    "erate": 3801,
    "Ġpoisoning": 3802,
    "Ġaloud": 3803,
    "Ġdeadline": 3804,
    "block": 3805,
    "Ġfacts": 3806,
    "Ġlibr": 3807,
    "Ġallowed": 3808,
    "Ġcause": 3809,
    "Ġreproducible": 3810,
    "Ġmapping": 3811,
    "urning": 3812,
    "Ġfingerp": 3813,
    "Ġfingerprint": 3814,
    "Ġcollections": 3815,
    "Ġfrequent": 3816,
    "first": 3817,
    "Ġfunction": 3818,
    "Ġstyle": 3819,
    "aim": 3820,
    "iec": 3821,
    "Ġidea": 3822,
    "Ġdistance": 3823,
    "Ġtru": 3824,
    "Ġkind": 3825,
    "Ġdepends": 3826,
    "Ġshutdown": 3827,
    "ount": 3828,
    "Ġfolder": 3829,
    "Ġmail": 3830,
    "owners": 3831,
    "Ġlag": 3832,
    "Ġdelivery": 3833,
    "ident": 3834,
    "Ġnotifications": 3835,
    "ws": 3836,
    "bil": 3837,
    "Ġaccording": 3838,
    "user": 3839,
    "Ġscopes": 3840,
    "onymize": 3841,
    "Ġspend": 3842,
    "inating": 3843,
    "known": 3844,
    "Ġweight": 3845,
    "Ġappre": 3846,
    "ĠDR": 3847,
    "Ġempty": 3848,
    "Ġdrawers": 3849,
    "Ġcalmer": 3850,
    "Ġmissing": 3851,
    "Ġdrain": 3852,
    "ĠDaily": 3853,
    "Ġexercise": 3854,
    "Ġcolor": 3855,
    ".,": 3856,
    "Ġreminder": 3857,
    "Ġstren": 3858,
    "Ġstrength": 3859,
    "ĠPack": 3860,
    "Ġknives": 3861,
    "Ġdishwash": 3862,
    "Ġvege": 3863,
    "iled": 3864,
    "cast": 3865,
    "Ġstage": 3866,
    "ĠIntelligence": 3867,
    "Ġdom": 3868,
    "ane": 3869,
    "Ġarchitecture": 3870,
    "vol": 3871,
    "ĠTry": 3872,
    "Ġport": 3873,
    "port": 3874,
    "Ġfirm": 3875,
    "opt": 3876,
    "Ġschedu": 3877,
    "Ġscheduled": 3878,
    "Ġbowls": 3879,
    "Ġaccessible": 3880,
    "Ġlemon": 3881,
    "ĠPrep": 3882,
    "Ġstud": 3883,
    "ĠAdjust": 3884,
    "Ġeye": 3885,
    "Ġflat": 3886,
    "Ġcosts": 3887,
    "serve": 3888,
    "Ġdryer": 3889,
    "Ġsimilar": 3890,
    "Ġwin": 3891,
    "ceed": 3892,
    "Ġnegot": 3893,
    "Ġnegoti": 3894,
    "Ġpolicy": 3895,
    "Ġmeat": 3896,
    "erm": 3897,
    "ĠGo": 3898,
    "Ġanytime": 3899,
    "ĠHi": 3900,
    "Ġcontrib": 3901,
    "Ġduplicates": 3902,
    "Ġdrin": 3903,
    "Ġshelves": 3904,
    "ĠDes": 3905,
    "ĠCentralize": 3906,
    "Ġsharing": 3907,
    "Ġwebhook": 3908,
    "alog": 3909,
    "Ġperiodic": 3910,
    "ĠDonÃ¢": 3911,
    "Ġflash": 3912,
    "Ġfro": 3913,
    "Ġwild": 3914,
    "ĠMe": 3915,
    "atures": 3916,
    "Ġboxes": 3917,
    "gger": 3918,
    "Ġraw": 3919,
    "Ġwood": 3920,
    "Ġshipping": 3921,
    "ery": 3922,
    "Ġlimited": 3923,
    "Ġunbounded": 3924,
    "Ġoverr": 3925,
    "ĠBreak": 3926,
    "Ġrecommend": 3927,
    "Ġcursor": 3928,
    "ĠState": 3929,
    "Ġtarge": 3930,
    "Ġtargets": 3931,
    "Ġce": 3932,
    "rument": 3933,
    "Ġrunbook": 3934,
    "Ġjitter": 3935,
    "Ġhashes": 3936,
    "lease": 3937,
    "Ġwrites": 3938,
    "Ġseed": 3939,
    "Ġmiddleware": 3940,
    "ĠSameSite": 3941,
    "Ġdeterministic": 3942,
    "Ġdiscover": 3943,
    "Ġstrict": 3944,
    "Ġloops": 3945,
    "ounce": 3946,
    "Ġoutages": 3947,
    "Ġvul": 3948,
    "Ġordering": 3949,
    "ilience": 3950,
    "Ġsym": 3951,
    "utable": 3952,
    "Ġformats": 3953,
    "Ġnecessary": 3954,
    "Ġrend": 3955,
    "ML": 3956,
    "Ġexpirations": 3957,
    "Ġfab": 3958,
    "Ġmild": 3959,
    "lets": 3960,
    "sens": 3961,
    "cont": 3962,
    "contract": 3963,
    "Ġfreezer": 3964,
    "Ġground": 3965,
    "Ġextra": 3966,
    "Ġreleases": 3967,
    "Ġplastic": 3968,
    "Ġshoe": 3969,
    "running": 3970,
    "Ġdecide": 3971,
    "Ġcontact": 3972,
    "ĠHave": 3973,
    "Ġsplit": 3974,
    "SS": 3975,
    "Ġunless": 3976,
    "Ġelectron": 3977,
    "Ġlayers": 3978,
    "Ġokay": 3979,
    "Ġtechnology": 3980,
    "ĠMFA": 3981,
    "gged": 3982,
    "bud": 3983,
    "buds": 3984,
    "Ġvolume": 3985,
    "ĠAlert": 3986,
    "errors": 3987,
    "Ġstake": 3988,
    "Ġstakehold": 3989,
    "Ġdeprecation": 3990,
    "ĠOpen": 3991,
    "Ġremo": 3992,
    "Ġyet": 3993,
    "ĠDid": 3994,
    "Ġenforced": 3995,
    "col": 3996,
    "Ġcutoff": 3997,
    "itel": 3998,
    "itelist": 3999,
    "Ġcount": 4000,
    "Ġneutral": 4001,
    "Ġtrained": 4002,
    "aware": 4003,
    "Ġrecogn": 4004,
    "Ġmatch": 4005,
    "Ġaffect": 4006,
    "Ġradi": 4007,
    "Ġtough": 4008,
    "Ġitem": 4009,
    "roc": 4010,
    "Ġhands": 4011,
    "dy": 4012,
    "Ġinterview": 4013,
    "alerts": 4014,
    "Ġsigned": 4015,
    "Ġsepar": 4016,
    "ĠMic": 4017,
    "ready": 4018,
    "Ġcance": 4019,
    "Ġunex": 4020,
    "Ġunexpect": 4021,
    "Ġunexpected": 4022,
    "Ġhappen": 4023,
    "Ġhappened": 4024,
    "Ġdoing": 4025,
    "Ġmethods": 4026,
    "Ġroot": 4027,
    "Ġpiec": 4028,
    "Ġind": 4029,
    "wise": 4030,
    "Ġcompare": 4031,
    "Ġconflicts": 4032,
    "Ġautomat": 4033,
    "Ġaccu": 4034,
    "racy": 4035,
    "Ġpriority": 4036,
    "Ġsilence": 4037,
    "Ġacceptance": 4038,
    "store": 4039,
    "Ġgenu": 4040,
    "Ġgenuine": 4041,
    "Ġkeeping": 4042,
    "asc": 4043,
    "Ġexperi": 4044,
    "Ġpast": 4045,
    "wl": 4046,
    "Ġdrills": 4047,
    "Ġgrat": 4048,
    "Ġgratitude": 4049,
    "Ġdark": 4050,
    "book": 4051,
    "Ġmaj": 4052,
    "Ġmajor": 4053,
    "Ġshortcu": 4054,
    "Ġshortcuts": 4055,
    "mps": 4056,
    "Ġminute": 4057,
    "Ġtea": 4058,
    "Ġlapt": 4059,
    "heat": 4060,
    "iders": 4061,
    "ĠLeave": 4062,
    "Ġwallet": 4063,
    "sec": 4064,
    "Ġvegetables": 4065,
    "Ġcluttered": 4066,
    "ycle": 4067,
    "ĠArt": 4068,
    "ĠArtificial": 4069,
    "pos": 4070,
    "Ġexplo": 4071,
    "ĠTr": 4072,
    "Ġoutput": 4073,
    "Ġdrivers": 4074,
    "Ġyog": 4075,
    "Ġyogurt": 4076,
    "Ġanx": 4077,
    "ĠPhone": 4078,
    "card": 4079,
    "Ġbullet": 4080,
    "Ġglasses": 4081,
    "Ġdrying": 4082,
    "Ġposture": 4083,
    "Ġsweep": 4084,
    "hour": 4085,
    "elt": 4086,
    "Ġactivity": 4087,
    "lut": 4088,
    "bilize": 4089,
    "ĠGoodbye": 4090,
    "Ġlocation": 4091,
    "ĠHandle": 4092,
    "elcome": 4093,
    "Ġtrusted": 4094,
    "ĠHey": 4095,
    "Ġbig": 4096,
    "Ġchecklists": 4097,
    "Ġtied": 4098,
    "Ġsprint": 4099,
    "Ġmeaningful": 4100,
    "ĠGraph": 4101,
    "ĠGraphQL": 4102,
    "Ġdetergent": 4103,
    "Ġcycles": 4104,
    "Ġbathroom": 4105,
    "iling": 4106,
    "entle": 4107,
    "Ġpeer": 4108,
    "Ġbottles": 4109,
    "Ġshopping": 4110,
    "Ġstuck": 4111,
    "ched": 4112,
    "chedule": 4113,
    "Ġbalanced": 4114,
    "Ġvend": 4115,
    "rer": 4116,
    "Ġcard": 4117,
    "iers": 4118,
    "zen": 4119,
    "Ġagree": 4120,
    "Ġfailover": 4121,
    "Ġrelev": 4122,
    "Ġrelevant": 4123,
    "Ġhandy": 4124,
    "Ġrugs": 4125,
    "ĠScan": 4126,
    "inate": 4127,
    "Ġredund": 4128,
    "Ġresid": 4129,
    "Ġdrinks": 4130,
    "ĠRead": 4131,
    "cons": 4132,
    "Ġmanual": 4133,
    "Ġdegradation": 4134,
    "DR": 4135,
    "Ġtemplate": 4136,
    "ĠStandardize": 4137,
    "Ġtransactions": 4138,
    "TLS": 4139,
    "Ġregions": 4140,
    "chain": 4141,
    "Ġredirect": 4142,
    "Ġcontract": 4143,
    "nounce": 4144,
    "Ġresilience": 4145,
    "Ġisolation": 4146,
    "metrics": 4147,
    "ĠdoesnÃ¢": 4148,
    "Ġprov": 4149,
    "jitter": 4150,
    "Ġdeployments": 4151,
    "ĠRoll": 4152,
    "Ġjud": 4153,
    "Ġir": 4154,
    "ĠCLI": 4155,
    "Ġchannels": 4156,
    "Ġvulner": 4157,
    "ĠHTML": 4158,
    "Ġfriendly": 4159,
    "Ġinfrastructure": 4160,
    "ĠPri": 4161,
    "control": 4162,
    "ĠLo": 4163,
    "Ġpressure": 4164,
    "sensitive": 4165,
    "ĠPin": 4166,
    "Ġmanagers": 4167,
    "atives": 4168,
    "cope": 4169,
    "Ġbread": 4170,
    "zy": 4171,
    "Ġfolders": 4172,
    "Ġwrap": 4173,
    "Ġcate": 4174,
    "Ġhair": 4175,
    "Ġaccordingly": 4176,
    "Ġcaps": 4177,
    "road": 4178,
    "hots": 4179,
    "Ġefficiently": 4180,
    "Ġrefactor": 4181,
    "Ġregist": 4182,
    "Ġconfusion": 4183,
    "Ġabuse": 4184,
    "Ġselect": 4185,
    "cknowledge": 4186,
    "ero": 4187,
    "ull": 4188,
    "Ġprox": 4189,
    "Ġprocesses": 4190,
    "Ġwindow": 4191,
    "Ġdestination": 4192,
    "Ġasking": 4193,
    "Ġticket": 4194,
    "Ġflow": 4195,
    "Ġlic": 4196,
    "Ġworth": 4197,
    "file": 4198,
    "Ġtoggle": 4199,
    "AM": 4200,
    "rem": 4201,
    "Ġstakeholders": 4202,
    "Ġyes": 4203,
    "ysis": 4204,
    "ributes": 4205,
    "Ġrepetitive": 4206,
    "can": 4207,
    "Ġstill": 4208,
    "Ġphilosophical": 4209,
    "Ġclo": 4210,
    "Ġartificial": 4211,
    "ther": 4212,
    "Ġunc": 4213,
    "Ġdang": 4214,
    "Ġdanger": 4215,
    "Ġoriginal": 4216,
    "Ġemotions": 4217,
    "Ġrotated": 4218,
    "Ġbrightness": 4219,
    "lying": 4220,
    "lev": 4221,
    "anges": 4222,
    "Ġblast": 4223,
    "Ġradius": 4224,
    "ĠTurn": 4225,
    "Ġeverywhere": 4226,
    "Ġhouse": 4227,
    "Ġgroc": 4228,
    "Ġworkouts": 4229,
    "20": 4230,
    "Ġagend": 4231,
    "Ġpractical": 4232,
    "Ġalarm": 4233,
    "?âĢĿ": 4234,
    "ggle": 4235,
    "boot": 4236,
    "Ġphotos": 4237,
    "oom": 4238,
    "Ġmalware": 4239,
    "Ġbehind": 4240,
    "erst": 4241,
    "Ġfact": 4242,
    "Ġint": 4243,
    "Ġallo": 4244,
    "Ġaddress": 4245,
    "Ġtable": 4246,
    "Ġdraft": 4247,
    "Ġoperation": 4248,
    "lt": 4249,
    "verage": 4250,
    "Ġplants": 4251,
    "mit": 4252,
    "Ġgrows": 4253,
    "itation": 4254,
    "Ġbody": 4255,
    "Ġbase": 4256,
    "Ġstarts": 4257,
    "Ġsimplify": 4258,
    "Ġasked": 4259,
    "why": 4260,
    "ota": 4261,
    "auth": 4262,
    "Ġautomatically": 4263,
    "Ġguards": 4264,
    "Ġaccidental": 4265,
    "Ġindoors": 4266,
    "Ġaccuracy": 4267,
    "Ġexport": 4268,
    "Ġtransf": 4269,
    "Ġisn": 4270,
    "Ġcannot": 4271,
    "Ġtransit": 4272,
    "Ġcohorts": 4273,
    "Ġben": 4274,
    "ighter": 4275,
    "Ġbreach": 4276,
    "Ġunknown": 4277,
    "Ġfriends": 4278,
    "Ġappreciate": 4279,
    "Ġyear": 4280,
    "outer": 4281,
    "Ġdrink": 4282,
    "dup": 4283,
    "acking": 4284,
    "Ġdim": 4285,
    "Ġrecur": 4286,
    "Ġrecurring": 4287,
    "Ġlaptop": 4288,
    "Ġoverfilling": 4289,
    "Ġschedules": 4290,
    "Ġ30": 4291,
    "Ġintention": 4292,
    "Ġcounters": 4293,
    "Ġroute": 4294,
    "bsc": 4295,
    "Ġface": 4296,
    "Ġwalking": 4297,
    "weight": 4298,
    "Ġsitting": 4299,
    "Ġgreens": 4300,
    "Ġnightly": 4301,
    "ĠExplain": 4302,
    "tical": 4303,
    "Ġairflow": 4304,
    "Ġportions": 4305,
    "iety": 4306,
    "Ġanyone": 4307,
    "Ġswitches": 4308,
    "Ġspeaking": 4309,
    "night": 4310,
    "Ġ25": 4311,
    "ĠSmall": 4312,
    "Ġbedroom": 4313,
    "Ġshall": 4314,
    "Ġleg": 4315,
    "Ġsight": 4316,
    "Ġmirrors": 4317,
    "Ġtrick": 4318,
    "95": 4319,
    "ĠTV": 4320,
    "Ġarea": 4321,
    "Ġjournal": 4322,
    "Ġsprawl": 4323,
    "Ġmar": 4324,
    "Ġtherm": 4325,
    "lutter": 4326,
    "antine": 4327,
    "Ġglad": 4328,
    "ĠGre": 4329,
    "ĠOS": 4330,
    "ĠHealth": 4331,
    "ionally": 4332,
    "Ġprune": 4333,
    "Ġgentle": 4334,
    "Ġloss": 4335,
    "Ġcatalog": 4336,
    "Ġgently": 4337,
    "ĠSchedule": 4338,
    "Ġpostm": 4339,
    "Ġpostmort": 4340,
    "Ġfailing": 4341,
    "izer": 4342,
    "Ġpac": 4343,
    "Ġfrozen": 4344,
    "base": 4345,
    "ĠCORS": 4346,
    "aC": 4347,
    "ĠMeasure": 4348,
    "Ġmixing": 4349,
    "prod": 4350,
    "Ġtele": 4351,
    "Ġearbuds": 4352,
    "Ġencourage": 4353,
    "ĠMin": 4354,
    "Auth": 4355,
    "ounts": 4356,
    "ĠBlock": 4357,
    "Ġclosets": 4358,
    "Ġmoisture": 4359,
    "Ġpan": 4360,
    "ĠSchem": 4361,
    "Ġfailovers": 4362,
    "Ġparallelize": 4363,
    "Ġlines": 4364,
    "rency": 4365,
    "Ġoverrides": 4366,
    "ĠIsol": 4367,
    "Ġoccas": 4368,
    "brate": 4369,
    "ision": 4370,
    "tests": 4371,
    "agate": 4372,
    "Ġtrace": 4373,
    "Ġtimesta": 4374,
    "Ġbug": 4375,
    "Ġexposed": 4376,
    "Ġcursors": 4377,
    "Ġshapes": 4378,
    "Ġlifet": 4379,
    "Ġroutes": 4380,
    "Ġreports": 4381,
    "Ġquarterly": 4382,
    "Ġreferences": 4383,
    "Ġprevious": 4384,
    "ventory": 4385,
    "Ġdescriptions": 4386,
    "assify": 4387,
    "ĠAnnounce": 4388,
    "deploy": 4389,
    "Ġdumps": 4390,
    "Ġmodern": 4391,
    "Ġsympt": 4392,
    "Ġsymptoms": 4393,
    "BAC": 4394,
    "warm": 4395,
    "emant": 4396,
    "Ġsizes": 4397,
    "files": 4398,
    "ĠDefa": 4399,
    "ĠDefault": 4400,
    "enerate": 4401,
    "Ġescal": 4402,
    "Ġescalation": 4403,
    "secure": 4404,
    "Ġorder": 4405,
    "Ġnavigation": 4406,
    "Ġblan": 4407,
    "Ġattacks": 4408,
    "Ġprofess": 4409,
    "Ġnegotiate": 4410,
    "ĠVentilate": 4411,
    "Ġdeveloper": 4412,
    "exp": 4413,
    "Ġachieve": 4414,
    "Ġmus": 4415,
    "Ġbullets": 4416,
    "Ġhighlight": 4417,
    "hand": 4418,
    "build": 4419,
    "Ġsimply": 4420,
    "Ġtemper": 4421,
    "Ġkit": 4422,
    "Ġtrays": 4423,
    "ĠHang": 4424,
    "Ġstra": 4425,
    "ĠSeal": 4426,
    "Ġtightly": 4427,
    "Ġindexes": 4428,
    "ug": 4429,
    "Ġdiag": 4430,
    "Ġlighting": 4431,
    "Ġinvest": 4432,
    "ĠClar": 4433,
    "ĠSo": 4434,
    "Ġtaste": 4435,
    "ipp": 4436,
    "Ġframe": 4437,
    "Ġregistries": 4438,
    "Ġdoors": 4439,
    "Ġintervals": 4440,
    "Ġfurn": 4441,
    "ĠCSRF": 4442,
    "onds": 4443,
    "Ġimage": 4444,
    "Ġnetworks": 4445,
    "Ġadvice": 4446,
    "Ġfavorite": 4447,
    "IN": 4448,
    "Ġinteresting": 4449,
    "ĠWhatÃ¢": 4450,
    "Ġlicens": 4451,
    "privile": 4452,
    "Ġlogged": 4453,
    "fra": 4454,
    "Ġrouting": 4455,
    "Ġstability": 4456,
    "Ġfires": 4457,
    "PII": 4458,
    "Ġcharts": 4459,
    "iven": 4460,
    "ably": 4461,
    "Ġexists": 4462,
    "Ġelsewhere": 4463,
    "facing": 4464,
    "asking": 4465,
    "actionable": 4466,
    "Ġoverus": 4467,
    "Ġoverusing": 4468,
    "Ġdeprecate": 4469,
    "Ġtags": 4470,
    "ĠWith": 4471,
    "Ġdangerous": 4472,
    "Ġlistening": 4473,
    "Ġsubjective": 4474,
    "Ġcomes": 4475,
    "lies": 4476,
    "Ġways": 4477,
    "ĠOnly": 4478,
    "ĠAud": 4479,
    "ted": 4480,
    "essential": 4481,
    "Ġperfection": 4482,
    "good": 4483,
    "Ġthrottle": 4484,
    "pres": 4485,
    "test": 4486,
    "Ġfreshness": 4487,
    "Ġspeak": 4488,
    "Ġlea": 4489,
    "Ġleaving": 4490,
    "Ġoverb": 4491,
    "Ġstreak": 4492,
    "Ġagenda": 4493,
    "Ġtie": 4494,
    "Ġnails": 4495,
    "Ġdir": 4496,
    "Ġpaw": 4497,
    "Ġreboot": 4498,
    "Ġzoom": 4499,
    "Ġpop": 4500,
    "Ġinvalidate": 4501,
    "Ġstorms": 4502,
    "Ġsugar": 4503,
    "Ġobjects": 4504,
    "Ġcolu": 4505,
    "Ġcolum": 4506,
    "Ġcolumns": 4507,
    "Ġlibraries": 4508,
    "den": 4509,
    "elds": 4510,
    "Ġresult": 4511,
    "Ġmagnetic": 4512,
    "writ": 4513,
    "Ġexact": 4514,
    "Ġsquare": 4515,
    "Ġliqu": 4516,
    "Ġgas": 4517,
    "mos": 4518,
    "Ġconditions": 4519,
    "Ġconce": 4520,
    "Ġconcepts": 4521,
    "Ġcalculations": 4522,
    "ĠOf": 4523,
    "Ġcour": 4524,
    "Ġcourse": 4525,
    "Ġdetail": 4526,
    "Ġtruly": 4527,
    "Ġlearned": 4528,
    "Ġthin": 4529,
    "ĠConf": 4530,
    "Ġcatch": 4531,
    "Ġaround": 4532,
    "clic": 4533,
    "Ġtips": 4534,
    "ĠData": 4535,
    "Ġtransfers": 4536,
    "Ġpartition": 4537,
    "ĠComp": 4538,
    "Ġowns": 4539,
    "signal": 4540,
    "region": 4541,
    "Ġur": 4542,
    "Ġanonymize": 4543,
    "Ġmasked": 4544,
    "Ġreally": 4545,
    "Ġbeli": 4546,
    "Ġbelief": 4547,
    "athe": 4548,
    "Ġwhenever": 4549,
    "Ġexperiences": 4550,
    "Ġrouter": 4551,
    "iest": 4552,
    "Ġbottle": 4553,
    "Ġsoci": 4554,
    "work": 4555,
    "Ġbuildup": 4556,
    "ration": 4557,
    "ĠGroup": 4558,
    "ĠPut": 4559,
    "Ġcaffe": 4560,
    "Ġcaffeine": 4561,
    "Ġnotebook": 4562,
    "Ġsanitary": 4563,
    "Ġsoil": 4564,
    "Ġlost": 4565,
    "Ġsalt": 4566,
    "Ġsharp": 4567,
    "Ġdishwashers": 4568,
    "Ġbackup": 4569,
    "Ġupgrade": 4570,
    "ĠBr": 4571,
    "ĠBrush": 4572,
    "traffic": 4573,
    "60": 4574,
    "Ġnuts": 4575,
    "Ġcups": 4576,
    "ĠSum": 4577,
    "fficient": 4578,
    "ĠEvery": 4579,
    "utions": 4580,
    "ĠThey": 4581,
    "eat": 4582,
    "After": 4583,
    "Ġvents": 4584,
    ".âĢĿ": 4585,
    "Ġchars": 4586,
    "Ġcharger": 4587,
    "Ġdistract": 4588,
    "Ġhumid": 4589,
    "Ġcords": 4590,
    "Ġfan": 4591,
    "Ġblockers": 4592,
    "Ġmanageable": 4593,
    "Ġsmo": 4594,
    "Ġroad": 4595,
    "Ġtrips": 4596,
    "Ġsto": 4597,
    "Ġhang": 4598,
    "Ġstudy": 4599,
    "Ġglare": 4600,
    "Ġrare": 4601,
    "rolling": 4602,
    "Ġfloor": 4603,
    "ĠMove": 4604,
    "Ġexit": 4605,
    "Ġwrink": 4606,
    "ressing": 4607,
    "Ġproduc": 4608,
    "Ġproducers": 4609,
    "Ġseason": 4610,
    "ĠGive": 4611,
    "Ġbehaviors": 4612,
    "Ġcome": 4613,
    "Ġnice": 4614,
    "Ġserve": 4615,
    "resp": 4616,
    "ked": 4617,
    "otes": 4618,
    "ĠMap": 4619,
    "Ġwise": 4620,
    "Ġbloat": 4621,
    "Ġbreakers": 4622,
    "Ġbulk": 4623,
    "ĠDesign": 4624,
    "Ġwashable": 4625,
    "Ġstatic": 4626,
    "ĠSSO": 4627,
    "Ġconcurrent": 4628,
    "iving": 4629,
    "cod": 4630,
    "inite": 4631,
    "ĠDL": 4632,
    "Ġgeneric": 4633,
    "Ġmeta": 4634,
    "Ġmetadata": 4635,
    "Ġscrews": 4636,
    "Ġbranches": 4637,
    "ĠIaC": 4638,
    "Ġtail": 4639,
    "Ġsanity": 4640,
    "ĠServe": 4641,
    "Ġproto": 4642,
    "Ġtelemet": 4643,
    "Ġtelemetry": 4644,
    "vere": 4645,
    "ĠStagger": 4646,
    "uff": 4647,
    "ushing": 4648,
    "through": 4649,
    "Ġscratch": 4650,
    "Ġut": 4651,
    "Ġmetal": 4652,
    "Ġbundles": 4653,
    "Ġresidue": 4654,
    "ggy": 4655,
    "Ġliners": 4656,
    "ength": 4657,
    "Ġupright": 4658,
    "Ġpolitely": 4659,
    "Ġhelping": 4660,
    "Ġpreserve": 4661,
    "Ġrecords": 4662,
    "ĠComm": 4663,
    "ĠCommunic": 4664,
    "ĠCommunicate": 4665,
    "Ġcapture": 4666,
    "when": 4667,
    "Ġwarning": 4668,
    "Ġwarnings": 4669,
    "Ġsus": 4670,
    "lebrate": 4671,
    "Ġtimestamps": 4672,
    "Ġautomated": 4673,
    "PR": 4674,
    "ĠMask": 4675,
    "error": 4676,
    "rotation": 4677,
    "Ġfixt": 4678,
    "Ġfixtures": 4679,
    "tt": 4680,
    "ttp": 4681,
    "ttpO": 4682,
    "ttpOn": 4683,
    "ttpOnly": 4684,
    "Ġotherwise": 4685,
    "Ġsand": 4686,
    "play": 4687,
    "Ġdatabases": 4688,
    "Ġupdated": 4689,
    "Ġcoverage": 4690,
    "Ġwebhooks": 4691,
    "ned": 4692,
    "dates": 4693,
    "green": 4694,
    "ĠRBAC": 4695,
    "Ġartifact": 4696,
    "ĠML": 4697,
    "Ġsemant": 4698,
    "ĠTimeouts": 4699,
    "Ġconfirmations": 4700,
    "ĠEsc": 4701,
    "ĠEscape": 4702,
    "flight": 4703,
    "cards": 4704,
    "Ġvulnerabilities": 4705,
    "ĠExp": 4706,
    "centric": 4707,
    "Ġpatch": 4708,
    "Ġinsecure": 4709,
    "Ġupt": 4710,
    "Ġuptime": 4711,
    "Ġment": 4712,
    "Ġfabric": 4713,
    "Ġpackets": 4714,
    "Ġbugs": 4715,
    "Ġidentify": 4716,
    "Ġtoward": 4717,
    "Ġpen": 4718,
    "Ġconvent": 4719,
    "Ġachievements": 4720,
    "Ġsummaries": 4721,
    "Ġbackfill": 4722,
    "Ġtemperature": 4723,
    "Ġtape": 4724,
    "Ġvertical": 4725,
    "text": 4726,
    "ĠCapt": 4727,
    "ĠCapture": 4728,
    "Ġregion": 4729,
    "Ġbad": 4730,
    "aring": 4731,
    "Ġchallenges": 4732,
    "Ġlean": 4733,
    "Ġparameter": 4734,
    "Ġtight": 4735,
    "Ġsque": 4736,
    "ĠOver": 4737,
    "Ġdigital": 4738,
    "Ġdocu": 4739,
    "Ġdocuments": 4740,
    "aced": 4741,
    "Ġrepetition": 4742,
    "Ġemergency": 4743,
    "Ġmilest": 4744,
    "ĠDi": 4745,
    "ĠDiffe": 4746,
    "ĠDifferent": 4747,
    "ĠClarify": 4748,
    "lines": 4749,
    "Ġactiv": 4750,
    "Ġactivities": 4751,
    "Ġguides": 4752,
    "Ġextras": 4753,
    "ey": 4754,
    "akes": 4755,
    "Ġidle": 4756,
    "Ġpackage": 4757,
    "asting": 4758,
    "Ġpaint": 4759,
    "Ġfurnit": 4760,
    "Ġfurniture": 4761,
    "onges": 4762,
    "reate": 4763,
    "Ġventil": 4764,
    "Ġmater": 4765,
    "99": 4766,
    "Ġmedia": 4767,
    "Ġswe": 4768,
    "ĠXSS": 4769,
    "ĠAcknowledge": 4770,
    "ĠApply": 4771,
    "Ġreplic": 4772,
    "Ġzero": 4773,
    "Ġproxies": 4774,
    "Ġrestores": 4775,
    "Ġfram": 4776,
    "Ġrein": 4777,
    "Ġconflicting": 4778,
    "Ġrather": 4779,
    "Ġshedding": 4780,
    "Ġinit": 4781,
    "Ġwake": 4782,
    "Ġmusic": 4783,
    "orry": 4784,
    "Ġjoke": 4785,
    "ĠSay": 4786,
    "Ġrefers": 4787,
    "privilege": 4788,
    "Ġcontacts": 4789,
    "Ġcharge": 4790,
    "Ġrecently": 4791,
    "ĠAlign": 4792,
    "orage": 4793,
    "Ġbillions": 4794,
    "Ġdeliver": 4795,
    "monitor": 4796,
    "Ġattributes": 4797,
    "Ġwhitelist": 4798,
    "Ġcreation": 4799,
    "Ġrobot": 4800,
    "Ġuncertain": 4801,
    "Ġpattern": 4802,
    "ese": 4803,
    "Ġtoken": 4804,
    "Ġsin": 4805,
    "Ġdescribe": 4806,
    "Ġbelieve": 4807,
    "ler": 4808,
    "ressive": 4809,
    "pressure": 4810,
    "Ġelev": 4811,
    "Ġmom": 4812,
    "Ġpushups": 4813,
    "Ġplank": 4814,
    "Ġgot": 4815,
    "eries": 4816,
    "Ġtangled": 4817,
    "ĠSend": 4818,
    "Ġstair": 4819,
    "Ġtwice": 4820,
    "Ġtrim": 4821,
    "loading": 4822,
    "ĠToggle": 4823,
    "Ġstead": 4824,
    "Ġsteady": 4825,
    "rowser": 4826,
    "Ġtab": 4827,
    "Ġextensions": 4828,
    "ĠBye": 4829,
    "Ġjit": 4830,
    "ĠCal": 4831,
    "Ġmisund": 4832,
    "Ġmisunderst": 4833,
    "Ġweights": 4834,
    "Ġintended": 4835,
    "Ġdeciding": 4836,
    "Ġcells": 4837,
    "Ġfinding": 4838,
    "Ġfixing": 4839,
    "bling": 4840,
    "Ġrepres": 4841,
    "Ġrepresent": 4842,
    "Ġwhole": 4843,
    "Ġcondition": 4844,
    "Ġ=": 4845,
    "dered": 4846,
    "Ġsorting": 4847,
    "writing": 4848,
    "Ġplates": 4849,
    "Ġlikely": 4850,
    "Ġsolid": 4851,
    "Ġliquid": 4852,
    "oration": 4853,
    "Ġcondens": 4854,
    "Ġcondensation": 4855,
    "Ġsentence": 4856,
    "Ġsimul": 4857,
    "Ġunsafe": 4858,
    "Ġability": 4859,
    "ĠUS": 4860,
    "next": 4861,
    "Ġquota": 4862,
    "ĠPause": 4863,
    "ĠConfirm": 4864,
    "Ġstarting": 4865,
    "Ġdecides": 4866,
    "ĠCool": 4867,
    "Ġtracked": 4868,
    "click": 4869,
    "ference": 4870,
    "Ġslightly": 4871,
    "cile": 4872,
    "ĠDec": 4873,
    "Ġalternative": 4874,
    "Ġuncle": 4875,
    "Ġunclear": 4876,
    "Ġedges": 4877,
    "Ġpolit": 4878,
    "reed": 4879,
    "ĠThere": 4880,
    "Ġcove": 4881,
    "Ġcovered": 4882,
    "Ġmitigation": 4883,
    "Ġbeliefs": 4884,
    "Ġperspect": 4885,
    "Ġperspectives": 4886,
    "Ġgenuinely": 4887,
    "Ġvery": 4888,
    "Ġech": 4889,
    "Ġecho": 4890,
    "ugh": 4891,
    "Ġremains": 4892,
    "Ġwants": 4893,
    "RT": 4894,
    "ĠNe": 4895,
    "Ġsocial": 4896,
    "ĠTie": 4897,
    "10": 4898,
    "books": 4899,
    "Ġprim": 4900,
    "Ġput": 4901,
    "Ġbedding": 4902,
    "ĠWater": 4903,
    "Ġrack": 4904,
    "screen": 4905,
    "Ġboard": 4906,
    "Ġclock": 4907,
    "Ġmeds": 4908,
    "Ġalar": 4909,
    "Ġalarms": 4910,
    "Ġ60": 4911,
    "Ġfore": 4912,
    "brell": 4913,
    "ĠWeek": 4914,
    "ĠWeekly": 4915,
    "ĠDrink": 4916,
    "Ġinta": 4917,
    "Ġhydrate": 4918,
    "Ġchanged": 4919,
    "Ġranges": 4920,
    "Ġprin": 4921,
    "vation": 4922,
    "Ġfirmware": 4923,
    "Ġpersistent": 4924,
    "Ġclips": 4925,
    "lete": 4926,
    "ĠRecord": 4927,
    "Ġwip": 4928,
    "Ġfetch": 4929,
    "Ġrice": 4930,
    "Ġchick": 4931,
    "Ġchicken": 4932,
    "Ġformatting": 4933,
    "Ġshowers": 4934,
    "ĠBatch": 4935,
    "Ġpark": 4936,
    "Ġamount": 4937,
    "coh": 4938,
    "Ġtimeline": 4939,
    "Ġinsp": 4940,
    "Ġthermome": 4941,
    "Ġthermometer": 4942,
    "ĠFl": 4943,
    "Ġstabilize": 4944,
    "Ġquarantine": 4945,
    "Ġcheap": 4946,
    "ited": 4947,
    "Ġspecial": 4948,
    "ibly": 4949,
    "Ġposition": 4950,
    "Ġvelo": 4951,
    "Ġveloc": 4952,
    "Ġvelocity": 4953,
    "Ġwisely": 4954,
    "Ġshell": 4955,
    "Ġsuites": 4956,
    "Ġcaut": 4957,
    "Ġcautious": 4958,
    "Ġvary": 4959,
    "ading": 4960,
    "Ġtables": 4961,
    "Ġzones": 4962,
    "Ġrestar": 4963,
    "ĠPers": 4964,
    "Ġimmutable": 4965,
    "ĠIde": 4966,
    "ĠIdemp": 4967,
    "ĠIdempot": 4968,
    "orter": 4969,
    "Ġembed": 4970,
    "Ġgetting": 4971,
    "coded": 4972,
    "driven": 4973,
    "ĠDLQ": 4974,
    "Ġsnacking": 4975,
    "Ġdinners": 4976,
    "ipped": 4977,
    "errer": 4978,
    "Ġlegs": 4979,
    "Ġorganizer": 4980,
    "ĠAt": 4981,
    "ipts": 4982,
    "velope": 4983,
    "Ġoldest": 4984,
    "Ġremotes": 4985,
    "onom": 4986,
    "figured": 4987,
    "Ġsignatures": 4988,
    "Ġprotocol": 4989,
    "Ġlarg": 4990,
    "Ġovercomm": 4991,
    "Ġovercommitting": 4992,
    "Ġrequirements": 4993,
    "Ġbooks": 4994,
    "Ġmessaging": 4995,
    "Ġdecline": 4996,
    "Ġmisses": 4997,
    "Ġoverwat": 4998,
    "Ġoverwatering": 4999,
    "icking": 5000,
    "Ġspans": 5001,
    "omic": 5002,
    "Ġcoord": 5003,
    "ET": 5004,
    "Ġutens": 5005,
    "Ġutensils": 5006,
    "commit": 5007,
    "Ġleaked": 5008,
    "Ġworkers": 5009,
    "ĠPair": 5010,
    "Ġlid": 5011,
    "ded": 5012,
    "Ġsoapy": 5013,
    "Ġsurp": 5014,
    "Ġsurpris": 5015,
    "Ġstr": 5016,
    "Ġpools": 5017,
    "Ġlength": 5018,
    "ĠIsolate": 5019,
    "Ġreasonable": 5020,
    "Ġstreaks": 5021,
    "Ġoccasionally": 5022,
    "Ġdraf": 5023,
    "Ġdrafts": 5024,
    "unct": 5025,
    "Ġcomfor": 5026,
    "Ġoverlap": 5027,
    "Ġexplicitly": 5028,
    "Ġpreview": 5029,
    "ĠReduce": 5030,
    "Ġunnecess": 5031,
    "Ġunnecessarily": 5032,
    "ĠSLI": 5033,
    "LO": 5034,
    "Ġmodes": 5035,
    "ĠPer": 5036,
    "unk": 5037,
    "Ġbounds": 5038,
    "ĠInc": 5039,
    "Ġcelebrate": 5040,
    "ĠADR": 5041,
    "Ġstandardize": 5042,
    "Ġinstrument": 5043,
    "Ġdefin": 5044,
    "Ġpostmortems": 5045,
    "Ġschedulers": 5046,
    "Ġregression": 5047,
    "Ġseeds": 5048,
    "Ġflakiness": 5049,
    "CD": 5050,
    "Ġinterfaces": 5051,
    "ĠSchema": 5052,
    "ĠShared": 5053,
    "ĠHttpOnly": 5054,
    "Ġlifetimes": 5055,
    "ĠmTLS": 5056,
    "ĠCA": 5057,
    "St": 5058,
    "Ġinline": 5059,
    "Ġsanitized": 5060,
    "Ġreplication": 5061,
    "Ġrestricted": 5062,
    "Ġdevelopers": 5063,
    "Ġlinting": 5064,
    "Ġdiscoverable": 5065,
    "eval": 5066,
    "usting": 5067,
    "support": 5068,
    "Ġoverhead": 5069,
    "ĠAss": 5070,
    "Ġscanning": 5071,
    "Ġanomaly": 5072,
    "Ġlifec": 5073,
    "yn": 5074,
    "Ġsending": 5075,
    "ĠJW": 5076,
    "ĠJWT": 5077,
    "issu": 5078,
    "lding": 5079,
    "Ġsemantics": 5080,
    "Ġrendering": 5081,
    "chron": 5082,
    "Ġaccessibility": 5083,
    "Ġwashing": 5084,
    "Ġgeneration": 5085,
    "Ġguidelines": 5086,
    "OR": 5087,
    "controlled": 5088,
    "hemical": 5089,
    "Ġconventions": 5090,
    "gories": 5091,
    "In": 5092,
    "Ġtun": 5093,
    "ĠStructure": 5094,
    "ID": 5095,
    "Ġphoto": 5096,
    "Ġcad": 5097,
    "ĠAuthN": 5098,
    "AuthZ": 5099,
    "Ġinclu": 5100,
    "Ġincluding": 5101,
    "ĠScope": 5102,
    "Ġstapl": 5103,
    "Ġforce": 5104,
    "ĠCol": 5105,
    "inality": 5106,
    "Ġcurtain": 5107,
    "ĠVacuum": 5108,
    "Ġsliding": 5109,
    "Ġtowel": 5110,
    "Ġredundant": 5111,
    "dex": 5112,
    "Ġtheory": 5113,
    "Ġslipping": 5114,
    "rig": 5115,
    "Ġdeprecations": 5116,
    "Ġalternate": 5117,
    "Ġleader": 5118,
    "ĠBase": 5119,
    "Ġevol": 5120,
    "Ġrepo": 5121,
    "Ġsealed": 5122,
    "Ġproduce": 5123,
    "rid": 5124,
    "Ġhonor": 5125,
    "traces": 5126,
    "Ġrug": 5127,
    "Ġchangel": 5128,
    "Ġchangelog": 5129,
    "Ġracks": 5130,
    "Ġdrip": 5131,
    "ĠCover": 5132,
    "Ġresili": 5133,
    "Ġundo": 5134,
    "Ġscans": 5135,
    "Ġmilestones": 5136,
    "Ġdeadlines": 5137,
    "Ġscreenshots": 5138,
    "forward": 5139,
    "Ġincrement": 5140,
    "Ġfilen": 5141,
    "Ġfilenames": 5142,
    "Ġdual": 5143,
    "Ġwaste": 5144,
    "ĠBackward": 5145,
    "Ġblack": 5146,
    "Ġant": 5147,
    "Ġfoods": 5148,
    "Ġfauce": 5149,
    "Ġcausing": 5150,
    "Ġsponges": 5151,
    "ĠCreate": 5152,
    "ĠCDNs": 5153,
    "Ġventilation": 5154,
    "Ġgar": 5155,
    "Ġsave": 5156,
    "Ġpersist": 5157,
    "Ġpractices": 5158,
    "Ġrelax": 5159,
    "stall": 5160,
    "Ġblankets": 5161,
    "Ġneat": 5162,
    "Ġneatly": 5163,
    "Ġseconds": 5164,
    "Ġzipp": 5165,
    "ĠZ": 5166,
    "Ġreplicas": 5167,
    "Ġvars": 5168,
    "Ġ42": 5169,
    "Ġ429": 5170,
    "ork": 5171,
    "Ġrename": 5172,
    "Ġoverlaps": 5173,
    "fo": 5174,
    "Ġpreferences": 5175,
    "Ġcorrupt": 5176,
    "Ġdrag": 5177,
    "apping": 5178,
    "Ġsplatter": 5179,
    "Ġexcl": 5180,
    "Ġnumber": 5181,
    "ĠNever": 5182,
    "ĠRight": 5183,
    "Ġtriggers": 5184,
    "Ġsavings": 5185,
    "Ġbored": 5186,
    "ĠSec": 5187,
    "Ġcalled": 5188,
    "Ġlearns": 5189,
    "Ġsometimes": 5190,
    "ĠSomet": 5191,
    "ĠSometimes": 5192,
    "Ġsorry": 5193,
    "Ġopin": 5194,
    "rets": 5195,
    "hale": 5196,
    "ĠSee": 5197,
    "Ġwelcome": 5198,
    "Ġprograms": 5199,
    "Ġalgor": 5200,
    "Ġreality": 5201,
    "ĠJav": 5202,
    "ĠJava": 5203,
    "ĠJavaS": 5204,
    "ĠJavaSc": 5205,
    "ĠJavaScript": 5206,
    "Ġmonitors": 5207,
    "steps": 5208,
    "luet": 5209,
    "luetooth": 5210,
    "istur": 5211,
    "isturb": 5212,
    "Ġnotice": 5213,
    "agraph": 5214,
    "Ġguar": 5215,
    "Ġguarant": 5216,
    "ees": 5217,
    "OS": 5218,
    "Ġalone": 5219,
    "Ġscientists": 5220,
    "Ġfound": 5221,
    "Ġadding": 5222,
    "canary": 5223,
    "Ġnonces": 5224,
    "hashes": 5225,
    "Ġtagging": 5226,
    "Ġfear": 5227,
    "pre": 5228,
    "Ġalive": 5229,
    "ological": 5230,
    "Ġclocks": 5231,
    "Ġfeels": 5232,
    "Ġguardra": 5233,
    "Ġguardrails": 5234,
    "Ġintent": 5235,
    "Ġthese": 5236,
    "Ġsince": 5237,
    "Ġobjective": 5238,
    "Ġsad": 5239,
    "zing": 5240,
    "dev": 5241,
    "oc": 5242,
    "Ġaggressive": 5243,
    "Ġdictionary": 5244,
    "oped": 5245,
    "plan": 5246,
    "Ġphra": 5247,
    "Ġusable": 5248,
    "rash": 5249,
    "Ġdock": 5250,
    "ĠBl": 5251,
    "Ġrub": 5252,
    "Ġtreat": 5253,
    "factor": 5254,
    "Ġsummarize": 5255,
    "Ġheard": 5256,
    "ĠNote": 5257,
    "Ġreusables": 5258,
    "wing": 5259,
    "Ġdirt": 5260,
    "Ġpaws": 5261,
    "Ġhob": 5262,
    "Ġcompany": 5263,
    "ĠBet": 5264,
    "Ġhandoffs": 5265,
    "Ġgreen": 5266,
    "Ġtabs": 5267,
    "Ġstal": 5268,
    "TT": 5269,
    "Ġseparated": 5270,
    "Ġaudio": 5271,
    "Ġlens": 5272,
    "Ġreviewed": 5273,
    "Ġunblock": 5274,
    "Ġbuilt": 5275,
    "Ġallocate": 5276,
    "rints": 5277,
    "Ġrespectful": 5278,
    "Ġincorrect": 5279,
    "mbling": 5280,
    "Ġmultip": 5281,
    "place": 5282,
    "Ġloop": 5283,
    "Ġarra": 5284,
    "Ġarrays": 5285,
    "Ġordered": 5286,
    "Ġexpon": 5287,
    "Ġrect": 5288,
    "Ġahead": 5289,
    "Ġtypos": 5290,
    "tr": 5291,
    "trans": 5292,
    "Ġclaim": 5293,
    "Ġcorrectly": 5294,
    "Ġdirection": 5295,
    "Ġdepending": 5296,
    "Ġretain": 5297,
    "Ġmys": 5298,
    "Ġmyself": 5299,
    "Ġlove": 5300,
    "Ġwritten": 5301,
    "Ġcurious": 5302,
    "Ġpat": 5303,
    "Ġpredict": 5304,
    "ĠUSB": 5305,
    "ideo": 5306,
    "Ġemails": 5307,
    "ashed": 5308,
    "Ġmeets": 5309,
    "Ġresolve": 5310,
    "Ġcriterion": 5311,
    "ĠCurs": 5312,
    "ĠCursor": 5313,
    "Ġreconcile": 5314,
    "Ġsamples": 5315,
    "Ġhigher": 5316,
    "ĠDep": 5317,
    "Ġmech": 5318,
    "Ġmechan": 5319,
    "Ġuncertainty": 5320,
    "Ġfastest": 5321,
    "aves": 5322,
    "Ġbenef": 5323,
    "UM": 5324,
    "rom": 5325,
    "Ġretire": 5326,
    "Ġindic": 5327,
    "Ġvarious": 5328,
    "Ġdream": 5329,
    "Ġexpress": 5330,
    "Ġfasc": 5331,
    "Ġfascinating": 5332,
    "Ġhide": 5333,
    "comple": 5334,
    "ĠGH": 5335,
    "ĠGHz": 5336,
    "PO": 5337,
    "Ġteach": 5338,
    "Ġqui": 5339,
    "Ġquiet": 5340,
    "Ġstretching": 5341,
    "noon": 5342,
    "ĠSw": 5343,
    "Ġdividers": 5344,
    "Ġdigitally": 5345,
    "Ġbills": 5346,
    "Ġwhite": 5347,
    "Ġintentionally": 5348,
    "Ġsheets": 5349,
    "Ġdrainage": 5350,
    "Ġmini": 5351,
    "Ġmeditation": 5352,
    "glasses": 5353,
    "home": 5354,
    "Ġmonths": 5355,
    "Ġspares": 5356,
    "Ġinbox": 5357,
    "second": 5358,
    "Ġcloudy": 5359,
    "ender": 5360,
    "Ġkids": 5361,
    "Ġfill": 5362,
    "ĠTw": 5363,
    "ĠTwo": 5364,
    "Ġwalks": 5365,
    "Ġnights": 5366,
    "Ġdinner": 5367,
    "Ġsalads": 5368,
    "Ġshif": 5369,
    "Ġshifts": 5370,
    "Ġintake": 5371,
    "ĠSummar": 5372,
    "ĠSummarize": 5373,
    "Ġincl": 5374,
    "Ġdomains": 5375,
    "Ġquantum": 5376,
    "ously": 5377,
    "Ġexplore": 5378,
    "Ġnat": 5379,
    "Ġmodels": 5380,
    "PU": 5381,
    "BI": 5382,
    "Ġforks": 5383,
    "Ġsink": 5384,
    "Ġanxiety": 5385,
    "Ġheadroom": 5386,
    "keys": 5387,
    "Ġstrip": 5388,
    "Ġpieces": 5389,
    "too": 5390,
    "luff": 5391,
    "Ġsmoke": 5392,
    "arse": 5393,
    "Ġwipes": 5394,
    "Ġbowl": 5395,
    "pace": 5396,
    "Ġquantify": 5397,
    "Ġbathro": 5398,
    "Ġbathrooms": 5399,
    "Ġhits": 5400,
    "Ġletter": 5401,
    "Ġheight": 5402,
    "Ġtip": 5403,
    "Ġdro": 5404,
    "ĠCompare": 5405,
    "Ġratio": 5406,
    "Ġfreshen": 5407,
    "Ġjournaling": 5408,
    "Ġfelt": 5409,
    "Ġproceed": 5410,
    "ĠFirst": 5411,
    "Ġdeclutter": 5412,
    "Ġenvs": 5413,
    "Ġlaunch": 5414,
    "Ġoverlay": 5415,
    "ishing": 5416,
    "Ġchatting": 5417,
    "Ġoutdo": 5418,
    "Ġdefer": 5419,
    "Ġreasoning": 5420,
    "Ġestimate": 5421,
    "Ġran": 5422,
    "ularly": 5423,
    "Ġrunners": 5424,
    "Ġtimez": 5425,
    "Ġburnout": 5426,
    "Ġstrategies": 5427,
    "ĠDesignate": 5428,
    "Ġcracking": 5429,
    "Ġwalls": 5430,
    "Ġcredential": 5431,
    "Ġrestarts": 5432,
    "Ġshutdowns": 5433,
    "ĠAudit": 5434,
    "roups": 5435,
    "Ġseek": 5436,
    "sur": 5437,
    "Ġinfinite": 5438,
    "Ġvendors": 5439,
    "ĠRef": 5440,
    "ĠConsistent": 5441,
    "ppers": 5442,
    "Ġreceipts": 5443,
    "Ġdrawer": 5444,
    "Ġenvelope": 5445,
    "icone": 5446,
    "Ġmisconfigured": 5447,
    "Ġmispl": 5448,
    "Ġmisplacing": 5449,
    "Ġstrain": 5450,
    "Ġcloser": 5451,
    "fetching": 5452,
    "ciple": 5453,
    "Ġmeasured": 5454,
    "Ġpas": 5455,
    "Ġpasta": 5456,
    "Ġlarger": 5457,
    "Ġpot": 5458,
    "eam": 5459,
    "Ġovere": 5460,
    "xpos": 5461,
    "Ġoverfetching": 5462,
    "Ġseasonal": 5463,
    "Ġsprays": 5464,
    "ĠRedact": 5465,
    "Ġanywhere": 5466,
    "stick": 5467,
    "Ġsilent": 5468,
    "Ġoats": 5469,
    "Ġexceed": 5470,
    "Ġspo": 5471,
    "reads": 5472,
    "Ġconcurrency": 5473,
    "umping": 5474,
    "Ġmass": 5475,
    "Ġbackpressure": 5476,
    "asters": 5477,
    "Ġreas": 5478,
    "Ġdivers": 5479,
    "Ġdistractions": 5480,
    "Ġearl": 5481,
    "Ġearlier": 5482,
    "What": 5483,
    "Ġbuying": 5484,
    "Ġband": 5485,
    "Ġestimates": 5486,
    "Ġwebsite": 5487,
    "Ġsite": 5488,
    "Ġcomfortable": 5489,
    "urations": 5490,
    "Ġspecs": 5491,
    "ĠEncourage": 5492,
    "Ġlightweight": 5493,
    "Ġdelays": 5494,
    "qual": 5495,
    "ĠPage": 5496,
    "atus": 5497,
    "IP": 5498,
    "Ġsustain": 5499,
    "Ġcup": 5500,
    "avor": 5501,
    "Ġhal": 5502,
    "Ġexperiment": 5503,
    "Ġcult": 5504,
    "Ġlearnings": 5505,
    "Ġblame": 5506,
    "WN": 5507,
    "Ġtracing": 5508,
    "ĠProp": 5509,
    "ĠPropagate": 5510,
    "Ġinstrumentation": 5511,
    "Ġcertific": 5512,
    "Ġadopt": 5513,
    "Ġdefinitions": 5514,
    "late": 5515,
    "Ġevaluations": 5516,
    "Ġautomation": 5517,
    "Ġechoing": 5518,
    "Ġunin": 5519,
    "Ġgate": 5520,
    "Ġlibs": 5521,
    "Ġauthz": 5522,
    "Ġprotected": 5523,
    "Ġcharset": 5524,
    "ĠContent": 5525,
    "Ġchains": 5526,
    "Ġwaits": 5527,
    "Ġsandbox": 5528,
    "Ġcovers": 5529,
    "Ġdeletes": 5530,
    "uded": 5531,
    "Ġpooling": 5532,
    "Ġdatase": 5533,
    "Ġdatasets": 5534,
    "Ġretri": 5535,
    "Ġencrypted": 5536,
    "Ġworkload": 5537,
    "03": 5538,
    "Ġclassify": 5539,
    "limited": 5540,
    "ĠAssign": 5541,
    "Ġtot": 5542,
    "Ġsane": 5543,
    "ĠHST": 5544,
    "ĠHSTS": 5545,
    "Ġoverwhelming": 5546,
    "ĠMinimize": 5547,
    "ĠSample": 5548,
    "regate": 5549,
    "Ġlifecycle": 5550,
    "Ġgz": 5551,
    "Ġgzip": 5552,
    "Ġtransient": 5553,
    "Ġalerting": 5554,
    "Ġsafegu": 5555,
    "Ġintegrations": 5556,
    "Ġchecksum": 5557,
    "Ġcancell": 5558,
    "Ġcancellation": 5559,
    "Ġhos": 5560,
    "endent": 5561,
    "ĠRollback": 5562,
    "Ġanal": 5563,
    "Ġanalysis": 5564,
    "letter": 5565,
    "Ġwildcards": 5566,
    "Ġcontinue": 5567,
    "ĠGenerate": 5568,
    "ervative": 5569,
    "Ġscenarios": 5570,
    "Ġsyn": 5571,
    "Ġrelying": 5572,
    "Ġtimely": 5573,
    "pute": 5574,
    "Ġthank": 5575,
    "Ġspray": 5576,
    "Ġbrainst": 5577,
    "Ġbrainstorm": 5578,
    "Ġdriver": 5579,
    "ĠSQL": 5580,
    "Ġbit": 5581,
    "eth": 5582,
    "irects": 5583,
    "Ġchain": 5584,
    "DPR": 5585,
    "uate": 5586,
    "Ġchemical": 5587,
    "Ġcentrally": 5588,
    "Ġworkflow": 5589,
    "Ġactual": 5590,
    "ĠLinked": 5591,
    "ĠLinkedIn": 5592,
    "ĠRepeat": 5593,
    "Ġasso": 5594,
    "Ġprofessional": 5595,
    "Ġportf": 5596,
    "Ġportfol": 5597,
    "Ġportfolio": 5598,
    "Ġstanding": 5599,
    "Ġstages": 5600,
    "Ġbeforehand": 5601,
    "herence": 5602,
    "Ġlub": 5603,
    "ĠRegular": 5604,
    "Ġsupplies": 5605,
    "shake": 5606,
    "Ġheavi": 5607,
    "Ġheavier": 5608,
    "Ġstaples": 5609,
    "Ġlazy": 5610,
    "real": 5611,
    "Ġcomments": 5612,
    "Ġcommand": 5613,
    "Ġcardinality": 5614,
    "cker": 5615,
    "team": 5616,
    "Ġcurtains": 5617,
    "case": 5618,
    "Ġmachines": 5619,
    "Ġlicenses": 5620,
    "Ġrefrig": 5621,
    "lights": 5622,
    "Ġiron": 5623,
    "Ġdownstream": 5624,
    "Ġnod": 5625,
    "Ġnodes": 5626,
    "Ġelection": 5627,
    "Ġtoys": 5628,
    "Ġtimers": 5629,
    "Ġrevis": 5630,
    "Ġrevisit": 5631,
    "Ġhamp": 5632,
    "Ġhampers": 5633,
    "Ġpartic": 5634,
    "water": 5635,
    "Ġcompress": 5636,
    "cale": 5637,
    "Ġeth": 5638,
    "ĠCollect": 5639,
    "Ġauditable": 5640,
    "Ġoverwrite": 5641,
    "ĠTer": 5642,
    "ĠTerra": 5643,
    "ĠTerraform": 5644,
    "der": 5645,
    "Ġwear": 5646,
    "Ġports": 5647,
    "iors": 5648,
    "ashboard": 5649,
    "Ġresilient": 5650,
    "Ġum": 5651,
    "Ġumbrell": 5652,
    "Ġumbrellas": 5653,
    "raw": 5654,
    "Ġinstances": 5655,
    "Ġspaced": 5656,
    "Ġcharac": 5657,
    "Ġcategories": 5658,
    "ĠIAM": 5659,
    "Ġbroad": 5660,
    "Ġswitching": 5661,
    "trast": 5662,
    "Ġshorter": 5663,
    "Ġskim": 5664,
    "Ġinvite": 5665,
    "def": 5666,
    "ĠPrefer": 5667,
    "Ġrecall": 5668,
    "Ġslices": 5669,
    "rant": 5670,
    "avail": 5671,
    "CS": 5672,
    "Ġoven": 5673,
    "ams": 5674,
    "Ġincons": 5675,
    "isions": 5676,
    "ĠLoad": 5677,
    "Ġshop": 5678,
    "cra": 5679,
    "Ġchairs": 5680,
    "Ġmold": 5681,
    "Ġlaunder": 5682,
    "ĠDust": 5683,
    "Ġanti": 5684,
    "fog": 5685,
    "Ġbuy": 5686,
    "my": 5687,
    "Ġlids": 5688,
    "Ġdeser": 5689,
    "Ġdeserialization": 5690,
    "Ġduplication": 5691,
    "mat": 5692,
    "headers": 5693,
    "edium": 5694,
    "sers": 5695,
    "Ġconfigure": 5696,
    "phone": 5697,
    "Ġhar": 5698,
    "author": 5699,
    "Ġorigin": 5700,
    "Ġstands": 5701,
    "Ġmaterials": 5702,
    "ĠLE": 5703,
    "ĠLED": 5704,
    "Ġcomb": 5705,
    "PA": 5706,
    "Ġodor": 5707,
    "Ġnews": 5708,
    "VP": 5709,
    "ckets": 5710,
    "ories": 5711,
    "Ġhat": 5712,
    "Ġgames": 5713,
    "Ġclamp": 5714,
    "Ġcontribut": 5715,
    "Ġfollowing": 5716,
    "ction": 5717,
    "Ġsound": 5718,
    "Ġleakage": 5719,
    "Ġelectronics": 5720,
    "Ġdesired": 5721,
    "ĠEm": 5722,
    "apply": 5723,
    "iqu": 5724,
    "Ġcopy": 5725,
    "Ġfails": 5726,
    "ĠUX": 5727,
    "Ġinser": 5728,
    "Ġinserts": 5729,
    "Ġtransitions": 5730,
    "Ġdeletions": 5731,
    "ĠConfigure": 5732,
    "Ġesc": 5733,
    "delet": 5734,
    "connect": 5735,
    "Ġframew": 5736,
    "focus": 5737,
    "Ġbecome": 5738,
    "iveness": 5739,
    "ĠNeed": 5740,
    "Ġoperational": 5741,
    "Ġconnected": 5742,
    "ĠMost": 5743,
    "Ġage": 5744,
    "ĠPriv": 5745,
    "live": 5746,
    "Ġalong": 5747,
    "ĠBo": 5748,
    "Ġjudgment": 5749,
    "Ġrequested": 5750,
    "Ġhed": 5751,
    "Ġasks": 5752,
    "urons": 5753,
    "Ġaspect": 5754,
    "Ġintellig": 5755,
    "Ġintelligent": 5756,
    "Ġbeen": 5757,
    ".\"": 5758,
    "Ġprinter": 5759,
    "ĠGreat": 5760,
    "ĠTalk": 5761,
    "ĠMany": 5762,
    "Ġalgorith": 5763,
    "Ġalgorithm": 5764,
    "ĠMach": 5765,
    "ĠMachine": 5766,
    "ality": 5767,
    "Ġlanguages": 5768,
    "ĠEng": 5769,
    "ĠEngine": 5770,
    "Ġword": 5771,
    "ĠPlease": 5772,
    "ĠAccess": 5773,
    "fraid": 5774,
    "Ġdidn": 5775,
    "Ġled": 5776,
    "ĠHas": 5777,
    "ĠAnx": 5778,
    "Ġguarantees": 5779,
    "ĠForce": 5780,
    "open": 5781,
    "Ġexclude": 5782,
    "Ġhaven": 5783,
    "Ġcollecting": 5784,
    "Ġprove": 5785,
    "names": 5786,
    "logging": 5787,
    "env": 5788,
    "Ġturned": 5789,
    "Ġaware": 5790,
    "ĠWithout": 5791,
    "Ġdebate": 5792,
    "Ġwhe": 5793,
    "Ġcreative": 5794,
    "ĠIsn": 5795,
    "Ġlone": 5796,
    "Ġlonely": 5797,
    "Ġtypically": 5798,
    "Ġactually": 5799,
    "Ġrecognize": 5800,
    "Ġama": 5801,
    "Ġamazing": 5802,
    "ĠRestart": 5803,
    "Ġacce": 5804,
    "Ġdrains": 5805,
    "Ġmessy": 5806,
    "Ġoverwhelmed": 5807,
    "Ġban": 5808,
    "Ġinterrupt": 5809,
    "ullet": 5810,
    "Ġsquats": 5811,
    "kne": 5812,
    "knees": 5813,
    "Ġbrisk": 5814,
    "Ġsli": 5815,
    "Ġerrands": 5816,
    "Ġgroceries": 5817,
    "Ġties": 5818,
    "Ġstairs": 5819,
    "med": 5820,
    "Ġmoistur": 5821,
    "Ġmoisturize": 5822,
    "ĠRese": 5823,
    "ĠResearch": 5824,
    "ĠBetter": 5825,
    "Ġretro": 5826,
    "locking": 5827,
    "Ġopening": 5828,
    "Ġblocker": 5829,
    "Ġshad": 5830,
    "Ġverified": 5831,
    "Ġstaleness": 5832,
    "Ġjittered": 5833,
    "Ġversus": 5834,
    "ĠCall": 5835,
    "Ġtrying": 5836,
    "ealing": 5837,
    "Ġsaid": 5838,
    "aut": 5839,
    "filters": 5840,
    "Ġever": 5841,
    "Ġoutd": 5842,
    "Ġoutdated": 5843,
    "igning": 5844,
    "Ġincome": 5845,
    "meth": 5846,
    "methods": 5847,
    "ements": 5848,
    "Ġchoo": 5849,
    "Ġchoosing": 5850,
    "unities": 5851,
    "isms": 5852,
    "Ġinteract": 5853,
    "Ġdrafting": 5854,
    "Ġparties": 5855,
    "Ġcompact": 5856,
    "erator": 5857,
    "Ġcreating": 5858,
    "Ġroutines": 5859,
    "Ġcues": 5860,
    "ields": 5861,
    "verse": 5862,
    "Ġcharges": 5863,
    "Ġaverage": 5864,
    "Ġconvert": 5865,
    "Ġsquared": 5866,
    "Ġterm": 5867,
    "Ġ0": 5868,
    "Ġquantities": 5869,
    "Ġconver": 5870,
    "Ġconverting": 5871,
    "Ġunits": 5872,
    "Ġforms": 5873,
    "Ġstating": 5874,
    "Ġpiece": 5875,
    "Ġparagraph": 5876,
    "Ġannot": 5877,
    "Ġannotations": 5878,
    "Ġindiv": 5879,
    "Ġindivid": 5880,
    "Ġindividual": 5881,
    "Ġner": 5882,
    "Ġnerves": 5883,
    "Ġspeech": 5884,
    "Ġenabled": 5885,
    "Ġwere": 5886,
    "Ġmute": 5887,
    "ĠCorrect": 5888,
    "mic": 5889,
    "Ġhashed": 5890,
    "Ġclip": 5891,
    "Ġmerg": 5892,
    "Ġmerges": 5893,
    "Ġpaus": 5894,
    "Ġcollected": 5895,
    "mo": 5896,
    "Ġraise": 5897,
    "Ġsecured": 5898,
    "Ġminimiz": 5899,
    "Ġmarked": 5900,
    "Ġdebated": 5901,
    "Ġpolitical": 5902,
    "Ġreads": 5903,
    "Ġrequirement": 5904,
    "ĠRUM": 5905,
    "Ġhighest": 5906,
    "pr": 5907,
    "body": 5908,
    "Ġprompts": 5909,
    "Ġabs": 5910,
    "Ġlaugh": 5911,
    "Ġgiven": 5912,
    "Ġenforcement": 5913,
    "Ġwired": 5914,
    "Ġhappening": 5915,
    "ĠRPO": 5916,
    "RTO": 5917,
    "ĠEas": 5918,
    "ĠEasiest": 5919,
    "Ġgrease": 5920,
    "Ġdeeper": 5921,
    "rease": 5922,
    "Ġhydration": 5923,
    "Ġrefill": 5924,
    "Ġstretches": 5925,
    "af": 5926,
    "Ġburnt": 5927,
    "Ġpreheat": 5928,
    "Ġcompleten": 5929,
    "Ġcompleteness": 5930,
    "ĠMatch": 5931,
    "ĠFix": 5932,
    "times": 5933,
    "Ġsunglasses": 5934,
    "Ġminimum": 5935,
    "ĠCalendar": 5936,
    "subsc": 5937,
    "subscribe": 5938,
    "itual": 5939,
    "Ġwee": 5940,
    "Ġweeks": 5941,
    "risp": 5942,
    "Ġbusy": 5943,
    "Ġadvance": 5944,
    "Ġnightst": 5945,
    "Ġtrave": 5946,
    "Ġtraveling": 5947,
    "Ġhandful": 5948,
    "Ġreve": 5949,
    "Ġreveal": 5950,
    "Ġurgent": 5951,
    "Ġrecognizing": 5952,
    "Ġnar": 5953,
    "Ġallows": 5954,
    "Ġfactor": 5955,
    "Ġnatural": 5956,
    "Ġolder": 5957,
    "ĠExternal": 5958,
    "ĠMark": 5959,
    "Ġindoor": 5960,
    "ifier": 5961,
    "Ġventilate": 5962,
    "ĠOK": 5963,
    "Ġaggressively": 5964,
    "Ġfluff": 5965,
    "Ġcush": 5966,
    "Ġcushions": 5967,
    "ĠLead": 5968,
    "Ġrehe": 5969,
    "Ġrehearse": 5970,
    "Ġopenings": 5971,
    "Ġcreep": 5972,
    "ĠMicrofiber": 5973,
    "Ġrecap": 5974,
    "Ġloads": 5975,
    "Ġdeal": 5976,
    "avoid": 5977,
    "Ġhandwriting": 5978,
    "Ġchore": 5979,
    "Ġchores": 5980,
    "Ġthoughts": 5981,
    "Ġdrops": 5982,
    "go": 5983,
    "Ġfiber": 5984,
    "ĠFeature": 5985,
    "Ġtagged": 5986,
    "Ġlighter": 5987,
    "ĠFiles": 5988,
    "ĠChange": 5989,
    "Ġanch": 5990,
    "Ġmock": 5991,
    "Ġextern": 5992,
    "Ġexternals": 5993,
    "Ġpersp": 5994,
    "Ġperspective": 5995,
    "ĠSe": 5996,
    "Ġbillion": 5997,
    "Ġconnecting": 5998,
    "Ġafternoon": 5999,
    "ĠMaster": 6000,
    "Ġsuff": 6001,
    "'d": 6002,
    "Ġbey": 6003,
    "Ġbeyond": 6004,
    "Ġvast": 6005,
    "Ġadapt": 6006,
    "Ġtile": 6007,
    "Ġcoords": 6008,
    "Ġcanaries": 6009,
    "ĠRegularly": 6010,
    "Ġcached": 6011,
    "Ġnearby": 6012,
    "Ġcasc": 6013,
    "Ġslide": 6014,
    "ĠStay": 6015,
    "Ġovercrow": 6016,
    "Ġmarks": 6017,
    "Ġcreds": 6018,
    "Ġcr": 6019,
    "ĠPersist": 6020,
    "Ġcareful": 6021,
    "browser": 6022,
    "Ġdistraction": 6023,
    "process": 6024,
    "Ġgiving": 6025,
    "Ġrights": 6026,
    "Ġhardcoded": 6027,
    "Ġcha": 6028,
    "Ġchaos": 6029,
    "ĠTight": 6030,
    "ĠTighten": 6031,
    "Ġhook": 6032,
    "tach": 6033,
    "IM": 6034,
    "Ġsection": 6035,
    "Ġsilicone": 6036,
    "Ġbuffers": 6037,
    "Ġwildcard": 6038,
    "timeouts": 6039,
    "projects": 6040,
    "Ġmultit": 6041,
    "Ġneck": 6042,
    "Ġphones": 6043,
    "ĠTune": 6044,
    "ĠPr": 6045,
    "Ġamounts": 6046,
    "Ġoverfill": 6047,
    "Ġoverexpos": 6048,
    "ĠScoped": 6049,
    "Ġoverfitting": 6050,
    "Ġexpens": 6051,
    "Ġoverly": 6052,
    "Ġinvites": 6053,
    ",âĢĿ": 6054,
    "Ġaccidents": 6055,
    "Ġcoordinate": 6056,
    "ubs": 6057,
    "Ġsoggy": 6058,
    "Ġlidded": 6059,
    "Ġasset": 6060,
    "stamp": 6061,
    "Ġassignments": 6062,
    "Ġspices": 6063,
    "Ġshelf": 6064,
    "Ġmaps": 6065,
    "Ġsurprises": 6066,
    "ĠWrap": 6067,
    "tling": 6068,
    "Ġworker": 6069,
    "Ġwarp": 6070,
    "Ġcoasters": 6071,
    "move": 6072,
    "Ġfamily": 6073,
    "Ġimprovements": 6074,
    "Ġproductivity": 6075,
    "Ġalready": 6076,
    "Ġbandw": 6077,
    "Ġbandwid": 6078,
    "Ġbandwidth": 6079,
    "ĠTimebox": 6080,
    "ĠIm": 6081,
    "backoff": 6082,
    "Ġreserve": 6083,
    "Ġminor": 6084,
    "Ġimpacts": 6085,
    "mesh": 6086,
    "Ġimpul": 6087,
    "Ġimpulse": 6088,
    "Ġsaved": 6089,
    "Ġsug": 6090,
    "Ġsugary": 6091,
    "polog": 6092,
    "pologize": 6093,
    "Ġcleanly": 6094,
    "Ġscaling": 6095,
    "Ġbur": 6096,
    "Ġsustained": 6097,
    "point": 6098,
    "Ġdifferences": 6099,
    "Ġfrust": 6100,
    "Ġculture": 6101,
    "Ġfailed": 6102,
    "rch": 6103,
    "OWN": 6104,
    "ERS": 6105,
    "Ġadoption": 6106,
    "Ġprovis": 6107,
    "Ġprovision": 6108,
    "Ġscheduling": 6109,
    "ormalize": 6110,
    "Ġaggregation": 6111,
    "rus": 6112,
    "Ġtam": 6113,
    "validate": 6114,
    "Ġlogout": 6115,
    "change": 6116,
    "Ġcodebase": 6117,
    "Ġmodular": 6118,
    "Ġupstream": 6119,
    "oding": 6120,
    "ype": 6121,
    "Ġcerts": 6122,
    "Strict": 6123,
    "Ġbackends": 6124,
    "Ġlayer": 6125,
    "Ġspike": 6126,
    "Ġscrubb": 6127,
    "Ġscrubbing": 6128,
    "Ġlocally": 6129,
    "Ġmocks": 6130,
    "AR": 6131,
    "ĠInventory": 6132,
    "Ġretrieval": 6133,
    "ĠSSL": 6134,
    "xx": 6135,
    "Ġextension": 6136,
    "Ġrat": 6137,
    "Ġappear": 6138,
    "Ġexpire": 6139,
    "Ġtotal": 6140,
    "usive": 6141,
    "ĠPart": 6142,
    "ĠGra": 6143,
    "ĠOpt": 6144,
    "Ġreliably": 6145,
    "Ġserverless": 6146,
    "Ġparity": 6147,
    "CDN": 6148,
    "Ġsafeguards": 6149,
    "Ġtiers": 6150,
    "Ġske": 6151,
    "break": 6152,
    "ĠNTP": 6153,
    "Ġhosts": 6154,
    "Ġfolding": 6155,
    "ĠDLQs": 6156,
    "ĠRel": 6157,
    "ĠReli": 6158,
    "Ġreconnect": 6159,
    "Ġlockfiles": 6160,
    "Ġconservative": 6161,
    "argon": 6162,
    "noise": 6163,
    "ĠProper": 6164,
    "Ġdisc": 6165,
    "Ġmes": 6166,
    "Ġmesh": 6167,
    "Ġskipped": 6168,
    "Ġtransparenc": 6169,
    "Ġtransparency": 6170,
    "Ġrenewals": 6171,
    "ster": 6172,
    "Ġsaying": 6173,
    "Ġstressed": 6174,
    "Ġredirects": 6175,
    "Ġsupply": 6176,
    "ĠGDPR": 6177,
    "long": 6178,
    "Ġchemicals": 6179,
    "Ġdiscoverability": 6180,
    "empl": 6181,
    "emplates": 6182,
    "Ġlinters": 6183,
    "atters": 6184,
    "aboration": 6185,
    "bu": 6186,
    "Ġworkflows": 6187,
    "desk": 6188,
    "Ġposts": 6189,
    "Ġrecommendations": 6190,
    "Ġshoulders": 6191,
    "failures": 6192,
    "Ġtoler": 6193,
    "Ġadherence": 6194,
    "90": 6195,
    "Ġseparation": 6196,
    "Ġconcer": 6197,
    "Ġconcerns": 6198,
    "ĠLay": 6199,
    "Ġseals": 6200,
    "Ġchannel": 6201,
    "Ġpinned": 6202,
    "Ġchatter": 6203,
    "schem": 6204,
    "Ġalternatives": 6205,
    "Ġplaintext": 6206,
    "Ġstaining": 6207,
    "Ġstraight": 6208,
    "code": 6209,
    "Ġrecorded": 6210,
    "ato": 6211,
    "ĠCV": 6212,
    "tops": 6213,
    "ĠDocker": 6214,
    "Ġ.": 6215,
    "Ġunderne": 6216,
    "Ġunderneath": 6217,
    "Ġgrip": 6218,
    "ĠDashboards": 6219,
    "Ġcommands": 6220,
    "Ġgraph": 6221,
    "Ġlubric": 6222,
    "Ġtangling": 6223,
    "Ġcord": 6224,
    "Ġcateg": 6225,
    "Ġcategory": 6226,
    "Ġsegment": 6227,
    "Ġflashlights": 6228,
    "ĠFold": 6229,
    "Ġsticking": 6230,
    "Ġspecul": 6231,
    "Ġspeculation": 6232,
    "Ġpredictable": 6233,
    "Ġleaders": 6234,
    "Ġclosed": 6235,
    "Ġpaginate": 6236,
    "ĠDRY": 6237,
    "Ġdomain": 6238,
    "Ġmugs": 6239,
    "Ġmilde": 6240,
    "Ġdisp": 6241,
    "Ġdispens": 6242,
    "Ġoccur": 6243,
    "ister": 6244,
    "Ġchangelogs": 6245,
    "Ġsoles": 6246,
    "Ġsocks": 6247,
    "portion": 6248,
    "Ġdiagn": 6249,
    "Ġgating": 6250,
    "grades": 6251,
    "Ġflake": 6252,
    "Ġpill": 6253,
    "Ġet": 6254,
    "Ġbounded": 6255,
    "tas": 6256,
    "Ġdebris": 6257,
    "Ġdecor": 6258,
    "Ġsyncs": 6259,
    "Ġdiagra": 6260,
    "Ġapplic": 6261,
    "uster": 6262,
    "Ġknife": 6263,
    "contrast": 6264,
    "ĠSoft": 6265,
    "failure": 6266,
    "ashing": 6267,
    "ĠSoak": 6268,
    "Ġdescript": 6269,
    "Ġops": 6270,
    "mable": 6271,
    "Ġengaging": 6272,
    "maps": 6273,
    "Ġfle": 6274,
    "Ġgather": 6275,
    "Ġmoney": 6276,
    "Ġevolution": 6277,
    "Ġconsumer": 6278,
    "Ġtermin": 6279,
    "Ġcollisions": 6280,
    "Ġexecutable": 6281,
    "Ġdashboard": 6282,
    "Ġfunn": 6283,
    "availability": 6284,
    "marks": 6285,
    "Ġgrocery": 6286,
    "ĠFrid": 6287,
    "ĠFriday": 6288,
    "Ġautos": 6289,
    "ĠSafe": 6290,
    "ĠFelt": 6291,
    "Ġclick": 6292,
    "rame": 6293,
    "Ġsoak": 6294,
    "Ġsmells": 6295,
    "Ġatomic": 6296,
    "Ġhing": 6297,
    "Ġfans": 6298,
    "ict": 6299,
    "Ġfilm": 6300,
    "Ġunpl": 6301,
    "Ġtasting": 6302,
    "Ġflush": 6303,
    "Ġaccepting": 6304,
    "Ġgym": 6305,
    "ially": 6306,
    "Ġprivileges": 6307,
    "Ġweighted": 6308,
    "Ġpots": 6309,
    "Ġwooden": 6310,
    "retri": 6311,
    "retriable": 6312,
    "Ġparsers": 6313,
    "Ġredact": 6314,
    "Ġspam": 6315,
    "TCH": 6316,
    "ĠSSRF": 6317,
    "ĠIPs": 6318,
    "Ġloosely": 6319,
    "Ġlot": 6320,
    "Ġunauthor": 6321,
    "Ġunauthorized": 6322,
    "rename": 6323,
    "ĠMTT": 6324,
    "ĠMTTR": 6325,
    "spl": 6326,
    "lab": 6327,
    "labels": 6328,
    "Ġang": 6329,
    "Ġhumidity": 6330,
    "graph": 6331,
    "brush": 6332,
    "Ġburs": 6333,
    "Ġbursts": 6334,
    "Ġdiff": 6335,
    "Ġquiz": 6336,
    "Ġjump": 6337,
    "Ġhosting": 6338,
    "Ġversat": 6339,
    "Ġversatile": 6340,
    "Ġbrushing": 6341,
    "Ġrefrigerate": 6342,
    "30": 6343,
    "pick": 6344,
    "imation": 6345,
    "Ġparameters": 6346,
    "Ġsupported": 6347,
    "Ġreceived": 6348,
    "Ġreplay": 6349,
    "ĠInst": 6350,
    "ĠInstrument": 6351,
    "Ġprotot": 6352,
    "Ġelectronic": 6353,
    "Ġcircuits": 6354,
    "Ġreduction": 6355,
    "Ġmigrate": 6356,
    "Ġtried": 6357,
    "ĠListen": 6358,
    "Ġdam": 6359,
    "Ġpublicly": 6360,
    "cations": 6361,
    "Ġzipper": 6362,
    "Ġacid": 6363,
    "Ġsou": 6364,
    "Ġoverbroad": 6365,
    "Ġfire": 6366,
    "ĠHigh": 6367,
    "ĠKnow": 6368,
    "draw": 6369,
    "inking": 6370,
    "services": 6371,
    "Ġqueu": 6372,
    "Ġcollision": 6373,
    "iments": 6374,
    "olid": 6375,
    "nuts": 6376,
    "Ġprocra": 6377,
    "Ġprocrast": 6378,
    "Ġlinked": 6379,
    "Ġchoice": 6380,
    "MS": 6381,
    "Ġcapped": 6382,
    "Ġcompens": 6383,
    "Ġframework": 6384,
    "Ġtravers": 6385,
    "Ġtraversal": 6386,
    "Ġthre": 6387,
    "Ġcip": 6388,
    "usage": 6389,
    "ĠRay": 6390,
    "ĠRaycast": 6391,
    "Ġtwe": 6392,
    "Ġbrushes": 6393,
    "Ġdedu": 6394,
    "Ġdedupe": 6395,
    "online": 6396,
    "Ġwaiting": 6397,
    "life": 6398,
    "Ġolive": 6399,
    "Ġvalu": 6400,
    "Ġnotify": 6401,
    "Ġtrip": 6402,
    "Ġsquee": 6403,
    "etwork": 6404,
    "Ġliving": 6405,
    "async": 6406,
    "Ġburning": 6407,
    "Ġscene": 6408,
    "Ġmill": 6409,
    "?âĢĿ?": 6410,
    "acr": 6411,
    "acrif": 6412,
    "acrifice": 6413,
    "Ġreact": 6414,
    "ĠYour": 6415,
    "Ġ8": 6416,
    "Ġneurons": 6417,
    "ĠStructured": 6418,
    "Ġindep": 6419,
    "Ġpositive": 6420,
    "Ġguess": 6421,
    "Ġanxious": 6422,
    "Ġwhatever": 6423,
    "Ġwonder": 6424,
    "Ġwonderful": 6425,
    "ĠCome": 6426,
    "Ġscare": 6427,
    "ĠIncident": 6428,
    "ĠLapt": 6429,
    "ĠLaptop": 6430,
    "ĠBec": 6431,
    "No": 6432,
    "Ġhumor": 6433,
    "ĠNice": 6434,
    "Ġprogrammer": 6435,
    "ĠPrevent": 6436,
    "ĠPrivacy": 6437,
    "ĠSecrets": 6438,
    "oney": 6439,
    "ĠHere": 6440,
    "ĠWant": 6441,
    "ĠWay": 6442,
    "Ġlimitations": 6443,
    "ĠAm": 6444,
    "ĠSci": 6445,
    "Ġinspired": 6446,
    "Ġcrypt": 6447,
    "Ġpredictions": 6448,
    "ĠProgra": 6449,
    "ĠProgramm": 6450,
    "Ġbeginners": 6451,
    "Ġpopular": 6452,
    "Ġstance": 6453,
    "ING": 6454,
    "Ġreader": 6455,
    "Ġmaintained": 6456,
    "Ġrange": 6457,
    "Ġpairing": 6458,
    "disturb": 6459,
    "Ġdirectly": 6460,
    "ĠAlerts": 6461,
    "Ġreopen": 6462,
    "Ġremoval": 6463,
    "Ġstars": 6464,
    "Ġprobably": 6465,
    "monitoring": 6466,
    "Ġmasking": 6467,
    "Ġspan": 6468,
    "erting": 6469,
    "Ġsampled": 6470,
    "supp": 6471,
    "visible": 6472,
    "Ġwhitelisted": 6473,
    "Ġafraid": 6474,
    "Ġbiological": 6475,
    "Ġsoph": 6476,
    "Ġsophistic": 6477,
    "Ġsophisticated": 6478,
    "Ġpassing": 6479,
    "Ġwhether": 6480,
    "Ġconstit": 6481,
    "Ġconstitutes": 6482,
    "Ġrecom": 6483,
    "Ġhonest": 6484,
    "Ġmirror": 6485,
    "matching": 6486,
    "Ġexistence": 6487,
    "Ġemotional": 6488,
    "Ġsentient": 6489,
    "Ġlack": 6490,
    "Ġcreat": 6491,
    "Ġcreativity": 6492,
    "ĠHum": 6493,
    "device": 6494,
    "Ġentries": 6495,
    "ifying": 6496,
    "Ġperfectionism": 6497,
    "bit": 6498,
    "ague": 6499,
    "Ġtestable": 6500,
    "Ġoperate": 6501,
    "attery": 6502,
    "Ġpapers": 6503,
    "Ġcalmly": 6504,
    "Ġseeing": 6505,
    "Ġelevated": 6506,
    "Ġflip": 6507,
    "Ġmoment": 6508,
    "ĠBlot": 6509,
    "bullet": 6510,
    "Ġgear": 6511,
    "Ġeating": 6512,
    "Ġtrimmed": 6513,
    "Ġunloading": 6514,
    "Ġhobby": 6515,
    "ĠSTA": 6516,
    "Ġretros": 6517,
    "How": 6518,
    "ĠBluetooth": 6519,
    "ales": 6520,
    "ĠBT": 6521,
    "Ġtap": 6522,
    "Ġremain": 6523,
    "sound": 6524,
    "ĠAlways": 6525,
    "outputs": 6526,
    "Ġlibrary": 6527,
    "Ġreaders": 6528,
    "Ġproving": 6529,
    "att": 6530,
    "Ġdisag": 6531,
    "Ġpinning": 6532,
    "Ġmappings": 6533,
    "Ġgenet": 6534,
    "Ġgenetic": 6535,
    "Ġinteracting": 6536,
    "Ġscra": 6537,
    "Ġauthorized": 6538,
    "omin": 6539,
    "Ġattract": 6540,
    "wards": 6541,
    "Ġyields": 6542,
    "Ġacqu": 6543,
    "Ġrecording": 6544,
    "Ġrectang": 6545,
    "bra": 6546,
    "ided": 6547,
    "Ġbond": 6548,
    "Ġcapturing": 6549,
    "Ġreceives": 6550,
    "Ġox": 6551,
    "Ġoxy": 6552,
    "Ġexactly": 6553,
    "Ġdivis": 6554,
    "Ġthems": 6555,
    "Ġthemsel": 6556,
    "Ġthemselves": 6557,
    "Ġcalling": 6558,
    "Ġmatching": 6559,
    "Ġextract": 6560,
    "veys": 6561,
    "amed": 6562,
    "Ġmagn": 6563,
    "Ġmagnitude": 6564,
    "Ġatmos": 6565,
    "Ġmath": 6566,
    "Ġmathem": 6567,
    "Ġmathemat": 6568,
    "Ġconcern": 6569,
    "ĠHowever": 6570,
    "Ġshouldn": 6571,
    "Ġmim": 6572,
    "Ġmimic": 6573,
    "Ġbrowse": 6574,
    "ĠOnce": 6575,
    "Ġthought": 6576,
    "Ġthinking": 6577,
    "Ġeject": 6578,
    "lume": 6579,
    "Ġvideo": 6580,
    "acc": 6581,
    "wall": 6582,
    "Ġstream": 6583,
    "Ġsyncing": 6584,
    "Ġrestate": 6585,
    "ĠCost": 6586,
    "Ġcrashes": 6587,
    "pad": 6588,
    "ĠCut": 6589,
    "Ġarg": 6590,
    "Ġargue": 6591,
    "Ġpartitioned": 6592,
    "ev": 6593,
    "ends": 6594,
    "Ġdesire": 6595,
    "reedom": 6596,
    "Ġconsens": 6597,
    "Ġconsensus": 6598,
    "Ġmanaged": 6599,
    "Ġtargeting": 6600,
    "Ġbenefit": 6601,
    "Ġurg": 6602,
    "Ġurgency": 6603,
    "Ġsooner": 6604,
    "Ġtrending": 6605,
    "ĠGod": 6606,
    "Ġforming": 6607,
    "Ġtired": 6608,
    "Ġprocessed": 6609,
    "awareness": 6610,
    "Ġstateless": 6611,
    "Ġdeath": 6612,
    "Ġshaped": 6613,
    "remember": 6614,
    "failover": 6615,
    "ciated": 6616,
    "Ġboo": 6617,
    "Ġboost": 6618,
    "Ġbedtime": 6619,
    "Ġcabine": 6620,
    "Ġcabinets": 6621,
    "Ġoverst": 6622,
    "Ġmoments": 6623,
    "Ġdependence": 6624,
    "Ġprimary": 6625,
    "Ġspaces": 6626,
    "ĠAutop": 6627,
    "ĠAutopay": 6628,
    "Ġfloss": 6629,
    "Ġtooth": 6630,
    "Ġsit": 6631,
    "Ġbreathe": 6632,
    "ĠFixed": 6633,
    "ĠUnsubscribe": 6634,
    "ĠWind": 6635,
    "Ġritual": 6636,
    "Ġskin": 6637,
    "Ġwasher": 6638,
    "Ġtender": 6639,
    "crisp": 6640,
    "Ġmornings": 6641,
    "Ġendless": 6642,
    "Ġbrowsing": 6643,
    "Ġnightstands": 6644,
    "Ġlamp": 6645,
    "Ġboiled": 6646,
    "seed": 6647,
    "seeds": 6648,
    "Ġforecast": 6649,
    "Ġrecycle": 6650,
    "Ġcompleted": 6651,
    "ipment": 6652,
    "Ġrolls": 6653,
    "Ġreviewers": 6654,
    "Ġreconc": 6655,
    "Ġreconcili": 6656,
    "Ġreconciliation": 6657,
    "Ġhypothesis": 6658,
    "ĠWhile": 6659,
    "Ġsimult": 6660,
    "Ġsimultane": 6661,
    "Ġsolutions": 6662,
    "cel": 6663,
    "Ġoptimization": 6664,
    "Ġtransformers": 6665,
    "ĠTrans": 6666,
    "Ġinno": 6667,
    "Ġinnovation": 6668,
    "Ġweigh": 6669,
    "quential": 6670,
    "ĠMan": 6671,
    "ĠFair": 6672,
    "BIOS": 6673,
    "ĠBrief": 6674,
    "Ġcancel": 6675,
    "ruit": 6676,
    "urgent": 6677,
    "Ġexpectation": 6678,
    "ĠHooks": 6679,
    "Ġdiscard": 6680,
    "Ġjew": 6681,
    "Ġjewel": 6682,
    "Ġjewelry": 6683,
    "mark": 6684,
    "ĠDelete": 6685,
    "Ġtrue": 6686,
    "Ġpresentations": 6687,
    "quin": 6688,
    "quino": 6689,
    "quinoa": 6690,
    "Ġasse": 6691,
    "mble": 6692,
    "ĠRa": 6693,
    "ĠRaise": 6694,
    "Ġverbs": 6695,
    "Ġrarely": 6696,
    "Ġappliances": 6697,
    "Ġinterru": 6698,
    "Ġinterruptions": 6699,
    "Ġfewer": 6700,
    "Ġproductive": 6701,
    "Ġscroll": 6702,
    "ĠSingle": 6703,
    "Ġwrinkles": 6704,
    "hang": 6705,
    "ĠDrop": 6706,
    "merge": 6707,
    "you": 6708,
    "reaming": 6709,
    "Ġep": 6710,
    "isode": 6711,
    "pots": 6712,
    "Ġworst": 6713,
    "Ġlunches": 6714,
    "Ġdressing": 6715,
    "Ġcommitting": 6716,
    "cohort": 6717,
    "Ġupload": 6718,
    "Ġsalary": 6719,
    "ias": 6720,
    "Ġanchor": 6721,
    "aky": 6722,
    "ĠForget": 6723,
    "ĠPC": 6724,
    "ĠConsider": 6725,
    "Ġentire": 6726,
    "Ġentirely": 6727,
    "Ġoutdoors": 6728,
    "DM": 6729,
    "Ġreseat": 6730,
    "ĠWelcome": 6731,
    "Ġexc": 6732,
    "Ġexcited": 6733,
    "Ġreaching": 6734,
    "respons": 6735,
    "ĠPower": 6736,
    "Ġbulbs": 6737,
    "Ġthanks": 6738,
    "Ġincomp": 6739,
    "Ġmarker": 6740,
    "Ġcapsu": 6741,
    "Ġcapsule": 6742,
    "Ġdiscussions": 6743,
    "Ġartic": 6744,
    "ĠOKR": 6745,
    "ĠOKRs": 6746,
    "reli": 6747,
    "paces": 6748,
    "Ġtimezones": 6749,
    "setting": 6750,
    "ĠVersioned": 6751,
    "ĠET": 6752,
    "Ġcascading": 6753,
    "Ġdishwasher": 6754,
    "Ġlogically": 6755,
    "Ġcrack": 6756,
    "rated": 6757,
    "Ġboil": 6758,
    "Ġcrum": 6759,
    "Ġlocking": 6760,
    "Ġgroups": 6761,
    "processing": 6762,
    "ĠIdempotency": 6763,
    "ĠFlags": 6764,
    "Ġembedding": 6765,
    "Ġverbo": 6766,
    "Ġverbose": 6767,
    "bots": 6768,
    "ming": 6769,
    "Ġgasket": 6770,
    "ĠRole": 6771,
    "surfaces": 6772,
    "Ġpeak": 6773,
    "ĠCap": 6774,
    "Ġreferrer": 6775,
    "ĠReferrer": 6776,
    "Po": 6777,
    "Polic": 6778,
    "Policy": 6779,
    "Ġhostnames": 6780,
    "spot": 6781,
    "ĠAttach": 6782,
    "ifiers": 6783,
    "ĠSIM": 6784,
    "Ġcash": 6785,
    "Ġintegrate": 6786,
    "Ġcontinuously": 6787,
    "onomy": 6788,
    "Ġbalancers": 6789,
    "Ġmultitasking": 6790,
    "Ġdeduplic": 6791,
    "ĠMinim": 6792,
    "ĠMinimal": 6793,
    "permiss": 6794,
    "ĠPrin": 6795,
    "ĠPrinciple": 6796,
    "Ġrevo": 6797,
    "Ġrevoke": 6798,
    "Ġcommitments": 6799,
    "ĠSteam": 6800,
    "Ã©": 6801,
    "Ġserving": 6802,
    "Ġexpensive": 6803,
    "Ġbackf": 6804,
    "Ġbackfills": 6805,
    "uffing": 6806,
    "Ġdeeply": 6807,
    "ĠNotify": 6808,
    "Ġincrements": 6809,
    "mod": 6810,
    "Ġtree": 6811,
    "Ġrace": 6812,
    "Ġreord": 6813,
    "Ġscratches": 6814,
    "ĠFail": 6815,
    "alert": 6816,
    "Ġredundanc": 6817,
    "Ġredundancy": 6818,
    "Ġovernight": 6819,
    "kip": 6820,
    "Ġvent": 6821,
    "Ġreturning": 6822,
    "Ġye": 6823,
    "Ġyearly": 6824,
    "ĠPreheat": 6825,
    "Ġforked": 6826,
    "ob": 6827,
    "Ġgor": 6828,
    "Ġgorout": 6829,
    "ĠWhitelist": 6830,
    "Ġsoaking": 6831,
    "tested": 6832,
    "Ġgreet": 6833,
    "Ġkindly": 6834,
    "Ġnature": 6835,
    "Ġhappiness": 6836,
    "Ġreasons": 6837,
    "Ġappo": 6838,
    "Ġappoint": 6839,
    "Ġappointments": 6840,
    "Ġdiverse": 6841,
    "Ġengage": 6842,
    "ipate": 6843,
    "Ġclosely": 6844,
    "Ġteamm": 6845,
    "Ġteammates": 6846,
    "Ġworry": 6847,
    "funct": 6848,
    "Ġreduces": 6849,
    "ĠPres": 6850,
    "ĠPresent": 6851,
    "quality": 6852,
    "Ġconstrain": 6853,
    "Ġnavmesh": 6854,
    "Ġ24": 6855,
    "Ġpaging": 6856,
    "Ġ500": 6857,
    "SLO": 6858,
    "Ġfairly": 6859,
    "Ġflavor": 6860,
    "Ġhalf": 6861,
    "Ġbro": 6862,
    "Ġtriage": 6863,
    "ĠADRs": 6864,
    "ĠCOD": 6865,
    "ĠCODE": 6866,
    "ĠCODEOWN": 6867,
    "ĠCODEOWNERS": 6868,
    "Ġcertificates": 6869,
    "ĠNormalize": 6870,
    "ĠDST": 6871,
    "timez": 6872,
    "release": 6873,
    "Ġvirus": 6874,
    "pered": 6875,
    "Ġlocked": 6876,
    "Ġvendor": 6877,
    "Ġoverwrit": 6878,
    "Ġcou": 6879,
    "Ġcoupl": 6880,
    "Ġcoupling": 6881,
    "Ġdiscovery": 6882,
    "Ġindicators": 6883,
    "Ġstrings": 6884,
    "lation": 6885,
    "tainers": 6886,
    "chains": 6887,
    "Ġtransforms": 6888,
    "Type": 6889,
    "ĠLax": 6890,
    "inline": 6891,
    "ĠwhatÃ¢": 6892,
    "ĠIdempotent": 6893,
    "Ġaudited": 6894,
    "Ġsmoothly": 6895,
    "write": 6896,
    "Ġstartups": 6897,
    "artif": 6898,
    "artifacts": 6899,
    "ĠLock": 6900,
    "ĠEdu": 6901,
    "ĠEducation": 6902,
    "RE": 6903,
    "Ġtit": 6904,
    "Ġstays": 6905,
    "ĠDS": 6906,
    "busting": 6907,
    "Ġstrictly": 6908,
    "Ġdistribution": 6909,
    "limits": 6910,
    "Ġmeasurements": 6911,
    "Ġscribe": 6912,
    "Ġjourne": 6913,
    "Ġjourneys": 6914,
    "Ġgaps": 6915,
    "Ġbalancer": 6916,
    "Ġeffects": 6917,
    "Ġseen": 6918,
    "ĠInte": 6919,
    "making": 6920,
    "ĠPartition": 6921,
    "ĠOptimize": 6922,
    "Ġbak": 6923,
    "Ġbaked": 6924,
    "duration": 6925,
    "gener": 6926,
    "generated": 6927,
    "Ġpayload": 6928,
    "Ġdisk": 6929,
    "Ġcompression": 6930,
    "bro": 6931,
    "brotl": 6932,
    "brotli": 6933,
    "ĠNames": 6934,
    "ynam": 6935,
    "ynamic": 6936,
    "Ġreputable": 6937,
    "Ġproviders": 6938,
    "issuer": 6939,
    "Ġskew": 6940,
    "breakers": 6941,
    "Ġtoggling": 6942,
    "dependent": 6943,
    "gments": 6944,
    "Ġfinal": 6945,
    "ĠReliable": 6946,
    "Ġresets": 6947,
    "Ġstreaming": 6948,
    "Ġirre": 6949,
    "Ġirreversible": 6950,
    "Ġbinaries": 6951,
    "Ġdistribute": 6952,
    "Ġformul": 6953,
    "Ġformulas": 6954,
    "Ġtransfer": 6955,
    "pes": 6956,
    "Ġwebro": 6957,
    "Ġwebroot": 6958,
    "ĠDeploy": 6959,
    "exec": 6960,
    "Ġhandl": 6961,
    "Ġhandlers": 6962,
    "ĠDen": 6963,
    "ĠDeny": 6964,
    "fields": 6965,
    "opes": 6966,
    "Ġhitting": 6967,
    "Ġsynchron": 6968,
    "ĠStatus": 6969,
    "Ġprovider": 6970,
    "Ġinterviews": 6971,
    "Ġmention": 6972,
    "Ġbrainstorming": 6973,
    "ĠSwitch": 6974,
    "explain": 6975,
    "explaining": 6976,
    "ĠyouÃ¢": 6977,
    "Ġgrate": 6978,
    "Ġgrateful": 6979,
    "Ġhad": 6980,
    "ĠPriorit": 6981,
    "ĠPrioritize": 6982,
    "Ġshallow": 6983,
    "ĠSmooth": 6984,
    "Ġoffsets": 6985,
    "Ġparsing": 6986,
    "ĠRandom": 6987,
    "Ġarchitectural": 6988,
    "templates": 6989,
    "Ġgroom": 6990,
    "Ġgrooming": 6991,
    "formatters": 6992,
    "Ġcollaboration": 6993,
    "ĠInvol": 6994,
    "ĠInvolve": 6995,
    "Ġstudying": 6996,
    "ĠPost": 6997,
    "ĠSpeed": 6998,
    "ĠREADMEs": 6999,
    "Ġdisaster": 7000,
    "Ġhandoff": 7001,
    "Ġinformed": 7002,
    "Ġmeaningfully": 7003,
    "Ġtuned": 7004,
    "IDs": 7005,
    "Ġassociate": 7006,
    "Ġcue": 7007,
    "ĠQue": 7008,
    "ĠQueue": 7009,
    "Ġprofile": 7010,
    "Ġfiller": 7011,
    "Ġpipeline": 7012,
    "Ġtimings": 7013,
    "Ġhourly": 7014,
    "align": 7015,
    "gregate": 7016,
    "ĠExpand": 7017,
    "Ġnoon": 7018,
    "EL": 7019,
    "Ġfactories": 7020,
    "builders": 7021,
    "ĠTarget": 7022,
    "Ġfish": 7023,
    "Ġdemos": 7024,
    "Ġtire": 7025,
    "Ġbra": 7026,
    "Ġmodule": 7027,
    "lay": 7028,
    "storage": 7029,
    "Ġinventory": 7030,
    "Ġcadence": 7031,
    "helves": 7032,
    "pack": 7033,
    "mer": 7034,
    "drivers": 7035,
    "Ġworn": 7036,
    "Ġgoods": 7037,
    "requent": 7038,
    "Ġbroom": 7039,
    "Ġbrist": 7040,
    "Ġreusing": 7041,
    "Ġpurge": 7042,
    "Ġprivileged": 7043,
    "Ġgrind": 7044,
    "coding": 7045,
    "Ġcleaners": 7046,
    "index": 7047,
    "select": 7048,
    "tools": 7049,
    "Ġlubricant": 7050,
    "sized": 7051,
    "Ġsnug": 7052,
    "Ġfunds": 7053,
    "Ġsealing": 7054,
    "Ġfoil": 7055,
    "issues": 7056,
    "Ġlasting": 7057,
    "ĠImp": 7058,
    "ĠImpact": 7059,
    "ĠHA": 7060,
    "Ġdisplay": 7061,
    "Ġpods": 7062,
    "Ġleadership": 7063,
    "Ġdiver": 7064,
    "Ġtraps": 7065,
    "Ġsubs": 7066,
    "Ġsubset": 7067,
    "Ġpropagate": 7068,
    "consum": 7069,
    "Ġgloves": 7070,
    "Ġcub": 7071,
    "Ġresolved": 7072,
    "Ġremedi": 7073,
    "Ġremediation": 7074,
    "Ġthrow": 7075,
    "Ġthrows": 7076,
    "Ġwatering": 7077,
    "Ġdispenser": 7078,
    "Ġgri": 7079,
    "Ġgrippers": 7080,
    "tags": 7081,
    "ĠGit": 7082,
    "stop": 7083,
    "marking": 7084,
    "ĠSLIs": 7085,
    "Ġstandups": 7086,
    "resour": 7087,
    "Ġign": 7088,
    "Ġupgrades": 7089,
    "Ġmaintainable": 7090,
    "Ġetc": 7091,
    "Ġcopies": 7092,
    "Ġdeltas": 7093,
    "Ġ*": 7094,
    "Ġcharacter": 7095,
    "Ġdiagrams": 7096,
    "Ġcentralized": 7097,
    "cance": 7098,
    "Ġcluster": 7099,
    "Ġcheckpoints": 7100,
    "ĠAdditive": 7101,
    "Ġclaw": 7102,
    "ĠDeclutter": 7103,
    "Ġalt": 7104,
    "Ġjargon": 7105,
    "washing": 7106,
    "asts": 7107,
    "Ġtimed": 7108,
    "Ġsprints": 7109,
    "Ġste": 7110,
    "Ġheadings": 7111,
    "Ġroadmaps": 7112,
    "Ġthemes": 7113,
    "Ġflex": 7114,
    "vinegar": 7115,
    "Ġcu": 7116,
    "ĠGrant": 7117,
    "Ġincremental": 7118,
    "Ġtack": 7119,
    "ĠSn": 7120,
    "ĠStage": 7121,
    "Ġcutover": 7122,
    "Ġpreference": 7123,
    "CSP": 7124,
    "Ġfabrics": 7125,
    "Ġcomf": 7126,
    "Ġincrementally": 7127,
    "ĠEval": 7128,
    "ĠEvaluate": 7129,
    "drying": 7130,
    "Ġinconsist": 7131,
    "Ġmalic": 7132,
    "Ġmalicious": 7133,
    "Ġbreaches": 7134,
    "Ġvit": 7135,
    "Ġbottlenecks": 7136,
    "Ġjars": 7137,
    "season": 7138,
    "ĠLow": 7139,
    "izers": 7140,
    "Ġwra": 7141,
    "runbooks": 7142,
    "Ġaccesses": 7143,
    "style": 7144,
    "Ġautoscal": 7145,
    "Ġautoscaling": 7146,
    "Ġdeleting": 7147,
    "runs": 7148,
    "Con": 7149,
    "Control": 7150,
    "jacking": 7151,
    "Frame": 7152,
    "hum": 7153,
    "humid": 7154,
    "ĠImpro": 7155,
    "ĠImprove": 7156,
    "Ġoverp": 7157,
    "locks": 7158,
    "valid": 7159,
    "resist": 7160,
    "resistant": 7161,
    "yles": 7162,
    "Ġpict": 7163,
    "Ġframes": 7164,
    "Ġdependent": 7165,
    "Ġfoggy": 7166,
    "Ġrelief": 7167,
    "Ġunplug": 7168,
    "Ġpipes": 7169,
    "Ġfaucets": 7170,
    "tering": 7171,
    "Ġrap": 7172,
    "Ġrapid": 7173,
    "Ġglassware": 7174,
    "Ġputting": 7175,
    "rers": 7176,
    "seal": 7177,
    "sealed": 7178,
    "Ġprints": 7179,
    "Ġmusty": 7180,
    "Ġorph": 7181,
    "Ġorphan": 7182,
    "ĠSpec": 7183,
    "ption": 7184,
    "ĠMedium": 7185,
    "Ġesp": 7186,
    "Ġespec": 7187,
    "Ġespecially": 7188,
    "Ġruntimes": 7189,
    "Ġedu": 7190,
    "ĠRegenerate": 7191,
    "Ġparameterized": 7192,
    "ORM": 7193,
    "Ġbusting": 7194,
    "new": 7195,
    "severity": 7196,
    "Ġpromote": 7197,
    "Ġdowngrade": 7198,
    "Ġprotocols": 7199,
    "Ġweak": 7200,
    "Ġdoneness": 7201,
    "Ġbars": 7202,
    "ĠStabilize": 7203,
    "split": 7204,
    "Ġballs": 7205,
    "Ġfaucet": 7206,
    "Ġmas": 7207,
    "Ġmasks": 7208,
    "Ġangle": 7209,
    "Ġamb": 7210,
    "Ġdriving": 7211,
    "Ġlooking": 7212,
    "Ġstri": 7213,
    "Ġsubsc": 7214,
    "Ġsubscriptions": 7215,
    "Ġpracticed": 7216,
    "Ġsch": 7217,
    "Ġschool": 7218,
    "ĠCharge": 7219,
    "Ġrebuild": 7220,
    "Ġcurf": 7221,
    "Ġcurfew": 7222,
    "Ġsweets": 7223,
    "hot": 7224,
    "Ġvolumes": 7225,
    "Ġwrinkling": 7226,
    "Ġbrands": 7227,
    "Ġhun": 7228,
    "Ġhung": 7229,
    "Ġhungry": 7230,
    "ĠProt": 7231,
    "ĠProtect": 7232,
    "update": 7233,
    "complex": 7234,
    "complexity": 7235,
    "Ġedits": 7236,
    "Ġbuckets": 7237,
    "Ġmut": 7238,
    "ĠReason": 7239,
    "ĠReasonable": 7240,
    "solving": 7241,
    "ĠCook": 7242,
    "Ġrelaxation": 7243,
    "ĠCompress": 7244,
    "ĠBrew": 7245,
    "Ġmotivated": 7246,
    "Ġvisually": 7247,
    "Ġrus": 7248,
    "Ġrushed": 7249,
    "Ġrusting": 7250,
    "Ġdooms": 7251,
    "Ġdoomsc": 7252,
    "Ġdoomscrolling": 7253,
    "brushes": 7254,
    "Ġjun": 7255,
    "Ġjuniors": 7256,
    "Ġanimation": 7257,
    "max": 7258,
    "ĠWeb": 7259,
    "Ġcontributors": 7260,
    "Ġprototy": 7261,
    "Ġproced": 7262,
    "ĠCompu": 7263,
    "ĠComputers": 7264,
    "ĠBy": 7265,
    "Ġsounds": 7266,
    "Ġpromot": 7267,
    "Ġmentoring": 7268,
    "Ġasyn": 7269,
    "Ġasynchron": 7270,
    "Ġasynchronously": 7271,
    "Ġsmel": 7272,
    "Ġsmelly": 7273,
    "pets": 7274,
    "Ġstir": 7275,
    "Ġpouches": 7276,
    "aged": 7277,
    "Ġnonstick": 7278,
    "Ġblind": 7279,
    "Ġblinds": 7280,
    "Ġexponential": 7281,
    "Ġfogging": 7282,
    "fetch": 7283,
    "Ġargs": 7284,
    "Ġabsor": 7285,
    "Ġabsorb": 7286,
    "rout": 7287,
    "Ġhats": 7288,
    "Ġrenewal": 7289,
    "Ġpreload": 7290,
    "sal": 7291,
    "salting": 7292,
    "Ġsoup": 7293,
    "Ġcent": 7294,
    "fry": 7295,
    "Ġsparing": 7296,
    "Ġoptim": 7297,
    "Ġfilling": 7298,
    "Ġharsh": 7299,
    "Ġpiz": 7300,
    "Ġpizz": 7301,
    "Ġpizza": 7302,
    "Ġmicro": 7303,
    "Ġmicroservices": 7304,
    "dark": 7305,
    "Ġstarvation": 7306,
    "Ġretryable": 7307,
    "Ġcondiments": 7308,
    "olidate": 7309,
    "Ġmanif": 7310,
    "Ġissue": 7311,
    "Ġpitch": 7312,
    "Ġpurch": 7313,
    "ĠClassify": 7314,
    "ĠEveryone": 7315,
    "lied": 7316,
    "Ġreceivers": 7317,
    "beans": 7318,
    "expand": 7319,
    "ĠStable": 7320,
    "Ġunus": 7321,
    "Ġunusual": 7322,
    "Ġbounding": 7323,
    "reviews": 7324,
    "Ġheader": 7325,
    "TF": 7326,
    "downloads": 7327,
    "IME": 7328,
    "ĠKMS": 7329,
    "connection": 7330,
    "Ġbench": 7331,
    "Ġscrubbers": 7332,
    "deletes": 7333,
    "Ġtrusting": 7334,
    "Ġrely": 7335,
    "Ġqueued": 7336,
    "lling": 7337,
    "Ġsnaps": 7338,
    "signed": 7339,
    "esc": 7340,
    "Ġledg": 7341,
    "Ġescape": 7342,
    "server": 7343,
    "Ġconside": 7344,
    "Ġconsidered": 7345,
    "Ġsud": 7346,
    "Ġsudden": 7347,
    "Ġciph": 7348,
    "Ġciphers": 7349,
    "agation": 7350,
    "Ġsupports": 7351,
    "Ġpiv": 7352,
    "Ġpivot": 7353,
    "context": 7354,
    "Ġoutline": 7355,
    "Ġreproduce": 7356,
    "Ġbreaker": 7357,
    "Ġcutovers": 7358,
    "Ġclarification": 7359,
    "Ġsufficient": 7360,
    "never": 7361,
    "Ġnull": 7362,
    "Ġopport": 7363,
    "Ġinterrupting": 7364,
    "Ġdirectory": 7365,
    "Ġflashlight": 7366,
    "ĠMVP": 7367,
    "ĠEmpty": 7368,
    "Ġsorted": 7369,
    "aults": 7370,
    "dest": 7371,
    "Ġpiling": 7372,
    "ĠPe": 7373,
    "Ġresponsibly": 7374,
    "Ġoverhe": 7375,
    "dar": 7376,
    "darks": 7377,
    "Ġwet": 7378,
    "Ġbaselines": 7379,
    "Ġinformative": 7380,
    "Ġiterations": 7381,
    "Ġtoile": 7382,
    "Ġtoilet": 7383,
    "ĠCSS": 7384,
    "Ġpatient": 7385,
    "ĠServ": 7386,
    "ĠService": 7387,
    "Ġcontribution": 7388,
    "Ġrelo": 7389,
    "Ġchecking": 7390,
    "mind": 7391,
    "Ġinterested": 7392,
    "output": 7393,
    "Ġlift": 7394,
    "Ġsalad": 7395,
    "Ġvaluable": 7396,
    "Ġbitter": 7397,
    "Ġapplication": 7398,
    "Ġchun": 7399,
    "stract": 7400,
    "ĠRot": 7401,
    "ĠRotate": 7402,
    "Ġrotating": 7403,
    "Ġexcluded": 7404,
    "Ġinitial": 7405,
    "Ġuntouch": 7406,
    "Ġuntouched": 7407,
    "Ġtimeout": 7408,
    "Ġstraightforward": 7409,
    "iques": 7410,
    "Ġimag": 7411,
    "Ġimagine": 7412,
    "Ġhack": 7413,
    "Ġpermission": 7414,
    "Ġcorruption": 7415,
    "ĠSort": 7416,
    "ouring": 7417,
    "Ġclaims": 7418,
    "Ġclosing": 7419,
    "wood": 7420,
    "Ġgrain": 7421,
    "Ġreflecting": 7422,
    "ĠDefer": 7423,
    "dec": 7424,
    "Ġinsu": 7425,
    "Ġresponsive": 7426,
    "Ġboredom": 7427,
    "Ġoffload": 7428,
    "Ġteeth": 7429,
    "Ġresume": 7430,
    "Ġsites": 7431,
    "Ġachie": 7432,
    "ongs": 7433,
    "ĠFive": 7434,
    "izations": 7435,
    "Ġclipping": 7436,
    "Ġcontro": 7437,
    "Ġcats": 7438,
    "Ġmillions": 7439,
    "Ġwherever": 7440,
    "Ġcapabilities": 7441,
    "ĠSacrifice": 7442,
    "Ġwebs": 7443,
    "Ġwebsites": 7444,
    "appy": 7445,
    "Wh": 7446,
    "laim": 7447,
    "ĠAns": 7448,
    "ĠAnsw": 7449,
    "Ġbrevity": 7450,
    "Ġ12": 7451,
    "Ġgrid": 7452,
    "scope": 7453,
    "ĠArch": 7454,
    "Ġpersonality": 7455,
    "Ġunderstands": 7456,
    "Ġmisunderstood": 7457,
    "Ġunderstood": 7458,
    "ĠRemember": 7459,
    "ĠLooking": 7460,
    "ĠAnxiety": 7461,
    "ĠSome": 7462,
    "Ġchallenging": 7463,
    "ĠReady": 7464,
    "encing": 7465,
    "ĠHard": 7466,
    "Ġdiffic": 7467,
    "Ġdifficult": 7468,
    "Ġscared": 7469,
    "ried": 7470,
    "ĠMay": 7471,
    "ĠMaybe": 7472,
    "Ġopinion": 7473,
    "Ġfavorites": 7474,
    "ĠKey": 7475,
    "ĠKeyboard": 7476,
    "Ġservers": 7477,
    "Ġoutlet": 7478,
    "ĠBecause": 7479,
    "Ġnothing": 7480,
    "ĠMicro": 7481,
    "âĢĿâĢĶ": 7482,
    "Ġhedge": 7483,
    "ĠOb": 7484,
    "ĠObserv": 7485,
    "ĠObservability": 7486,
    "ĠPhot": 7487,
    "ĠPhotos": 7488,
    "Ġanswering": 7489,
    "Ġmood": 7490,
    "Ġreinstall": 7491,
    "ĠBox": 7492,
    "Ġinhale": 7493,
    "Ġexhale": 7494,
    "Ġsqueeze": 7495,
    "PL": 7496,
    "AIN": 7497,
    "Ġhearts": 7498,
    "Ġblood": 7499,
    "ĠLove": 7500,
    "ĠTesting": 7501,
    "Ġapologize": 7502,
    "Ġfunny": 7503,
    "ĠUser": 7504,
    "Ġsky": 7505,
    "Ġmyst": 7506,
    "Ġfiction": 7507,
    "Ġblockchain": 7508,
    "ocur": 7509,
    "ĠDeep": 7510,
    "Ġtechnique": 7511,
    "Ġmorality": 7512,
    "Ġethics": 7513,
    "ĠProgramming": 7514,
    "ĠTuring": 7515,
    "fect": 7516,
    "ĠEngl": 7517,
    "ĠEnglish": 7518,
    "Ġinteractions": 7519,
    "ĠEN": 7520,
    "ĠDA": 7521,
    "ĠDATA": 7522,
    "AT": 7523,
    "Ġgenerates": 7524,
    "Ġabilities": 7525,
    "Ġdifferently": 7526,
    "Ġconfusing": 7527,
    "Ġopinions": 7528,
    "ĠAny": 7529,
    "isd": 7530,
    "isdom": 7531,
    "Bluetooth": 7532,
    "remove": 7533,
    "ĠAnal": 7534,
    "Ġparalysis": 7535,
    "Ġcras": 7536,
    "Ġcrashing": 7537,
    "quit": 7538,
    "Ġblocked": 7539,
    "Ġinstall": 7540,
    "ĠGiven": 7541,
    "Ġgal": 7542,
    "Ġgalax": 7543,
    "Ġgalaxies": 7544,
    "Ġcompliant": 7545,
    "Ġlives": 7546,
    "Ġpromis": 7547,
    "Ġhonoring": 7548,
    "Ġopa": 7549,
    "Ġopaque": 7550,
    "host": 7551,
    "Ġscrubbed": 7552,
    "alerting": 7553,
    "Ġremoved": 7554,
    "Ġdebugg": 7555,
    "Ġdebuggability": 7556,
    "ĠCould": 7557,
    "Ġcontinuity": 7558,
    "being": 7559,
    "Ġitself": 7560,
    "Ġer": 7561,
    "Ġcopying": 7562,
    "Ġlon": 7563,
    "Ġneutrality": 7564,
    "Ġvoices": 7565,
    "por": 7566,
    "Ġimplies": 7567,
    "Ġjoy": 7568,
    "ĠHumans": 7569,
    "ĠAudio": 7570,
    "BT": 7571,
    "Ġheadset": 7572,
    "Ġacceler": 7573,
    "sprint": 7574,
    "notifying": 7575,
    "Ġessential": 7576,
    "Ġvague": 7577,
    "Ġphrase": 7578,
    "ĠBackfill": 7579,
    "ĠBackups": 7580,
    "Ġobjectives": 7581,
    "ĠBal": 7582,
    "ĠBalance": 7583,
    "Ġrealtime": 7584,
    "ĠTrash": 7585,
    "Ġmomentum": 7586,
    "taking": 7587,
    "ĠEnd": 7588,
    "Ġworkout": 7589,
    "return": 7590,
    "ĠShop": 7591,
    "pantry": 7592,
    "Ġchewing": 7593,
    "Ġstur": 7594,
    "Ġsturdy": 7595,
    "Ġbike": 7596,
    "Ġcraft": 7597,
    "ĠSTAR": 7598,
    "Ġwent": 7599,
    "Ġopener": 7600,
    "Ġ(âĢľ": 7601,
    "?âĢĿ)": 7602,
    "urry": 7603,
    "ĠBrowser": 7604,
    "Ġtempor": 7605,
    "Ġtemporarily": 7606,
    "Ġtol": 7607,
    "Ġtolerate": 7608,
    "Ġcoales": 7609,
    "ĠTTL": 7610,
    "Ġstealing": 7611,
    "ĠCalm": 7612,
    "Ġpresenting": 7613,
    "ĠCamera": 7614,
    "Ġrevers": 7615,
    "Ġreversibility": 7616,
    "Ġundone": 7617,
    "Ġprobabilities": 7618,
    "Ġmisunderstand": 7619,
    "sounding": 7620,
    "Ġauthorit": 7621,
    "Ġauthoritative": 7622,
    "Ġperforms": 7623,
    "Ġdesigning": 7624,
    "Ġrecomputing": 7625,
    "ATP": 7626,
    "Ġbluep": 7627,
    "Ġblueprints": 7628,
    "attributes": 7629,
    "Ġdisagre": 7630,
    "Ġdisagreements": 7631,
    "Ġconstructive": 7632,
    "Ġconstructively": 7633,
    "Ġcommas": 7634,
    "Ġamon": 7635,
    "Ġamong": 7636,
    "Ġmolecu": 7637,
    "Ġmolecule": 7638,
    "Ġcommunities": 7639,
    "Ġorganisms": 7640,
    "Ġscrambling": 7641,
    "Ġmultiplication": 7642,
    "Ġrepresenting": 7643,
    "num": 7644,
    "numerator": 7645,
    "denomin": 7646,
    "denominator": 7647,
    "Ġturning": 7648,
    "Ġattraction": 7649,
    "Ġmasses": 7650,
    "Ġshaping": 7651,
    "Ġrewards": 7652,
    "Ġrepeating": 7653,
    "Ġacquis": 7654,
    "Ġacquisition": 7655,
    "Ġmx": 7656,
    "Ġinverse": 7657,
    "Ġexponent": 7658,
    "Ġexponenti": 7659,
    "Ġexponentiation": 7660,
    "Ġforces": 7661,
    "Ġrectangular": 7662,
    "Ġalge": 7663,
    "Ġalgebra": 7664,
    "Ġdivided": 7665,
    "Ġimported": 7666,
    "Ġbonded": 7667,
    "Ġrewriting": 7668,
    "Ġ100": 7669,
    "âĤĤ": 7670,
    "Ġoxyg": 7671,
    "Ġoxygen": 7672,
    "ĠEart": 7673,
    "ĠEarth": 7674,
    "Ġcrust": 7675,
    "Ġcrustal": 7676,
    "Ġ>": 7677,
    "Ġdivisors": 7678,
    "Ġbx": 7679,
    "Ġcompar": 7680,
    "Ġcomparis": 7681,
    "Ġcomparisons": 7682,
    "Ġsubpro": 7683,
    "Ġsubproble": 7684,
    "Ġsubproblems": 7685,
    "Ġextracting": 7686,
    "Ġstorable": 7687,
    "transmit": 7688,
    "transmittable": 7689,
    "spread": 7690,
    "Ġplas": 7691,
    "Ġplasma": 7692,
    "Ġcope": 7693,
    "Ġrestating": 7694,
    "Ġevap": 7695,
    "Ġevaporation": 7696,
    "Ġpreci": 7697,
    "Ġprecip": 7698,
    "Ġprecipitation": 7699,
    "Ġattitude": 7700,
    "Ġconveys": 7701,
    "Ġbehave": 7702,
    "Ġnamed": 7703,
    "average": 7704,
    "Ġatmosph": 7705,
    "Ġatmospher": 7706,
    "Ġatmospheric": 7707,
    "Ġmathematical": 7708,
    "Ġsimulation": 7709,
    "Ġcertainly": 7710,
    "Ġalso": 7711,
    "Ġtold": 7712,
    "Ġdeployed": 7713,
    "Ġsimpler": 7714,
    "ĠOther": 7715,
    "Ġlistened": 7716,
    "Ġpatience": 7717,
    "Ġattachments": 7718,
    "backup": 7719,
    "Ġcallers": 7720,
    "ĠVo": 7721,
    "Ġspeaker": 7722,
    "Ġjoin": 7723,
    "account": 7724,
    "cam": 7725,
    "fire": 7726,
    "Ġreceive": 7727,
    "ĠClip": 7728,
    "ĠCloud": 7729,
    "Ġlatest": 7730,
    "Ġpaused": 7731,
    "Ġpending": 7732,
    "forced": 7733,
    "ole": 7734,
    "Ġlagging": 7735,
    "weekly": 7736,
    "Ġestimated": 7737,
    "mobile": 7738,
    "misses": 7739,
    "Ġjumps": 7740,
    "Ġtrackpad": 7741,
    "mouse": 7742,
    "Ġminimization": 7743,
    "Ġseems": 7744,
    "identity": 7745,
    "ĠDegrade": 7746,
    "Ġpersonalized": 7747,
    "termin": 7748,
    "Ġsomehow": 7749,
    "Ġacting": 7750,
    "Ġdesires": 7751,
    "ĠQuant": 7752,
    "ĠQuantum": 7753,
    "Ġmechanics": 7754,
    "Ġadds": 7755,
    "Ġrandomness": 7756,
    "Ġfreedom": 7757,
    "beh": 7758,
    "Ġdem": 7759,
    "Ġadded": 7760,
    "Ġprobes": 7761,
    "Ġstronger": 7762,
    "Ġcomprom": 7763,
    "Ġtighter": 7764,
    "Ġvariable": 7765,
    "Ġping": 7766,
    "Ġpse": 7767,
    "Ġpseud": 7768,
    "Ġaggregates": 7769,
    "Ġbreaching": 7770,
    "Ġindicate": 7771,
    "Ġrelig": 7772,
    "Ġenvy": 7773,
    "tically": 7774,
    "Ġproud": 7775,
    "Ġinterp": 7776,
    "complete": 7777,
    "Ġsat": 7778,
    "config": 7779,
    "ĠDown": 7780,
    "streams": 7781,
    "ĠNext": 7782,
    "quiz": 7783,
    "Ġevenings": 7784,
    "Ġdeg": 7785,
    "Ġdegrease": 7786,
    "Ġforgot": 7787,
    "Ġnotebooks": 7788,
    "ĠAg": 7789,
    "Ġcalming": 7790,
    "Ġloy": 7791,
    "Ġloyal": 7792,
    "Ġloyalty": 7793,
    "Ġflossing": 7794,
    "ĠFlo": 7795,
    "ĠFloss": 7796,
    "the": 7797,
    "Ġslot": 7798,
    "Ġrefills": 7799,
    "Ġsunscreen": 7800,
    "ĠRoast": 7801,
    "Ġ400": 7802,
    "Ġpep": 7803,
    "Ġpepper": 7804,
    "ĠThree": 7805,
    "cut": 7806,
    "washed": 7807,
    "Ġhotels": 7808,
    "Ġbrightly": 7809,
    "Ġcolo": 7810,
    "Ġcolored": 7811,
    "Ġjitters": 7812,
    "Ġthreads": 7813,
    "Ġvalidations": 7814,
    "Ġrevealing": 7815,
    "Ġrequir": 7816,
    "Ġrequiring": 7817,
    "Ġnarrow": 7818,
    "special": 7819,
    "Ġchess": 7820,
    "ĠGener": 7821,
    "Ġprincipl": 7822,
    "Ġprinciples": 7823,
    "Ġclass": 7824,
    "Ġsuper": 7825,
    "position": 7826,
    "Ġsimultaneously": 7827,
    "Ġuniversally": 7828,
    "Ġsimulating": 7829,
    "Ġimportance": 7830,
    "ĠUnlike": 7831,
    "Ġsequential": 7832,
    "odels": 7833,
    "ĠGP": 7834,
    "ĠBE": 7835,
    "Ġdetected": 7836,
    "ĠManage": 7837,
    "kers": 7838,
    "ĠGPU": 7839,
    "ĠFans": 7840,
    "normal": 7841,
    "Ġramp": 7842,
    "Ġscat": 7843,
    "Ġscattered": 7844,
    "item": 7845,
    "Ġdump": 7846,
    "Ġfinances": 7847,
    "Ġbalances": 7848,
    "coming": 7849,
    "Ġcooler": 7850,
    "Ġpa": 7851,
    "Ġdess": 7852,
    "Ġdesserts": 7853,
    "ĠSil": 7854,
    "ĠSilence": 7855,
    "Ġfir": 7856,
    "Ġfirings": 7857,
    "Ġrealism": 7858,
    "Ġcoats": 7859,
    "Ġdistracting": 7860,
    "Ġhumidifier": 7861,
    "ĠCable": 7862,
    "Ġguests": 7863,
    "uish": 7864,
    "Ġslides": 7865,
    "repe": 7866,
    "repeat": 7867,
    "Ġstopping": 7868,
    "Ġassemble": 7869,
    "Ġworkspace": 7870,
    "Ġheadach": 7871,
    "Ġheadaches": 7872,
    "ĠSmaller": 7873,
    "Ġfeet": 7874,
    "Ġresumes": 7875,
    "Ġtidier": 7876,
    "Ġscrolling": 7877,
    "Ġbedside": 7878,
    "coun": 7879,
    "Ġlabeling": 7880,
    "Ġey": 7881,
    "Ġeyes": 7882,
    "Ġrain": 7883,
    "Ġcars": 7884,
    "leep": 7885,
    "Ġbring": 7886,
    "streaming": 7887,
    "Ġepisode": 7888,
    "Ġcleared": 7889,
    "Ġhots": 7890,
    "Ġhotspots": 7891,
    "Ġpickup": 7892,
    "Ġsunset": 7893,
    "Ġdisapp": 7894,
    "Ġdisappear": 7895,
    "Ġdisappearing": 7896,
    "bin": 7897,
    "sync": 7898,
    "format": 7899,
    "Ġnegotiation": 7900,
    "Ġmarket": 7901,
    "Ġenth": 7902,
    "Ġenthus": 7903,
    "Ġenthusias": 7904,
    "Ġenthusiasm": 7905,
    "Ġinspect": 7906,
    "Ġunwor": 7907,
    "Ġunworn": 7908,
    "Ġdonate": 7909,
    "ĠFlaky": 7910,
    "Ġoverlays": 7911,
    "ĠGet": 7912,
    "Ġmovi": 7913,
    "Ġmovie": 7914,
    "habit": 7915,
    "Ġisolating": 7916,
    "Ġpersonalities": 7917,
    "Ġrepeatable": 7918,
    "ĠBreathe": 7919,
    "ĠGot": 7920,
    "ĠGotta": 7921,
    "ĠChat": 7922,
    "ĠGreet": 7923,
    "ĠGreetings": 7924,
    "Ġple": 7925,
    "Ġpleasure": 7926,
    "ĠHDM": 7927,
    "ĠHDMI": 7928,
    "ĠHead": 7929,
    "ĠHelp": 7930,
    "ĠHes": 7931,
    "ĠHesit": 7932,
    "ĠHesitant": 7933,
    "responsive": 7934,
    "Ġvaries": 7935,
    "Ġgeneral": 7936,
    "Ġspecialized": 7937,
    "year": 7938,
    "Ġexpanding": 7939,
    "Ġranked": 7940,
    "Ġminimap": 7941,
    "rouch": 7942,
    "Ġfits": 7943,
    "Ġarticul": 7944,
    "bus": 7945,
    "business": 7946,
    "reliability": 7947,
    "Ġinstant": 7948,
    "Ġslim": 7949,
    "Ġworkspaces": 7950,
    "blocking": 7951,
    "Ġenum": 7952,
    "Ġremoving": 7953,
    "Ġtimezone": 7954,
    "Ġtoast": 7955,
    "Ġdesync": 7956,
    "priv": 7957,
    "private": 7958,
    "Ġbulkhe": 7959,
    "Ġbulkheads": 7960,
    "Ġdeck": 7961,
    "Ġlips": 7962,
    "Ġhydrated": 7963,
    "Ġboiling": 7964,
    "Ġovercrowd": 7965,
    "Ġcray": 7966,
    "Ġcrumbs": 7967,
    "boards": 7968,
    "Ġraces": 7969,
    "secret": 7970,
    "Ġnative": 7971,
    "event": 7972,
    "Ġwinter": 7973,
    "ĠUIs": 7974,
    "Ġindexing": 7975,
    "meta": 7976,
    "Ġstru": 7977,
    "Ġgreasy": 7978,
    "Ġgrates": 7979,
    "flags": 7980,
    "Ġhotfix": 7981,
    "Ġpostmortem": 7982,
    "ĠEat": 7983,
    "Ġreferrers": 7984,
    "rings": 7985,
    "Ġslee": 7986,
    "glo": 7987,
    "gloves": 7988,
    "Ġmarkers": 7989,
    "Ġspends": 7990,
    "Ġcontents": 7991,
    "ĠProfile": 7992,
    "ĠRebase": 7993,
    "Ġautonomy": 7994,
    "Ġhiding": 7995,
    "Ġdeliveries": 7996,
    "permissive": 7997
  },
  "bpe_ranks": {
    "i|||n": 0,
    "<||||": 1,
    "||||>": 2,
    "Ġ|||c": 3,
    "o|||n": 4,
    "Ġ|||a": 5,
    "Ġ|||t": 6,
    "a|||t": 7,
    "r|||e": 8,
    "i|||t": 9,
    "in|||g": 10,
    "Ġ|||s": 11,
    "Ġ|||m": 12,
    "e|||r": 13,
    "<||||Q": 14,
    "<|Q||||>": 15,
    "<||||A": 16,
    "<|A||||>": 17,
    "e|||s": 18,
    "e|||n": 19,
    "Ġ|||b": 20,
    "a|||l": 21,
    "a|||n": 22,
    "Ġ|||w": 23,
    "o|||r": 24,
    "i|||s": 25,
    "i|||m": 26,
    "Ġ|||d": 27,
    "o|||u": 28,
    "Ġ|||re": 29,
    "Ġ|||I": 30,
    "n|||d": 31,
    "l|||e": 32,
    "o|||m": 33,
    "e|||d": 34,
    "Ġa|||nd": 35,
    "Ġ|||p": 36,
    "Ġ|||in": 37,
    "i|||c": 38,
    "a|||r": 39,
    "r|||o": 40,
    "k|||e": 41,
    "Ġ|||f": 42,
    "Ġt|||o": 43,
    "h|||e": 44,
    "im|||p": 45,
    "r|||a": 46,
    "h|||at": 47,
    "a|||s": 48,
    "i|||on": 49,
    "e|||c": 50,
    "o|||w": 51,
    "Ġ|||W": 52,
    "Ġc|||on": 53,
    "it|||y": 54,
    "u|||s": 55,
    "Ġ|||e": 56,
    "Ġc|||om": 57,
    "Ġm|||e": 58,
    "Ġ|||l": 59,
    "Ġ|||is": 60,
    "t|||s": 61,
    "Ġd|||o": 62,
    "ĠW|||hat": 63,
    "l|||y": 64,
    "Ġt|||he": 65,
    "Ġ|||on": 66,
    "Ġ|||H": 67,
    "v|||e": 68,
    "s|||t": 69,
    "Ġ|||o": 70,
    "ĠH|||ow": 71,
    "c|||e": 72,
    "en|||t": 73,
    "Ġcom|||m": 74,
    "f|||f": 75,
    "Ġ|||g": 76,
    "Ġ|||imp": 77,
    "t|||er": 78,
    "t|||a": 79,
    "i|||d": 80,
    "i|||l": 81,
    "it|||h": 82,
    "â|||Ģ": 83,
    "Ġw|||ith": 84,
    "Ġ|||y": 85,
    "Ġimp|||ro": 86,
    "Ġy|||ou": 87,
    "Ġ|||A": 88,
    "Ġcomm|||on": 89,
    "at|||ion": 90,
    "a|||c": 91,
    "d|||e": 92,
    "ĠI|||n": 93,
    "âĢ|||Ļ": 94,
    "Ġ|||it": 95,
    "Ġ|||or": 96,
    "Ġm|||is": 97,
    "Ġs|||imp": 98,
    "Ġc|||an": 99,
    "p|||t": 100,
    "ou|||t": 101,
    "i|||g": 102,
    "Ġ|||n": 103,
    "Ġon|||e": 104,
    "e|||ed": 105,
    "a|||b": 106,
    "e|||t": 107,
    "Ġt|||ra": 108,
    "o|||t": 109,
    "at|||e": 110,
    "s|||u": 111,
    "Ġmis|||ta": 112,
    "u|||al": 113,
    "Ġ|||h": 114,
    "Ġ|||us": 115,
    "Ġ|||S": 116,
    "e|||p": 117,
    "at|||ter": 118,
    "v|||ing": 119,
    "Ġg|||o": 120,
    "Ġl|||i": 121,
    "v|||i": 122,
    "v|||o": 123,
    "o|||ff": 124,
    "Ġm|||atter": 125,
    "Ġli|||ke": 126,
    "Ġb|||as": 127,
    "Ġre|||l": 128,
    "Ġtra|||de": 129,
    "Ġc|||l": 130,
    "Ġtrade|||off": 131,
    "a|||m": 132,
    "at|||ed": 133,
    "Ġ|||ke": 134,
    "u|||r": 135,
    "i|||z": 136,
    "in|||e": 137,
    "Ġc|||o": 138,
    "Ġgo|||al": 139,
    "Ġme|||an": 140,
    "or|||t": 141,
    "Ġdo|||es": 142,
    "c|||t": 143,
    "Ġme|||as": 144,
    "es|||t": 145,
    "Ġs|||t": 146,
    "u|||t": 147,
    "Ġmista|||ke": 148,
    "a|||y": 149,
    "i|||f": 150,
    "Ġrel|||ated": 151,
    "a|||g": 152,
    "e|||l": 153,
    "ac|||k": 154,
    "Ġb|||e": 155,
    "Ġ|||q": 156,
    "Ġe|||x": 157,
    "ar|||t": 158,
    "al|||l": 159,
    "er|||s": 160,
    "Ġ|||en": 161,
    "m|||ent": 162,
    "Ġw|||h": 163,
    "Ġsimp|||le": 164,
    "l|||ic": 165,
    "Ġs|||p": 166,
    "k|||ing": 167,
    "Ġs|||m": 168,
    "b|||le": 169,
    "p|||p": 170,
    "Ġp|||ro": 171,
    "Ġsm|||all": 172,
    "i|||r": 173,
    "im|||e": 174,
    "u|||n": 175,
    "il|||ity": 176,
    "ĠS|||t": 177,
    "s|||e": 178,
    "Ġyou|||r": 179,
    "Ġcon|||f": 180,
    "Ġd|||e": 181,
    "l|||ts": 182,
    "b|||ack": 183,
    "Ġimpro|||ve": 184,
    "ic|||k": 185,
    "p|||le": 186,
    "Ġre|||su": 187,
    "Ġresu|||lts": 188,
    "en|||ce": 189,
    "Ġt|||ime": 190,
    "a|||re": 191,
    "Ġre|||m": 192,
    "Ġq|||ual": 193,
    "Ġqual|||ity": 194,
    "n|||er": 195,
    "ĠSt|||art": 196,
    "g|||in": 197,
    "Ġcl|||ar": 198,
    "Ġbe|||gin": 199,
    "Ġbegin|||ner": 200,
    "ce|||pt": 201,
    "r|||i": 202,
    "Ġe|||ff": 203,
    "Ġw|||ay": 204,
    "Ġ|||out": 205,
    "ec|||t": 206,
    "Ġ|||C": 207,
    "in|||ts": 208,
    "Ġo|||b": 209,
    "o|||ve": 210,
    "vo|||id": 211,
    "a|||us": 212,
    "Ġf|||eed": 213,
    "Ġfeed|||back": 214,
    "Ġm|||a": 215,
    "Ġf|||or": 216,
    "Ġw|||hat": 217,
    "ag|||e": 218,
    "ab|||ility": 219,
    "e|||w": 220,
    "ar|||ly": 221,
    "Ġsimp|||lic": 222,
    "Ġsimplic|||ity": 223,
    "if|||y": 224,
    "aus|||e": 225,
    "Ġit|||er": 226,
    "Ġmatter|||s": 227,
    "Ġcon|||st": 228,
    "Ġa|||void": 229,
    "Ġconst|||ra": 230,
    "l|||ving": 231,
    "Ġconstra|||ints": 232,
    "Ġb|||ec": 233,
    "c|||om": 234,
    "Ġbec|||ause": 235,
    "Ġto|||o": 236,
    "Ġs|||c": 237,
    "ou|||s": 238,
    "ir|||st": 239,
    "l|||o": 240,
    "v|||er": 241,
    "im|||iz": 242,
    "Ġf|||irst": 243,
    "Ġke|||y": 244,
    "v|||es": 245,
    "Ġo|||pt": 246,
    "ur|||ing": 247,
    "Ġ|||D": 248,
    "Ġwith|||out": 249,
    "Ġo|||f": 250,
    "Ġrem|||ove": 251,
    "Ġke|||ep": 252,
    "Ġeff|||ort": 253,
    "ra|||ct": 254,
    "ig|||g": 255,
    "an|||c": 256,
    "Ġt|||h": 257,
    "ic|||e": 258,
    "Ġout|||com": 259,
    "Ġsp|||eed": 260,
    "Ġmeas|||u": 261,
    "Ġb|||ot": 262,
    "ĠI|||t": 263,
    "=|||=": 264,
    "is|||t": 265,
    "ual|||ly": 266,
    "p|||s": 267,
    "Ġopt|||imiz": 268,
    "id|||ence": 269,
    "Ġoutcom|||es": 270,
    "es|||s": 271,
    "Ġb|||igg": 272,
    "vi|||ew": 273,
    "Ġp|||ick": 274,
    "Ġe|||arly": 275,
    "Ġb|||al": 276,
    "Ġco|||st": 277,
    "t|||l": 278,
    "Ġwh|||y": 279,
    "Ġbas|||ed": 280,
    "Ġbal|||anc": 281,
    "vi|||ous": 282,
    "Ġbot|||tl": 283,
    "Ġclar|||ify": 284,
    "ec|||k": 285,
    "Ġmean|||s": 286,
    "a|||d": 287,
    "el|||ine": 288,
    "ra|||ble": 289,
    "Ġmeasu|||rable": 290,
    "Ġconf|||idence": 291,
    "Ġiter|||ate": 292,
    "Ġbottl|||en": 293,
    "Ġbottlen|||eck": 294,
    "Ġimpro|||ving": 295,
    "Ġimpro|||ves": 296,
    "Ġob|||vious": 297,
    "Ġus|||ually": 298,
    "Ġbigg|||est": 299,
    "Ġmeas|||uring": 300,
    "Ġclarify|||ing": 301,
    "Ġb|||u": 302,
    "Ġin|||vo": 303,
    "Ġinvo|||lving": 304,
    "Ġbalanc|||ing": 305,
    "Ġoptimiz|||ing": 306,
    "Ġbas|||eline": 307,
    "Ġ|||U": 308,
    "Ġp|||ract": 309,
    "Ġ|||r": 310,
    "t|||h": 311,
    "ion|||s": 312,
    "Ġcon|||cept": 313,
    "us|||t": 314,
    "c|||k": 315,
    "o|||re": 316,
    "Ġw|||e": 317,
    "Ġs|||o": 318,
    "Ġ|||he": 319,
    "Ġ|||le": 320,
    "r|||it": 321,
    "ĠU|||se": 322,
    "d|||ing": 323,
    "Ġus|||e": 324,
    "u|||re": 325,
    "Ġre|||view": 326,
    "Ġm|||an": 327,
    "i|||ve": 328,
    "Ġcon|||s": 329,
    "Ġpract|||ice": 330,
    "am|||ple": 331,
    "u|||l": 332,
    "Ġ|||v": 333,
    "su|||re": 334,
    "Ġa|||re": 335,
    "Ġex|||ample": 336,
    "c|||h": 337,
    "Ġn|||ot": 338,
    "n|||ing": 339,
    "an|||d": 340,
    "Ġen|||sure": 341,
    "l|||d": 342,
    "Ġman|||age": 343,
    "Ġ|||T": 344,
    "w|||or": 345,
    "Ġa|||pp": 346,
    "p|||ut": 347,
    "Ġ|||u": 348,
    "Ġl|||o": 349,
    "ic|||al": 350,
    "un|||ic": 351,
    "Ġs|||u": 352,
    "Ġcomm|||unic": 353,
    "en|||c": 354,
    "r|||y": 355,
    "i|||es": 356,
    "ab|||it": 357,
    "s|||s": 358,
    "Ġh|||abit": 359,
    "ig|||h": 360,
    "Ġa|||l": 361,
    "e|||m": 362,
    "Ġp|||l": 363,
    "o|||d": 364,
    "Ġcommunic|||ation": 365,
    "Ġbu|||il": 366,
    "p|||l": 367,
    "Ġp|||re": 368,
    "Ġm|||on": 369,
    "Ġ|||P": 370,
    "Ġf|||r": 371,
    "an|||g": 372,
    "p|||e": 373,
    "Ġs|||h": 374,
    "Ġc|||le": 375,
    "ro|||w": 376,
    "Ġcons|||ist": 377,
    "Ġt|||e": 378,
    "Ġc|||h": 379,
    "enc|||y": 380,
    "k|||es": 381,
    "k|||s": 382,
    "it|||or": 383,
    "Ġ|||ro": 384,
    "ac|||h": 385,
    "en|||d": 386,
    "Ġd|||at": 387,
    "g|||g": 388,
    "j|||ect": 389,
    "d|||u": 390,
    "w|||are": 391,
    "Ġco|||o": 392,
    "Ġp|||er": 393,
    "f|||t": 394,
    "Ġmanage|||ment": 395,
    "Ġs|||a": 396,
    "an|||t": 397,
    "Ġle|||ar": 398,
    "Ġmon|||itor": 399,
    "Ġa|||n": 400,
    "f|||or": 401,
    "ĠD|||e": 402,
    "a|||in": 403,
    "en|||ts": 404,
    "Ġmista|||kes": 405,
    "Ġma|||ke": 406,
    "igh|||t": 407,
    "Ġw|||or": 408,
    "et|||wor": 409,
    "Ġhe|||l": 410,
    "ig|||n": 411,
    "t|||e": 412,
    "ec|||h": 413,
    "Ġn|||etwor": 414,
    "Ġw|||rit": 415,
    "==|||==": 416,
    "pp|||ort": 417,
    "al|||s": 418,
    "er|||ing": 419,
    "Ġg|||row": 420,
    "b|||ers": 421,
    "r|||ic": 422,
    "ou|||d": 423,
    "Ġa|||t": 424,
    "Ġc|||are": 425,
    "Ġwe|||b": 426,
    "Ġt|||ech": 427,
    "Ġq|||u": 428,
    "Ġa|||d": 429,
    "Ġdat|||a": 430,
    "ve|||lo": 431,
    "Ġso|||ft": 432,
    "Ġc|||y": 433,
    "Ġgrow|||th": 434,
    "Ġte|||am": 435,
    "Ġfr|||om": 436,
    "Ġsu|||pport": 437,
    "iz|||ation": 438,
    "Ġcl|||oud": 439,
    "Ġcoo|||king": 440,
    "id|||e": 441,
    "ta|||in": 442,
    "q|||u": 443,
    "Ġsoft|||ware": 444,
    "Ġbuil|||ding": 445,
    "velo|||p": 446,
    "ec|||ur": 447,
    "ecur|||ity": 448,
    "Ġde|||velop": 449,
    "a|||il": 450,
    "on|||e": 451,
    "Ġtech|||n": 452,
    "Ġen|||g": 453,
    "Ġpro|||ject": 454,
    "Ġwrit|||ing": 455,
    "Ġc|||ust": 456,
    "Ġcust|||om": 457,
    "l|||l": 458,
    "put|||ing": 459,
    "ine|||ering": 460,
    "ĠW|||h": 461,
    "Ġcom|||puting": 462,
    "Ġeng|||ineering": 463,
    "Ġ|||R": 464,
    "Ġdevelop|||ment": 465,
    "Ġcare|||er": 466,
    "at|||h": 467,
    "du|||ce": 468,
    "Ġtechn|||ical": 469,
    "Ġnetwor|||king": 470,
    "O|||ps": 471,
    "Ġcy|||bers": 472,
    "Ġcybers|||ecurity": 473,
    "Ġcustom|||er": 474,
    "ĠDe|||v": 475,
    "ĠDev|||Ops": 476,
    "Ġ|||if": 477,
    "ab|||le": 478,
    "Ġex|||p": 479,
    "Ġlear|||ning": 480,
    "Ġm|||o": 481,
    "Ġf|||o": 482,
    "ar|||d": 483,
    "Ġcom|||ple": 484,
    "Ġa|||s": 485,
    "Ġm|||ore": 486,
    "v|||ent": 487,
    "for|||m": 488,
    "Ġo|||ver": 489,
    "er|||v": 490,
    "il|||l": 491,
    "c|||on": 492,
    "Ġu|||p": 493,
    "an|||ce": 494,
    "he|||ck": 495,
    "Ġwh|||en": 496,
    "Ġs|||ec": 497,
    "Ġconsist|||ent": 498,
    "Ġst|||ep": 499,
    "Ġp|||ri": 500,
    "Ġb|||et": 501,
    "Ġb|||y": 502,
    "gg|||ing": 503,
    "Ġma|||in": 504,
    "Ġa|||c": 505,
    "Ġd|||ec": 506,
    "f|||e": 507,
    "Ġcomple|||x": 508,
    "c|||u": 509,
    "ou|||ld": 510,
    "as|||t": 511,
    "g|||e": 512,
    "ation|||s": 513,
    "Ġpre|||vent": 514,
    "Ġpl|||an": 515,
    "u|||nd": 516,
    "Ġre|||s": 517,
    "iz|||e": 518,
    "Ġc|||or": 519,
    "re|||ss": 520,
    "Ġ|||3": 521,
    "Ġt|||est": 522,
    "Ġ|||un": 523,
    "en|||s": 524,
    "re|||ct": 525,
    "im|||it": 526,
    "Ġcomplex|||ity": 527,
    "i|||v": 528,
    "Ġp|||o": 529,
    "or|||s": 530,
    "Ġhel|||ps": 531,
    "Ġre|||duce": 532,
    "Ġin|||c": 533,
    "Ġde|||b": 534,
    "c|||ess": 535,
    "a|||king": 536,
    "Ġh|||and": 537,
    "Ġre|||c": 538,
    "u|||d": 539,
    "Ġmain|||tain": 540,
    "Ġt|||hat": 541,
    "Ġre|||ad": 542,
    "Ġ|||E": 543,
    "Ġn|||eed": 544,
    "Ġd|||is": 545,
    "Ġc|||heck": 546,
    "l|||u": 547,
    "g|||h": 548,
    "Ġd|||ep": 549,
    "Ġt|||es": 550,
    "r|||ou": 551,
    "Ġstep|||s": 552,
    "Ġch|||ang": 553,
    "Ġf|||und": 554,
    "Ġdec|||is": 555,
    "c|||us": 556,
    "Ġmis|||con": 557,
    "Ġclar|||ity": 558,
    "Ġh|||ow": 559,
    "Ġu|||nd": 560,
    "g|||an": 561,
    "Ġfund|||am": 562,
    "Ġfundam|||ent": 563,
    "cu|||ment": 564,
    "Ġdeb|||u": 565,
    "ver|||y": 566,
    "Ġor|||gan": 567,
    "Ġde|||f": 568,
    "Ġfundament|||als": 569,
    "Ġmiscon|||cept": 570,
    "Ġmisconcept|||ion": 571,
    "Ġme|||t": 572,
    "or|||it": 573,
    "Ġund|||er": 574,
    "er|||r": 575,
    "Ġa|||b": 576,
    "Ġf|||i": 577,
    "al|||id": 578,
    "Ġl|||imit": 579,
    "Ġcor|||rect": 580,
    "Ġdo|||cument": 581,
    "el|||l": 582,
    "Ġmet|||ric": 583,
    "u|||m": 584,
    "h|||ing": 585,
    "Ġb|||ack": 586,
    "j|||ust": 587,
    "Ġ|||L": 588,
    "Ġs|||et": 589,
    "om|||e": 590,
    "Ġ|||F": 591,
    "Ġs|||ta": 592,
    "Ġdebu|||gging": 593,
    "ĠC|||an": 594,
    "on|||s": 595,
    "Ġbet|||ter": 596,
    "o|||o": 597,
    "g|||et": 598,
    "t|||ent": 599,
    "Ġrel|||i": 600,
    "ow|||n": 601,
    "Ġsa|||fe": 602,
    "Ġpri|||orit": 603,
    "in|||d": 604,
    "c|||i": 605,
    "n|||ess": 606,
    "Ġ|||1": 607,
    "Ġ|||err": 608,
    "ac|||t": 609,
    "b|||ility": 610,
    "Ġl|||at": 611,
    "Ġlo|||g": 612,
    "Ġf|||l": 613,
    "Ġro|||ll": 614,
    "in|||k": 615,
    "Ġe|||m": 616,
    "m|||s": 617,
    "Ġfo|||cus": 618,
    "Ġwor|||k": 619,
    "Ġcle|||ar": 620,
    "Ġa|||ud": 621,
    "Ġ|||M": 622,
    "Ġst|||art": 623,
    "Ġab|||out": 624,
    "Ġus|||er": 625,
    "ou|||r": 626,
    "Ġh|||a": 627,
    "Ġf|||e": 628,
    "Ġ|||ed": 629,
    "i|||ence": 630,
    "s|||erv": 631,
    "Ġm|||in": 632,
    "Ġcon|||c": 633,
    "Ġmetric|||s": 634,
    "Ġth|||en": 635,
    "ou|||nd": 636,
    "f|||ter": 637,
    "ut|||ion": 638,
    "r|||on": 639,
    "re|||n": 640,
    "e|||f": 641,
    "Ġs|||k": 642,
    "====|||====": 643,
    "Ġre|||al": 644,
    "Ġs|||le": 645,
    "lu|||de": 646,
    "r|||u": 647,
    "Ġunder|||st": 648,
    "Ġsle|||ep": 649,
    "b|||er": 650,
    "Ġa|||ct": 651,
    "Ġme|||m": 652,
    "Ġpro|||ble": 653,
    "Ġapp|||ly": 654,
    "is|||k": 655,
    "Ġcle|||an": 656,
    "Ġa|||v": 657,
    "t|||ro": 658,
    "Ġper|||form": 659,
    "ar|||ies": 660,
    "Ġmonitor|||ing": 661,
    "Ġmem|||or": 662,
    "ic|||h": 663,
    "Ġsc|||o": 664,
    "Ġbu|||d": 665,
    "i|||ble": 666,
    "o|||s": 667,
    "Ġgo|||od": 668,
    "l|||es": 669,
    "ar|||i": 670,
    "Ġre|||qu": 671,
    "Ġ|||B": 672,
    "om|||et": 673,
    "tent|||ion": 674,
    "ĠD|||o": 675,
    "pp|||ing": 676,
    "Ġtradeoff|||s": 677,
    "Ġe|||ach": 678,
    "x|||t": 679,
    "Ġdecis|||ion": 680,
    "Ġlat|||ency": 681,
    "a|||p": 682,
    "at|||es": 683,
    "su|||m": 684,
    "Ġconf|||lic": 685,
    "Ġob|||serv": 686,
    "Ġproble|||m": 687,
    "ĠT|||h": 688,
    "ĠP|||ro": 689,
    "Ġbas|||ic": 690,
    "Ġd|||ay": 691,
    "Ġa|||fter": 692,
    "Ġs|||omet": 693,
    "rou|||gh": 694,
    "Ġperform|||ance": 695,
    "Ġt|||ry": 696,
    "ri|||ef": 697,
    "Ġ|||(": 698,
    "Ġplan|||ning": 699,
    "Ġal|||ign": 700,
    "Ġreli|||ability": 701,
    "Ġr|||isk": 702,
    "P|||I": 703,
    "a|||k": 704,
    "Ġ|||Y": 705,
    "Ġb|||rief": 706,
    "Ġcom|||p": 707,
    "Ġre|||st": 708,
    "Ġ|||K": 709,
    "Ġsomet|||hing": 710,
    "Ġmo|||de": 711,
    "Ġconflic|||t": 712,
    "Ġ|||2": 713,
    "i|||re": 714,
    "Ġa|||ut": 715,
    "Ġnot|||e": 716,
    "Ġth|||rough": 717,
    "n|||ect": 718,
    "Ġh|||ome": 719,
    "Ġav|||ail": 720,
    "Ġsc|||al": 721,
    "Ġ|||k": 722,
    "i|||p": 723,
    "Ġg|||et": 724,
    "Ġad|||d": 725,
    "Ġunderst|||and": 726,
    "Ġbud|||get": 727,
    "Ġre|||g": 728,
    "Ġsco|||pe": 729,
    "Ġr|||un": 730,
    "at|||ure": 731,
    "d|||s": 732,
    "Ġobserv|||ability": 733,
    "âĢ|||Ķ": 734,
    "Ġinc|||lude": 735,
    "Ġt|||one": 736,
    "Ġd|||on": 737,
    "Ġw|||ould": 738,
    "Ġd|||es": 739,
    "Ġsec|||re": 740,
    "Ġst|||ress": 741,
    "Ġapp|||ro": 742,
    "Ġb|||ound": 743,
    "Ġad|||just": 744,
    "b|||o": 745,
    "o|||p": 746,
    "t|||ing": 747,
    "Ġcorrect|||ness": 748,
    "Ġp|||e": 749,
    "Ġm|||ot": 750,
    "Ġcon|||nect": 751,
    "Ġb|||re": 752,
    "Ġco|||de": 753,
    "ang|||u": 754,
    "f|||ul": 755,
    "Ġavail|||ability": 756,
    "as|||h": 757,
    "Ġl|||angu": 758,
    "Ġbudget|||ing": 759,
    "Ġmot|||iv": 760,
    "Ġpriorit|||ization": 761,
    "ri|||end": 762,
    "ĠI|||s": 763,
    "ar|||ch": 764,
    "Ġex|||ec": 765,
    "Ġma|||king": 766,
    "an|||s": 767,
    "Ġt|||r": 768,
    "it|||ing": 769,
    "em|||ber": 770,
    "pt|||ions": 771,
    "a|||ce": 772,
    "Ġrec|||o": 773,
    "Ġ|||ide": 774,
    "Ġn|||e": 775,
    "Ġlangu|||age": 776,
    "Ġmotiv|||ation": 777,
    "Ġre|||t": 778,
    "s|||h": 779,
    "Ġconsist|||ency": 780,
    "ect|||ive": 781,
    "Ġaud|||ience": 782,
    "Ġt|||aking": 783,
    "pl|||ain": 784,
    "Ġconf|||ig": 785,
    "Ġv|||alid": 786,
    "ag|||es": 787,
    "en|||ding": 788,
    "Ġrem|||ember": 789,
    "as|||s": 790,
    "i|||pping": 791,
    "Ġbrief|||ly": 792,
    "Ġmemor|||y": 793,
    "Ġal|||er": 794,
    "Ġed|||iting": 795,
    "ta|||bility": 796,
    "Ġiter|||ation": 797,
    "Ġem|||p": 798,
    "Ġbound|||aries": 799,
    "Ġdocument|||ation": 800,
    "he|||re": 801,
    "m|||ents": 802,
    "Ġexec|||ution": 803,
    "ĠY|||ou": 804,
    "v|||ers": 805,
    "Ġha|||ve": 806,
    "e|||k": 807,
    "Ġemp|||ath": 808,
    "ĠC|||om": 809,
    "Ġeff|||ective": 810,
    "ĠA|||PI": 811,
    "t|||le": 812,
    "Ġide|||as": 813,
    "Ġscal|||ability": 814,
    "Ġempath|||y": 815,
    "riend|||ly": 816,
    "e|||ep": 817,
    "Ġreco|||very": 818,
    "Ġorgan|||ization": 819,
    "Ġwh|||ich": 820,
    "m|||on": 821,
    "Ġchang|||es": 822,
    "Ġimp|||ort": 823,
    "Ġg|||ive": 824,
    "Ġ|||est": 825,
    "Ġest|||im": 826,
    "ci|||pl": 827,
    "Ġat|||tention": 828,
    "Ġhabit|||s": 829,
    "Ġas|||sum": 830,
    "Ġbe|||f": 831,
    "Ġbef|||ore": 832,
    "Ġfe|||ature": 833,
    "Ġex|||plain": 834,
    "Ġmaintain|||ability": 835,
    "Ġdis|||cipl": 836,
    "Ġdiscipl|||ine": 837,
    "ĠWh|||y": 838,
    "Ġhel|||p": 839,
    "ĠWh|||en": 840,
    "em|||s": 841,
    "Ġmode|||l": 842,
    "Ġre|||se": 843,
    "Ġassum|||ptions": 844,
    "Ġimport|||ant": 845,
    "Ġthrough|||put": 846,
    "Ġsec|||ure": 847,
    "Ġf|||ail": 848,
    "Ġsa|||ving": 849,
    "Ġth|||is": 850,
    "u|||p": 851,
    "Ġthe|||m": 852,
    "le|||d": 853,
    "Ġus|||ing": 854,
    "Ġw|||ant": 855,
    "Ġwor|||ks": 856,
    "Ġres|||p": 857,
    "Ġalign|||ment": 858,
    "f|||riendly": 859,
    "Ġsecre|||ts": 860,
    "re|||e": 861,
    "Ġso|||lving": 862,
    "Ġsp|||ending": 863,
    "Ġin|||ter": 864,
    "ĠC|||ons": 865,
    "Ġrese|||arch": 866,
    "if|||ic": 867,
    "o|||l": 868,
    "l|||ow": 869,
    "ĠK|||eep": 870,
    "Ġhand|||le": 871,
    "o|||ple": 872,
    "Ġup|||d": 873,
    "Ġ|||G": 874,
    "Ġs|||e": 875,
    "Ġ|||j": 876,
    "Ġdef|||ine": 877,
    "Ġt|||er": 878,
    "Ġ|||view": 879,
    "Ġread|||ability": 880,
    "he|||m": 881,
    "Ġpe|||ople": 882,
    "Ġconsistent|||ly": 883,
    "Ġestim|||ation": 884,
    "rit|||ion": 885,
    "Ġn|||ut": 886,
    "Ġneed|||ed": 887,
    "ent|||al": 888,
    "Ġpract|||ic": 889,
    "Ġnut|||rition": 890,
    "Ġtes|||tability": 891,
    "Ġac|||cess": 892,
    "Ġw|||at": 893,
    "il|||i": 894,
    "Ġd|||i": 895,
    "Ġl|||it": 896,
    "p|||er": 897,
    "Ġeffective|||ly": 898,
    "Ġt|||as": 899,
    "Ġconc|||re": 900,
    "Ġconcre|||te": 901,
    "Ġpl|||ain": 902,
    "ren|||t": 903,
    "Ġqu|||ick": 904,
    "Ġsk|||ipping": 905,
    "Ġn|||o": 906,
    "ag|||s": 907,
    "Ġerr|||ors": 908,
    "Ġlit|||tle": 909,
    "'|||s": 910,
    "Ġstart|||ed": 911,
    "Ġf|||am": 912,
    "Ġsc|||en": 913,
    "Ġe|||v": 914,
    "Ġter|||ms": 915,
    "i|||er": 916,
    "Ġpro|||s": 917,
    "Ġst|||ore": 918,
    "Ġro|||t": 919,
    "Ġwe|||ek": 920,
    "Ġdep|||end": 921,
    "is|||e": 922,
    "Ġa|||r": 923,
    "Ġe|||as": 924,
    "ĠTh|||ink": 925,
    "ĠA|||re": 926,
    "Ġreg|||ul": 927,
    "Ġm|||ental": 928,
    "Ġpractic|||ing": 929,
    "Ġadjust|||ing": 930,
    "ot|||h": 931,
    "ou|||n": 932,
    "Ġ|||Q": 933,
    "Ġscen|||ari": 934,
    "Ġfam|||ili": 935,
    "Ġfamili|||ar": 936,
    "ĠCom|||mon": 937,
    "Ġreview|||ing": 938,
    "ĠPro|||s": 939,
    "ac|||he": 940,
    "â|||Ĥ": 941,
    "Ġtes|||ts": 942,
    "Ġv|||ers": 943,
    "c|||es": 944,
    "Ġ|||V": 945,
    "ic|||s": 946,
    "lo|||ad": 947,
    "ru|||ct": 948,
    "Ã|||¢": 949,
    "âĤ|||¬": 950,
    "u|||e": 951,
    "Ġo|||ff": 952,
    "i|||ent": 953,
    "w|||e": 954,
    "wor|||ld": 955,
    "re|||d": 956,
    "Ġscenari|||o": 957,
    "Ġroll|||back": 958,
    "Ġb|||l": 959,
    "i|||ly": 960,
    "Ġrequ|||ire": 961,
    "Ġp|||h": 962,
    "Ġw|||ell": 963,
    "ic|||es": 964,
    "i|||al": 965,
    "Ġaut|||h": 966,
    "Ġs|||y": 967,
    "ul|||t": 968,
    "ul|||es": 969,
    "am|||e": 970,
    "Ġdes|||ign": 971,
    "o|||se": 972,
    "a|||ke": 973,
    "Ġ|||O": 974,
    "it|||ive": 975,
    "Ġp|||r": 976,
    "ur|||n": 977,
    "ing|||s": 978,
    "Ġsh|||ort": 979,
    "l|||i": 980,
    "a|||ily": 981,
    "ĠQ|||u": 982,
    "Ġsc|||hem": 983,
    "Ġsh|||are": 984,
    "at|||ch": 985,
    "Ġf|||il": 986,
    "w|||ay": 987,
    "tro|||l": 988,
    "Ġp|||ath": 989,
    "y|||s": 990,
    "Ġfi|||x": 991,
    "Ġk|||n": 992,
    "ĠS|||h": 993,
    "Ġwat|||er": 994,
    "Ġg|||u": 995,
    "Ġin|||form": 996,
    "Ġ|||im": 997,
    "Ġg|||ra": 998,
    "as|||e": 999,
    "Ġs|||erv": 1000,
    "ar|||y": 1001,
    "Ġa|||m": 1002,
    "ĠS|||et": 1003,
    "Ġ|||id": 1004,
    "Ġw|||here": 1005,
    "Ġtra|||ck": 1006,
    "ff|||e": 1007,
    "Ġw|||ill": 1008,
    "Ġs|||ens": 1009,
    "le|||ct": 1010,
    "ĠA|||I": 1011,
    "em|||p": 1012,
    "ĠQu|||ick": 1013,
    "Ġlimit|||s": 1014,
    "Ġd|||ry": 1015,
    "ric|||t": 1016,
    "Ġb|||lo": 1017,
    "ter|||s": 1018,
    "ou|||ts": 1019,
    "'|||m": 1020,
    "Ġqu|||est": 1021,
    "Ġd|||aily": 1022,
    "Ġ|||ver": 1023,
    "i|||pe": 1024,
    "Ġeas|||ier": 1025,
    "s|||ing": 1026,
    "Ġinform|||ation": 1027,
    "ard|||s": 1028,
    "Ġ|||N": 1029,
    "Ġto|||p": 1030,
    "Ġc|||ach": 1031,
    "m|||in": 1032,
    "Ġcon|||trol": 1033,
    "Ġre|||p": 1034,
    "t|||en": 1035,
    "t|||ime": 1036,
    "re|||sh": 1037,
    "Ġst|||or": 1038,
    "Ġre|||pe": 1039,
    "Ġlear|||n": 1040,
    "Ġst|||at": 1041,
    "Ġkey|||s": 1042,
    "Ġweek|||ly": 1043,
    "Ġin|||te": 1044,
    "l|||ing": 1045,
    "Ġc|||ache": 1046,
    "Ġlog|||s": 1047,
    "v|||ide": 1048,
    "Ġappro|||ach": 1049,
    "i|||le": 1050,
    "Ġdef|||a": 1051,
    "iz|||ed": 1052,
    "âĤ¬|||â": 1053,
    "âĤ¬â|||Ħ": 1054,
    "âĤ¬âĦ|||¢": 1055,
    "ĠA|||d": 1056,
    "ĠE|||n": 1057,
    "ruct|||ure": 1058,
    "ep|||ar": 1059,
    "t|||o": 1060,
    "ill|||s": 1061,
    "Ġbuil|||d": 1062,
    "========|||========": 1063,
    "n|||al": 1064,
    "'|||t": 1065,
    "Ġregul|||arly": 1066,
    "Ġerr|||or": 1067,
    "ro|||ss": 1068,
    "ck|||s": 1069,
    "Ġm|||y": 1070,
    "Ġdi|||ffe": 1071,
    "Ġfail|||ure": 1072,
    "Ġp|||ar": 1073,
    "Ġfl|||ags": 1074,
    "âĢ|||ľ": 1075,
    "ri|||es": 1076,
    "Ġit|||ems": 1077,
    "on|||g": 1078,
    "âĢ|||Ŀ": 1079,
    "us|||ed": 1080,
    "Ġdep|||lo": 1081,
    "a|||v": 1082,
    "Ġchang|||e": 1083,
    "we|||en": 1084,
    "ss|||ible": 1085,
    "Ġst|||op": 1086,
    "Ġb|||ut": 1087,
    "Ġbet|||ween": 1088,
    "Ġm|||ight": 1089,
    "Ġ|||âĢľ": 1090,
    "Ġsens|||itive": 1091,
    "Ġn|||on": 1092,
    "Ġst|||ate": 1093,
    "g|||ra": 1094,
    "Ġpo|||ssible": 1095,
    "u|||ts": 1096,
    "Ġact|||ion": 1097,
    "Ġc|||rit": 1098,
    "Ġtas|||ks": 1099,
    "al|||th": 1100,
    "Ġc|||ur": 1101,
    "Ġt|||y": 1102,
    "it|||ch": 1103,
    "ed|||i": 1104,
    "Ġl|||ab": 1105,
    "epar|||ate": 1106,
    "Ġapp|||li": 1107,
    "Ġm|||ove": 1108,
    "g|||r": 1109,
    "Ġcheck|||s": 1110,
    "ut|||es": 1111,
    "Ġin|||tro": 1112,
    "ĠC|||I": 1113,
    "ĠAd|||d": 1114,
    "Ġcon|||t": 1115,
    "ut|||e": 1116,
    "Ġa|||g": 1117,
    "in|||es": 1118,
    "for|||ce": 1119,
    "ĠF|||ast": 1120,
    "ind|||ly": 1121,
    "Ġappli|||ed": 1122,
    "Ġm|||ess": 1123,
    "Ġac|||c": 1124,
    "Ġ|||own": 1125,
    "i|||ents": 1126,
    "Ġhe|||ad": 1127,
    "Ġimp|||act": 1128,
    "Ġinte|||gr": 1129,
    "Ġt|||im": 1130,
    "Ġtr|||ans": 1131,
    "Ġvalid|||ate": 1132,
    "u|||le": 1133,
    "Ġc|||al": 1134,
    "l|||ine": 1135,
    "t|||ion": 1136,
    "ig|||r": 1137,
    "Ġexp|||er": 1138,
    "in|||t": 1139,
    "Ġintro|||duce": 1140,
    ")|||,": 1141,
    "Ġm|||igr": 1142,
    "Ġl|||ight": 1143,
    "Ġpro|||per": 1144,
    "Ġbl|||indly": 1145,
    "a|||ir": 1146,
    "Ġaler|||ts": 1147,
    "Ġd|||own": 1148,
    "Ġhe|||alth": 1149,
    "as|||y": 1150,
    "Ġd|||uring": 1151,
    "Ġschem|||a": 1152,
    "ĠS|||imp": 1153,
    "Ġon|||ly": 1154,
    "ĠR|||e": 1155,
    "h|||ed": 1156,
    "Ġaler|||t": 1157,
    "o|||ld": 1158,
    "Ġvers|||ion": 1159,
    "Ġcon|||te": 1160,
    "Ġtoo|||l": 1161,
    "Ġquest|||ions": 1162,
    "in|||s": 1163,
    "p|||ri": 1164,
    "Ġe|||very": 1165,
    "Ġj|||o": 1166,
    "Ġshare|||d": 1167,
    "Ġl|||ow": 1168,
    "re|||ad": 1169,
    "Ġrepe|||ated": 1170,
    "u|||es": 1171,
    "Ġr|||ate": 1172,
    "Ġrest|||rict": 1173,
    "ĠSimp|||le": 1174,
    "at|||i": 1175,
    "Ġfi|||el": 1176,
    "Ġre|||f": 1177,
    "Ġl|||ist": 1178,
    "Ġst|||ructure": 1179,
    "Ġpath|||s": 1180,
    "Ġne|||xt": 1181,
    "Ġkn|||ow": 1182,
    "Ġc|||ut": 1183,
    "Ġc|||re": 1184,
    "Ġv|||s": 1185,
    "p|||uts": 1186,
    "ry|||pt": 1187,
    "Ġret|||ries": 1188,
    "Ġrot|||ate": 1189,
    "Ġconfig|||s": 1190,
    "Ġsc|||hed": 1191,
    "ou|||gh": 1192,
    "ĠI|||f": 1193,
    "Ġcon|||vers": 1194,
    "Ġn|||ew": 1195,
    "vi|||ron": 1196,
    "it|||e": 1197,
    "al|||y": 1198,
    "ical|||ly": 1199,
    "Ġ|||-": 1200,
    "Ġb|||r": 1201,
    "Ġh|||igh": 1202,
    "Ġen|||viron": 1203,
    "Ġdiffe|||rent": 1204,
    "ĠE|||asy": 1205,
    "Ġs|||er": 1206,
    "is|||ts": 1207,
    "el|||s": 1208,
    "Ġmin|||utes": 1209,
    "m|||m": 1210,
    "Ġver|||ify": 1211,
    "Ġid|||emp": 1212,
    "Ġidemp|||ot": 1213,
    "Ġqu|||e": 1214,
    "ow|||s": 1215,
    "Ġmin|||im": 1216,
    "ĠSt|||ore": 1217,
    "Ġdecis|||ions": 1218,
    "Ġresp|||ons": 1219,
    "o|||od": 1220,
    "Ġim|||m": 1221,
    "Ġl|||ong": 1222,
    "ĠH|||T": 1223,
    "Ġme|||th": 1224,
    "Ġmeth|||od": 1225,
    "Ġ|||vi": 1226,
    "Ġm|||ay": 1227,
    "oo|||ks": 1228,
    "Ġup|||f": 1229,
    "Ġupf|||ron": 1230,
    "Ġupfron|||t": 1231,
    "u|||ps": 1232,
    "am|||pl": 1233,
    "Ġan|||y": 1234,
    "Ġ|||ra": 1235,
    "b|||s": 1236,
    "T|||P": 1237,
    "Ġa|||ss": 1238,
    "Ġsc|||re": 1239,
    "Ġupd|||ate": 1240,
    "Ġupd|||ates": 1241,
    "Ġto|||k": 1242,
    "lo|||g": 1243,
    "Ġpro|||cess": 1244,
    "in|||ing": 1245,
    "n|||s": 1246,
    "Ġquick|||ly": 1247,
    "Ġp|||art": 1248,
    "i|||als": 1249,
    "Ġus|||ers": 1250,
    "Ġstat|||us": 1251,
    "Ġp|||ass": 1252,
    "Ġsafe|||ly": 1253,
    "c|||rypt": 1254,
    "Ġp|||ers": 1255,
    "Ġbre|||ak": 1256,
    "w|||ard": 1257,
    "Ġf|||ast": 1258,
    "Ġac|||ross": 1259,
    "Ġlo|||gging": 1260,
    "Ġh|||um": 1261,
    "Ġan|||aly": 1262,
    "Ġde|||le": 1263,
    "Ġpr|||om": 1264,
    "g|||ing": 1265,
    "Ġc|||oun": 1266,
    "ĠA|||void": 1267,
    "bo|||x": 1268,
    "Ġsp|||ec": 1269,
    "Ġminim|||al": 1270,
    "Ġd|||r": 1271,
    "as|||es": 1272,
    "Ġ|||vo": 1273,
    "Ġfiel|||ds": 1274,
    "en|||er": 1275,
    "ab|||les": 1276,
    "Ġs|||w": 1277,
    "Ġdeplo|||y": 1278,
    "Ġh|||y": 1279,
    "Ġgoal|||s": 1280,
    "al|||e": 1281,
    "Ġinter|||nal": 1282,
    "s|||w": 1283,
    "Ġappro|||pri": 1284,
    "Ġappropri|||ate": 1285,
    "enc|||ies": 1286,
    "Ġme|||et": 1287,
    "Ġen|||d": 1288,
    "Ġinc|||id": 1289,
    "Ġo|||th": 1290,
    "Ġvalid|||ation": 1291,
    "Ġsy|||st": 1292,
    "Ġr|||ight": 1293,
    "u|||lts": 1294,
    "Ġtok|||ens": 1295,
    "Ġlo|||sing": 1296,
    "Ġpro|||t": 1297,
    "Ġd|||ra": 1298,
    "alid|||ate": 1299,
    "Ġv|||ari": 1300,
    "Ġin|||f": 1301,
    "Ġb|||o": 1302,
    "Ġv|||al": 1303,
    "Ġthe|||re": 1304,
    "ĠS|||L": 1305,
    "Ġown|||ers": 1306,
    "Ġsa|||f": 1307,
    "th|||ing": 1308,
    "Ġrespons|||es": 1309,
    "Ġan|||sw": 1310,
    "Ġlo|||ad": 1311,
    "oo|||k": 1312,
    "ĠC|||le": 1313,
    "ĠHT|||TP": 1314,
    "oth|||es": 1315,
    "Ġm|||od": 1316,
    "Ġcomp|||u": 1317,
    "Ġen|||force": 1318,
    "a|||ks": 1319,
    "p|||o": 1320,
    "o|||g": 1321,
    "Ġserv|||ices": 1322,
    "Ġv|||is": 1323,
    "ar|||g": 1324,
    "Ġblo|||ck": 1325,
    "u|||b": 1326,
    "Ġs|||our": 1327,
    "min|||ute": 1328,
    "al|||k": 1329,
    "at|||ing": 1330,
    "Ġr|||ules": 1331,
    "Ġm|||ult": 1332,
    "Ġso|||l": 1333,
    "imiz|||e": 1334,
    "ent|||ials": 1335,
    "p|||are": 1336,
    "Ġth|||an": 1337,
    "Ġdefa|||ults": 1338,
    "Ġs|||ign": 1339,
    "c|||o": 1340,
    "Ġ|||just": 1341,
    "n|||c": 1342,
    "oo|||se": 1343,
    "Ġm|||at": 1344,
    "Ġtest|||ing": 1345,
    "ĠDe|||f": 1346,
    "Ġf|||ree": 1347,
    "Ġmigr|||ations": 1348,
    "ar|||m": 1349,
    "Ġr|||out": 1350,
    "way|||s": 1351,
    "Ġin|||st": 1352,
    "is|||s": 1353,
    "p|||en": 1354,
    "Ġcrit|||ical": 1355,
    "d|||one": 1356,
    "Ġs|||low": 1357,
    "Ġin|||to": 1358,
    "ath|||er": 1359,
    "Ġdo|||c": 1360,
    "Ġus|||age": 1361,
    "ve|||l": 1362,
    "ra|||ck": 1363,
    "Ġpro|||vide": 1364,
    "Ġdepend|||ency": 1365,
    "w|||hat": 1366,
    "ri|||b": 1367,
    "Ġp|||atter": 1368,
    "Ġdepend|||encies": 1369,
    "Ġin|||put": 1370,
    "Ġmo|||st": 1371,
    "Ġag|||ain": 1372,
    "Ġcommunic|||ate": 1373,
    "Ġg|||l": 1374,
    "Ġper|||i": 1375,
    "Ġperi|||od": 1376,
    "ĠSh|||ould": 1377,
    "us|||h": 1378,
    "Ġcl|||ients": 1379,
    "Ġar|||t": 1380,
    "at|||ive": 1381,
    "Ġof|||ten": 1382,
    "c|||king": 1383,
    "Ġcach|||ing": 1384,
    "Ġintegr|||ation": 1385,
    "Ġstor|||age": 1386,
    "Ġl|||a": 1387,
    "ll|||ow": 1388,
    "Ġa|||ir": 1389,
    "el|||ines": 1390,
    "m|||iss": 1391,
    "Ġs|||ess": 1392,
    "ur|||ation": 1393,
    "a|||ve": 1394,
    "Ġbe|||h": 1395,
    "Ġal|||low": 1396,
    "Ġen|||crypt": 1397,
    "Ġhand|||ling": 1398,
    "c|||le": 1399,
    "Ġorgan|||ized": 1400,
    "Ġpo|||lic": 1401,
    "ĠAPI|||s": 1402,
    "s|||p": 1403,
    "Ġfe|||el": 1404,
    "Ġres|||our": 1405,
    "r|||al": 1406,
    "L|||s": 1407,
    "Ġprot|||ect": 1408,
    "Ġre|||us": 1409,
    "Ġfr|||id": 1410,
    "Ġas|||k": 1411,
    "Ġin|||v": 1412,
    "Ġfor|||m": 1413,
    "Ġn|||um": 1414,
    "Ġp|||ack": 1415,
    "Ġexp|||ect": 1416,
    "Ġcon|||tain": 1417,
    "Ġrequ|||est": 1418,
    "ful|||ly": 1419,
    "an|||it": 1420,
    "Ġsh|||o": 1421,
    "Ġfailure|||s": 1422,
    "Ġaud|||it": 1423,
    "ĠT|||rack": 1424,
    "vi|||le": 1425,
    "Ġde|||v": 1426,
    "Ġev|||ents": 1427,
    "Ġte|||xt": 1428,
    "n|||e": 1429,
    "d|||es": 1430,
    "Ġenviron|||ments": 1431,
    "Ġhead|||ers": 1432,
    "Ġmis|||used": 1433,
    "Ġover|||done": 1434,
    "c|||cess": 1435,
    "p|||h": 1436,
    "Ġnetwor|||k": 1437,
    "Ġl|||in": 1438,
    "Ġcl|||ient": 1439,
    "ĠT|||hat": 1440,
    "in|||ess": 1441,
    "Ġhe|||re": 1442,
    "Ġfrid|||ge": 1443,
    "ac|||ts": 1444,
    "Ġf|||un": 1445,
    "Ġs|||eparate": 1446,
    "Ġsta|||y": 1447,
    "z|||e": 1448,
    "ĠWh|||ich": 1449,
    "Ġal|||ways": 1450,
    "n|||et": 1451,
    "Ġserv|||ice": 1452,
    "Ġret|||ry": 1453,
    "Ġsh|||ow": 1454,
    "el|||f": 1455,
    "Ġpatter|||ns": 1456,
    "Ġd|||ist": 1457,
    "ut|||h": 1458,
    "Ġw|||as": 1459,
    "Ġmult|||i": 1460,
    "Ġc|||a": 1461,
    "Ġs|||ize": 1462,
    "Ġprom|||pt": 1463,
    "load|||s": 1464,
    "Ġmin|||imize": 1465,
    "Ġw|||ind": 1466,
    "ĠV|||alidate": 1467,
    "ĠC|||heck": 1468,
    "Ġn|||ight": 1469,
    "Ġco|||l": 1470,
    "Ġd|||el": 1471,
    "Ġconte|||xt": 1472,
    "Ġlo|||o": 1473,
    "ta|||ble": 1474,
    "Ġs|||ur": 1475,
    "s|||er": 1476,
    "a|||vi": 1477,
    "as|||ter": 1478,
    "or|||ts": 1479,
    "as|||on": 1480,
    "ĠT|||he": 1481,
    "ri|||p": 1482,
    "c|||al": 1483,
    "ĠDo|||es": 1484,
    "Ġt|||ake": 1485,
    "ash|||bo": 1486,
    "Ġread|||y": 1487,
    "Ġb|||atch": 1488,
    "r|||ate": 1489,
    "er|||g": 1490,
    "ec|||ts": 1491,
    "Ġaut|||om": 1492,
    "Ġb|||ed": 1493,
    "Ġs|||n": 1494,
    "ac|||es": 1495,
    "Ġb|||est": 1496,
    "ĠI|||D": 1497,
    "Ġcur|||rent": 1498,
    "ĠC|||S": 1499,
    "Ġth|||ings": 1500,
    "Ġsw|||itch": 1501,
    "Ġ1|||0": 1502,
    "es|||ts": 1503,
    "Ġha|||pp": 1504,
    "Ġ|||J": 1505,
    "Ġque|||ues": 1506,
    "Ġc|||ap": 1507,
    "Ġst|||ale": 1508,
    "ĠS|||c": 1509,
    "Ġset|||ting": 1510,
    "Ġresp|||on": 1511,
    "Ġg|||ener": 1512,
    "rou|||nd": 1513,
    "Ġimprove|||ment": 1514,
    "le|||t": 1515,
    "Ġc|||ar": 1516,
    "om|||s": 1517,
    "Ġmess|||ages": 1518,
    "Ġc|||aus": 1519,
    "Ġnum|||bers": 1520,
    "Ġe|||qu": 1521,
    "Ġst|||and": 1522,
    "Ġty|||pe": 1523,
    "Ġapp|||s": 1524,
    "ĠDef|||ine": 1525,
    "Ġdoc|||s": 1526,
    "in|||ation": 1527,
    "Ġle|||ast": 1528,
    "Ġn|||ow": 1529,
    "Ġsp|||ace": 1530,
    "ic|||tion": 1531,
    "Ġo|||ld": 1532,
    "Ġf|||resh": 1533,
    "Ġimm|||edi": 1534,
    "Ġsu|||mm": 1535,
    "Ġcheck|||l": 1536,
    "Ġdo|||or": 1537,
    "Ġst|||re": 1538,
    "Ġcach|||es": 1539,
    "Ġvo|||ice": 1540,
    "igh|||ts": 1541,
    ")|||.": 1542,
    "Ġspec|||ific": 1543,
    "Ġpro|||p": 1544,
    "ig|||ate": 1545,
    "Ġen|||v": 1546,
    "Ġcl|||ut": 1547,
    "Ġpri|||vile": 1548,
    "Ġpro|||d": 1549,
    "ent|||ly": 1550,
    "Ġsh|||ould": 1551,
    "Ġw|||on": 1552,
    "s|||ide": 1553,
    "Ġch|||o": 1554,
    "Ġimmedi|||ate": 1555,
    "Ġo|||pen": 1556,
    "Ġg|||re": 1557,
    "Ġmis|||s": 1558,
    "Ġin|||puts": 1559,
    "Ġbeh|||avi": 1560,
    "it|||ion": 1561,
    "Ġtas|||k": 1562,
    "Ġgra|||ce": 1563,
    "ĠP|||re": 1564,
    "Ġpro|||du": 1565,
    "Ġvers|||ions": 1566,
    "Ġover|||load": 1567,
    "Ġpolic|||ies": 1568,
    "i|||x": 1569,
    "Ġsched|||ule": 1570,
    "Ġmon|||th": 1571,
    "Ġper|||miss": 1572,
    "ashbo|||ards": 1573,
    "ru|||b": 1574,
    "Ġt|||w": 1575,
    "Ġth|||ree": 1576,
    "et|||y": 1577,
    "Ġph|||one": 1578,
    "il|||d": 1579,
    "it|||ies": 1580,
    "ass|||es": 1581,
    "Ġorgan|||ize": 1582,
    "Ġencrypt|||ion": 1583,
    "Ġequ|||ations": 1584,
    "Ġvi|||a": 1585,
    "Ġpers|||on": 1586,
    "ir|||m": 1587,
    "ĠTh|||an": 1588,
    "Ġw|||ash": 1589,
    "Ġmeasu|||re": 1590,
    "Ġprompt|||ly": 1591,
    "am|||p": 1592,
    "Ġtool|||s": 1593,
    "Ġrun|||b": 1594,
    "ĠPro|||vide": 1595,
    "Ġc|||ases": 1596,
    "Ġed|||ge": 1597,
    "Ġact|||ions": 1598,
    "Ġconc|||ise": 1599,
    "Ġt|||em": 1600,
    "Ġsu|||ccess": 1601,
    "or|||y": 1602,
    "Ġagain|||st": 1603,
    "Ġcl|||ose": 1604,
    "e|||ar": 1605,
    "qu|||e": 1606,
    "am|||es": 1607,
    "Ġdefa|||ult": 1608,
    "Ġun|||t": 1609,
    "Ġpro|||gra": 1610,
    "Ġcont|||in": 1611,
    "at|||s": 1612,
    "ĠP|||R": 1613,
    "Ġres|||ol": 1614,
    "Ġe|||lect": 1615,
    "Ġco|||des": 1616,
    "re|||qu": 1617,
    "ĠC|||h": 1618,
    "g|||es": 1619,
    "Ġcle|||arly": 1620,
    "ĠG|||ood": 1621,
    "Ġperiod|||ically": 1622,
    "Ġoptimiz|||e": 1623,
    "ar|||ge": 1624,
    "Ġcal|||m": 1625,
    "Ġthe|||y": 1626,
    "Ġde|||ep": 1627,
    "Ġty|||p": 1628,
    "Ġw|||ipe": 1629,
    "Ġf|||ul": 1630,
    "Ġbasic|||s": 1631,
    "Ġart|||if": 1632,
    "Ġwe|||ather": 1633,
    "ĠD|||N": 1634,
    "Ġh|||as": 1635,
    "Ġre|||n": 1636,
    "Ġun|||it": 1637,
    "Ġis|||ol": 1638,
    "Ġre|||le": 1639,
    "ar|||k": 1640,
    "Ġdis|||h": 1641,
    "t|||ra": 1642,
    "ff|||ic": 1643,
    "resh|||old": 1644,
    "ent|||ral": 1645,
    "po|||ints": 1646,
    "Ġback|||off": 1647,
    "ĠA|||l": 1648,
    "Ġpermiss|||ions": 1649,
    "Ġan|||om": 1650,
    "Ġser|||ver": 1651,
    "ĠID|||s": 1652,
    "Ġs|||ampl": 1653,
    "Ġsur|||f": 1654,
    "ron|||g": 1655,
    "e|||led": 1656,
    "Ġtr|||ust": 1657,
    "Ġexper|||im": 1658,
    "Ġfun|||ct": 1659,
    "i|||ps": 1660,
    "re|||g": 1661,
    "Ġfo|||llow": 1662,
    "Ġfo|||od": 1663,
    "Ġsp|||ills": 1664,
    "Ġfi|||le": 1665,
    "Ġth|||reshold": 1666,
    "Ġp|||ag": 1667,
    "ĠD|||B": 1668,
    "Ġp|||et": 1669,
    "L|||S": 1670,
    "is|||h": 1671,
    "m|||e": 1672,
    "Ġno|||ise": 1673,
    "Ġback|||ups": 1674,
    "Ġp|||ub": 1675,
    "Ġev|||idence": 1676,
    "ĠP|||I": 1677,
    "ĠPI|||I": 1678,
    "ist|||ic": 1679,
    "il|||s": 1680,
    "Ġconvers|||ations": 1681,
    "Ġs|||ent": 1682,
    "Ġtra|||ining": 1683,
    "Ġh|||ard": 1684,
    "Ġb|||ag": 1685,
    "Ġlab|||eled": 1686,
    "ĠW|||ipe": 1687,
    "Ġincid|||ent": 1688,
    "Ġm|||ust": 1689,
    "os|||y": 1690,
    "Ġf|||aster": 1691,
    "Ġfil|||es": 1692,
    "es|||is": 1693,
    "Ġpri|||v": 1694,
    "Ġs|||l": 1695,
    "Ġass|||ist": 1696,
    "Ġsta|||ging": 1697,
    "Ġre|||pl": 1698,
    "Ġhe|||at": 1699,
    "r|||un": 1700,
    "Ġm|||ic": 1701,
    "Ġreli|||able": 1702,
    "up|||lic": 1703,
    "Ġtime|||outs": 1704,
    "Ġc|||red": 1705,
    "Ġschem|||as": 1706,
    "Ġdon|||Ã¢": 1707,
    "Ġro|||les": 1708,
    "if|||t": 1709,
    "Ġp|||ip": 1710,
    "h|||ow": 1711,
    "Ġd|||ashboards": 1712,
    "Ġex|||ist": 1713,
    "Ġle|||aking": 1714,
    "Ġis|||su": 1715,
    "Ġconvers|||ation": 1716,
    "as|||ed": 1717,
    "t|||ell": 1718,
    "i|||e": 1719,
    "Ġun|||used": 1720,
    "Ġimmediate|||ly": 1721,
    "Ġoth|||er": 1722,
    "Ġregul|||ar": 1723,
    "enc|||es": 1724,
    "Ġidempot|||ent": 1725,
    "ĠL|||imit": 1726,
    "Ġs|||anit": 1727,
    "Ġpl|||ace": 1728,
    "Ġthreshold|||s": 1729,
    "Ġprivile|||ge": 1730,
    "Ġin|||de": 1731,
    "Ġpre|||pare": 1732,
    "Ġn|||av": 1733,
    "Ġbigg|||er": 1734,
    "Ġbe|||at": 1735,
    "================|||================": 1736,
    "Ġf|||in": 1737,
    "Ġrollback|||s": 1738,
    "Ġwh|||o": 1739,
    "e|||ad": 1740,
    "Ġal|||l": 1741,
    "Ġpub|||lic": 1742,
    "Ġd|||one": 1743,
    "o|||st": 1744,
    "Ġat|||t": 1745,
    "Ġresour|||ces": 1746,
    "iv|||ed": 1747,
    "e|||ts": 1748,
    "he|||l": 1749,
    "Ġtw|||o": 1750,
    "en|||ess": 1751,
    "Ġbehavi|||or": 1752,
    "e|||x": 1753,
    "ress|||ions": 1754,
    "ĠR|||E": 1755,
    "S|||T": 1756,
    "Ġp|||ur": 1757,
    "Ġsour|||ce": 1758,
    "an|||ding": 1759,
    "Ġhelp|||ful": 1760,
    "Ġ|||5": 1761,
    "'|||re": 1762,
    "Ġcle|||are": 1763,
    "ĠS|||eparate": 1764,
    "g|||s": 1765,
    "Ġqu|||er": 1766,
    "h|||ip": 1767,
    "c|||ts": 1768,
    "Ġres|||et": 1769,
    "Ġp|||air": 1770,
    "Ġd|||ri": 1771,
    "re|||s": 1772,
    "ec|||ess": 1773,
    "v|||al": 1774,
    "Ġexp|||os": 1775,
    "Ġco|||ver": 1776,
    "tell|||ig": 1777,
    "Ġ|||our": 1778,
    "Ġansw|||er": 1779,
    "d|||ay": 1780,
    "is|||m": 1781,
    "Ġcheckl|||ist": 1782,
    "Ġt|||alk": 1783,
    "Ġph|||ot": 1784,
    "Ġc|||all": 1785,
    "ĠCle|||an": 1786,
    "j|||ects": 1787,
    "Ġidempot|||ency": 1788,
    "Ġre|||tention": 1789,
    "Ġf|||requ": 1790,
    "c|||ent": 1791,
    "Ġsta|||ble": 1792,
    "Ġt|||id": 1793,
    "al|||ly": 1794,
    "Ġ|||ve": 1795,
    "Ġclut|||ter": 1796,
    "Ġwind|||ows": 1797,
    "or|||d": 1798,
    "ro|||ll": 1799,
    "Ġroll|||out": 1800,
    "Ġgra|||d": 1801,
    "t|||ics": 1802,
    "Ġend|||points": 1803,
    "Ġsol|||ve": 1804,
    "er|||t": 1805,
    "Ġh|||our": 1806,
    "Ġbre|||aking": 1807,
    "Ġcomp|||ati": 1808,
    "Ġcompati|||bility": 1809,
    "c|||lude": 1810,
    "Ġe|||l": 1811,
    "Ġcol|||lect": 1812,
    "Ġcho|||ices": 1813,
    "Ġsampl|||ing": 1814,
    "Ġcontin|||u": 1815,
    "Ġen|||ough": 1816,
    "Ġs|||ome": 1817,
    "is|||y": 1818,
    "Ġloo|||k": 1819,
    "Ġclean|||er": 1820,
    "Ġpass|||wor": 1821,
    "Ġsc|||an": 1822,
    "Ġl|||ine": 1823,
    "Ġwh|||ile": 1824,
    "Ġact|||ive": 1825,
    "re|||l": 1826,
    "Ġs|||ame": 1827,
    "p|||ro": 1828,
    "Ġtop|||ic": 1829,
    "Ġcontain|||ers": 1830,
    "ac|||y": 1831,
    "Ġsn|||ack": 1832,
    "Ġrem|||ind": 1833,
    "Ġfil|||ters": 1834,
    "Ġcl|||othes": 1835,
    "Ġsyst|||ems": 1836,
    "et|||ect": 1837,
    "Ġpriorit|||ies": 1838,
    "Ġn|||ame": 1839,
    "Ġd|||uplic": 1840,
    "Ġanaly|||tics": 1841,
    "Ġdr|||ift": 1842,
    "Ġcoo|||k": 1843,
    "Ġcleare|||r": 1844,
    "Ġval|||ue": 1845,
    "Ġl|||ast": 1846,
    "Ġanom|||al": 1847,
    "Ġst|||ar": 1848,
    "Ġs|||ample": 1849,
    "Ġp|||ages": 1850,
    "s|||elf": 1851,
    "Ġb|||i": 1852,
    "Ġhum|||an": 1853,
    "Ġsu|||b": 1854,
    "d|||o": 1855,
    "ĠU|||R": 1856,
    "Ġsaf|||ety": 1857,
    "Ġman|||ag": 1858,
    "Ġch|||oose": 1859,
    "Ġ|||z": 1860,
    "Ġartif|||acts": 1861,
    "Ġid|||ent": 1862,
    "Ġh|||it": 1863,
    "g|||u": 1864,
    "Ġauth|||or": 1865,
    "Ġexperim|||ents": 1866,
[...]
