{
  "token_to_id": {
    "<pad>": 0,
    "<s>": 1,
    "</s>": 2,
    "<unk>": 3,
    "<sep>": 4,
    "<mask>": 5,
    "<Q>": 6,
    "<A>": 7,
    "<USER>": 8,
    "<BOT>": 9,
    "\u0000": 10,
    "\u0001": 11,
    "\u0002": 12,
    "\u0003": 13,
    "\u0004": 14,
    "\u0005": 15,
    "\u0006": 16,
    "\u0007": 17,
    "\b": 18,
    "\t": 19,
    "\n": 20,
    "\u000b": 21,
    "\f": 22,
    "\r": 23,
    "\u000e": 24,
    "\u000f": 25,
    "\u0010": 26,
    "\u0011": 27,
    "\u0012": 28,
    "\u0013": 29,
    "\u0014": 30,
    "\u0015": 31,
    "\u0016": 32,
    "\u0017": 33,
    "\u0018": 34,
    "\u0019": 35,
    "\u001a": 36,
    "\u001b": 37,
    "\u001c": 38,
    "\u001d": 39,
    "\u001e": 40,
    "\u001f": 41,
    " ": 42,
    "!": 43,
    "\"": 44,
    "#": 45,
    "$": 46,
    "%": 47,
    "&": 48,
    "'": 49,
    "(": 50,
    ")": 51,
    "*": 52,
    "+": 53,
    ",": 54,
    "-": 55,
    ".": 56,
    "/": 57,
    "0": 58,
    "1": 59,
    "2": 60,
    "3": 61,
    "4": 62,
    "5": 63,
    "6": 64,
    "7": 65,
    "8": 66,
    "9": 67,
    ":": 68,
    ";": 69,
    "<": 70,
    "=": 71,
    ">": 72,
    "?": 73,
    "@": 74,
    "A": 75,
    "B": 76,
    "C": 77,
    "D": 78,
    "E": 79,
    "F": 80,
    "G": 81,
    "H": 82,
    "I": 83,
    "J": 84,
    "K": 85,
    "L": 86,
    "M": 87,
    "N": 88,
    "O": 89,
    "P": 90,
    "Q": 91,
    "R": 92,
    "S": 93,
    "T": 94,
    "U": 95,
    "V": 96,
    "W": 97,
    "X": 98,
    "Y": 99,
    "Z": 100,
    "[": 101,
    "\\": 102,
    "]": 103,
    "^": 104,
    "_": 105,
    "`": 106,
    "a": 107,
    "b": 108,
    "c": 109,
    "d": 110,
    "e": 111,
    "f": 112,
    "g": 113,
    "h": 114,
    "i": 115,
    "j": 116,
    "k": 117,
    "l": 118,
    "m": 119,
    "n": 120,
    "o": 121,
    "p": 122,
    "q": 123,
    "r": 124,
    "s": 125,
    "t": 126,
    "u": 127,
    "v": 128,
    "w": 129,
    "x": 130,
    "y": 131,
    "z": 132,
    "{": 133,
    "|": 134,
    "}": 135,
    "~": 136,
    "": 137,
    "": 138,
    "": 139,
    "": 140,
    "": 141,
    "": 142,
    "": 143,
    "": 144,
    "": 145,
    "": 146,
    "": 147,
    "": 148,
    "": 149,
    "": 150,
    "": 151,
    "": 152,
    "": 153,
    "": 154,
    "": 155,
    "": 156,
    "": 157,
    "": 158,
    "": 159,
    "": 160,
    "": 161,
    "": 162,
    "": 163,
    "": 164,
    "": 165,
    "": 166,
    "": 167,
    "": 168,
    "": 169,
    " ": 170,
    "¡": 171,
    "¢": 172,
    "£": 173,
    "¤": 174,
    "¥": 175,
    "¦": 176,
    "§": 177,
    "¨": 178,
    "©": 179,
    "ª": 180,
    "«": 181,
    "¬": 182,
    "­": 183,
    "®": 184,
    "¯": 185,
    "°": 186,
    "±": 187,
    "²": 188,
    "³": 189,
    "´": 190,
    "µ": 191,
    "¶": 192,
    "·": 193,
    "¸": 194,
    "¹": 195,
    "º": 196,
    "»": 197,
    "¼": 198,
    "½": 199,
    "¾": 200,
    "¿": 201,
    "À": 202,
    "Á": 203,
    "Â": 204,
    "Ã": 205,
    "Ä": 206,
    "Å": 207,
    "Æ": 208,
    "Ç": 209,
    "È": 210,
    "É": 211,
    "Ê": 212,
    "Ë": 213,
    "Ì": 214,
    "Í": 215,
    "Î": 216,
    "Ï": 217,
    "Ð": 218,
    "Ñ": 219,
    "Ò": 220,
    "Ó": 221,
    "Ô": 222,
    "Õ": 223,
    "Ö": 224,
    "×": 225,
    "Ø": 226,
    "Ù": 227,
    "Ú": 228,
    "Û": 229,
    "Ü": 230,
    "Ý": 231,
    "Þ": 232,
    "ß": 233,
    "à": 234,
    "á": 235,
    "â": 236,
    "ã": 237,
    "ä": 238,
    "å": 239,
    "æ": 240,
    "ç": 241,
    "è": 242,
    "é": 243,
    "ê": 244,
    "ë": 245,
    "ì": 246,
    "í": 247,
    "î": 248,
    "ï": 249,
    "ð": 250,
    "ñ": 251,
    "ò": 252,
    "ó": 253,
    "ô": 254,
    "õ": 255,
    "ö": 256,
    "÷": 257,
    "ø": 258,
    "ù": 259,
    "ú": 260,
    "û": 261,
    "ü": 262,
    "ý": 263,
    "þ": 264,
    "ÿ": 265,
    "</w>": 266,
    "e</w>": 267,
    "s</w>": 268,
    "in": 269,
    "t</w>": 270,
    "></w>": 271,
    "<</w>": 272,
    "on": 273,
    ",</w>": 274,
    "an": 275,
    "d</w>": 276,
    "y</w>": 277,
    "g</w>": 278,
    "er": 279,
    "ing</w>": 280,
    "A</w>": 281,
    "it": 282,
    "re": 283,
    "at": 284,
    "?</w>": 285,
    ".</w>": 286,
    "Q</w>": 287,
    "en": 288,
    "al": 289,
    "or": 290,
    "im": 291,
    "on</w>": 292,
    "ou": 293,
    "o</w>": 294,
    "st": 295,
    "ar": 296,
    "co": 297,
    "es</w>": 298,
    "and</w>": 299,
    "th": 300,
    "ro": 301,
    "ic": 302,
    "ha": 303,
    "a</w>": 304,
    "imp": 305,
    "er</w>": 306,
    "ra": 307,
    "ed</w>": 308,
    "su": 309,
    "com": 310,
    "ec": 311,
    "hat</w>": 312,
    "in</w>": 313,
    "w</w>": 314,
    "con": 315,
    "me": 316,
    "k</w>": 317,
    "to</w>": 318,
    "ity</w>": 319,
    "le</w>": 320,
    "I</w>": 321,
    "is</w>": 322,
    "ow</w>": 323,
    "de": 324,
    "ke</w>": 325,
    "an</w>": 326,
    "What</w>": 327,
    "ly</w>": 328,
    "st</w>": 329,
    "ion</w>": 330,
    "ts</w>": 331,
    "the</w>": 332,
    "or</w>": 333,
    "How</w>": 334,
    "ba": 335,
    "comm": 336,
    "of": 337,
    "h</w>": 338,
    "li": 339,
    "n</w>": 340,
    "al</w>": 341,
    "ve</w>": 342,
    "il": 343,
    "wit": 344,
    "se</w>": 345,
    "mi": 346,
    "impro": 347,
    "ep": 348,
    "you": 349,
    "common</w>": 350,
    "one</w>": 351,
    "el": 352,
    "’</w>": 353,
    "sta": 354,
    "cl": 355,
    "In</w>": 356,
    "simp": 357,
    "can</w>": 358,
    "fi": 359,
    "f</w>": 360,
    "ation</w>": 361,
    "do": 362,
    "att": 363,
    "tra": 364,
    "ce</w>": 365,
    "l</w>": 366,
    "tim": 367,
    "it</w>": 368,
    "vi": 369,
    "ent</w>": 370,
    "mista": 371,
    "ex": 372,
    "lat": 373,
    "ving</w>": 374,
    "go": 375,
    "with</w>": 376,
    "do</w>": 377,
    "vo": 378,
    "ear": 379,
    "qu": 380,
    "matt": 381,
    "ate</w>": 382,
    "bas": 383,
    "ke": 384,
    "like</w>": 385,
    "ab": 386,
    "op": 387,
    "trade": 388,
    "tradeof": 389,
    "-</w>": 390,
    "ers</w>": 391,
    "be": 392,
    "ge": 393,
    "am": 394,
    "ig": 395,
    "iz": 396,
    "ac": 397,
    "un": 398,
    "mea": 399,
    "measu": 400,
    "does</w>": 401,
    "mo": 402,
    "goal</w>": 403,
    "use</w>": 404,
    "sp": 405,
    "mistake</w>": 406,
    "tradeoff</w>": 407,
    "lated</w>": 408,
    "you</w>": 409,
    "related</w>": 410,
    "pro": 411,
    "for": 412,
    "ed": 413,
    "wh": 414,
    "re</w>": 415,
    "pl": 416,
    "gin": 417,
    "ck</w>": 418,
    "ay</w>": 419,
    "fe": 420,
    "ri": 421,
    "ti": 422,
    "simple</w>": 423,
    "ef": 424,
    "king</w>": 425,
    "all</w>": 426,
    "r</w>": 427,
    "sm": 428,
    "si": 429,
    "ine</w>": 430,
    "to": 431,
    ":</w>": 432,
    "ep</w>": 433,
    "lic": 434,
    "out</w>": 435,
    "bu": 436,
    "tt": 437,
    "St": 438,
    "small</w>": 439,
    "conc": 440,
    "ari": 441,
    "art</w>": 442,
    "ility</w>": 443,
    "ment</w>": 444,
    "bo": 445,
    "ons</w>": 446,
    "m</w>": 447,
    "lts</w>": 448,
    "ma": 449,
    "cu": 450,
    "back</w>": 451,
    "/</w>": 452,
    "ent": 453,
    "your</w>": 454,
    "te": 455,
    "resu": 456,
    "ch": 457,
    "ence</w>": 458,
    "time</w>": 459,
    "are</w>": 460,
    "ne": 461,
    "ct": 462,
    "results</w>": 463,
    "ality</w>": 464,
    "improve</w>": 465,
    "pp": 466,
    "ob": 467,
    "quality</w>": 468,
    "way</w>": 469,
    "ner</w>": 470,
    "ble</w>": 471,
    "Start</w>": 472,
    "id</w>": 473,
    "ick</w>": 474,
    "lo": 475,
    "begin": 476,
    "en</w>": 477,
    "beginner</w>": 478,
    "out": 479,
    "what</w>": 480,
    "ag": 481,
    "ints</w>": 482,
    "wor": 483,
    "void</w>": 484,
    "concep": 485,
    "feed": 486,
    "feedback</w>": 487,
    "ut": 488,
    "confi": 489,
    "iter": 490,
    "ability</w>": 491,
    "ally</w>": 492,
    "stra": 493,
    "eck</w>": 494,
    "simplic": 495,
    "simplicity</w>": 496,
    "as": 497,
    "move</w>": 498,
    "ause</w>": 499,
    "matters</w>": 500,
    "le": 501,
    "avoid</w>": 502,
    "constra": 503,
    "lving</w>": 504,
    "constraints</w>": 505,
    "ver": 506,
    "ad": 507,
    "ecause</w>": 508,
    "because</w>": 509,
    "fir": 510,
    "ring</w>": 511,
    "ans</w>": 512,
    "first</w>": 513,
    "matter</w>": 514,
    "ss</w>": 515,
    "with": 516,
    "ves</w>": 517,
    "ous</w>": 518,
    "for</w>": 519,
    "without</w>": 520,
    "early</w>": 521,
    "spe": 522,
    "remove</w>": 523,
    "fort</w>": 524,
    "effort</w>": 525,
    "ying</w>": 526,
    "anc": 527,
    "man": 528,
    "mean</w>": 529,
    "ice</w>": 530,
    "outcom": 531,
    "speed</w>": 532,
    "based</w>": 533,
    "It</w>": 534,
    "optim": 535,
    "dence</w>": 536,
    "optimiz": 537,
    "cost</w>": 538,
    "outcomes</w>": 539,
    "of</w>": 540,
    "big": 541,
    "vie": 542,
    "len": 543,
    "pick</w>": 544,
    "bal": 545,
    "keep</w>": 546,
    "too</w>": 547,
    "why</w>": 548,
    "ps</w>": 549,
    "arif": 550,
    "bott": 551,
    "gest</w>": 552,
    "balanc": 553,
    "clarif": 554,
    "vious</w>": 555,
    "means</w>": 556,
    "eline</w>": 557,
    "usu": 558,
    "rable</w>": 559,
    "measurable</w>": 560,
    "iterate</w>": 561,
    "confidence</w>": 562,
    "obvious</w>": 563,
    "usually</w>": 564,
    "bottlen": 565,
    "ract": 566,
    "improving</w>": 567,
    "improves</w>": 568,
    "biggest</w>": 569,
    "measuring</w>": 570,
    "clarifying</w>": 571,
    "bottleneck</w>": 572,
    "invo": 573,
    "involving</w>": 574,
    "balancing</w>": 575,
    "optimizing</w>": 576,
    "baseline</w>": 577,
    "no": 578,
    "om": 579,
    "pract": 580,
    "key</w>": 581,
    "di": 582,
    "sc": 583,
    "concept</w>": 584,
    ";</w>": 585,
    "us": 586,
    "tr": 587,
    "we": 588,
    "du": 589,
    "sec": 590,
    "ks</w>": 591,
    "p</w>": 592,
    "ding</w>": 593,
    "revie": 594,
    "de</w>": 595,
    "Use</w>": 596,
    "ple</w>": 597,
    "sure</w>": 598,
    "rit": 599,
    "practice</w>": 600,
    "ta": 601,
    "ect</w>": 602,
    "ample</w>": 603,
    "enc": 604,
    "sh": 605,
    "th</w>": 606,
    "at</w>": 607,
    "ur": 608,
    "example</w>": 609,
    "so": 610,
    "ensure</w>": 611,
    "ning</w>": 612,
    "comp": 613,
    "ication</w>": 614,
    "ort</w>": 615,
    "commun": 616,
    "mor": 617,
    "se": 618,
    "po": 619,
    "ca": 620,
    "dat": 621,
    "hab": 622,
    "und": 623,
    "fa": 624,
    "age</w>": 625,
    "pre": 626,
    "ev": 627,
    "tion</w>": 628,
    "review</w>": 629,
    "sist": 630,
    "ic</w>": 631,
    "buil": 632,
    "communication</w>": 633,
    "ical</w>": 634,
    "per": 635,
    "mon": 636,
    "ld</w>": 637,
    "am</w>": 638,
    "em": 639,
    "gu": 640,
    "als</w>": 641,
    "consist": 642,
    "sa": 643,
    "ency</w>": 644,
    "kes</w>": 645,
    "==": 646,
    "coo": 647,
    "lear": 648,
    "ds</w>": 649,
    "row": 650,
    "vel": 651,
    "monit": 652,
    "ati": 653,
    "ure</w>": 654,
    "tec": 655,
    "age": 656,
    "manage": 657,
    "oft": 658,
    "management</w>": 659,
    "ware</w>": 660,
    "writ": 661,
    "mistakes</w>": 662,
    "ter": 663,
    "gs</w>": 664,
    "ents</w>": 665,
    "comput": 666,
    "make</w>": 667,
    "app": 668,
    "net": 669,
    "tions</w>": 670,
    "hel": 671,
    "b</w>": 672,
    "ser": 673,
    "networ": 674,
    ")</w>": 675,
    "supp": 676,
    "au": 677,
    "ject</w>": 678,
    "ering</w>": 679,
    "habit</w>": 680,
    "not</w>": 681,
    "cooking</w>": 682,
    "fro": 683,
    "grow": 684,
    "ru": 685,
    "data</w>": 686,
    "oud</w>": 687,
    "cy": 688,
    "Wh": 689,
    "pri": 690,
    "from</w>": 691,
    "growth</w>": 692,
    "gh": 693,
    "support</w>": 694,
    "care": 695,
    "velop": 696,
    "soft": 697,
    "ization</w>": 698,
    "ll": 699,
    "software</w>": 700,
    "building</w>": 701,
    "cloud</w>": 702,
    "gg": 703,
    "writing</w>": 704,
    "secur": 705,
    "security</w>": 706,
    "develop": 707,
    "team</w>": 708,
    "ics</w>": 709,
    "tech": 710,
    "end": 711,
    "project</w>": 712,
    "ant</w>": 713,
    "web</w>": 714,
    "able</w>": 715,
    "pla": 716,
    "engin": 717,
    "oun": 718,
    "engine": 719,
    "te</w>": 720,
    "computing</w>": 721,
    "engineering</w>": 722,
    "techn": 723,
    "cust": 724,
    "id": 725,
    "ber": 726,
    "fo": 727,
    "development</w>": 728,
    "career</w>": 729,
    "duce</w>": 730,
    "technical</w>": 731,
    "if</w>": 732,
    "networking</w>": 733,
    "Ops</w>": 734,
    "cyber": 735,
    "cybersecurity</w>": 736,
    "custom": 737,
    "customer</w>": 738,
    "Dev": 739,
    "DevOps</w>": 740,
    "is": 741,
    "ch</w>": 742,
    "pe</w>": 743,
    "serv": 744,
    "cor": 745,
    "mis": 746,
    "ting</w>": 747,
    "compl": 748,
    "as</w>": 749,
    "pe": 750,
    "od</w>": 751,
    "ge</w>": 752,
    "ies</w>": 753,
    "learning</w>": 754,
    "est": 755,
    "more</w>": 756,
    "min": 757,
    "pu": 758,
    "and": 759,
    "tiv": 760,
    "its</w>": 761,
    "when</w>": 762,
    "by</w>": 763,
    "ath": 764,
    "ment": 765,
    "ize</w>": 766,
    "ter</w>": 767,
    "ce": 768,
    "prev": 769,
    "!</w>": 770,
    "ear</w>": 771,
    "gging</w>": 772,
    "dec": 773,
    "ach": 774,
    "les</w>": 775,
    "complex": 776,
    "ach</w>": 777,
    "3</w>": 778,
    "main": 779,
    "how</w>": 780,
    "ive</w>": 781,
    "prevent</w>": 782,
    "ar</w>": 783,
    "ould</w>": 784,
    "eps</w>": 785,
    "complexity</w>": 786,
    "res": 787,
    "tter</w>": 788,
    "ors</w>": 789,
    "cont": 790,
    "plain</w>": 791,
    "reduce</w>": 792,
    "helps</w>": 793,
    "igh": 794,
    "chan": 795,
    "the": 796,
    "corre": 797,
    "ap": 798,
    "read": 799,
    "clu": 800,
    "over": 801,
    "ations</w>": 802,
    "mainta": 803,
    "val": 804,
    "that</w>": 805,
    "he": 806,
    "steps</w>": 807,
    "ys</w>": 808,
    "mp": 809,
    "stor": 810,
    "thing</w>": 811,
    "ad</w>": 812,
    "arity</w>": 813,
    "ere</w>": 814,
    "ign": 815,
    "roll": 816,
    "fl": 817,
    "try</w>": 818,
    "ju": 819,
    "hand": 820,
    "clarity</w>": 821,
    "lim": 822,
    "fund": 823,
    "org": 824,
    "debu": 825,
    "orit": 826,
    "organ": 827,
    "fundam": 828,
    "fundament": 829,
    "err": 830,
    "fundamentals</w>": 831,
    "misconcep": 832,
    "misconception</w>": 833,
    "ck": 834,
    "metr": 835,
    "ul": 836,
    "docu": 837,
    "ely</w>": 838,
    "ted</w>": 839,
    "av": 840,
    "ss": 841,
    "up": 842,
    "lin": 843,
    "set</w>": 844,
    "gr": 845,
    "monitor</w>": 846,
    "ide": 847,
    "sk": 848,
    "reli": 849,
    "sk</w>": 850,
    "requ": 851,
    "debugging</w>": 852,
    "Can</w>": 853,
    "ms</w>": 854,
    "Th": 855,
    "better</w>": 856,
    "stre": 857,
    "mb": 858,
    "====": 859,
    "priorit": 860,
    "sts</w>": 861,
    "path": 862,
    "sions</w>": 863,
    "ness</w>": 864,
    "focu": 865,
    "Is</w>": 866,
    "user</w>": 867,
    "clear</w>": 868,
    "bility</w>": 869,
    "sting</w>": 870,
    "sco": 871,
    "fe</w>": 872,
    "metrics</w>": 873,
    "oring</w>": 874,
    "test</w>": 875,
    "ls</w>": 876,
    "erst": 877,
    "about</w>": 878,
    "ry</w>": 879,
    "fri": 880,
    "put</w>": 881,
    "x</w>": 882,
    "cle": 883,
    "then</w>": 884,
    "af": 885,
    "fs</w>": 886,
    "ai": 887,
    "sci": 888,
    "red</w>": 889,
    "plan": 890,
    "some": 891,
    "focus</w>": 892,
    "ble": 893,
    "sle": 894,
    "latency</w>": 895,
    "very</w>": 896,
    "ome</w>": 897,
    "conf": 898,
    "ges</w>": 899,
    "underst": 900,
    "apply</w>": 901,
    "clude</w>": 902,
    "proble": 903,
    "sleep</w>": 904,
    "monitoring</w>": 905,
    "ution</w>": 906,
    "get</w>": 907,
    "be</w>": 908,
    "ron": 909,
    "cess</w>": 910,
    "ail": 911,
    "work</w>": 912,
    "good</w>": 913,
    "perfor": 914,
    "aries</w>": 915,
    "memor": 916,
    "bud": 917,
    "ich</w>": 918,
    "day</w>": 919,
    "scal": 920,
    "rou": 921,
    "et</w>": 922,
    "ision</w>": 923,
    "each</w>": 924,
    "cach": 925,
    "boun": 926,
    "decision</w>": 927,
    "ill</w>": 928,
    "star": 929,
    "gra": 930,
    "after</w>": 931,
    "tradeoffs</w>": 932,
    "ight</w>": 933,
    "ention</w>": 934,
    "ently</w>": 935,
    "bri": 936,
    "conflic": 937,
    "sch": 938,
    "observ": 939,
    "problem</w>": 940,
    "Pro": 941,
    "ho": 942,
    "consistent</w>": 943,
    "performan": 944,
    "iting</w>": 945,
    "per</w>": 946,
    "back": 947,
    "budge": 948,
    "throu": 949,
    "performance</w>": 950,
    "planning</w>": 951,
    "reliability</w>": 952,
    "if": 953,
    "home</w>": 954,
    "avail": 955,
    "ink</w>": 956,
    "op</w>": 957,
    "ast</w>": 958,
    "safe</w>": 959,
    "fec": 960,
    "ell</w>": 961,
    "(</w>": 962,
    "something</w>": 963,
    "conn": 964,
    "ext</w>": 965,
    "lan": 966,
    "scope</w>": 967,
    "risk</w>": 968,
    "ard</w>": 969,
    "secre": 970,
    "correct": 971,
    "conflict</w>": 972,
    "observability</w>": 973,
    "—</w>": 974,
    "bre": 975,
    "include</w>": 976,
    "tone</w>": 977,
    "bound": 978,
    "would</w>": 979,
    "real</w>": 980,
    "up</w>": 981,
    "note</w>": 982,
    "ort": 983,
    "understand</w>": 984,
    "availability</w>": 985,
    "ings</w>": 986,
    "res</w>": 987,
    "document": 988,
    "appro": 989,
    "mber</w>": 990,
    "adju": 991,
    "me</w>": 992,
    "aler": 993,
    "ated</w>": 994,
    "code</w>": 995,
    "kly</w>": 996,
    "pping</w>": 997,
    "valid": 998,
    "1</w>": 999,
    "correctness</w>": 1000,
    "review": 1001,
    "exec": 1002,
    "ver</w>": 1003,
    "exp": 1004,
    "ages</w>": 1005,
    "langu": 1006,
    "making</w>": 1007,
    "need": 1008,
    "budgeting</w>": 1009,
    "motiv": 1010,
    "prioritization</w>": 1011,
    "stress</w>": 1012,
    "audi": 1013,
    "reme": 1014,
    "add</w>": 1015,
    "inter": 1016,
    "2</w>": 1017,
    "fail": 1018,
    "using</w>": 1019,
    "reco": 1020,
    "language</w>": 1021,
    "consistency</w>": 1022,
    "ght</w>": 1023,
    "taking</w>": 1024,
    "ign</w>": 1025,
    "motivation</w>": 1026,
    "ff": 1027,
    "par": 1028,
    "sible</w>": 1029,
    "def": 1030,
    "remember</w>": 1031,
    "chec": 1032,
    "audience</w>": 1033,
    "spen": 1034,
    "effec": 1035,
    "align": 1036,
    "sy": 1037,
    "earch</w>": 1038,
    "You": 1039,
    "dep": 1040,
    "maintain": 1041,
    "sen": 1042,
    "lit": 1043,
    "AP": 1044,
    "ski": 1045,
    "brief": 1046,
    "briefly</w>": 1047,
    "memory</w>": 1048,
    "have</w>": 1049,
    "sit": 1050,
    "editing</w>": 1051,
    "iteration</w>": 1052,
    "boundaries</w>": 1053,
    "documentation</w>": 1054,
    "You</w>": 1055,
    "ow": 1056,
    "empath": 1057,
    "execution</w>": 1058,
    "ret": 1059,
    "view</w>": 1060,
    "fil": 1061,
    "Com": 1062,
    "friend": 1063,
    "our": 1064,
    "ideas</w>": 1065,
    "scalability</w>": 1066,
    "empathy</w>": 1067,
    "friendly</w>": 1068,
    "changes</w>": 1069,
    "basic</w>": 1070,
    "attention</w>": 1071,
    "manage</w>": 1072,
    "recovery</w>": 1073,
    "organization</w>": 1074,
    "which</w>": 1075,
    "through": 1076,
    "estim": 1077,
    "assu": 1078,
    "Why</w>": 1079,
    "act</w>": 1080,
    "ses</w>": 1081,
    "feat": 1082,
    "import": 1083,
    "give</w>": 1084,
    "habits</w>": 1085,
    "mode": 1086,
    "When</w>": 1087,
    "wee": 1088,
    "explain</w>": 1089,
    "maintainability</w>": 1090,
    "disci": 1091,
    "discipl": 1092,
    "discipline</w>": 1093,
    "sing</w>": 1094,
    "resp": 1095,
    "Re": 1096,
    "throughput</w>": 1097,
    "assump": 1098,
    "assumptions</w>": 1099,
    "enti": 1100,
    "dow": 1101,
    "int": 1102,
    "wat": 1103,
    "run": 1104,
    "this</w>": 1105,
    "important</w>": 1106,
    "solving</w>": 1107,
    "S</w>": 1108,
    "stability</w>": 1109,
    "secrets</w>": 1110,
    "fore</w>": 1111,
    "eep</w>": 1112,
    "ments</w>": 1113,
    "before</w>": 1114,
    "model</w>": 1115,
    "alignment</w>": 1116,
    "spending</w>": 1117,
    "ices</w>": 1118,
    "ems</w>": 1119,
    "want</w>": 1120,
    "clean</w>": 1121,
    "errors</w>": 1122,
    "define</w>": 1123,
    "works</w>": 1124,
    "them</w>": 1125,
    "ions</w>": 1126,
    "rot": 1127,
    "Keep</w>": 1128,
    "handle</w>": 1129,
    "ople</w>": 1130,
    "saving</w>": 1131,
    "research</w>": 1132,
    "off</w>": 1133,
    "est</w>": 1134,
    "gul": 1135,
    "mon</w>": 1136,
    "readability</w>": 1137,
    "needed</w>": 1138,
    "cur": 1139,
    "tively</w>": 1140,
    "people</w>": 1141,
    "consistently</w>": 1142,
    "estimation</w>": 1143,
    "rition</w>": 1144,
    "ance</w>": 1145,
    "cre": 1146,
    "nut": 1147,
    "nutrition</w>": 1148,
    "testability</w>": 1149,
    "form": 1150,
    "ea": 1151,
    "cks</w>": 1152,
    "tle</w>": 1153,
    "world</w>": 1154,
    "minut": 1155,
    "effectively</w>": 1156,
    "don</w>": 1157,
    "concre": 1158,
    "concrete</w>": 1159,
    "tests</w>": 1160,
    "stat": 1161,
    "we</w>": 1162,
    "skipping</w>": 1163,
    "scen": 1164,
    "Do</w>": 1165,
    "little</w>": 1166,
    "ct</w>": 1167,
    "stru": 1168,
    "started</w>": 1169,
    "connect</w>": 1170,
    "practic": 1171,
    "ren": 1172,
    "'s</w>": 1173,
    "gre": 1174,
    "terms</w>": 1175,
    "fami": 1176,
    "secure</w>": 1177,
    "mental</w>": 1178,
    "pros</w>": 1179,
    "cons</w>": 1180,
    "vers": 1181,
    "Think</w>": 1182,
    "oth": 1183,
    "brea": 1184,
    "Are</w>": 1185,
    "tas": 1186,
    "regul": 1187,
    "practicing</w>": 1188,
    "adjusting</w>": 1189,
    "check</w>": 1190,
    "where</w>": 1191,
    "low</w>": 1192,
    "scenari": 1193,
    "famili": 1194,
    "familiar</w>": 1195,
    "Common</w>": 1196,
    "reviewing</w>": 1197,
    "Pros</w>": 1198,
    "Cons</w>": 1199,
    "store</w>": 1200,
    "lea": 1201,
    "ph": 1202,
    "feature</w>": 1203,
    "des": 1204,
    "plo": 1205,
    "â</w>": 1206,
    "ures</w>": 1207,
    "ric": 1208,
    "depend": 1209,
    "requi": 1210,
    "ling</w>": 1211,
    "la": 1212,
    "scenario</w>": 1213,
    "ve": 1214,
    "minim": 1215,
    "date</w>": 1216,
    "cli": 1217,
    "0</w>": 1218,
    "well</w>": 1219,
    "blo": 1220,
    "sed</w>": 1221,
    "repe": 1222,
    "Qu": 1223,
    "wa": 1224,
    "ul</w>": 1225,
    "low": 1226,
    "water</w>": 1227,
    "ir": 1228,
    "rest": 1229,
    "fac": 1230,
    "il</w>": 1231,
    "respon": 1232,
    "maintain</w>": 1233,
    "access</w>": 1234,
    "logs</w>": 1235,
    "yp": 1236,
    "aily</w>": 1237,
    "========": 1238,
    "ue</w>": 1239,
    "log</w>": 1240,
    "ise</w>": 1241,
    "ree</w>": 1242,
    "ary</w>": 1243,
    "ags</w>": 1244,
    "ens</w>": 1245,
    "ans": 1246,
    "Set</w>": 1247,
    "cal": 1248,
    "inform": 1249,
    "limits</w>": 1250,
    "help</w>": 1251,
    "will</w>": 1252,
    "us</w>": 1253,
    "abel": 1254,
    "sol": 1255,
    "pa": 1256,
    "dry</w>": 1257,
    "ces</w>": 1258,
    "short</w>": 1259,
    "sha": 1260,
    "easi": 1261,
    "Quick</w>": 1262,
    "need</w>": 1263,
    "daily</w>": 1264,
    "rollback</w>": 1265,
    "tly</w>": 1266,
    "now</w>": 1267,
    "API</w>": 1268,
    "sitive</w>": 1269,
    "keys</w>": 1270,
    "AI</w>": 1271,
    "safe": 1272,
    "too": 1273,
    "spec": 1274,
    "'m</w>": 1275,
    "quest": 1276,
    "ipe</w>": 1277,
    "limit</w>": 1278,
    "easier</w>": 1279,
    "dates</w>": 1280,
    "information</w>": 1281,
    "ose</w>": 1282,
    "ards</w>": 1283,
    "ssible</w>": 1284,
    "weekly</w>": 1285,
    "error</w>": 1286,
    "cache</w>": 1287,
    "br": 1288,
    "coun": 1289,
    "dic": 1290,
    "deplo": 1291,
    "design</w>": 1292,
    "build</w>": 1293,
    "arly</w>": 1294,
    "twe": 1295,
    "track</w>": 1296,
    "vide</w>": 1297,
    "only</w>": 1298,
    "defa": 1299,
    "sensitive</w>": 1300,
    "diff": 1301,
    "€™": 1302,
    "ess</w>": 1303,
    "load</w>": 1304,
    "list</w>": 1305,
    "€™</w>": 1306,
    "En": 1307,
    "boo": 1308,
    "epar": 1309,
    "ized</w>": 1310,
    "ame</w>": 1311,
    "asy</w>": 1312,
    "sho": 1313,
    "change</w>": 1314,
    "flags</w>": 1315,
    "'t</w>": 1316,
    "peri": 1317,
    "my</w>": 1318,
    "ins</w>": 1319,
    "regularly</w>": 1320,
    "Ad": 1321,
    "ross</w>": 1322,
    "over</w>": 1323,
    "ger</w>": 1324,
    "tive</w>": 1325,
    "stop</w>": 1326,
    "validate</w>": 1327,
    "differ": 1328,
    "gh</w>": 1329,
    "P</w>": 1330,
    "“</w>": 1331,
    "ify</w>": 1332,
    "ries</w>": 1333,
    "items</w>": 1334,
    "done</w>": 1335,
    "fron": 1336,
    "priv": 1337,
    "tween</w>": 1338,
    "struct": 1339,
    "Sh": 1340,
    "TT": 1341,
    "rate</w>": 1342,
    "require</w>": 1343,
    "ash": 1344,
    "outs</w>": 1345,
    "between</w>": 1346,
    "might</w>": 1347,
    "label": 1348,
    "front</w>": 1349,
    "ills</w>": 1350,
    "alerts</w>": 1351,
    "deci": 1352,
    "ns</w>": 1353,
    "possible</w>": 1354,
    "tasks</w>": 1355,
    "ener": 1356,
    "atter": 1357,
    "ty</w>": 1358,
    "ema</w>": 1359,
    "dri": 1360,
    "but</w>": 1361,
    "impact</w>": 1362,
    "gl": 1363,
    "quick</w>": 1364,
    "checks</w>": 1365,
    "learn</w>": 1366,
    "intro": 1367,
    "appli": 1368,
    "head": 1369,
    "rat": 1370,
    "rict</w>": 1371,
    "mess": 1372,
    "tion": 1373,
    "cho": 1374,
    "shi": 1375,
    "tegr": 1376,
    "pac": 1377,
    "force</w>": 1378,
    "right</w>": 1379,
    "crit": 1380,
    "um": 1381,
    "lon": 1382,
    "icate</w>": 1383,
    "Fast</w>": 1384,
    "CI</w>": 1385,
    "dly</w>": 1386,
    "applied</w>": 1387,
    "blin": 1388,
    "introduce</w>": 1389,
    "mat": 1390,
    "cid": 1391,
    "integr": 1392,
    "validation</w>": 1393,
    "alert</w>": 1394,
    "next</w>": 1395,
    "bi": 1396,
    "vs</w>": 1397,
    "ze</w>": 1398,
    "schema</w>": 1399,
    "),</w>": 1400,
    "syst": 1401,
    "migr": 1402,
    "ging</w>": 1403,
    "log": 1404,
    "pot": 1405,
    "que": 1406,
    "ore</w>": 1407,
    "blindly</w>": 1408,
    "app</w>": 1409,
    "fiel": 1410,
    "sign": 1411,
    "heal": 1412,
    "medi": 1413,
    "during</w>": 1414,
    "Simp": 1415,
    "scre": 1416,
    "non</w>": 1417,
    "questions</w>": 1418,
    "time": 1419,
    "end</w>": 1420,
    "run</w>": 1421,
    "mpot": 1422,
    "Add</w>": 1423,
    "aly": 1424,
    "contro": 1425,
    "critical</w>": 1426,
    "fla": 1427,
    "ist": 1428,
    "auth": 1429,
    "top</w>": 1430,
    "shared</w>": 1431,
    "tru": 1432,
    "ect": 1433,
    "ads</w>": 1434,
    "retries</w>": 1435,
    "paths</w>": 1436,
    "Simple</w>": 1437,
    "plan</w>": 1438,
    "own": 1439,
    "correct</w>": 1440,
    "approach</w>": 1441,
    "sh</w>": 1442,
    "clean": 1443,
    "check": 1444,
    "line</w>": 1445,
    "ryp": 1446,
    "repeated</w>": 1447,
    "des</w>": 1448,
    "late</w>": 1449,
    "configs</w>": 1450,
    "fin": 1451,
    "side</w>": 1452,
    "ess": 1453,
    "intern": 1454,
    "ately</w>": 1455,
    "rin": 1456,
    "ully</w>": 1457,
    "light</w>": 1458,
    "puts</w>": 1459,
    "eg": 1460,
    "meth": 1461,
    "ful</w>": 1462,
    "nu": 1463,
    "rotate</w>": 1464,
    "In": 1465,
    "sched": 1466,
    "fast</w>": 1467,
    "step</w>": 1468,
    "spa": 1469,
    "ampl": 1470,
    "If</w>": 1471,
    "convers": 1472,
    "new</w>": 1473,
    "ables</w>": 1474,
    "envi": 1475,
    "environ": 1476,
    "der</w>": 1477,
    "fix</w>": 1478,
    "dele": 1479,
    "syn": 1480,
    "sum": 1481,
    "ctions</w>": 1482,
    "sion</w>": 1483,
    "document</w>": 1484,
    "Easy</w>": 1485,
    "analy": 1486,
    "no</w>": 1487,
    "update</w>": 1488,
    "dra": 1489,
    "edge</w>": 1490,
    "urn</w>": 1491,
    "minutes</w>": 1492,
    "idempot": 1493,
    "ues</w>": 1494,
    "ligh": 1495,
    "Store</w>": 1496,
    "rout": 1497,
    "decisions</w>": 1498,
    "expo": 1499,
    "logging</w>": 1500,
    "jec": 1501,
    "box</w>": 1502,
    "verify</w>": 1503,
    "may</w>": 1504,
    "upfront</w>": 1505,
    "updates</w>": 1506,
    "fer</w>": 1507,
    "”</w>": 1508,
    "scri": 1509,
    "quic": 1510,
    "minute</w>": 1511,
    "eparate</w>": 1512,
    "different</w>": 1513,
    "5</w>": 1514,
    "Do": 1515,
    "rec": 1516,
    "status</w>": 1517,
    "SL": 1518,
    "tok": 1519,
    "just</w>": 1520,
    "quickly</w>": 1521,
    "om</w>": 1522,
    "vement</w>": 1523,
    "dy</w>": 1524,
    "size</w>": 1525,
    "sets</w>": 1526,
    "start</w>": 1527,
    "users</w>": 1528,
    "fields</w>": 1529,
    "ten": 1530,
    "sel": 1531,
    "pas": 1532,
    "safely</w>": 1533,
    "mar": 1534,
    "mu": 1535,
    "ir</w>": 1536,
    "place</w>": 1537,
    "across</w>": 1538,
    "rent</w>": 1539,
    "ll</w>": 1540,
    "ters</w>": 1541,
    "hy": 1542,
    "ash</w>": 1543,
    "ward</w>": 1544,
    "ways</w>": 1545,
    "ders</w>": 1546,
    "compati": 1547,
    "fix": 1548,
    "el</w>": 1549,
    "state</w>": 1550,
    "Avoid</w>": 1551,
    "read</w>": 1552,
    "goals</w>": 1553,
    "services</w>": 1554,
    "Ch": 1555,
    "fic": 1556,
    "ema": 1557,
    "tting</w>": 1558,
    "incid": 1559,
    "vari": 1560,
    "action</w>": 1561,
    "specif": 1562,
    "service</w>": 1563,
    "boards</w>": 1564,
    "sted</w>": 1565,
    "appropri": 1566,
    "c</w>": 1567,
    "encies</w>": 1568,
    "top": 1569,
    "ip": 1570,
    "minimal</w>": 1571,
    "tokens</w>": 1572,
    "losing</w>": 1573,
    "wer</w>": 1574,
    "pres": 1575,
    "HTT": 1576,
    "tain": 1577,
    "usage</w>": 1578,
    "reg": 1579,
    "proper</w>": 1580,
    "char": 1581,
    "specific</w>": 1582,
    "ything</w>": 1583,
    "responses</w>": 1584,
    "tect</w>": 1585,
    "Ma": 1586,
    "job": 1587,
    "rules</w>": 1588,
    "ines</w>": 1589,
    "method</w>": 1590,
    "rack</w>": 1591,
    "tom": 1592,
    "actions</w>": 1593,
    "fra": 1594,
    "there</w>": 1595,
    "defau": 1596,
    "defaults</w>": 1597,
    "know</w>": 1598,
    "ources</w>": 1599,
    "clo": 1600,
    "used</w>": 1601,
    "igh</w>": 1602,
    "misu": 1603,
    "long</w>": 1604,
    "mul": 1605,
    "testing</w>": 1606,
    "entials</w>": 1607,
    "other</w>": 1608,
    "now": 1609,
    "sive</w>": 1610,
    "air</w>": 1611,
    "DN": 1612,
    "most</w>": 1613,
    "fy</w>": 1614,
    "storage</w>": 1615,
    "Def": 1616,
    "config</w>": 1617,
    "migrations</w>": 1618,
    "restrict</w>": 1619,
    "control</w>": 1620,
    "our</w>": 1621,
    "sion": 1622,
    "ups</w>": 1623,
    "ID": 1624,
    "ready</w>": 1625,
    "dependencies</w>": 1626,
    "ing": 1627,
    "alk</w>": 1628,
    "into</w>": 1629,
    "ster</w>": 1630,
    "ences</w>": 1631,
    "headers</w>": 1632,
    "failures</w>": 1633,
    "aud": 1634,
    "cha": 1635,
    "provide</w>": 1636,
    "dependency</w>": 1637,
    "dev": 1638,
    "points</w>": 1639,
    "patter": 1640,
    "ship</w>": 1641,
    "atch</w>": 1642,
    "produ": 1643,
    "encryp": 1644,
    "input</w>": 1645,
    "aga": 1646,
    "communicate</w>": 1647,
    "ale</w>": 1648,
    "enforce</w>": 1649,
    "Should</w>": 1650,
    "ath</w>": 1651,
    "clients</w>": 1652,
    "down": 1653,
    "por": 1654,
    "Au": 1655,
    "ard": 1656,
    "often</w>": 1657,
    "loc": 1658,
    "caching</w>": 1659,
    "integration</w>": 1660,
    "multi": 1661,
    "auth</w>": 1662,
    "free</w>": 1663,
    "sn": 1664,
    "od": 1665,
    "polic": 1666,
    "ases</w>": 1667,
    "ule</w>": 1668,
    "events</w>": 1669,
    "arti": 1670,
    "hum": 1671,
    "ining</w>": 1672,
    "ching</w>": 1673,
    "ref": 1674,
    "ak</w>": 1675,
    "frid": 1676,
    "mee": 1677,
    "R</w>": 1678,
    "ather</w>": 1679,
    "handling</w>": 1680,
    "ty": 1681,
    "contain": 1682,
    "ource</w>": 1683,
    "promp": 1684,
    "organized</w>": 1685,
    "win": 1686,
    "vers</w>": 1687,
    "scrip": 1688,
    "APIs</w>": 1689,
    "backs</w>": 1690,
    "network</w>": 1691,
    "Ls</w>": 1692,
    "sur": 1693,
    "ot</w>": 1694,
    "down</w>": 1695,
    "ches</w>": 1696,
    "anit": 1697,
    "Track</w>": 1698,
    "================": 1699,
    "privil": 1700,
    "prod</w>": 1701,
    "take</w>": 1702,
    "client</w>": 1703,
    "tes</w>": 1704,
    "context</w>": 1705,
    "gener": 1706,
    "here</w>": 1707,
    "structure</w>": 1708,
    "fridge</w>": 1709,
    "ask</w>": 1710,
    "high</w>": 1711,
    "systems</w>": 1712,
    "fun": 1713,
    "environments</w>": 1714,
    "connec": 1715,
    "entr": 1716,
    "cs</w>": 1717,
    "misused</w>": 1718,
    "overdone</w>": 1719,
    "sis</w>": 1720,
    "internal</w>": 1721,
    "ved</w>": 1722,
    "CS": 1723,
    "That</w>": 1724,
    "ative</w>": 1725,
    "fre": 1726,
    "10</w>": 1727,
    "B</w>": 1728,
    "lists</w>": 1729,
    "trans": 1730,
    "dr": 1731,
    "room</w>": 1732,
    "less</w>": 1733,
    "plic": 1734,
    "Val": 1735,
    "than</w>": 1736,
    "file</w>": 1737,
    "Which</w>": 1738,
    "always</w>": 1739,
    "space</w>": 1740,
    "ough</w>": 1741,
    "self</w>": 1742,
    "know": 1743,
    "patterns</w>": 1744,
    "iness</w>": 1745,
    "dis": 1746,
    "fully</w>": 1747,
    "all": 1748,
    "equ": 1749,
    "minimize</w>": 1750,
    "llow</w>": 1751,
    "onâ</w>": 1752,
    "Valid": 1753,
    "Validate</w>": 1754,
    "night</w>": 1755,
    "text</w>": 1756,
    "On": 1757,
    "swit": 1758,
    "version</w>": 1759,
    "ile</w>": 1760,
    "block</w>": 1761,
    "sto": 1762,
    "Con": 1763,
    "ky</w>": 1764,
    "stay</w>": 1765,
    "C</w>": 1766,
    "war": 1767,
    "elines</w>": 1768,
    "privile": 1769,
    "ound</w>": 1770,
    "cer": 1771,
    "T</w>": 1772,
    "door</w>": 1773,
    "phone</w>": 1774,
    "cr": 1775,
    "cking</w>": 1776,
    "happ": 1777,
    "argu": 1778,
    "messages</w>": 1779,
    "type</w>": 1780,
    "request</w>": 1781,
    "heat</w>": 1782,
    "ood</w>": 1783,
    "best</w>": 1784,
    "docs</w>": 1785,
    "value</w>": 1786,
    "least</w>": 1787,
    "Check</w>": 1788,
    "current</w>": 1789,
    "ccess</w>": 1790,
    "can": 1791,
    "things</w>": 1792,
    "eful</w>": 1793,
    "resh</w>": 1794,
    "um</w>": 1795,
    "improvement</w>": 1796,
    "ating</w>": 1797,
    "facts</w>": 1798,
    "deploy</w>": 1799,
    "numb": 1800,
    "files</w>": 1801,
    "ual</w>": 1802,
    "apps</w>": 1803,
    "glas": 1804,
    "stale</w>": 1805,
    "Lo": 1806,
    "runboo": 1807,
    "failure</w>": 1808,
    "Does</w>": 1809,
    "permis": 1810,
    "PI": 1811,
    "PII</w>": 1812,
    "hash": 1813,
    "loo": 1814,
    "health</w>": 1815,
    "ever": 1816,
    "L</w>": 1817,
    "voice</w>": 1818,
    "times</w>": 1819,
    "ci": 1820,
    "numbers</w>": 1821,
    "queues</w>": 1822,
    "tern": 1823,
    "Define</w>": 1824,
    "tools</w>": 1825,
    "adjust</w>": 1826,
    "contra": 1827,
    "cep": 1828,
    "retry</w>": 1829,
    "nam": 1830,
    "\"</w>": 1831,
    "ils</w>": 1832,
    "sub": 1833,
    "immedi": 1834,
    "caches</w>": 1835,
    ").</w>": 1836,
    "beha": 1837,
    "solution</w>": 1838,
    "tic</w>": 1839,
    "HTTP</w>": 1840,
    "N</w>": 1841,
    "ked</w>": 1842,
    "task</w>": 1843,
    "help": 1844,
    "bur": 1845,
    "are": 1846,
    "thre": 1847,
    "versions</w>": 1848,
    "backoff</w>": 1849,
    "appropriate</w>": 1850,
    "away</w>": 1851,
    "policies</w>": 1852,
    "privilege</w>": 1853,
    "i</w>": 1854,
    "em</w>": 1855,
    "tit": 1856,
    "ult</w>": 1857,
    "env": 1858,
    "fici": 1859,
    "els</w>": 1860,
    "cess": 1861,
    "wipe</w>": 1862,
    "tw": 1863,
    "ats</w>": 1864,
    "inputs</w>": 1865,
    "behavi": 1866,
    "modu": 1867,
    "pers": 1868,
    "lows</w>": 1869,
    "Than": 1870,
    "grac": 1871,
    "level": 1872,
    "inf": 1873,
    "pare</w>": 1874,
    "call</w>": 1875,
    "cases</w>": 1876,
    "concise</w>": 1877,
    "lu": 1878,
    "schedule</w>": 1879,
    "noise</w>": 1880,
    "lig": 1881,
    "dash": 1882,
    "exi": 1883,
    "uni": 1884,
    "IDs</w>": 1885,
    "sampl": 1886,
    "progra": 1887,
    "comple": 1888,
    "three</w>": 1889,
    "ft</w>": 1890,
    "exper": 1891,
    "organize</w>": 1892,
    "encryption</w>": 1893,
    "codes</w>": 1894,
    "equations</w>": 1895,
    "+</w>": 1896,
    "via</w>": 1897,
    "promptly</w>": 1898,
    "pose</w>": 1899,
    "Ver": 1900,
    "Ta": 1901,
    "timeouts</w>": 1902,
    "Provide</w>": 1903,
    "emas</w>": 1904,
    "perio": 1905,
    "optimize</w>": 1906,
    "again": 1907,
    "against</w>": 1908,
    "owners</w>": 1909,
    "issu": 1910,
    "success</w>": 1911,
    "env</w>": 1912,
    "contin": 1913,
    "gur": 1914,
    "ading</w>": 1915,
    "lean</w>": 1916,
    "thesis</w>": 1917,
    "im</w>": 1918,
    "onal</w>": 1919,
    "loads</w>": 1920,
    "clearly</w>": 1921,
    "gate</w>": 1922,
    "under</w>": 1923,
    "tics</w>": 1924,
    "periodic": 1925,
    "periodically</w>": 1926,
    "share</w>": 1927,
    "alle": 1928,
    "inst": 1929,
    "path</w>": 1930,
    "permissions</w>": 1931,
    "coll": 1932,
    "ribu": 1933,
    "rolled</w>": 1934,
    "default</w>": 1935,
    "experi": 1936,
    "process</w>": 1937,
    "typ": 1938,
    "old</w>": 1939,
    "protect</w>": 1940,
    "bl": 1941,
    "sli": 1942,
    "bag</w>": 1943,
    "basics</w>": 1944,
    "ements</w>": 1945,
    "ded</w>": 1946,
    "ction</w>": 1947,
    "gi": 1948,
    "through</w>": 1949,
    "break</w>": 1950,
    "solve</w>": 1951,
    "ide</w>": 1952,
    "measure</w>": 1953,
    "reas": 1954,
    "autom": 1955,
    "thresho": 1956,
    "schemas</w>": 1957,
    "DB</w>": 1958,
    "rotation</w>": 1959,
    "board</w>": 1960,
    "dist": 1961,
    "cra": 1962,
    "action": 1963,
    "they</w>": 1964,
    "anom": 1965,
    "anomal": 1966,
    "pub": 1967,
    "evi": 1968,
    "ones</w>": 1969,
    "work": 1970,
    "lation</w>": 1971,
    "incident</w>": 1972,
    "experim": 1973,
    "elec": 1974,
    "RE": 1975,
    "ming</w>": 1976,
    "spills</w>": 1977,
    "month": 1978,
    "The</w>": 1979,
    "hoo": 1980,
    "reliable</w>": 1981,
    "roles</w>": 1982,
    "pet</w>": 1983,
    "LS</w>": 1984,
    "avi": 1985,
    "screen</w>": 1986,
    "ran": 1987,
    "actionable</w>": 1988,
    "backups</w>": 1989,
    "dashboards</w>": 1990,
    "server</w>": 1991,
    "evidence</w>": 1992,
    "controlled</w>": 1993,
    "flag</w>": 1994,
    "words</w>": 1995,
    "conversations</w>": 1996,
    "training</w>": 1997,
    "sm</w>": 1998,
    "ends</w>": 1999,
    "stable</w>": 2000,
    "week</w>": 2001,
    "labeled</w>": 2002,
    "Wipe</w>": 2003,
    "ser</w>": 2004,
    "filters</w>": 2005,
    "author": 2006,
    "weather</w>": 2007,
    "ected</w>": 2008,
    "mut": 2009,
    "faster</w>": 2010,
    "regular</w>": 2011,
    "tran": 2012,
    "staging</w>": 2013,
    "sanit": 2014,
    "air": 2015,
    "dows</w>": 2016,
    "threshol": 2017,
    "thresholds</w>": 2018,
    "donâ</w>": 2019,
    "pip": 2020,
    "TLS</w>": 2021,
    "beat</w>": 2022,
    "rollbacks</w>": 2023,
    "won</w>": 2024,
    "nec": 2025,
    "public": 2026,
    "leaking</w>": 2027,
    "resources</w>": 2028,
    "conversation</w>": 2029,
    "tain</w>": 2030,
    "jo": 2031,
    "usable</w>": 2032,
    "unused</w>": 2033,
    "os</w>": 2034,
    "rong</w>": 2035,
    "ands</w>": 2036,
    "cut</w>": 2037,
    "mat</w>": 2038,
    "immediately</w>": 2039,
    "mode</w>": 2040,
    "ities</w>": 2041,
    "active</w>": 2042,
    "caus": 2043,
    "new": 2044,
    "write</w>": 2045,
    "idempotent</w>": 2046,
    "Lim": 2047,
    "ap</w>": 2048,
    "faces</w>": 2049,
    "emp": 2050,
    "oil</w>": 2051,
    "cloth": 2052,
    "cred": 2053,
    "mic": 2054,
    "endpoints</w>": 2055,
    "inde": 2056,
    "prepare</w>": 2057,
    "bigger</w>": 2058,
    "reset</w>": 2059,
    "ged</w>": 2060,
    "breaking</w>": 2061,
    "should</w>": 2062,
    "open</w>": 2063,
    "remo": 2064,
    "bed</w>": 2065,
    "so</w>": 2066,
    "ellig": 2067,
    "wers</w>": 2068,
    "was</w>": 2069,
    "slow</w>": 2070,
    "rub</w>": 2071,
    "two</w>": 2072,
    "temp": 2073,
    "artifacts</w>": 2074,
    "eness</w>": 2075,
    "parti": 2076,
    "frequ": 2077,
    "pack": 2078,
    "cle</w>": 2079,
    "unit</w>": 2080,
    "containers</w>": 2081,
    "base</w>": 2082,
    "pur": 2083,
    "source</w>": 2084,
    "flows</w>": 2085,
    "ite</w>": 2086,
    "ates</w>": 2087,
    "helpful</w>": 2088,
    "O</w>": 2089,
    "Limit</w>": 2090,
    "'re</w>": 2091,
    "ef</w>": 2092,
    "mp</w>": 2093,
    "rollout</w>": 2094,
    "gradu": 2095,
    "Separate</w>": 2096,
    "quer": 2097,
    "ership</w>": 2098,
    "necess": 2099,
    "every</w>": 2100,
    "checklist</w>": 2101,
    "health": 2102,
    "pho": 2103,
    "request": 2104,
    "jects</w>": 2105,
    "idempotency</w>": 2106,
    "retention</w>": 2107,
    "modules</w>": 2108,
    "reading</w>": 2109,
    "sent": 2110,
    "secret</w>": 2111,
    "separate</w>": 2112,
    "anding</w>": 2113,
    "rest</w>": 2114,
    "snac": 2115,
    "wash</w>": 2116,
    "clothes</w>": 2117,
    "windows</w>": 2118,
    "priorities</w>": 2119,
    "runbooks</w>": 2120,
    "analytics</w>": 2121,
    "pagin": 2122,
    "earer</w>": 2123,
    "map</w>": 2124,
    "dire": 2125,
    "compatibility</w>": 2126,
    "accoun": 2127,
    "choices</w>": 2128,
    "traces</w>": 2129,
    "sampling</w>": 2130,
    "pages</w>": 2131,
    "continu": 2132,
    "enough</w>": 2133,
    "process": 2134,
    "answer</w>": 2135,
    "switch</w>": 2136,
    "isy</w>": 2137,
    "turn</w>": 2138,
    "cleaner</w>": 2139,
    "bul": 2140,
    "pass": 2141,
    "manag": 2142,
    "der": 2143,
    "talk</w>": 2144,
    "must</w>": 2145,
    "Clean</w>": 2146,
    "while</w>": 2147,
    "oms</w>": 2148,
    "behavior</w>": 2149,
    "V</w>": 2150,
    "col": 2151,
    "electr": 2152,
    "same</w>": 2153,
    "pr": 2154,
    "stand": 2155,
    "topic</w>": 2156,
    "iso": 2157,
    "acy</w>": 2158,
    "fol": 2159,
    "follow</w>": 2160,
    "ase</w>": 2161,
    "ffe": 2162,
    "remin": 2163,
    "food</w>": 2164,
    "clutter</w>": 2165,
    "computer</w>": 2166,
    "arch": 2167,
    "name</w>": 2168,
    "istic</w>": 2169,
    "web": 2170,
    "drift</w>": 2171,
    "navi": 2172,
    "mil": 2173,
    "clearer</w>": 2174,
    "main</w>": 2175,
    "device</w>": 2176,
    "Al": 2177,
    "rever": 2178,
    "version": 2179,
    "public</w>": 2180,
    "ssions</w>": 2181,
    "deep</w>": 2182,
    "UR": 2183,
    "batch</w>": 2184,
    "roll</w>": 2185,
    "safety</w>": 2186,
    "choose</w>": 2187,
    "outputs</w>": 2188,
    "clas": 2189,
    "experiments</w>": 2190,
    "mag": 2191,
    "delete</w>": 2192,
    "int</w>": 2193,
    "tenant</w>": 2194,
    "free": 2195,
    "orts</w>": 2196,
    "everything</w>": 2197,
    "break": 2198,
    "tidy</w>": 2199,
    "da": 2200,
    "monthly</w>": 2201,
    "reviews</w>": 2202,
    "rely</w>": 2203,
    "art": 2204,
    "jobs</w>": 2205,
    "gradually</w>": 2206,
    "analyze</w>": 2207,
    "guide</w>": 2208,
    "ush</w>": 2209,
    "ped</w>": 2210,
    "anomalies</w>": 2211,
    "issues</w>": 2212,
    "configur": 2213,
    "your": 2214,
    "ening</w>": 2215,
    "feel": 2216,
    "five</w>": 2217,
    "ush": 2218,
    "meals</w>": 2219,
    "brow": 2220,
    "skills</w>": 2221,
    "resolution</w>": 2222,
    "onents</w>": 2223,
    "later</w>": 2224,
    "rati": 2225,
    "recur": 2226,
    "renew": 2227,
    "images</w>": 2228,
    "Let</w>": 2229,
    "replace</w>": 2230,
    "ssion</w>": 2231,
    "itch": 2232,
    "handles</w>": 2233,
    "pre</w>": 2234,
    "fib": 2235,
    "aches</w>": 2236,
    "Good</w>": 2237,
    "align</w>": 2238,
    "Rs</w>": 2239,
    "mean": 2240,
    "credentials</w>": 2241,
    "pipelines</w>": 2242,
    "ownership</w>": 2243,
    "prioritize</w>": 2244,
    "close</w>": 2245,
    "last</w>": 2246,
    "who</w>": 2247,
    "An": 2248,
    "scienti": 2249,
    "experience</w>": 2250,
    "any</w>": 2251,
    "ther</w>": 2252,
    "No</w>": 2253,
    "yourself</w>": 2254,
    "orig": 2255,
    "ically</w>": 2256,
    "vity</w>": 2257,
    "ower</w>": 2258,
    "lived</w>": 2259,
    "URLs</w>": 2260,
    "gets</w>": 2261,
    "noisy</w>": 2262,
    "oper": 2263,
    "ground</w>": 2264,
    "authent": 2265,
    "reusable</w>": 2266,
    "loading</w>": 2267,
    "gress</w>": 2268,
    "ye</w>": 2269,
    "metric</w>": 2270,
    "authorization</w>": 2271,
    "gy</w>": 2272,
    "correlation</w>": 2273,
    "expected</w>": 2274,
    "variables</w>": 2275,
    "lates</w>": 2276,
    "portions</w>": 2277,
    "ial": 2278,
    "states</w>": 2279,
    "izing</w>": 2280,
    "cycle</w>": 2281,
    "compatible</w>": 2282,
    "mit": 2283,
    "running</w>": 2284,
    "expect": 2285,
    "baking</w>": 2286,
    "tup</w>": 2287,
    "pagination</w>": 2288,
    "audit</w>": 2289,
    "partial</w>": 2290,
    "exampl": 2291,
    "examples</w>": 2292,
    "ame": 2293,
    "contex": 2294,
    "contexts</w>": 2295,
    "#</w>": 2296,
    "another</w>": 2297,
    "ead</w>": 2298,
    "prec": 2299,
    "restart</w>": 2300,
    "links</w>": 2301,
    "fixes</w>": 2302,
    "collec": 2303,
    "que</w>": 2304,
    "Who</w>": 2305,
    "tested</w>": 2306,
    "sessions</w>": 2307,
    "doe": 2308,
    "elligence</w>": 2309,
    "needs</w>": 2310,
    "sug": 2311,
    "deploys</w>": 2312,
    "ingle</w>": 2313,
    "authentication</w>": 2314,
    "endar</w>": 2315,
    "job</w>": 2316,
    "photo": 2317,
    "ache</w>": 2318,
    "fresh</w>": 2319,
    "dated</w>": 2320,
    "ever</w>": 2321,
    "table</w>": 2322,
    "meal</w>": 2323,
    "ST</w>": 2324,
    "fail</w>": 2325,
    "level</w>": 2326,
    "computers</w>": 2327,
    "dur": 2328,
    "kitch": 2329,
    "essentials</w>": 2330,
    "days</w>": 2331,
    "wash": 2332,
    "traff": 2333,
    "traffic</w>": 2334,
    "sample</w>": 2335,
    "Test</w>": 2336,
    "Pre": 2337,
    "fiber</w>": 2338,
    "scale</w>": 2339,
    "lay</w>": 2340,
    "Sc": 2341,
    "labels</w>": 2342,
    "Fo": 2343,
    "brief</w>": 2344,
    "sibility</w>": 2345,
    "both</w>": 2346,
    "system</w>": 2347,
    "necessary</w>": 2348,
    "life</w>": 2349,
    "exposing</w>": 2350,
    "expi": 2351,
    "unt": 2352,
    "question</w>": 2353,
    "ous": 2354,
    "human</w>": 2355,
    "configuration</w>": 2356,
    "Best</w>": 2357,
    "pap": 2358,
    "One</w>": 2359,
    "return</w>": 2360,
    "20</w>": 2361,
    "bags</w>": 2362,
    "Cache</w>": 2363,
    "requests</w>": 2364,
    "jit": 2365,
    "separ": 2366,
    "coh": 2367,
    "come</w>": 2368,
    "energy</w>": 2369,
    "functions</w>": 2370,
    "ured</w>": 2371,
    "ules</w>": 2372,
    "sentences</w>": 2373,
    "types</w>": 2374,
    "Co": 2375,
    "mobi": 2376,
    "mobile</w>": 2377,
    "lease</w>": 2378,
    "lightly</w>": 2379,
    "known</w>": 2380,
    "page</w>": 2381,
    "kitchen</w>": 2382,
    "glass</w>": 2383,
    "flo": 2384,
    "shoes</w>": 2385,
    "amp</w>": 2386,
    "incre": 2387,
    "lar": 2388,
    "un</w>": 2389,
    "lef": 2390,
    "stu": 2391,
    "consum": 2392,
    "accur": 2393,
    "allow</w>": 2394,
    "alize</w>": 2395,
    "cross</w>": 2396,
    "content</w>": 2397,
    "ingre": 2398,
    "ingredi": 2399,
    "ingredients</w>": 2400,
    "ven</w>": 2401,
    "sett": 2402,
    "settings</w>": 2403,
    "show</w>": 2404,
    "think</w>": 2405,
    "visible</w>": 2406,
    "downtime</w>": 2407,
    "safer</w>": 2408,
    "cover</w>": 2409,
    "being</w>": 2410,
    "sn</w>": 2411,
    "anything</w>": 2412,
    "continuous</w>": 2413,
    "phy": 2414,
    "phys": 2415,
    "ledge</w>": 2416,
    "batter": 2417,
    "ight": 2418,
    "meeting</w>": 2419,
    "routine</w>": 2420,
    "allow": 2421,
    "hypo": 2422,
    "multiple</w>": 2423,
    "immut": 2424,
    "dit": 2425,
    "recor": 2426,
    "limiting</w>": 2427,
    "deta": 2428,
    "Cho": 2429,
    "Choose</w>": 2430,
    "understanding</w>": 2431,
    "cap</w>": 2432,
    "deter": 2433,
    "mitig": 2434,
    "tar": 2435,
    "car": 2436,
    "session</w>": 2437,
    "expectations</w>": 2438,
    "soap</w>": 2439,
    "surfaces</w>": 2440,
    "Thank</w>": 2441,
    "spot</w>": 2442,
    "breaks</w>": 2443,
    "dish": 2444,
    "sal": 2445,
    "ural</w>": 2446,
    "Clear": 2447,
    "Clear</w>": 2448,
    "purpose</w>": 2449,
    "Remove</w>": 2450,
    "accurate</w>": 2451,
    "ited</w>": 2452,
    "trusted</w>": 2453,
    "rollouts</w>": 2454,
    "resi": 2455,
    "response</w>": 2456,
    "Include</w>": 2457,
    "features</w>": 2458,
    "compart": 2459,
    "kay</w>": 2460,
    "rop</w>": 2461,
    "ods</w>": 2462,
    "go</w>": 2463,
    "message</w>": 2464,
    "many</w>": 2465,
    "proba": 2466,
    "canary</w>": 2467,
    "rep": 2468,
    "ith": 2469,
    "Bu": 2470,
    "sync</w>": 2471,
    "rates</w>": 2472,
    "single</w>": 2473,
    "fact": 2474,
    "Make</w>": 2475,
    "ET": 2476,
    "trust</w>": 2477,
    "PR</w>": 2478,
    "options</w>": 2479,
    "git</w>": 2480,
    "prin": 2481,
    "SO": 2482,
    "packages</w>": 2483,
    "perc": 2484,
    "prim": 2485,
    "serial": 2486,
    "variance</w>": 2487,
    "privacy</w>": 2488,
    "others</w>": 2489,
    "deploy": 2490,
    "connection</w>": 2491,
    "criter": 2492,
    "spi": 2493,
    "efully</w>": 2494,
    "duration</w>": 2495,
    "bins</w>": 2496,
    "lights</w>": 2497,
    "rule</w>": 2498,
    "shar": 2499,
    "missed</w>": 2500,
    "tac": 2501,
    "sme": 2502,
    "Ex": 2503,
    "any": 2504,
    "Log</w>": 2505,
    "tow": 2506,
    "incidents</w>": 2507,
    "warm</w>": 2508,
    "cat": 2509,
    "lock</w>": 2510,
    "ird</w>": 2511,
    "ture</w>": 2512,
    "4</w>": 2513,
    "data": 2514,
    "ory</w>": 2515,
    "kets</w>": 2516,
    "ave</w>": 2517,
    "recipe</w>": 2518,
    "key": 2519,
    "togg": 2520,
    "M</w>": 2521,
    "excep": 2522,
    "exceptions</w>": 2523,
    "tun": 2524,
    "Will</w>": 2525,
    "deprec": 2526,
    "keeps</w>": 2527,
    "KP": 2528,
    "bias</w>": 2529,
    "generate</w>": 2530,
    "ack</w>": 2531,
    "diction": 2532,
    "today</w>": 2533,
    "did</w>": 2534,
    "real": 2535,
    "face</w>": 2536,
    "summar": 2537,
    "word</w>": 2538,
    "dou": 2539,
    "calendar</w>": 2540,
    "progress</w>": 2541,
    "amer": 2542,
    "ident": 2543,
    "atoms</w>": 2544,
    "classes</w>": 2545,
    "imate</w>": 2546,
    "builds</w>": 2547,
    "kup</w>": 2548,
    "hashing</w>": 2549,
    "onics</w>": 2550,
    "serialization</w>": 2551,
    "hygi": 2552,
    "hygien": 2553,
    "stics</w>": 2554,
    "scientif": 2555,
    "scientific</w>": 2556,
    "values</w>": 2557,
    "sim": 2558,
    "personal</w>": 2559,
    "My</w>": 2560,
    "carefully</w>": 2561,
    "form</w>": 2562,
    "assets</w>": 2563,
    "mps</w>": 2564,
    "gracefully</w>": 2565,
    "sil": 2566,
    "row</w>": 2567,
    "ams</w>": 2568,
    "bed": 2569,
    "stic": 2570,
    "Wash</w>": 2571,
    "paper</w>": 2572,
    "ni": 2573,
    "sod": 2574,
    "soda</w>": 2575,
    "Dis": 2576,
    "Rep": 2577,
    "serve</w>": 2578,
    "confir": 2579,
    "automate</w>": 2580,
    "Centr": 2581,
    "hi": 2582,
    "projects</w>": 2583,
    "overloading</w>": 2584,
    "inv": 2585,
    "scripts</w>": 2586,
    "tool": 2587,
    "cook": 2588,
    "guard</w>": 2589,
    "compartments</w>": 2590,
    "approaches</w>": 2591,
    "ces": 2592,
    "ish</w>": 2593,
    "min</w>": 2594,
    "led</w>": 2595,
    "let</w>": 2596,
    "calm</w>": 2597,
    "anity</w>": 2598,
    "names</w>": 2599,
    "sources</w>": 2600,
    "until</w>": 2601,
    "answers</w>": 2602,
    "else</w>": 2603,
    "yn": 2604,
    "disable</w>": 2605,
    "background</w>": 2606,
    "notes</w>": 2607,
    "double</w>": 2608,
    "scan</w>": 2609,
    "mer": 2610,
    "ind</w>": 2611,
    "identity</w>": 2612,
    "argument</w>": 2613,
    "mol": 2614,
    "instru": 2615,
    "hypothe": 2616,
    "hypotheses</w>": 2617,
    "JSO": 2618,
    "JSON</w>": 2619,
    "tect": 2620,
    "ratios</w>": 2621,
    "standard</w>": 2622,
    "sistant</w>": 2623,
    "fall": 2624,
    "pes</w>": 2625,
    "point</w>": 2626,
    "stret": 2627,
    "coffe": 2628,
    "coffee</w>": 2629,
    "tings</w>": 2630,
    "cab": 2631,
    "buff": 2632,
    "vegg": 2633,
    "eat</w>": 2634,
    "spo": 2635,
    "mach": 2636,
    "bra": 2637,
    "schedul": 2638,
    "hooks</w>": 2639,
    "smo": 2640,
    "guid": 2641,
    "consumers</w>": 2642,
    "Enforce</w>": 2643,
    "avat": 2644,
    "tech</w>": 2645,
    "pay": 2646,
    "ners</w>": 2647,
    "local</w>": 2648,
    "bund": 2649,
    "dupl": 2650,
    "hour": 2651,
    "xes</w>": 2652,
    "lines</w>": 2653,
    "create</w>": 2654,
    "third</w>": 2655,
    "plans</w>": 2656,
    "explic": 2657,
    "lint</w>": 2658,
    "flaky</w>": 2659,
    "forward</w>": 2660,
    "lower</w>": 2661,
    "navigate</w>": 2662,
    "instead</w>": 2663,
    "net</w>": 2664,
    "block": 2665,
    "bil": 2666,
    "compli": 2667,
    "stack</w>": 2668,
    "feel</w>": 2669,
    "deb": 2670,
    "humans</w>": 2671,
    "list": 2672,
    "physical</w>": 2673,
    "useful</w>": 2674,
    "ential</w>": 2675,
    "unch</w>": 2676,
    "topics</w>": 2677,
    "healthy</w>": 2678,
    "ws</w>": 2679,
    "cir": 2680,
    "circu": 2681,
    "book</w>": 2682,
    "heav": 2683,
    "heavy</w>": 2684,
    "browser</w>": 2685,
    "TTLs</w>": 2686,
    "hit</w>": 2687,
    "hear</w>": 2688,
    "amera</w>": 2689,
    "storing</w>": 2690,
    "iration</w>": 2691,
    "climate</w>": 2692,
    "causation</w>": 2693,
    "counter": 2694,
    "effici": 2695,
    "lookup</w>": 2696,
    "environment</w>": 2697,
    "movement</w>": 2698,
    "setting</w>": 2699,
    "gravity</w>": 2700,
    "ping</w>": 2701,
    "median</w>": 2702,
    "rece": 2703,
    "expres": 2704,
    "expressions</w>": 2705,
    "REST</w>": 2706,
    "hygiene</w>": 2707,
    "stati": 2708,
    "statistics</w>": 2709,
    "statements</w>": 2710,
    "tual</w>": 2711,
    "chat</w>": 2712,
    "program": 2713,
    "link</w>": 2714,
    "budgets</w>": 2715,
    "release</w>": 2716,
    "fer": 2717,
    "cy</w>": 2718,
    "design": 2719,
    "ele": 2720,
    "polit": 2721,
    "dom</w>": 2722,
    "multi</w>": 2723,
    "aggre": 2724,
    "As</w>": 2725,
    "sist</w>": 2726,
    "queue</w>": 2727,
    "breath": 2728,
    "trash</w>": 2729,
    "alking</w>": 2730,
    "veggies</w>": 2731,
    "Ro": 2732,
    "F</w>": 2733,
    "tactic</w>": 2734,
    "acu": 2735,
    "label</w>": 2736,
    "orm": 2737,
    "entil": 2738,
    "repeat</w>": 2739,
    "tri": 2740,
    "fet": 2741,
    "rofiber</w>": 2742,
    "uplo": 2743,
    "ket</w>": 2744,
    "He": 2745,
    "avatar</w>": 2746,
    "centr": 2747,
    "leaks</w>": 2748,
    "info</w>": 2749,
    "queries</w>": 2750,
    "PRs</w>": 2751,
    "tic": 2752,
    "party</w>": 2753,
    "cts</w>": 2754,
    "UI</w>": 2755,
    "urely</w>": 2756,
    "cookies</w>": 2757,
    "index</w>": 2758,
    "E</w>": 2759,
    "easy</w>": 2760,
    "toolbox</w>": 2761,
    "memorize</w>": 2762,
    "memorization</w>": 2763,
    "flow</w>": 2764,
    "arm</w>": 2765,
    "internet</w>": 2766,
    "required</w>": 2767,
    "exist</w>": 2768,
    "impac": 2769,
    "never</w>": 2770,
    "ned</w>": 2771,
    "consci": 2772,
    "hard": 2773,
    "summ": 2774,
    "gers</w>": 2775,
    "car</w>": 2776,
    "role</w>": 2777,
    "vali": 2778,
    "counterargu": 2779,
    "counterarguments</w>": 2780,
    "structures</w>": 2781,
    "molec": 2782,
    "fractions</w>": 2783,
    "linear</w>": 2784,
    "magne": 2785,
    "mid": 2786,
    "sor": 2787,
    "toge": 2788,
    "together</w>": 2789,
    "cap": 2790,
    "hra": 2791,
    "passive</w>": 2792,
    "proportions</w>": 2793,
    "recursion</w>": 2794,
    "renewable</w>": 2795,
    "stacks</w>": 2796,
    "hints</w>": 2797,
    "vect": 2798,
    "sign</w>": 2799,
    "doors</w>": 2800,
    "De": 2801,
    "high": 2802,
    "extern": 2803,
    "ia</w>": 2804,
    "qui": 2805,
    "meetings</w>": 2806,
    "cabin": 2807,
    "screens</w>": 2808,
    "prote": 2809,
    "reminders</w>": 2810,
    "mer</w>": 2811,
    "laund": 2812,
    "laundry</w>": 2813,
    "acuum</w>": 2814,
    "ightly</w>": 2815,
    "watch</w>": 2816,
    "effective</w>": 2817,
    "ough": 2818,
    "itting</w>": 2819,
    "Fe": 2820,
    "Take</w>": 2821,
    "oc": 2822,
    "Version</w>": 2823,
    "backward</w>": 2824,
    "DNS</w>": 2825,
    "sanitize</w>": 2826,
    "Label": 2827,
    "frequently</w>": 2828,
    "rele": 2829,
    "tight</w>": 2830,
    "templates</w>": 2831,
    "few</w>": 2832,
    "AD": 2833,
    "vals</w>": 2834,
    "jitter</w>": 2835,
    "attemp": 2836,
    "securely</w>": 2837,
    "regres": 2838,
    "Disable</w>": 2839,
    "itor</w>": 2840,
    "Se": 2841,
    "Tell</w>": 2842,
    "prevents</w>": 2843,
    "working</w>": 2844,
    "hour</w>": 2845,
    "pen</w>": 2846,
    "signals</w>": 2847,
    "expiry</w>": 2848,
    "rolling</w>": 2849,
    "ficial</w>": 2850,
    "ined</w>": 2851,
    "tivity</w>": 2852,
    "Rest": 2853,
    "ync</w>": 2854,
    "desk</w>": 2855,
    "unique</w>": 2856,
    "pan": 2857,
    "search</w>": 2858,
    "strat": 2859,
    "aller</w>": 2860,
    "core</w>": 2861,
    "blocks</w>": 2862,
    "term</w>": 2863,
    "immutability</w>": 2864,
    "=</w>": 2865,
    "arith": 2866,
    "moving</w>": 2867,
    "grou": 2868,
    "lining</w>": 2869,
    "distribu": 2870,
    "aphra": 2871,
    "probability</w>": 2872,
    "ens": 2873,
    "aim</w>": 2874,
    "vir": 2875,
    "camera</w>": 2876,
    "ored</w>": 2877,
    "altern": 2878,
    "assistant</w>": 2879,
    "ion": 2880,
    "infr": 2881,
    "infra</w>": 2882,
    "morning</w>": 2883,
    "sticky</w>": 2884,
    "protein</w>": 2885,
    "cards</w>": 2886,
    "due</w>": 2887,
    "reason</w>": 2888,
    "ful": 2889,
    "trig": 2890,
    "cutting</w>": 2891,
    "bus": 2892,
    "Mo": 2893,
    "tray</w>": 2894,
    "Run</w>": 2895,
    "bin</w>": 2896,
    "tovers</w>": 2897,
    "lace</w>": 2898,
    "backlog</w>": 2899,
    "spra": 2900,
    "PS</w>": 2901,
    "Hel": 2902,
    "realistic</w>": 2903,
    "Be</w>": 2904,
    "entify</w>": 2905,
    "invalidation</w>": 2906,
    "hot</w>": 2907,
    "Scrub</w>": 2908,
    "Label</w>": 2909,
    "areas</w>": 2910,
    "aging</w>": 2911,
    "ord": 2912,
    "scrat": 2913,
    "curs": 2914,
    "D</w>": 2915,
    "attempts</w>": 2916,
    "checksu": 2917,
    "perly</w>": 2918,
    "restric": 2919,
    "online</w>": 2920,
    "Mon": 2921,
    "locks</w>": 2922,
    "ops</w>": 2923,
    "contract</w>": 2924,
    "criteria</w>": 2925,
    "sks</w>": 2926,
    "filing</w>": 2927,
    "================================": 2928,
    "--": 2929,
    "---</w>": 2930,
    "pain</w>": 2931,
    "owner</w>": 2932,
    "smalle": 2933,
    "smallest</w>": 2934,
    "deletion</w>": 2935,
    "deli": 2936,
    "drop</w>": 2937,
    "ress</w>": 2938,
    "CSP</w>": 2939,
    "signal</w>": 2940,
    "doesn</w>": 2941,
    "could</w>": 2942,
    "ang": 2943,
    "tell</w>": 2944,
    "enjo": 2945,
    "discu": 2946,
    "appropriately</w>": 2947,
    "noti": 2948,
    "slic": 2949,
    "Pick</w>": 2950,
    "manager</w>": 2951,
    "squ": 2952,
    "–</w>": 2953,
    "offs</w>": 2954,
    "ETA</w>": 2955,
    "integrity</w>": 2956,
    "strateg": 2957,
    "dead": 2958,
    "fixed</w>": 2959,
    "cell</w>": 2960,
    "respiration</w>": 2961,
    "concis": 2962,
    "conciseness</w>": 2963,
    "CSV</w>": 2964,
    "dictionaries</w>": 2965,
    "DNA</w>": 2966,
    "stores</w>": 2967,
    "eco": 2968,
    "ecosystems</w>": 2969,
    "electric": 2970,
    "electricity</w>": 2971,
    "exponents</w>": 2972,
    "logarith": 2973,
    "logarithms</w>": 2974,
    "magneti": 2975,
    "magnetism</w>": 2976,
    "matr": 2977,
    "matrices</w>": 2978,
    "molecules</w>": 2979,
    "outlining</w>": 2980,
    "paraphra": 2981,
    "paraphrasing</w>": 2982,
    "percent": 2983,
    "percentages</w>": 2984,
    "photosyn": 2985,
    "photosynthesis</w>": 2986,
    "plate</w>": 2987,
    "tectonics</w>": 2988,
    "prime</w>": 2989,
    "proof": 2990,
    "proofreading</w>": 2991,
    "pos</w>": 2992,
    "quad": 2993,
    "quadrat": 2994,
    "quadratic</w>": 2995,
    "devi": 2996,
    "deviation</w>": 2997,
    "summarizing</w>": 2998,
    "runtime</w>": 2999,
    "vectors</w>": 3000,
    "virtual</w>": 3001,
    "Py": 3002,
    "Pyth": 3003,
    "Python</w>": 3004,
    "slow": 3005,
    "coding</w>": 3006,
    "designed</w>": 3007,
    "mitigate</w>": 3008,
    "sky</w>": 3009,
    "Rin": 3010,
    "Rinse</w>": 3011,
    "smell": 3012,
    "eggs</w>": 3013,
    "large</w>": 3014,
    "dust</w>": 3015,
    "cool</w>": 3016,
    "hu": 3017,
    "once</w>": 3018,
    "towels</w>": 3019,
    "post": 3020,
    "yer</w>": 3021,
    "cleanup</w>": 3022,
    "resource</w>": 3023,
    "lize</w>": 3024,
    "quar": 3025,
    "admin</w>": 3026,
    "Main": 3027,
    "Maintain</w>": 3028,
    "visu": 3029,
    "cold</w>": 3030,
    "SS": 3031,
    "graceful</w>": 3032,
    "peak</w>": 3033,
    "hours</w>": 3034,
    "details</w>": 3035,
    "overcooking</w>": 3036,
    "runaway</w>": 3037,
    "cron</w>": 3038,
    "site</w>": 3039,
    "fru": 3040,
    "Sec": 3041,
    "properly</w>": 3042,
    "Monitor</w>": 3043,
    "ML</w>": 3044,
    "much</w>": 3045,
    "Enig": 3046,
    "Enigm": 3047,
    "Enigma</w>": 3048,
    "finish</w>": 3049,
    "tune</w>": 3050,
    "App": 3051,
    "verse</w>": 3052,
    "enfor": 3053,
    "debug</w>": 3054,
    "refl": 3055,
    "repetit": 3056,
    "migration</w>": 3057,
    "sop": 3058,
    "soph": 3059,
    "intelligence</w>": 3060,
    "see</w>": 3061,
    "knowledge</w>": 3062,
    "Yes</w>": 3063,
    "Ask</w>": 3064,
    "auto": 3065,
    "”?</w>": 3066,
    "refresh</w>": 3067,
    "hear": 3068,
    "strong</w>": 3069,
    "walk</w>": 3070,
    "getting</w>": 3071,
    "plus</w>": 3072,
    "near</w>": 3073,
    "someone</w>": 3074,
    "aling</w>": 3075,
    "format</w>": 3076,
    "structured</w>": 3077,
    "head</w>": 3078,
    "sty": 3079,
    "ude</w>": 3080,
    "pi": 3081,
    "story</w>": 3082,
    "slowly</w>": 3083,
    "CDN": 3084,
    "cing</w>": 3085,
    "offer</w>": 3086,
    "ant": 3087,
    "compliance</w>": 3088,
    "sever": 3089,
    "ony": 3090,
    "live</w>": 3091,
    "readiness</w>": 3092,
    "ets</w>": 3093,
    "pans</w>": 3094,
    "completion</w>": 3095,
    "hand</w>": 3096,
    "timer</w>": 3097,
    "travel": 3098,
    "tables</w>": 3099,
    "gent</w>": 3100,
    "uses</w>": 3101,
    "neural</w>": 3102,
    "detec": 3103,
    "machine</w>": 3104,
    "norm": 3105,
    "Bre": 3106,
    "separately</w>": 3107,
    "snacks</w>": 3108,
    "Replace</w>": 3109,
    "bs</w>": 3110,
    "Writ": 3111,
    "aligned</w>": 3112,
    "lo</w>": 3113,
    "blocking</w>": 3114,
    "shel": 3115,
    "microfiber</w>": 3116,
    "met": 3117,
    "Sch": 3118,
    "case</w>": 3119,
    "controls</w>": 3120,
    "HTTPS</w>": 3121,
    "capac": 3122,
    "capacity</w>": 3123,
    "Rate</w>": 3124,
    "jection</w>": 3125,
    "red": 3126,
    "part</w>": 3127,
    "burn</w>": 3128,
    "Enc": 3129,
    "delay</w>": 3130,
    "Autom": 3131,
    "database</w>": 3132,
    "sca": 3133,
    "focused</w>": 3134,
    "restor": 3135,
    "difference</w>": 3136,
    "cabinet</w>": 3137,
    "keyboard</w>": 3138,
    "FA</w>": 3139,
    "visibility</w>": 3140,
    "wait</w>": 3141,
    "lders</w>": 3142,
    "reversible</w>": 3143,
    "versioning</w>": 3144,
    "offl": 3145,
    "offline</w>": 3146,
    "account</w>": 3147,
    "unnecessary</w>": 3148,
    "Os</w>": 3149,
    "documented</w>": 3150,
    "find</w>": 3151,
    "hon": 3152,
    "mainten": 3153,
    "maintenance</w>": 3154,
    "hashes</w>": 3155,
    "respond</w>": 3156,
    "counts</w>": 3157,
    "enjoy</w>": 3158,
    "cables</w>": 3159,
    "fill</w>": 3160,
    "pressure</w>": 3161,
    "max</w>": 3162,
    "accounts</w>": 3163,
    "email</w>": 3164,
    "password</w>": 3165,
    "passwords</w>": 3166,
    "pped</w>": 3167,
    "lunch</w>": 3168,
    "ouch</w>": 3169,
    "skip</w>": 3170,
    "pets</w>": 3171,
    "tracking</w>": 3172,
    "prep</w>": 3173,
    "signed</w>": 3174,
    "oning</w>": 3175,
    "smaller</w>": 3176,
    "wrong</w>": 3177,
    "mind</w>": 3178,
    "their</w>": 3179,
    "operations</w>": 3180,
    "instructions</w>": 3181,
    "parts</w>": 3182,
    "lt</w>": 3183,
    "verage</w>": 3184,
    "itude</w>": 3185,
    "complex</w>": 3186,
    "Cl": 3187,
    "Thanks</w>": 3188,
    "monitored</w>": 3189,
    "ark</w>": 3190,
    "ata</w>": 3191,
    "grade</w>": 3192,
    "Where</w>": 3193,
    "accep": 3194,
    "say</w>": 3195,
    "filter</w>": 3196,
    "care</w>": 3197,
    "relat": 3198,
    "stick</w>": 3199,
    "breathing</w>": 3200,
    "nings</w>": 3201,
    "kni": 3202,
    "beans</w>": 3203,
    "cable</w>": 3204,
    "increase</w>": 3205,
    "SLO</w>": 3206,
    "bow": 3207,
    "leftovers</w>": 3208,
    "ang</w>": 3209,
    "outside</w>": 3210,
    "15</w>": 3211,
    "ctive</w>": 3212,
    "Write</w>": 3213,
    "ature</w>": 3214,
    "Fil": 3215,
    "Verify</w>": 3216,
    "sider</w>": 3217,
    "verif": 3218,
    "bat": 3219,
    "runs</w>": 3220,
    "UT": 3221,
    "deps</w>": 3222,
    "circuit</w>": 3223,
    "sensible</w>": 3224,
    "async</w>": 3225,
    "payloads</w>": 3226,
    "hard</w>": 3227,
    "limited</w>": 3228,
    "bounded</w>": 3229,
    "transpa": 3230,
    "explicit</w>": 3231,
    "stin": 3232,
    "contracts</w>": 3233,
    "ardize</w>": 3234,
    "Tag</w>": 3235,
    "overload</w>": 3236,
    "within</w>": 3237,
    "ports</w>": 3238,
    "resili": 3239,
    "temp</w>": 3240,
    "Lear": 3241,
    "damp</w>": 3242,
    "boar": 3243,
    "boarding</w>": 3244,
    "risks</w>": 3245,
    "floors</w>": 3246,
    "restorative</w>": 3247,
    "ste</w>": 3248,
    "meaning</w>": 3249,
    "reach</w>": 3250,
    "SLOs</w>": 3251,
    "vanity</w>": 3252,
    "outcome</w>": 3253,
    "KPIs</w>": 3254,
    "non": 3255,
    "ousness</w>": 3256,
    "made</w>": 3257,
    "xing</w>": 3258,
    "scribe</w>": 3259,
    "feeling</w>": 3260,
    "processing</w>": 3261,
    "Only</w>": 3262,
    "restore</w>": 3263,
    "fresh": 3264,
    "surface</w>": 3265,
    "rup": 3266,
    "starter</w>": 3267,
    "Return</w>": 3268,
    "pair</w>": 3269,
    "validated</w>": 3270,
    "merge</w>": 3271,
    "cohort</w>": 3272,
    "gen": 3273,
    "created</w>": 3274,
    "divi": 3275,
    "midd": 3276,
    "CO": 3277,
    "event</w>": 3278,
    "tooling</w>": 3279,
    "ner": 3280,
    "ances</w>": 3281,
    "feelings</w>": 3282,
    "downloads</w>": 3283,
    "spikes</w>": 3284,
    "exposure</w>": 3285,
    "This</w>": 3286,
    "external</w>": 3287,
    "region</w>": 3288,
    "severity</w>": 3289,
    "onymi": 3290,
    "tren": 3291,
    "risky</w>": 3292,
    "wi": 3293,
    "pause</w>": 3294,
    "spac": 3295,
    "buffer</w>": 3296,
    "glasses</w>": 3297,
    "full</w>": 3298,
    "longer</w>": 3299,
    "spots</w>": 3300,
    "vin": 3301,
    "vineg": 3302,
    "vinegar</w>": 3303,
    "itect": 3304,
    "startup</w>": 3305,
    "Gra": 3306,
    "bath": 3307,
    "detect</w>": 3308,
    "p9": 3309,
    "uploads</w>": 3310,
    "overla": 3311,
    "propose</w>": 3312,
    "depth</w>": 3313,
    "Hello</w>": 3314,
    "business</w>": 3315,
    "staged</w>": 3316,
    "QL</w>": 3317,
    "hook</w>": 3318,
    "exces": 3319,
    "logic</w>": 3320,
    "Sanit": 3321,
    "Sanitize</w>": 3322,
    "allowlists</w>": 3323,
    "Su": 3324,
    "versioned</w>": 3325,
    "expose</w>": 3326,
    "chal": 3327,
    "challen": 3328,
    "provi": 3329,
    "init": 3330,
    "SD": 3331,
    "Automate</w>": 3332,
    "disco": 3333,
    "exports</w>": 3334,
    "direct</w>": 3335,
    "blue</w>": 3336,
    "Dry</w>": 3337,
    "oth</w>": 3338,
    "onboarding</w>": 3339,
    "expand</w>": 3340,
    "history</w>": 3341,
    "pads</w>": 3342,
    "esting</w>": 3343,
    "X</w>": 3344,
    "ars</w>": 3345,
    "lit</w>": 3346,
    "thor": 3347,
    "Okay</w>": 3348,
    "not": 3349,
    "xi": 3350,
    "OS</w>": 3351,
    "drive</w>": 3352,
    "ced</w>": 3353,
    "impacting</w>": 3354,
    "ilo": 3355,
    "ilosoph": 3356,
    "sense</w>": 3357,
    "rr": 3358,
    "emo": 3359,
    "emer": 3360,
    "beli": 3361,
    "available</w>": 3362,
    "ism</w>": 3363,
    "Bac": 3364,
    "Back": 3365,
    "meet</w>": 3366,
    "repl": 3367,
    "No": 3368,
    "leave</w>": 3369,
    "pantry</w>": 3370,
    "dedic": 3371,
    "dedicated</w>": 3372,
    "tin": 3373,
    "mal": 3374,
    "miss</w>": 3375,
    "happens</w>": 3376,
    "ended</w>": 3377,
    "methods</w>": 3378,
    "condit": 3379,
    "power</w>": 3380,
    "problems</w>": 3381,
    "style</w>": 3382,
    "spread</w>": 3383,
    "hold</w>": 3384,
    "reuse</w>": 3385,
    "'ll</w>": 3386,
    "starts</w>": 3387,
    "happy</w>": 3388,
    "again</w>": 3389,
    "has</w>": 3390,
    "programming</w>": 3391,
    "ol</w>": 3392,
    "guards</w>": 3393,
    "accid": 3394,
    "private</w>": 3395,
    "causes</w>": 3396,
    "Li": 3397,
    "determin": 3398,
    "kill</w>": 3399,
    "writes</w>": 3400,
    "fit</w>": 3401,
    "synthe": 3402,
    "synthetic</w>": 3403,
    "scopes</w>": 3404,
    "anonymi": 3405,
    "Would</w>": 3406,
    "ships</w>": 3407,
    "assist</w>": 3408,
    "stove": 3409,
    "secon": 3410,
    "pair": 3411,
    "pairs</w>": 3412,
    "dishes</w>": 3413,
    "adv": 3414,
    "vacuum</w>": 3415,
    "ered</w>": 3416,
    "wins</w>": 3417,
    "Ar": 3418,
    "architect": 3419,
    "ol": 3420,
    "levels</w>": 3421,
    "ier</w>": 3422,
    "aking</w>": 3423,
    "opping</w>": 3424,
    "devices</w>": 3425,
    "Slow</w>": 3426,
    "swe": 3427,
    "going</w>": 3428,
    "ood": 3429,
    "RS</w>": 3430,
    "rotations</w>": 3431,
    "Up": 3432,
    "sely</w>": 3433,
    "duplic": 3434,
    "isolate</w>": 3435,
    "bundle</w>": 3436,
    "duplicate</w>": 3437,
    "naming</w>": 3438,
    "excessive</w>": 3439,
    "audits</w>": 3440,
    "logy</w>": 3441,
    "off": 3442,
    "€</w>": 3443,
    "€": 3444,
    "gation</w>": 3445,
    "spl": 3446,
    "remote</w>": 3447,
    "asking</w>": 3448,
    "Review</w>": 3449,
    "oura": 3450,
    "ourage</w>": 3451,
    "boxes</w>": 3452,
    "Follow</w>": 3453,
    "commit</w>": 3454,
    "rap</w>": 3455,
    "Tim": 3456,
    "detection</w>": 3457,
    "fruit</w>": 3458,
    "teams</w>": 3459,
    "guidance</w>": 3460,
    "Stand": 3461,
    "eval": 3462,
    "evalu": 3463,
    "checksums</w>": 3464,
    "aren</w>": 3465,
    "SDK": 3466,
    "timelines</w>": 3467,
    "ME</w>": 3468,
    "mask</w>": 3469,
    "production</w>": 3470,
    "pin</w>": 3471,
    "imple": 3472,
    "chann": 3473,
    "abil": 3474,
    "abilities</w>": 3475,
    "untrusted</w>": 3476,
    "glob": 3477,
    "Learn</w>": 3478,
    "chain</w>": 3479,
    "setup</w>": 3480,
    "ories</w>": 3481,
    "Focu": 3482,
    "Focus</w>": 3483,
    "freez": 3484,
    "mats</w>": 3485,
    "inside</w>": 3486,
    "readable</w>": 3487,
    "stic</w>": 3488,
    "cleaning</w>": 3489,
    "freeze</w>": 3490,
    "split</w>": 3491,
    "odors</w>": 3492,
    "thorough": 3493,
    "thoroughly</w>": 3494,
    "9</w>": 3495,
    "microw": 3496,
    "microwave</w>": 3497,
    "fav": 3498,
    "great</w>": 3499,
    "Enable</w>": 3500,
    "Wi</w>": 3501,
    "Fi</w>": 3502,
    "volu": 3503,
    "Aler": 3504,
    "fat": 3505,
    "fatig": 3506,
    "fatigue</w>": 3507,
    "scoped</w>": 3508,
    "sent</w>": 3509,
    "reflect</w>": 3510,
    "consciousness</w>": 3511,
    "mirr": 3512,
    "predic": 3513,
    "jective</w>": 3514,
    "fied</w>": 3515,
    "tool</w>": 3516,
    "some</w>": 3517,
    "Lower</w>": 3518,
    "changing</w>": 3519,
    "rott": 3520,
    "battery</w>": 3521,
    "Pl": 3522,
    "Plan</w>": 3523,
    "overwh": 3524,
    "overwhel": 3525,
    "factor</w>": 3526,
    "ouse</w>": 3527,
    "chargers</w>": 3528,
    "moist": 3529,
    "evening</w>": 3530,
    "stories</w>": 3531,
    "green</w>": 3532,
    "ste": 3533,
    "pois": 3534,
    "strategy</w>": 3535,
    "calls</w>": 3536,
    "protec": 3537,
    "canc": 3538,
    "fact</w>": 3539,
    "ights</w>": 3540,
    "reprodu": 3541,
    "reproduci": 3542,
    "ened</w>": 3543,
    "ator</w>": 3544,
    "group</w>": 3545,
    "own</w>": 3546,
    "root</w>": 3547,
    "isolated</w>": 3548,
    "her": 3549,
    "even</w>": 3550,
    "Sure</w>": 3551,
    "ther": 3552,
    "stream</w>": 3553,
    "cked</w>": 3554,
    "fications</w>": 3555,
    "erc": 3556,
    "fair</w>": 3557,
    "relation": 3558,
    "relationships</w>": 3559,
    "mains</w>": 3560,
    "ants</w>": 3561,
    "soon</w>": 3562,
    "z</w>": 3563,
    "failover</w>": 3564,
    "grat": 3565,
    "dark</w>": 3566,
    "soci": 3567,
    "aptop</w>": 3568,
    "dig": 3569,
    "digit": 3570,
    "30</w>": 3571,
    "suggest</w>": 3572,
    "trigger</w>": 3573,
    "stretch</w>": 3574,
    "carry</w>": 3575,
    "smelling</w>": 3576,
    "cast</w>": 3577,
    "clutt": 3578,
    "pack</w>": 3579,
    "science</w>": 3580,
    "inclu": 3581,
    "output</w>": 3582,
    "drivers</w>": 3583,
    "Retry</w>": 3584,
    "normal</w>": 3585,
    "brain</w>": 3586,
    "travel</w>": 3587,
    "distra": 3588,
    "ventil": 3589,
    "rip</w>": 3590,
    "lemon</w>": 3591,
    "drying</w>": 3592,
    "container</w>": 3593,
    "fric": 3594,
    "friction</w>": 3595,
    "tomor": 3596,
    "tomorrow</w>": 3597,
    "Feel</w>": 3598,
    "confirm</w>": 3599,
    "verification</w>": 3600,
    "cles</w>": 3601,
    "Update</w>": 3602,
    "Id": 3603,
    "script</w>": 3604,
    "meaning": 3605,
    "ites</w>": 3606,
    "UTC</w>": 3607,
    "shelves</w>": 3608,
    "sharing</w>": 3609,
    "concur": 3610,
    "repos</w>": 3611,
    "prefer</w>": 3612,
    "Restrict</w>": 3613,
    "internally</w>": 3614,
    "consider</w>": 3615,
    "origins</w>": 3616,
    "Ser": 3617,
    "query</w>": 3618,
    "Red": 3619,
    "injection</w>": 3620,
    "airtight</w>": 3621,
    "balance</w>": 3622,
    "Docu": 3623,
    "Document</w>": 3624,
    "recomm": 3625,
    "Show</w>": 3626,
    "sort</w>": 3627,
    "fallbacks</w>": 3628,
    "IP</w>": 3629,
    "bro": 3630,
    "pag": 3631,
    "Requi": 3632,
    "Require</w>": 3633,
    "aren": 3634,
    "arenâ</w>": 3635,
    "SDKs</w>": 3636,
    "atâ</w>": 3637,
    "READ": 3638,
    "descrip": 3639,
    "deployment</w>": 3640,
    "ordering</w>": 3641,
    "zi": 3642,
    "SLA</w>": 3643,
    "izes</w>": 3644,
    "scape</w>": 3645,
    "vol": 3646,
    "Pract": 3647,
    "lets</w>": 3648,
    "Auth": 3649,
    "batteries</w>": 3650,
    "shower</w>": 3651,
    "aggregate</w>": 3652,
    "slip</w>": 3653,
    "dish</w>": 3654,
    "gure</w>": 3655,
    "RF</w>": 3656,
    "stination</w>": 3657,
    "Ne": 3658,
    "talking</w>": 3659,
    "‑</w>": 3660,
    "volume</w>": 3661,
    ")?</w>": 3662,
    "consent</w>": 3663,
    "collection</w>": 3664,
    "rub": 3665,
    "cut": 3666,
    "ite": 3667,
    "agging</w>": 3668,
    "program</w>": 3669,
    "philosoph": 3670,
    "send</w>": 3671,
    "utr": 3672,
    "tu": 3673,
    "discuss</w>": 3674,
    "Auth</w>": 3675,
    "sprin": 3676,
    "sprint</w>": 3677,
    "timebox</w>": 3678,
    "bright": 3679,
    "med</w>": 3680,
    "item</w>": 3681,
    "summary</w>": 3682,
    "push": 3683,
    "gro": 3684,
    "nail": 3685,
    "wing</w>": 3686,
    "Clo": 3687,
    "Close</w>": 3688,
    "ild</w>": 3689,
    "ler": 3690,
    "present": 3691,
    "subject</w>": 3692,
    "libr": 3693,
    "draf": 3694,
    "skill</w>": 3695,
    "distributed</w>": 3696,
    "recei": 3697,
    "calcu": 3698,
    "'ve</w>": 3699,
    "fut": 3700,
    "future</w>": 3701,
    "shut": 3702,
    "ta</w>": 3703,
    "option</w>": 3704,
    "doc</w>": 3705,
    "stored</w>": 3706,
    "ut</w>": 3707,
    "ority</w>": 3708,
    "oft</w>": 3709,
    "reads</w>": 3710,
    "makes</w>": 3711,
    "reci": 3712,
    "stovetop</w>": 3713,
    "cuts</w>": 3714,
    "breakfast</w>": 3715,
    "filling</w>": 3716,
    "exerc": 3717,
    "xed</w>": 3718,
    "Un": 3719,
    "knives</w>": 3720,
    "dishwash": 3721,
    "wal": 3722,
    "din": 3723,
    "Air</w>": 3724,
    "nuts</w>": 3725,
    "seed": 3726,
    "fore": 3727,
    "stage</w>": 3728,
    "cluttered</w>": 3729,
    "We": 3730,
    "Ensure</w>": 3731,
    "sistent</w>": 3732,
    "healthier</w>": 3733,
    "Ph": 3734,
    "archive</w>": 3735,
    "acce": 3736,
    "accessible</w>": 3737,
    "Rec": 3738,
    "anti": 3739,
    "scrub</w>": 3740,
    "cloth</w>": 3741,
    "simil": 3742,
    "similar</w>": 3743,
    "jour": 3744,
    "produc": 3745,
    "Alright</w>": 3746,
    "bye</w>": 3747,
    "observable</w>": 3748,
    "debt</w>": 3749,
    "batches</w>": 3750,
    "Identify</w>": 3751,
    "zones</w>": 3752,
    "og</w>": 3753,
    "proto": 3754,
    "fetching</w>": 3755,
    "order</w>": 3756,
    "scratching</w>": 3757,
    "poo": 3758,
    "rency</w>": 3759,
    "overri": 3760,
    "eng": 3761,
    "Time": 3762,
    "trade</w>": 3763,
    "degra": 3764,
    "approvals</w>": 3765,
    "runbook</w>": 3766,
    "revert</w>": 3767,
    "post</w>": 3768,
    "Y</w>": 3769,
    "exposed</w>": 3770,
    "tures</w>": 3771,
    "middle": 3772,
    "middleware</w>": 3773,
    "Secure</w>": 3774,
    "Same": 3775,
    "SameS": 3776,
    "SameSite</w>": 3777,
    "Encryp": 3778,
    "Filter</w>": 3779,
    "connections</w>": 3780,
    "destru": 3781,
    "destructive</w>": 3782,
    "discover": 3783,
    "toggles</w>": 3784,
    "loops</w>": 3785,
    "vul": 3786,
    "Supp": 3787,
    "Support</w>": 3788,
    "solation</w>": 3789,
    "crash</w>": 3790,
    "moder": 3791,
    "implement</w>": 3792,
    "robu": 3793,
    "sizes</w>": 3794,
    "wind": 3795,
    "smooth</w>": 3796,
    "restrictions</w>": 3797,
    "regressions</w>": 3798,
    "Practice</w>": 3799,
    "achi": 3800,
    "trends</w>": 3801,
    "SLAs</w>": 3802,
    "freezer</w>": 3803,
    "clarify</w>": 3804,
    "assign</w>": 3805,
    "lead": 3806,
    "parame": 3807,
    "plastic</w>": 3808,
    "ingly</w>": 3809,
    "truth</w>": 3810,
    "pil": 3811,
    "ames</w>": 3812,
    "execut": 3813,
    "global</w>": 3814,
    "moves</w>": 3815,
    "components</w>": 3816,
    "brush": 3817,
    "yers</w>": 3818,
    "ial</w>": 3819,
    "favorit": 3820,
    "nology</w>": 3821,
    "MFA</w>": 3822,
    "holders</w>": 3823,
    "yes</w>": 3824,
    "guar": 3825,
    "val</w>": 3826,
    "universe</w>": 3827,
    "We</w>": 3828,
    "xies</w>": 3829,
    "enforced</w>": 3830,
    "internals</w>": 3831,
    "report</w>": 3832,
    "tags</w>": 3833,
    "Each</w>": 3834,
    "complete</w>": 3835,
    "cop": 3836,
    "But</w>": 3837,
    "lies</w>": 3838,
    "gn": 3839,
    "smart</w>": 3840,
    "hardware</w>": 3841,
    "thrott": 3842,
    "tives</w>": 3843,
    "slice</w>": 3844,
    "simple": 3845,
    "simplest</w>": 3846,
    "brightness</w>": 3847,
    "recent</w>": 3848,
    "reat</w>": 3849,
    "Don</w>": 3850,
    "bullet</w>": 3851,
    "every": 3852,
    "forgetting</w>": 3853,
    "rinse</w>": 3854,
    "existing</w>": 3855,
    "hands</w>": 3856,
    "comms</w>": 3857,
    "exten": 3858,
    "arily</w>": 3859,
    "Build</w>": 3860,
    "poisoning</w>": 3861,
    "aloud</w>": 3862,
    "deadline</w>": 3863,
    "allowed</w>": 3864,
    "efficient</w>": 3865,
    "cause</w>": 3866,
    "pin": 3867,
    "reproducible</w>": 3868,
    "present</w>": 3869,
    "fing": 3870,
    "finger": 3871,
    "fingerprin": 3872,
    "fingerprint</w>": 3873,
    "doing</w>": 3874,
    "collections</w>": 3875,
    "frequent</w>": 3876,
    "extra": 3877,
    "soli": 3878,
    "piec": 3879,
    "idea</w>": 3880,
    "dual</w>": 3881,
    "distance</w>": 3882,
    "calculat": 3883,
    "body</w>": 3884,
    "lify</w>": 3885,
    "wise</w>": 3886,
    "depends</w>": 3887,
    "folder</w>": 3888,
    "quo": 3889,
    "CDN</w>": 3890,
    "accu": 3891,
    "delivery</w>": 3892,
    "priority</w>": 3893,
    "notifications</w>": 3894,
    "usion</w>": 3895,
    "accor": 3896,
    "cohorts</w>": 3897,
    "require": 3898,
    "gency</w>": 3899,
    "spend</w>": 3900,
    "budget</w>": 3901,
    "keep": 3902,
    "field</w>": 3903,
    "perspec": 3904,
    "appreci": 3905,
    "short": 3906,
    "tea</w>": 3907,
    "empty</w>": 3908,
    "drawers</w>": 3909,
    "calmer</w>": 3910,
    "walle": 3911,
    "wallet</w>": 3912,
    "missing</w>": 3913,
    "loss</w>": 3914,
    "Daily</w>": 3915,
    "sit</w>": 3916,
    "exercise</w>": 3917,
    "sun": 3918,
    "color</w>": 3919,
    ".,</w>": 3920,
    "reminder</w>": 3921,
    "stren": 3922,
    "streng": 3923,
    "Pack</w>": 3924,
    "vege": 3925,
    "Int": 3926,
    "Intelligence</w>": 3927,
    "posit": 3928,
    "ously</w>": 3929,
    "The": 3930,
    "architecture</w>": 3931,
    "Try</w>": 3932,
    "hable</w>": 3933,
    "scheduled</w>": 3934,
    "mail</w>": 3935,
    "bowls</w>": 3936,
    "entry</w>": 3937,
    "ken</w>": 3938,
    "Prep</w>": 3939,
    "Adjust</w>": 3940,
    "eye</w>": 3941,
    "flat</w>": 3942,
    "show": 3943,
    "costs</w>": 3944,
    "dryer</w>": 3945,
    "amoun": 3946,
    "List</w>": 3947,
    "win</w>": 3948,
    "activity</w>": 3949,
    "nego": 3950,
    "negoti": 3951,
    "spect</w>": 3952,
    "policy</w>": 3953,
    "meat</w>": 3954,
    "seas": 3955,
    "Go</w>": 3956,
    "anytime</w>": 3957,
    "location</w>": 3958,
    "easure</w>": 3959,
    "Hi</w>": 3960,
    "colli": 3961,
    "contribu": 3962,
    "rune</w>": 3963,
    "duplicates</w>": 3964,
    "breakers</w>": 3965,
    "drin": 3966,
    "Centralize</w>": 3967,
    "peer</w>": 3968,
    "Per": 3969,
    "transactions</w>": 3970,
    "webhook</w>": 3971,
    "stuck</w>": 3972,
    "period": 3973,
    "periodic</w>": 3974,
    "Donâ</w>": 3975,
    "tag</w>": 3976,
    "Sco": 3977,
    "raw</w>": 3978,
    "shipping</w>": 3979,
    "unbounded</w>": 3980,
    "aks</w>": 3981,
    "Break</w>": 3982,
    "Share</w>": 3983,
    "visual</w>": 3984,
    "cursor</w>": 3985,
    "targets</w>": 3986,
    "brate</w>": 3987,
    "Sign</w>": 3988,
    "ators</w>": 3989,
    "Central</w>": 3990,
    "La": 3991,
    "refer": 3992,
    "deterministic</w>": 3993,
    "login</w>": 3994,
    "outages</w>": 3995,
    "AC</w>": 3996,
    "robust</w>": 3997,
    "formats</w>": 3998,
    "vulner": 3999,
    "enable</w>": 4000,
    "window</w>": 4001,
    "expir": 4002,
    "expirations</w>": 4003,
    "frastructure</w>": 4004,
    "fab": 4005,
    "fabr": 4006,
    "mild</w>": 4007,
    "categ": 4008,
    "har": 4009,
    "Short</w>": 4010,
    "releases</w>": 4011,
    "produce</w>": 4012,
    "prefer": 4013,
    "shoe</w>": 4014,
    "decide</w>": 4015,
    "So": 4016,
    "contact</w>": 4017,
    "Have</w>": 4018,
    "spon": 4019,
    "rename</w>": 4020,
    "unless</w>": 4021,
    "layers</w>": 4022,
    "processes</w>": 4023,
    "destination</w>": 4024,
    "okay</w>": 4025,
    "ticket</w>": 4026,
    "technology</w>": 4027,
    "earbu": 4028,
    "earbuds</w>": 4029,
    "Alert</w>": 4030,
    "direct": 4031,
    "routing</w>": 4032,
    "stake": 4033,
    "agra": 4034,
    "deprecation</w>": 4035,
    "For": 4036,
    "Open</w>": 4037,
    "yet</w>": 4038,
    "lions</w>": 4039,
    "bly</w>": 4040,
    "Did</w>": 4041,
    "facing</w>": 4042,
    "scrub": 4043,
    "cutoff</w>": 4044,
    "philosophical</w>": 4045,
    "aware</w>": 4046,
    "artificial</w>": 4047,
    "count</w>": 4048,
    "certain</w>": 4049,
    "origin": 4050,
    "tional</w>": 4051,
    "neutr": 4052,
    "trained</w>": 4053,
    "mixing</w>": 4054,
    "eve</w>": 4055,
    "recogn": 4056,
    "cel": 4057,
    "rotated</w>": 4058,
    "fect</w>": 4059,
    "shed</w>": 4060,
    "radi": 4061,
    "tough</w>": 4062,
    "listen</w>": 4063,
    "tan": 4064,
    "irs</w>": 4065,
    "tiny</w>": 4066,
    "ST": 4067,
    "open": 4068,
    "To": 4069,
    "ady</w>": 4070,
    "beh": 4071,
    "behind</w>": 4072,
    "add": 4073,
    "unexpected</w>": 4074,
    "happened</w>": 4075,
    "dered</w>": 4076,
    "00</w>": 4077,
    "function</w>": 4078,
    "cond": 4079,
    "shou": 4080,
    "ending</w>": 4081,
    "my": 4082,
    "ler</w>": 4083,
    "compare</w>": 4084,
    "attach": 4085,
    "scan": 4086,
    "backup</w>": 4087,
    "rect</w>": 4088,
    "conflicts</w>": 4089,
    "automat": 4090,
    "accura": 4091,
    "accuracy</w>": 4092,
    "soft</w>": 4093,
    "fallback</w>": 4094,
    "silence</w>": 4095,
    "accept": 4096,
    "acceptance</w>": 4097,
    "person": 4098,
    "genu": 4099,
    "anonymize</w>": 4100,
    "keeping</w>": 4101,
    "press</w>": 4102,
    "asc": 4103,
    "past</w>": 4104,
    "weight</w>": 4105,
    "wl</w>": 4106,
    "router</w>": 4107,
    "drills</w>": 4108,
    "gratitude</w>": 4109,
    "maj": 4110,
    "major</w>": 4111,
    "ie</w>": 4112,
    "shortcuts</w>": 4113,
    "caffe": 4114,
    "note": 4115,
    "burn": 4116,
    "Lea": 4117,
    "Leave</w>": 4118,
    "bedding</w>": 4119,
    "counters</w>": 4120,
    "bright</w>": 4121,
    "vegetables</w>": 4122,
    "seeds</w>": 4123,
    "thread</w>": 4124,
    "ici": 4125,
    "Arti": 4126,
    "Artificial</w>": 4127,
    "Af": 4128,
    "After</w>": 4129,
    "yo": 4130,
    "yogur": 4131,
    "yogurt</w>": 4132,
    "anxi": 4133,
    "random</w>": 4134,
    "For</w>": 4135,
    "Phone</w>": 4136,
    "wel": 4137,
    "blockers</w>": 4138,
    "ff</w>": 4139,
    "Sm": 4140,
    "posture</w>": 4141,
    "letter</w>": 4142,
    "aming</w>": 4143,
    "elt</w>": 4144,
    "committing</w>": 4145,
    "ceed</w>": 4146,
    "Good": 4147,
    "Goodbye</w>": 4148,
    "chatt": 4149,
    "Hand": 4150,
    "Handle</w>": 4151,
    "Hey</w>": 4152,
    "big</w>": 4153,
    "product</w>": 4154,
    "checklists</w>": 4155,
    "tied</w>": 4156,
    "meaningful</w>": 4157,
    "Regul": 4158,
    "Graph": 4159,
    "GraphQL</w>": 4160,
    "detergent</w>": 4161,
    "cycles</w>": 4162,
    "bathroom</w>": 4163,
    "entle</w>": 4164,
    "catal": 4165,
    "bottles</w>": 4166,
    "shopping</w>": 4167,
    "edule</w>": 4168,
    "DL": 4169,
    "balanced</w>": 4170,
    "vend": 4171,
    "chair</w>": 4172,
    "zen</w>": 4173,
    "agree</w>": 4174,
    "wil": 4175,
    "wild": 4176,
    "atures</w>": 4177,
    "left</w>": 4178,
    "relev": 4179,
    "relevant</w>": 4180,
    "Stag": 4181,
    "handy</w>": 4182,
    "rugs</w>": 4183,
    "Scan</w>": 4184,
    "paralle": 4185,
    "wood</w>": 4186,
    "redund": 4187,
    "drinks</w>": 4188,
    "onable</w>": 4189,
    "record</w>": 4190,
    "manual</w>": 4191,
    "degrad": 4192,
    "degradation</w>": 4193,
    "object</w>": 4194,
    "template</w>": 4195,
    "coverage</w>": 4196,
    "trace</w>": 4197,
    "Standardize</w>": 4198,
    "previous</w>": 4199,
    "Cont": 4200,
    "sand": 4201,
    "inline</w>": 4202,
    "Encrypt</w>": 4203,
    "regions</w>": 4204,
    "README</w>": 4205,
    "retri": 4206,
    "redirect</w>": 4207,
    "backend</w>": 4208,
    "noun": 4209,
    "nounce</w>": 4210,
    "resilience</w>": 4211,
    "transparent</w>": 4212,
    "isolation</w>": 4213,
    "doesn": 4214,
    "doesnâ</w>": 4215,
    "deployments</w>": 4216,
    "jud": 4217,
    "CL": 4218,
    "CLI</w>": 4219,
    "confirm": 4220,
    "channels</w>": 4221,
    "HT": 4222,
    "HTML</w>": 4223,
    "escal": 4224,
    "infrastructure</w>": 4225,
    "Pri": 4226,
    "ven": 4227,
    "dev</w>": 4228,
    "State</w>": 4229,
    "port": 4230,
    "Pin</w>": 4231,
    "tem": 4232,
    "temper": 4233,
    "managers</w>": 4234,
    "bread</w>": 4235,
    "folders</w>": 4236,
    "wrap</w>": 4237,
    "rig": 4238,
    "gment</w>": 4239,
    "flash": 4240,
    "seal": 4241,
    "sealed</w>": 4242,
    "accord": 4243,
    "accordingly</w>": 4244,
    "caps</w>": 4245,
    "efficiently</w>": 4246,
    "pt</w>": 4247,
    "regist": 4248,
    "confusion</w>": 4249,
    "fur": 4250,
    "nit": 4251,
    "abuse</w>": 4252,
    "target</w>": 4253,
    "reject</w>": 4254,
    "kind</w>": 4255,
    "Whatâ</w>": 4256,
    "worth</w>": 4257,
    "gged</w>": 4258,
    "bound</w>": 4259,
    "toggle</w>": 4260,
    "AM</w>": 4261,
    "stakeholders</w>": 4262,
    "attribu": 4263,
    "attributes</w>": 4264,
    "repetitive</w>": 4265,
    "still</w>": 4266,
    "white": 4267,
    "robo": 4268,
    "emotions</w>": 4269,
    "perfec": 4270,
    "look</w>": 4271,
    "see": 4272,
    "blast</w>": 4273,
    "radius</w>": 4274,
    "lot</w>": 4275,
    "Turn</w>": 4276,
    "everywhere</w>": 4277,
    "grocer": 4278,
    "workouts</w>": 4279,
    "ties</w>": 4280,
    "agend": 4281,
    "practical</w>": 4282,
    "nails</w>": 4283,
    "che": 4284,
    "alarm</w>": 4285,
    "ggle</w>": 4286,
    "reboo": 4287,
    "photos</w>": 4288,
    "zo": 4289,
    "zoom</w>": 4290,
    "tab": 4291,
    "malware</w>": 4292,
    "cancel": 4293,
    "derst": 4294,
    "intended</w>": 4295,
    "AT": 4296,
    "objects</w>": 4297,
    "libraries</w>": 4298,
    "orted</w>": 4299,
    "plants</w>": 4300,
    "conver": 4301,
    "them": 4302,
    "grows</w>": 4303,
    "simplify</w>": 4304,
    "asked</w>": 4305,
    "quota</w>": 4306,
    "automatically</w>": 4307,
    "firm</w>": 4308,
    "misses</w>": 4309,
    "click</w>": 4310,
    "accident": 4311,
    "indoors</w>": 4312,
    "tips</w>": 4313,
    "Data</w>": 4314,
    "reconc": 4315,
    "export</w>": 4316,
    "alized</w>": 4317,
    "partit": 4318,
    "desi": 4319,
    "cannot</w>": 4320,
    "transit</w>": 4321,
    "vered</w>": 4322,
    "KPI</w>": 4323,
    "et": 4324,
    "friends</w>": 4325,
    "appreciate</w>": 4326,
    "drink</w>": 4327,
    "dup</w>": 4328,
    "deep": 4329,
    "noon</w>": 4330,
    "snack</w>": 4331,
    "recurring</w>": 4332,
    "laptop</w>": 4333,
    "overfilling</w>": 4334,
    "schedules</w>": 4335,
    "she": 4336,
    "touch</w>": 4337,
    "route</w>": 4338,
    "walking</w>": 4339,
    "ki": 4340,
    "sitting</w>": 4341,
    "stands</w>": 4342,
    "arms</w>": 4343,
    "Pre</w>": 4344,
    "greens</w>": 4345,
    "nightly</w>": 4346,
    "rink</w>": 4347,
    "dations</w>": 4348,
    "Explain</w>": 4349,
    "perform</w>": 4350,
    "position</w>": 4351,
    "They</w>": 4352,
    "port</w>": 4353,
    "airflow</w>": 4354,
    "mark</w>": 4355,
    "ety</w>": 4356,
    "anyone</w>": 4357,
    "ID</w>": 4358,
    "charger</w>": 4359,
    "switches</w>": 4360,
    "speaking</w>": 4361,
    "25</w>": 4362,
    "glare</w>": 4363,
    "mes</w>": 4364,
    "bedroom</w>": 4365,
    "sweep</w>": 4366,
    "sight</w>": 4367,
    "mirrors</w>": 4368,
    "TV</w>": 4369,
    "area</w>": 4370,
    "journ": 4371,
    "sprawl</w>": 4372,
    "lutter</w>": 4373,
    "antine</w>": 4374,
    "person</w>": 4375,
    "glad</w>": 4376,
    "Heal": 4377,
    "than": 4378,
    "prune</w>": 4379,
    "cau": 4380,
    "gentle</w>": 4381,
    "marks</w>": 4382,
    "catalog</w>": 4383,
    "gently</w>": 4384,
    "Schedule</w>": 4385,
    "postmor": 4386,
    "postmorte": 4387,
    "failing</w>": 4388,
    "organiz": 4389,
    "cla": 4390,
    "frozen</w>": 4391,
    "dest</w>": 4392,
    "€</w>": 4393,
    "CORS</w>": 4394,
    "Ia": 4395,
    "IaC</w>": 4396,
    "Measure</w>": 4397,
    "tele": 4398,
    "metry</w>": 4399,
    "encourage</w>": 4400,
    "Min": 4401,
    "Minim": 4402,
    "closets</w>": 4403,
    "watering</w>": 4404,
    "moisture</w>": 4405,
    "failo": 4406,
    "failovers</w>": 4407,
    "parallelize</w>": 4408,
    "liners</w>": 4409,
    "maps</w>": 4410,
    "overrides</w>": 4411,
    "ast": 4412,
    "redu": 4413,
    "Apply</w>": 4414,
    "pagate</w>": 4415,
    "mentation</w>": 4416,
    "definit": 4417,
    "timesta": 4418,
    "duplication</w>": 4419,
    "interfaces</w>": 4420,
    "cursors</w>": 4421,
    "chains</w>": 4422,
    "shapes</w>": 4423,
    "Sha": 4424,
    "life": 4425,
    "routes</w>": 4426,
    "reports</w>": 4427,
    "other": 4428,
    "quarter": 4429,
    "quarterly</w>": 4430,
    "references</w>": 4431,
    "deletes</w>": 4432,
    "entory</w>": 4433,
    "eval</w>": 4434,
    "bases</w>": 4435,
    "descriptions</w>": 4436,
    "sify</w>": 4437,
    "Announce</w>": 4438,
    "leak</w>": 4439,
    "dumps</w>": 4440,
    "symp": 4441,
    "sympto": 4442,
    "symptoms</w>": 4443,
    "BAC</w>": 4444,
    "dependent</w>": 4445,
    "bin": 4446,
    "Defau": 4447,
    "Default</w>": 4448,
    "escalation</w>": 4449,
    "navigation</w>": 4450,
    "blan": 4451,
    "washing</w>": 4452,
    "attac": 4453,
    "attacks</w>": 4454,
    "profe": 4455,
    "profes": 4456,
    "profession": 4457,
    "negotiate</w>": 4458,
    "Ventil": 4459,
    "Ventilate</w>": 4460,
    "developer</w>": 4461,
    "achiev": 4462,
    "mus": 4463,
    "bullets</w>": 4464,
    "highlight</w>": 4465,
    "simply</w>": 4466,
    "kit</w>": 4467,
    "vert": 4468,
    "Z</w>": 4469,
    "atives</w>": 4470,
    "trays</w>": 4471,
    "resto": 4472,
    "Hang</w>": 4473,
    "zy</w>": 4474,
    "Seal</w>": 4475,
    "tightly</w>": 4476,
    "ched</w>": 4477,
    "brush</w>": 4478,
    "under": 4479,
    "indexes</w>": 4480,
    "rust</w>": 4481,
    "hair</w>": 4482,
    "lighting</w>": 4483,
    "shots</w>": 4484,
    "taste</w>": 4485,
    "ey</w>": 4486,
    "registries</w>": 4487,
    "play</w>": 4488,
    "intervals</w>": 4489,
    "CSRF</w>": 4490,
    "mater": 4491,
    "ials</w>": 4492,
    "SS</w>": 4493,
    "nowledge</w>": 4494,
    "proxies</w>": 4495,
    "den</w>": 4496,
    "IN": 4497,
    "image</w>": 4498,
    "networks</w>": 4499,
    "advice</w>": 4500,
    "favorite</w>": 4501,
    "interesting</w>": 4502,
    "cessibility</w>": 4503,
    "licen": 4504,
    "logged</w>": 4505,
    "push</w>": 4506,
    "monitors</w>": 4507,
    "tooth</w>": 4508,
    "contac": 4509,
    "dn</w>": 4510,
    "driven</w>": 4511,
    "install</w>": 4512,
    "fires</w>": 4513,
    "charts</w>": 4514,
    "exists</w>": 4515,
    "else": 4516,
    "elsewhere</w>": 4517,
    "prove</w>": 4518,
    "alerting</w>": 4519,
    "overusing</w>": 4520,
    "deprecate</w>": 4521,
    "robot</w>": 4522,
    "tur": 4523,
    "conscious</w>": 4524,
    "dang": 4525,
    "danger": 4526,
    "dangerous</w>": 4527,
    "listening</w>": 4528,
    "sin": 4529,
    "neutral</w>": 4530,
    "subjective</w>": 4531,
    "original</w>": 4532,
    "comes</w>": 4533,
    "zing</w>": 4534,
    "match</w>": 4535,
    "mid</w>": 4536,
    "essential</w>": 4537,
    "bit</w>": 4538,
    "freshness</w>": 4539,
    "interrup": 4540,
    "leaving</w>": 4541,
    "house</w>": 4542,
    "gled</w>": 4543,
    "pouch</w>": 4544,
    "agenda</w>": 4545,
    "dir": 4546,
    "Be": 4547,
    "invalidate</w>": 4548,
    "storms</w>": 4549,
    "sus</w>": 4550,
    "reviewed</w>": 4551,
    "soun": 4552,
    "weights</w>": 4553,
    "alloc": 4554,
    "sugar</w>": 4555,
    "address</w>": 4556,
    "agre": 4557,
    "colum": 4558,
    "columns</w>": 4559,
    "ong</w>": 4560,
    "authorized</w>": 4561,
    "mapping</w>": 4562,
    "result</w>": 4563,
    "magnet": 4564,
    "magnetic</w>": 4565,
    "forms</w>": 4566,
    "conditions</w>": 4567,
    "concepts</w>": 4568,
    "calculations</w>": 4569,
    "concer": 4570,
    "Of</w>": 4571,
    "cour": 4572,
    "course</w>": 4573,
    "detail</w>": 4574,
    "truly</w>": 4575,
    "learned</w>": 4576,
    "pati": 4577,
    "prompt</w>": 4578,
    "sor</w>": 4579,
    "around</w>": 4580,
    "accidental</w>": 4581,
    "transf": 4582,
    "transfers</w>": 4583,
    "prior</w>": 4584,
    "antum</w>": 4585,
    "ech": 4586,
    "owns</w>": 4587,
    "ben": 4588,
    "tire</w>": 4589,
    "mask": 4590,
    "masked</w>": 4591,
    "aching</w>": 4592,
    "harm</w>": 4593,
    "really</w>": 4594,
    "efs</w>": 4595,
    "when": 4596,
    "whenever</w>": 4597,
    "inating</w>": 4598,
    "experiences</w>": 4599,
    "iz</w>": 4600,
    "bottle</w>": 4601,
    "buildup</w>": 4602,
    "Grou": 4603,
    "Group</w>": 4604,
    "dim</w>": 4605,
    "drate</w>": 4606,
    "Put</w>": 4607,
    "caffeine</w>": 4608,
    "books</w>": 4609,
    "notebook</w>": 4610,
    "ention": 4611,
    "sheets</w>": 4612,
    "sanitary</w>": 4613,
    "soil</w>": 4614,
    "polite</w>": 4615,
    "lost</w>": 4616,
    "clou": 4617,
    "salt</w>": 4618,
    "sharp</w>": 4619,
    "dishwashers</w>": 4620,
    "upgrade</w>": 4621,
    "Br": 4622,
    "Brush</w>": 4623,
    "60</w>": 4624,
    "boil": 4625,
    "umb": 4626,
    "auto</w>": 4627,
    "hot": 4628,
    "cups</w>": 4629,
    "Sum": 4630,
    "urgent</w>": 4631,
    "Gener": 4632,
    "ples</w>": 4633,
    "Tr": 4634,
    "firm": 4635,
    "vents</w>": 4636,
    "serts</w>": 4637,
    ".”</w>": 4638,
    "cords</w>": 4639,
    "clips</w>": 4640,
    "manageable</w>": 4641,
    "vely</w>": 4642,
    "Recor": 4643,
    "trips</w>": 4644,
    "wip": 4645,
    "fetch</w>": 4646,
    "rice</w>": 4647,
    "Mic": 4648,
    "hang</w>": 4649,
    "study</w>": 4650,
    "fold</w>": 4651,
    "formatt": 4652,
    "formatting</w>": 4653,
    "rooms</w>": 4654,
    "floor</w>": 4655,
    "Move</w>": 4656,
    "exit</w>": 4657,
    "wrin": 4658,
    "wrink": 4659,
    "trick</w>": 4660,
    "p95</w>": 4661,
    "pic": 4662,
    "producers</w>": 4663,
    "thermo": 4664,
    "Give</w>": 4665,
    "behaviors</w>": 4666,
    "nice</w>": 4667,
    "Health</w>": 4668,
    "suff": 4669,
    "direc": 4670,
    "Map</w>": 4671,
    "was": 4672,
    "washable</w>": 4673,
    "static</w>": 4674,
    "SSO</w>": 4675,
    "JS</w>": 4676,
    "coded</w>": 4677,
    "snacking</w>": 4678,
    "generic</w>": 4679,
    "Po": 4680,
    "metad": 4681,
    "metadata</w>": 4682,
    "loose</w>": 4683,
    "screws</w>": 4684,
    "receip": 4685,
    "envelop": 4686,
    "bran": 4687,
    "branches</w>": 4688,
    "sanity</w>": 4689,
    "lock": 4690,
    "signatures</w>": 4691,
    "Serve</w>": 4692,
    "protoco": 4693,
    "telemetry</w>": 4694,
    "soap": 4695,
    "Stagger</w>": 4696,
    "metal</w>": 4697,
    "shake</w>": 4698,
    "bundles</w>": 4699,
    "residue</w>": 4700,
    "ggy</w>": 4701,
    "vent</w>": 4702,
    "card": 4703,
    "upright</w>": 4704,
    "politely</w>": 4705,
    "helping</w>": 4706,
    "occa": 4707,
    "occasion": 4708,
    "wid": 4709,
    "preserve</w>": 4710,
    "records</w>": 4711,
    "Comm": 4712,
    "Commun": 4713,
    "Communicate</w>": 4714,
    "capture</w>": 4715,
    "itly</w>": 4716,
    "lays</w>": 4717,
    "mesh</w>": 4718,
    "uce</w>": 4719,
    "warnings</w>": 4720,
    "scaling</w>": 4721,
    "counter</w>": 4722,
    "elebrate</w>": 4723,
    "timestamps</w>": 4724,
    "automated</w>": 4725,
    "automation</w>": 4726,
    "Mask</w>": 4727,
    "fixtures</w>": 4728,
    "lowing</w>": 4729,
    "ttp": 4730,
    "ttpOnly</w>": 4731,
    "otherwise</w>": 4732,
    "replication</w>": 4733,
    "restricted</w>": 4734,
    "scrubb": 4735,
    "databases</w>": 4736,
    "webhooks</w>": 4737,
    "transit": 4738,
    "encrypt</w>": 4739,
    "modern</w>": 4740,
    "RBAC</w>": 4741,
    "artifact</w>": 4742,
    "Roll": 4743,
    "seman": 4744,
    "Timeouts</w>": 4745,
    "confirmations</w>": 4746,
    "Escape</w>": 4747,
    "lag</w>": 4748,
    "flight</w>": 4749,
    "vulnerabilities</w>": 4750,
    "centric</w>": 4751,
    "cert</w>": 4752,
    "insecure</w>": 4753,
    "uptime</w>": 4754,
    "fabric</w>": 4755,
    "packets</w>": 4756,
    "eth": 4757,
    "bugs</w>": 4758,
    "identify</w>": 4759,
    "toward</w>": 4760,
    "Stru": 4761,
    "achievements</w>": 4762,
    "summaries</w>": 4763,
    "backfill</w>": 4764,
    "temperature</w>": 4765,
    "tape</w>": 4766,
    "vertical</w>": 4767,
    "Cap": 4768,
    "Capture</w>": 4769,
    "tains</w>": 4770,
    "graph": 4771,
    "leader</w>": 4772,
    "challenges</w>": 4773,
    "preferences</w>": 4774,
    "soles</w>": 4775,
    "digital</w>": 4776,
    "documents</w>": 4777,
    "repetition</w>": 4778,
    "emergency</w>": 4779,
    "milest": 4780,
    "broad</w>": 4781,
    "Dif": 4782,
    "Differ": 4783,
    "Different</w>": 4784,
    "Clarif": 4785,
    "Clarify</w>": 4786,
    "activ": 4787,
    "activities</w>": 4788,
    "guides</w>": 4789,
    "screen": 4790,
    "vars</w>": 4791,
    "cook</w>": 4792,
    "extras</w>": 4793,
    "idle</w>": 4794,
    "valu": 4795,
    "package</w>": 4796,
    "refactor</w>": 4797,
    "frame</w>": 4798,
    "ust</w>": 4799,
    "furnit": 4800,
    "furniture</w>": 4801,
    "sponges</w>": 4802,
    "ventilation</w>": 4803,
    "gar": 4804,
    "p99</w>": 4805,
    "media</w>": 4806,
    "save</w>": 4807,
    "XSS</w>": 4808,
    "strict</w>": 4809,
    "Ack": 4810,
    "Acknowledge</w>": 4811,
    "brushes</w>": 4812,
    "seconds</w>": 4813,
    "year</w>": 4814,
    "zer": 4815,
    "pou": 4816,
    "restores</w>": 4817,
    "figure</w>": 4818,
    "valid</w>": 4819,
    "conflicting</w>": 4820,
    "rather</w>": 4821,
    "shed": 4822,
    "shedding</w>": 4823,
    "connected</w>": 4824,
    "wake</w>": 4825,
    "gine</w>": 4826,
    "Scri": 4827,
    "Script</w>": 4828,
    "music</w>": 4829,
    "joke</w>": 4830,
    "Say</w>": 4831,
    "programs</w>": 4832,
    "refers</w>": 4833,
    "range</w>": 4834,
    "seat</w>": 4835,
    "contacts</w>": 4836,
    "charge</w>": 4837,
    "recently</w>": 4838,
    "Alig": 4839,
    "Align</w>": 4840,
    "ph</w>": 4841,
    "shing</w>": 4842,
    "billions</w>": 4843,
    "found</w>": 4844,
    "opt</w>": 4845,
    "lead</w>": 4846,
    "nonces</w>": 4847,
    "creation</w>": 4848,
    "fear</w>": 4849,
    "alive</w>": 4850,
    "logical</w>": 4851,
    "pattern</w>": 4852,
    "matching</w>": 4853,
    "token</w>": 4854,
    "describe</w>": 4855,
    "ified</w>": 4856,
    "actu": 4857,
    "believe</w>": 4858,
    "gres": 4859,
    "custom</w>": 4860,
    "commit": 4861,
    "phra": 4862,
    "speak</w>": 4863,
    "elev": 4864,
    "lip</w>": 4865,
    "immediate</w>": 4866,
    "pushups</w>": 4867,
    "plank</w>": 4868,
    "got</w>": 4869,
    "buying</w>": 4870,
    "streak</w>": 4871,
    "tangled</w>": 4872,
    "Send</w>": 4873,
    "tie</w>": 4874,
    "twice</w>": 4875,
    "Toggle</w>": 4876,
    "reboot</w>": 4877,
    "steady</w>": 4878,
    "extensions</w>": 4879,
    "Bye</w>": 4880,
    "toler": 4881,
    "trying</w>": 4882,
    "Cal": 4883,
    "bilities</w>": 4884,
    "misun": 4885,
    "misunderst": 4886,
    "deciding</w>": 4887,
    "cells</w>": 4888,
    "fixing</w>": 4889,
    "who": 4890,
    "whole</w>": 4891,
    "average</w>": 4892,
    "sum</w>": 4893,
    "sorting</w>": 4894,
    "plates</w>": 4895,
    "like": 4896,
    "likely</w>": 4897,
    "ared</w>": 4898,
    "solid</w>": 4899,
    "liqu": 4900,
    "liquid</w>": 4901,
    "stating</w>": 4902,
    "oration</w>": 4903,
    "condens": 4904,
    "condensation</w>": 4905,
    "sentence</w>": 4906,
    "ulation</w>": 4907,
    "ech</w>": 4908,
    "enab": 4909,
    "Ho": 4910,
    "love</w>": 4911,
    "unsafe</w>": 4912,
    "ten</w>": 4913,
    "curi": 4914,
    "inking</w>": 4915,
    "shutdown</w>": 4916,
    "ker</w>": 4917,
    "Pause</w>": 4918,
    "Comp": 4919,
    "Confirm</w>": 4920,
    "starting</w>": 4921,
    "decid": 4922,
    "decides</w>": 4923,
    "Cool</w>": 4924,
    "tracked</w>": 4925,
    "Cur": 4926,
    "slightly</w>": 4927,
    "earli": 4928,
    "Dec": 4929,
    "alternative</w>": 4930,
    "Dep": 4931,
    "unclear</w>": 4932,
    "edges</w>": 4933,
    "itable</w>": 4934,
    "isn</w>": 4935,
    "There</w>": 4936,
    "fast": 4937,
    "covered</w>": 4938,
    "mitigation</w>": 4939,
    "beliefs</w>": 4940,
    "perspectives</w>": 4941,
    "dre": 4942,
    "grow</w>": 4943,
    "genuin": 4944,
    "genuinely</w>": 4945,
    "unknown</w>": 4946,
    "remains</w>": 4947,
    "respect</w>": 4948,
    "wants</w>": 4949,
    "DR</w>": 4950,
    "quiz</w>": 4951,
    "social</w>": 4952,
    "grease</w>": 4953,
    "hydr": 4954,
    "Tie</w>": 4955,
    "after": 4956,
    "spaces</w>": 4957,
    "intention": 4958,
    "intentionally</w>": 4959,
    "medit": 4960,
    "Fi": 4961,
    "Same</w>": 4962,
    "Wat": 4963,
    "fills</w>": 4964,
    "second</w>": 4965,
    "strength</w>": 4966,
    "kids</w>": 4967,
    "clock</w>": 4968,
    "meds</w>": 4969,
    "alarms</w>": 4970,
    "shif": 4971,
    "umbre": 4972,
    "umbrell": 4973,
    "Wee": 4974,
    "Weekly</w>": 4975,
    "pass</w>": 4976,
    "Drink</w>": 4977,
    "hydrate</w>": 4978,
    "changed</w>": 4979,
    "ranges</w>": 4980,
    "expl": 4981,
    "utions</w>": 4982,
    "lating</w>": 4983,
    "transform": 4984,
    "vation</w>": 4985,
    "models</w>": 4986,
    "U</w>": 4987,
    "firmware</w>": 4988,
    "persistent</w>": 4989,
    "coming</w>": 4990,
    "sink</w>": 4991,
    "OK": 4992,
    "fan</w>": 4993,
    "sively</w>": 4994,
    "Record</w>": 4995,
    "chic": 4996,
    "chicken</w>": 4997,
    "showers</w>": 4998,
    "Batch</w>": 4999,
    "?”</w>": 5000,
    "park</w>": 5001,
    "amount</w>": 5002,
    "dro": 5003,
    "agged</w>": 5004,
    "timeline</w>": 5005,
    "Chan": 5006,
    "thermome": 5007,
    "thermometer</w>": 5008,
    "stabi": 5009,
    "stabilize</w>": 5010,
    "quarantine</w>": 5011,
    "adap": 5012,
    "cate</w>": 5013,
    "veloc": 5014,
    "velocity</w>": 5015,
    "wisely</w>": 5016,
    "shell</w>": 5017,
    "bloat</w>": 5018,
    "suites</w>": 5019,
    "branc": 5020,
    "branch</w>": 5021,
    "cauti": 5022,
    "vary</w>": 5023,
    "cracking</w>": 5024,
    "downs</w>": 5025,
    "immutable</w>": 5026,
    "concurrent</w>": 5027,
    "Ide": 5028,
    "Idempot": 5029,
    "orter</w>": 5030,
    "dinners</w>": 5031,
    "legs</w>": 5032,
    "spare</w>": 5033,
    "rings</w>": 5034,
    "organizer</w>": 5035,
    "ppers</w>": 5036,
    "card</w>": 5037,
    "glo": 5038,
    "receipts</w>": 5039,
    "drawer</w>": 5040,
    "oldest</w>": 5041,
    "remotes</w>": 5042,
    "configu": 5043,
    "configured</w>": 5044,
    "acing</w>": 5045,
    "phones</w>": 5046,
    "overcommitting</w>": 5047,
    "requirements</w>": 5048,
    "plu": 5049,
    "messaging</w>": 5050,
    "Block</w>": 5051,
    "decline</w>": 5052,
    "overwatering</w>": 5053,
    "spans</w>": 5054,
    "coord": 5055,
    "coordin": 5056,
    "utens": 5057,
    "utensils</w>": 5058,
    "leaked</w>": 5059,
    "dead</w>": 5060,
    "workers</w>": 5061,
    "Pair</w>": 5062,
    "oven</w>": 5063,
    "assign": 5064,
    "soapy</w>": 5065,
    "surpri": 5066,
    "pools</w>": 5067,
    "leng": 5068,
    "Iso": 5069,
    "Isolate</w>": 5070,
    "reasonable</w>": 5071,
    "Small</w>": 5072,
    "streaks</w>": 5073,
    "occasionally</w>": 5074,
    "drafts</w>": 5075,
    "comfor": 5076,
    "overlap</w>": 5077,
    "explicitly</w>": 5078,
    "Reduce</w>": 5079,
    "unnecess": 5080,
    "unnecessarily</w>": 5081,
    "modes</w>": 5082,
    "unk</w>": 5083,
    "bounds</w>": 5084,
    "celebrate</w>": 5085,
    "blame</w>": 5086,
    "code": 5087,
    "OW": 5088,
    "tracing</w>": 5089,
    "standardize</w>": 5090,
    "certi": 5091,
    "ado": 5092,
    "postmortems</w>": 5093,
    "schedulers</w>": 5094,
    "regression</w>": 5095,
    "flak": 5096,
    "flakiness</w>": 5097,
    "CD</w>": 5098,
    "Schema</w>": 5099,
    "Shared</w>": 5100,
    "HttpOnly</w>": 5101,
    "lifetimes</w>": 5102,
    "mTLS</w>": 5103,
    "Strict</w>": 5104,
    "origin</w>": 5105,
    "sanitized</w>": 5106,
    "developers</w>": 5107,
    "linting</w>": 5108,
    "datas": 5109,
    "discoverable</w>": 5110,
    "busting</w>": 5111,
    "encrypted</w>": 5112,
    "updated</w>": 5113,
    "overhead</w>": 5114,
    "scanning</w>": 5115,
    "Op": 5116,
    "anomaly</w>": 5117,
    "lifec": 5118,
    "lifecy": 5119,
    "zip</w>": 5120,
    "ression</w>": 5121,
    "sending</w>": 5122,
    "JW": 5123,
    "semantics</w>": 5124,
    "rend": 5125,
    "rendering</w>": 5126,
    "chron": 5127,
    "lying</w>": 5128,
    "accessibility</w>": 5129,
    "interest</w>": 5130,
    "generation</w>": 5131,
    "guide": 5132,
    "guidelines</w>": 5133,
    "chem": 5134,
    "conven": 5135,
    "conventions</w>": 5136,
    "categories</w>": 5137,
    "Struct": 5138,
    "supported</w>": 5139,
    "LE": 5140,
    "cad": 5141,
    "AuthN</w>": 5142,
    "AuthZ</w>": 5143,
    "alternatives</w>": 5144,
    "including</w>": 5145,
    "Scope</w>": 5146,
    "groun": 5147,
    "cardin": 5148,
    "cardinality</w>": 5149,
    "curtains</w>": 5150,
    "Vacuum</w>": 5151,
    "sliding</w>": 5152,
    "towel</w>": 5153,
    "redundant</w>": 5154,
    "theory</w>": 5155,
    "slipping</w>": 5156,
    "tang": 5157,
    "riger": 5158,
    "deprecations</w>": 5159,
    "alternate</w>": 5160,
    "bad</w>": 5161,
    "excess</w>": 5162,
    "Base</w>": 5163,
    "visit</w>": 5164,
    "evol": 5165,
    "mpers</w>": 5166,
    "fun</w>": 5167,
    "play": 5168,
    "repo</w>": 5169,
    "Not</w>": 5170,
    "ster": 5171,
    "honor</w>": 5172,
    "rug</w>": 5173,
    "gri": 5174,
    "chang": 5175,
    "changel": 5176,
    "wear</w>": 5177,
    "racks</w>": 5178,
    "Ps</w>": 5179,
    "drip</w>": 5180,
    "Cover</w>": 5181,
    "undo</w>": 5182,
    "del": 5183,
    "scans</w>": 5184,
    "spaced</w>": 5185,
    "milestones</w>": 5186,
    "contrast</w>": 5187,
    "deadlines</w>": 5188,
    "screenshots</w>": 5189,
    "filen": 5190,
    "filenames</w>": 5191,
    "waste</w>": 5192,
    "Backward</w>": 5193,
    "executable</w>": 5194,
    "access": 5195,
    "black</w>": 5196,
    "Fri": 5197,
    "fog</w>": 5198,
    "foods</w>": 5199,
    "sers</w>": 5200,
    "fau": 5201,
    "fauce": 5202,
    "G</w>": 5203,
    "paint</w>": 5204,
    "causing</w>": 5205,
    "promo": 5206,
    "frame": 5207,
    "Cre": 5208,
    "Create</w>": 5209,
    "CDNs</w>": 5210,
    "seal</w>": 5211,
    "materials</w>": 5212,
    "practices</w>": 5213,
    "rela": 5214,
    "blankets</w>": 5215,
    "neat": 5216,
    "neatly</w>": 5217,
    "zero</w>": 5218,
    "Link</w>": 5219,
    "replic": 5220,
    "replicas</w>": 5221,
    "42": 5222,
    "quee": 5223,
    "overlaps</w>": 5224,
    "corrup": 5225,
    "drag</w>": 5226,
    "apping</w>": 5227,
    "splatt": 5228,
    "exclu": 5229,
    "number</w>": 5230,
    "Right</w>": 5231,
    "triggers</w>": 5232,
    "sav": 5233,
    "savings</w>": 5234,
    "lish</w>": 5235,
    "sites</w>": 5236,
    "Secre": 5237,
    "called</w>": 5238,
    "learns</w>": 5239,
    "bug</w>": 5240,
    "sometimes</w>": 5241,
    "Some": 5242,
    "Sometimes</w>": 5243,
    "sorry</w>": 5244,
    "atever</w>": 5245,
    "opin": 5246,
    "intellig": 5247,
    "intelligent</w>": 5248,
    "printer</w>": 5249,
    "hale</w>": 5250,
    "See</w>": 5251,
    "welcome</w>": 5252,
    "alg": 5253,
    "algorit": 5254,
    "algorith": 5255,
    "reality</w>": 5256,
    "Jav": 5257,
    "Java": 5258,
    "JavaScript</w>": 5259,
    "ular</w>": 5260,
    "================================================================": 5261,
    "========================================================================": 5262,
    "============================================================================": 5263,
    "=============================================================================</w>": 5264,
    "Ac": 5265,
    "Blu": 5266,
    "Blue": 5267,
    "Bluetooth</w>": 5268,
    "urb</w>": 5269,
    "notice</w>": 5270,
    "paragra": 5271,
    "paragraph</w>": 5272,
    "guaran": 5273,
    "guarante": 5274,
    "App</w>": 5275,
    "alone</w>": 5276,
    "scientists</w>": 5277,
    "though</w>": 5278,
    "collecting</w>": 5279,
    "host": 5280,
    "adding</w>": 5281,
    "mas": 5282,
    "tagging</w>": 5283,
    "icated</w>": 5284,
    "clocks</w>": 5285,
    "comb": 5286,
    "feels</w>": 5287,
    "guardra": 5288,
    "guardrails</w>": 5289,
    "intent</w>": 5290,
    "these</w>": 5291,
    "since</w>": 5292,
    "exist": 5293,
    "objective</w>": 5294,
    "BT</w>": 5295,
    "vide": 5296,
    "aggres": 5297,
    "dictionary</w>": 5298,
    "affect</w>": 5299,
    "throttle</w>": 5300,
    "rash</w>": 5301,
    "dock</w>": 5302,
    "summarize</w>": 5303,
    "heard</w>": 5304,
    "kne": 5305,
    "knees</w>": 5306,
    "Note</w>": 5307,
    "reus": 5308,
    "reusables</w>": 5309,
    "dirt</w>": 5310,
    "paws</w>": 5311,
    "hob": 5312,
    "interview</w>": 5313,
    "company</w>": 5314,
    "handoffs</w>": 5315,
    "locking</w>": 5316,
    "tabs</w>": 5317,
    "proof</w>": 5318,
    "stal": 5319,
    "tered</w>": 5320,
    "separated</w>": 5321,
    "audio</w>": 5322,
    "mos</w>": 5323,
    "presenting</w>": 5324,
    "aut": 5325,
    "unblock</w>": 5326,
    "Ab": 5327,
    "tely</w>": 5328,
    "built</w>": 5329,
    "allocate</w>": 5330,
    "rints</w>": 5331,
    "respect": 5332,
    "respectful</w>": 5333,
    "incorrect</w>": 5334,
    "acting</w>": 5335,
    "mbling</w>": 5336,
    "plication</w>": 5337,
    "rew": 5338,
    "loop</w>": 5339,
    "condition</w>": 5340,
    "arra": 5341,
    "arrays</w>": 5342,
    "ordered</w>": 5343,
    "expon": 5344,
    "ahead</w>": 5345,
    "cru": 5346,
    "actly</w>": 5347,
    "sors</w>": 5348,
    "typos</w>": 5349,
    "piece</w>": 5350,
    "annot": 5351,
    "correctly</w>": 5352,
    "direction</w>": 5353,
    "speech</w>": 5354,
    "enabled</w>": 5355,
    "depending</w>": 5356,
    "myself</w>": 5357,
    "written</w>": 5358,
    "curious</w>": 5359,
    "kin": 5360,
    "thinking</w>": 5361,
    "US": 5362,
    "USB</w>": 5363,
    "lers</w>": 5364,
    "Cor": 5365,
    "emails</w>": 5366,
    "Sp": 5367,
    "meets</w>": 5368,
    "resolve</w>": 5369,
    "criterion</w>": 5370,
    "catch</w>": 5371,
    "Cursor</w>": 5372,
    "raise</w>": 5373,
    "reconcile</w>": 5374,
    "samples</w>": 5375,
    "higher</w>": 5376,
    "marked</w>": 5377,
    "partition": 5378,
    "termin": 5379,
    "choice</w>": 5380,
    "mech": 5381,
    "mechan": 5382,
    "uncer": 5383,
    "uncerta": 5384,
    "uncertaint": 5385,
    "uncertainty</w>": 5386,
    "fastest</w>": 5387,
    "UM</w>": 5388,
    "soon": 5389,
    "retire</w>": 5390,
    "indic": 5391,
    "various</w>": 5392,
    "express</w>": 5393,
    "fasc": 5394,
    "fascinating</w>": 5395,
    "hide</w>": 5396,
    "wired</w>": 5397,
    "GH": 5398,
    "GHz</w>": 5399,
    "RP": 5400,
    "RT": 5401,
    "quiet</w>": 5402,
    "stretching</w>": 5403,
    "afternoon</w>": 5404,
    "dividers</w>": 5405,
    "digitally</w>": 5406,
    "bills</w>": 5407,
    "ssing</w>": 5408,
    "drain": 5409,
    "drainage</w>": 5410,
    "mini</w>": 5411,
    "meditation</w>": 5412,
    "Water</w>": 5413,
    "months</w>": 5414,
    "spares</w>": 5415,
    "inbox</w>": 5416,
    "ender</w>": 5417,
    "cloudy</w>": 5418,
    "cri": 5419,
    "crisp": 5420,
    "Tw": 5421,
    "Two</w>": 5422,
    "walks</w>": 5423,
    "dinner</w>": 5424,
    "salads</w>": 5425,
    "shifts</w>": 5426,
    "intake</w>": 5427,
    "Summar": 5428,
    "Summarize</w>": 5429,
    "icient</w>": 5430,
    "domains</w>": 5431,
    "quantum</w>": 5432,
    "explore</w>": 5433,
    "nat": 5434,
    "sequ": 5435,
    "kers</w>": 5436,
    "PU</w>": 5437,
    "positive</w>": 5438,
    "forks</w>": 5439,
    "anxiety</w>": 5440,
    "2FA</w>": 5441,
    "headroom</w>": 5442,
    "humi": 5443,
    "humidi": 5444,
    "strip</w>": 5445,
    "pieces</w>": 5446,
    "ests</w>": 5447,
    "flu": 5448,
    "smoke</w>": 5449,
    "wipes</w>": 5450,
    "bowl</w>": 5451,
    "quanti": 5452,
    "quantify</w>": 5453,
    "scrolling</w>": 5454,
    "bathrooms</w>": 5455,
    "hits</w>": 5456,
    "shall</w>": 5457,
    "height</w>": 5458,
    "tip</w>": 5459,
    "though": 5460,
    "Compare</w>": 5461,
    "ratio</w>": 5462,
    "streaming</w>": 5463,
    "journaling</w>": 5464,
    "felt</w>": 5465,
    "unches</w>": 5466,
    "disa": 5467,
    "Fir": 5468,
    "First</w>": 5469,
    "declutter</w>": 5470,
    "worn</w>": 5471,
    "don": 5472,
    "envs</w>": 5473,
    "chatting</w>": 5474,
    "responsive</w>": 5475,
    "reasoning</w>": 5476,
    "estimate</w>": 5477,
    "ears</w>": 5478,
    "ond</w>": 5479,
    "sibly</w>": 5480,
    "ords</w>": 5481,
    "runners</w>": 5482,
    "timezones</w>": 5483,
    "zone</w>": 5484,
    "burnout</w>": 5485,
    "sioned</w>": 5486,
    "strategies</w>": 5487,
    "Design": 5488,
    "Designate</w>": 5489,
    "crow": 5490,
    "walls</w>": 5491,
    "credential</w>": 5492,
    "restarts</w>": 5493,
    "drain</w>": 5494,
    "shutdowns</w>": 5495,
    "Aud": 5496,
    "Audit</w>": 5497,
    "groups</w>": 5498,
    "gas": 5499,
    "seek</w>": 5500,
    "infin": 5501,
    "infinite</w>": 5502,
    "vendors</w>": 5503,
    "Ref": 5504,
    "ighten</w>": 5505,
    "Consistent</w>": 5506,
    "gloves</w>": 5507,
    "itch</w>": 5508,
    "envelope</w>": 5509,
    "section</w>": 5510,
    "silic": 5511,
    "silicone</w>": 5512,
    "onom": 5513,
    "misconfigured</w>": 5514,
    "aggregation</w>": 5515,
    "mispl": 5516,
    "misplacing</w>": 5517,
    "closer</w>": 5518,
    "Prin": 5519,
    "ciple</w>": 5520,
    "measured</w>": 5521,
    "past": 5522,
    "pasta</w>": 5523,
    "larger</w>": 5524,
    "overfetching</w>": 5525,
    "resol": 5526,
    "overf": 5527,
    "expen": 5528,
    "mix</w>": 5529,
    "seasonal</w>": 5530,
    "affec": 5531,
    "sprays</w>": 5532,
    "Redact</w>": 5533,
    "anywhere</w>": 5534,
    "silent</w>": 5535,
    "oats</w>": 5536,
    "exceed</w>": 5537,
    "retur": 5538,
    "worker</w>": 5539,
    "concurrency</w>": 5540,
    "mping</w>": 5541,
    "ths</w>": 5542,
    "backpressure</w>": 5543,
    "coast": 5544,
    "coasters</w>": 5545,
    "distractions</w>": 5546,
    "earlier</w>": 5547,
    "band": 5548,
    "estimates</w>": 5549,
    "Im": 5550,
    "website</w>": 5551,
    "comfortable</w>": 5552,
    "mit</w>": 5553,
    "team": 5554,
    "specs</w>": 5555,
    "Encourage</w>": 5556,
    "lightwe": 5557,
    "lightweight</w>": 5558,
    "delays</w>": 5559,
    "preview</w>": 5560,
    "spar": 5561,
    "Page</w>": 5562,
    "tal</w>": 5563,
    "nothing</w>": 5564,
    "plac": 5565,
    "susta": 5566,
    "cup</w>": 5567,
    "avor</w>": 5568,
    "hal": 5569,
    "experiment</w>": 5570,
    "cul": 5571,
    "learnings</w>": 5572,
    "Propagate</w>": 5573,
    "instrumentation</w>": 5574,
    "definitions</w>": 5575,
    "evaluations</w>": 5576,
    "tam": 5577,
    "echo": 5578,
    "echoing</w>": 5579,
    "libs</w>": 5580,
    "authz</w>": 5581,
    "protected</w>": 5582,
    "charset</w>": 5583,
    "Content</w>": 5584,
    "0s</w>": 5585,
    "Lax</w>": 5586,
    "waits</w>": 5587,
    "covers</w>": 5588,
    "layer</w>": 5589,
    "pooling</w>": 5590,
    "datasets</w>": 5591,
    "Inv": 5592,
    "workload</w>": 5593,
    "expire</w>": 5594,
    "classify</w>": 5595,
    "Ass": 5596,
    "Assign</w>": 5597,
    "ga": 5598,
    "san": 5599,
    "HST": 5600,
    "HSTS</w>": 5601,
    "Par": 5602,
    "overwhelming</w>": 5603,
    "Minimize</w>": 5604,
    "Sample</w>": 5605,
    "rare</w>": 5606,
    "generated</w>": 5607,
    "lifecycle</w>": 5608,
    "gzip</w>": 5609,
    "transi": 5610,
    "transient</w>": 5611,
    "integrations</w>": 5612,
    "tiers</w>": 5613,
    "checksum</w>": 5614,
    "cancellation</w>": 5615,
    "NT": 5616,
    "hosts</w>": 5617,
    "Rollback</w>": 5618,
    "analysis</w>": 5619,
    "wildcards</w>": 5620,
    "tra</w>": 5621,
    "continue</w>": 5622,
    "Generate</w>": 5623,
    "servative</w>": 5624,
    "cryp": 5625,
    "scenarios</w>": 5626,
    "relying</w>": 5627,
    "timely</w>": 5628,
    "patch</w>": 5629,
    "thank</w>": 5630,
    "spray</w>": 5631,
    "brain": 5632,
    "brainstor": 5633,
    "driver</w>": 5634,
    "stres": 5635,
    "ip</w>": 5636,
    "SQL</w>": 5637,
    "redirec": 5638,
    "redirects</w>": 5639,
    "GD": 5640,
    "GDPR</w>": 5641,
    "icals</w>": 5642,
    "centrally</w>": 5643,
    "linters</w>": 5644,
    "Es</w>": 5645,
    "leg": 5646,
    "Lin": 5647,
    "Linke": 5648,
    "Linked": 5649,
    "LinkedIn</w>": 5650,
    "Repeat</w>": 5651,
    "associ": 5652,
    "professional</w>": 5653,
    "photo</w>": 5654,
    "portfo": 5655,
    "portfoli": 5656,
    "portfolio</w>": 5657,
    "shoulders</w>": 5658,
    "standing</w>": 5659,
    "stages</w>": 5660,
    "before": 5661,
    "beforehand</w>": 5662,
    "herence</w>": 5663,
    "Regular</w>": 5664,
    "supplies</w>": 5665,
    "heavi": 5666,
    "heavier</w>": 5667,
    "staples</w>": 5668,
    "lazy</w>": 5669,
    "comments</w>": 5670,
    "command</w>": 5671,
    "agno": 5672,
    "tops</w>": 5673,
    "explo": 5674,
    "selec": 5675,
    "machines</w>": 5676,
    "Dash": 5677,
    "licenses</w>": 5678,
    "bric": 5679,
    "refriger": 5680,
    "downstream</w>": 5681,
    "nodes</w>": 5682,
    "election</w>": 5683,
    "toys</w>": 5684,
    "timers</w>": 5685,
    "revisit</w>": 5686,
    "hampers</w>": 5687,
    "partic": 5688,
    "diver": 5689,
    "closed</w>": 5690,
    "compress</w>": 5691,
    "DR": 5692,
    "parameter": 5693,
    "chi": 5694,
    "Coll": 5695,
    "Collect</w>": 5696,
    "auditable</w>": 5697,
    "overwrite</w>": 5698,
    "Ter": 5699,
    "Terra": 5700,
    "Terraform</w>": 5701,
    "ogs</w>": 5702,
    "marking</w>": 5703,
    "socks</w>": 5704,
    "flake</w>": 5705,
    "resilient</w>": 5706,
    "umbrellas</w>": 5707,
    "tas</w>": 5708,
    "instances</w>": 5709,
    "week": 5710,
    "charac": 5711,
    "IAM</w>": 5712,
    "switching</w>": 5713,
    "shorter</w>": 5714,
    "mable</w>": 5715,
    "invite</w>": 5716,
    "road": 5717,
    "Prefer</w>": 5718,
    "recall</w>": 5719,
    "slices</w>": 5720,
    "Load</w>": 5721,
    "invest": 5722,
    "Uni": 5723,
    "tre": 5724,
    "shop</w>": 5725,
    "bulk</w>": 5726,
    "Sa": 5727,
    "chairs</w>": 5728,
    "mold</w>": 5729,
    "smells</w>": 5730,
    "launder</w>": 5731,
    "Dust</w>": 5732,
    "anti</w>": 5733,
    "buy</w>": 5734,
    "flush</w>": 5735,
    "lids</w>": 5736,
    "ims</w>": 5737,
    "deserialization</w>": 5738,
    "edi": 5739,
    "configure</w>": 5740,
    "bit": 5741,
    "ciph": 5742,
    "ok</w>": 5743,
    "MTT": 5744,
    "odor</w>": 5745,
    "buc": 5746,
    "jump</w>": 5747,
    "games</w>": 5748,
    "Comput": 5749,
    "electron": 5750,
    "following</w>": 5751,
    "stir</w>": 5752,
    "pop": 5753,
    "leak": 5754,
    "leakage</w>": 5755,
    "electronics</w>": 5756,
    "lling</w>": 5757,
    "429</w>": 5758,
    "desired</w>": 5759,
    "queu": 5760,
    "percent</w>": 5761,
    "copy</w>": 5762,
    "fails</w>": 5763,
    "UX</w>": 5764,
    "veness</w>": 5765,
    "inserts</w>": 5766,
    "transitions</w>": 5767,
    "deletions</w>": 5768,
    "8</w>": 5769,
    "Configure</w>": 5770,
    "archi": 5771,
    "tou": 5772,
    "capped</w>": 5773,
    "compens": 5774,
    "versal</w>": 5775,
    "escape</w>": 5776,
    "outline</w>": 5777,
    "become</w>": 5778,
    "ycast</w>": 5779,
    "squee": 5780,
    "operati": 5781,
    "operational</w>": 5782,
    "Most</w>": 5783,
    "Priv": 5784,
    "rif": 5785,
    "Over": 5786,
    "judgment</w>": 5787,
    "requested</w>": 5788,
    "asks</w>": 5789,
    "recommend</w>": 5790,
    "urons</w>": 5791,
    "aspect</w>": 5792,
    "techni": 5793,
    "won": 5794,
    "derful</w>": 5795,
    "been</w>": 5796,
    ".\"</w>": 5797,
    "limit": 5798,
    "Great</w>": 5799,
    "Talk</w>": 5800,
    "Many</w>": 5801,
    "algorithm</w>": 5802,
    "An</w>": 5803,
    "Mach": 5804,
    "Machine</w>": 5805,
    "languages</w>": 5806,
    "Please</w>": 5807,
    "Drop</w>": 5808,
    "Re</w>": 5809,
    "pai": 5810,
    "didn</w>": 5811,
    "month</w>": 5812,
    "Has</w>": 5813,
    "Anxi": 5814,
    "guarantees</w>": 5815,
    "Force</w>": 5816,
    "exclude</w>": 5817,
    "removal</w>": 5818,
    "haven</w>": 5819,
    "promis": 5820,
    "hostnames</w>": 5821,
    "turned</w>": 5822,
    "With": 5823,
    "Without</w>": 5824,
    "led": 5825,
    "awa": 5826,
    "aware": 5827,
    "awareness</w>": 5828,
    "ased</w>": 5829,
    "debate</w>": 5830,
    "whe": 5831,
    "const": 5832,
    "utes</w>": 5833,
    "Isn</w>": 5834,
    "mirror</w>": 5835,
    "itation</w>": 5836,
    "lonely</w>": 5837,
    "typically</w>": 5838,
    "actually</w>": 5839,
    "recognize</w>": 5840,
    "creati": 5841,
    "ama": 5842,
    "amazing</w>": 5843,
    "dio</w>": 5844,
    "video</w>": 5845,
    "Restart</w>": 5846,
    "tionism</w>": 5847,
    "drains</w>": 5848,
    "messy</w>": 5849,
    "overwhelmed</w>": 5850,
    "treat</w>": 5851,
    "ban": 5852,
    "squats</w>": 5853,
    "brisk</w>": 5854,
    "errands</w>": 5855,
    "eating</w>": 5856,
    "groceries</w>": 5857,
    "stairs</w>": 5858,
    "moistur": 5859,
    "moisturize</w>": 5860,
    "Research</w>": 5861,
    "AR</w>": 5862,
    "Better</w>": 5863,
    "retro": 5864,
    "host</w>": 5865,
    "opening</w>": 5866,
    "blocker</w>": 5867,
    "verified</w>": 5868,
    "staleness</w>": 5869,
    "ale": 5870,
    "jittered</w>": 5871,
    "versus</w>": 5872,
    "said</w>": 5873,
    "lens</w>": 5874,
    "outdated</w>": 5875,
    "sounding</w>": 5876,
    "igning</w>": 5877,
    "income</w>": 5878,
    "finding</w>": 5879,
    "choo": 5880,
    "choosing</w>": 5881,
    "pinning</w>": 5882,
    "ism": 5883,
    "isms</w>": 5884,
    "drafting</w>": 5885,
    "scra": 5886,
    "parties</w>": 5887,
    "erator</w>": 5888,
    "den": 5889,
    "creating</w>": 5890,
    "routines</w>": 5891,
    "cues</w>": 5892,
    "elds</w>": 5893,
    "met</w>": 5894,
    "ition</w>": 5895,
    "charges</w>": 5896,
    "convert</w>": 5897,
    "squared</w>": 5898,
    "quan": 5899,
    "quantit": 5900,
    "quantities</w>": 5901,
    "cting</w>": 5902,
    "converting</w>": 5903,
    "transm": 5904,
    "units</w>": 5905,
    "claim</w>": 5906,
    "annotations</w>": 5907,
    "indivi": 5908,
    "emat": 5909,
    "nerves</w>": 5910,
    "wever</w>": 5911,
    "shoul": 5912,
    "uring</w>": 5913,
    "were</w>": 5914,
    "mute</w>": 5915,
    "Correct</w>": 5916,
    "hashed</w>": 5917,
    "merges</w>": 5918,
    "collected</w>": 5919,
    "shes</w>": 5920,
    "pad</w>": 5921,
    "mouse</w>": 5922,
    "secured</w>": 5923,
    "Dele": 5924,
    "Di": 5925,
    "debated</w>": 5926,
    "political</w>": 5927,
    "targe": 5928,
    "requirement</w>": 5929,
    "RUM</w>": 5930,
    "bes</w>": 5931,
    "ighter</w>": 5932,
    "ud": 5933,
    "gates</w>": 5934,
    "highest</w>": 5935,
    "prompts</w>": 5936,
    "lau": 5937,
    "given</w>": 5938,
    "enforce": 5939,
    "enforcement</w>": 5940,
    "ree": 5941,
    "happening</w>": 5942,
    "RPO</w>": 5943,
    "RTO</w>": 5944,
    "Ea": 5945,
    "Easi": 5946,
    "Easiest</w>": 5947,
    "teach</w>": 5948,
    "deeper</w>": 5949,
    "hydration</w>": 5950,
    "refill</w>": 5951,
    "stretches</w>": 5952,
    "stacking</w>": 5953,
    "burnt</w>": 5954,
    "preheat</w>": 5955,
    "completen": 5956,
    "completeness</w>": 5957,
    "Match</w>": 5958,
    "Fixed</w>": 5959,
    "perfection</w>": 5960,
    "sunglasses</w>": 5961,
    "Calendar</w>": 5962,
    "stand</w>": 5963,
    "subscribe</w>": 5964,
    "ritual</w>": 5965,
    "weeks</w>": 5966,
    "crisp</w>": 5967,
    "busy</w>": 5968,
    "advance</w>": 5969,
    "night": 5970,
    "traveling</w>": 5971,
    "handful</w>": 5972,
    "wind</w>": 5973,
    "boiled</w>": 5974,
    "recycle</w>": 5975,
    "validations</w>": 5976,
    "reve": 5977,
    "Ever": 5978,
    "recognizing</w>": 5979,
    "nar": 5980,
    "special": 5981,
    "allows</w>": 5982,
    "solutions</w>": 5983,
    "exc": 5984,
    "simu": 5985,
    "optimization</w>": 5986,
    "natural</w>": 5987,
    "older</w>": 5988,
    "parall": 5989,
    "parallel</w>": 5990,
    "ER": 5991,
    "Extern": 5992,
    "BI": 5993,
    "cancel</w>": 5994,
    "soaking</w>": 5995,
    "indoor</w>": 5996,
    "humidifi": 5997,
    "ventilate</w>": 5998,
    "disc": 5999,
    "Bo": 6000,
    "aggressively</w>": 6001,
    "cush": 6002,
    "cushions</w>": 6003,
    "Lead</w>": 6004,
    "rehear": 6005,
    "rehearse</w>": 6006,
    "openings</w>": 6007,
    "creep</w>": 6008,
    "Microfiber</w>": 6009,
    "recap</w>": 6010,
    "handwriting</w>": 6011,
    "chores</w>": 6012,
    "rain</w>": 6013,
    "thoughts</w>": 6014,
    "drops</w>": 6015,
    "freshen</w>": 6016,
    "lunches</w>": 6017,
    "tover</w>": 6018,
    "dres": 6019,
    "Feature</w>": 6020,
    "tagged</w>": 6021,
    "lighter</w>": 6022,
    "Files</w>": 6023,
    "earing</w>": 6024,
    "Change</w>": 6025,
    "proceed</w>": 6026,
    "anch": 6027,
    "cent": 6028,
    "mock</w>": 6029,
    "externals</w>": 6030,
    "launch</w>": 6031,
    "perspective</w>": 6032,
    "bill": 6033,
    "billion</w>": 6034,
    "connecting</w>": 6035,
    "Master</w>": 6036,
    "defer</w>": 6037,
    "reaching</w>": 6038,
    "'d</w>": 6039,
    "bey": 6040,
    "beyond</w>": 6041,
    "adapt</w>": 6042,
    "tile</w>": 6043,
    "coords</w>": 6044,
    "canaries</w>": 6045,
    "Regularly</w>": 6046,
    "cached</w>": 6047,
    "near": 6048,
    "nearby</w>": 6049,
    "cautious</w>": 6050,
    "casc": 6051,
    "heads</w>": 6052,
    "slide</w>": 6053,
    "Stay</w>": 6054,
    "overcrow": 6055,
    "creds</w>": 6056,
    "careful</w>": 6057,
    "distraction</w>": 6058,
    "Fl": 6059,
    "scu": 6060,
    "verbo": 6061,
    "giving</w>": 6062,
    "hardcoded</w>": 6063,
    "chaos</w>": 6064,
    "referr": 6065,
    "Tighten</w>": 6066,
    "SI": 6067,
    "buffers</w>": 6068,
    "micro": 6069,
    "wildcard</w>": 6070,
    "multit": 6071,
    "strain</w>": 6072,
    "Tun": 6073,
    "Tune</w>": 6074,
    "privileg": 6075,
    "privileged</w>": 6076,
    "amounts</w>": 6077,
    "overfill</w>": 6078,
    "Scoped</w>": 6079,
    "overfitting</w>": 6080,
    "serving</w>": 6081,
    "overly</w>": 6082,
    "invites</w>": 6083,
    "Noti": 6084,
    ",”</w>": 6085,
    "accidents</w>": 6086,
    "coordinate</w>": 6087,
    "ey": 6088,
    "ail</w>": 6089,
    "soggy</w>": 6090,
    "lid": 6091,
    "lidded</w>": 6092,
    "aded</w>": 6093,
    "asset</w>": 6094,
    "stamp</w>": 6095,
    "assignments</w>": 6096,
    "grains</w>": 6097,
    "spices</w>": 6098,
    "shelf</w>": 6099,
    "surprises</w>": 6100,
    "Wrap</w>": 6101,
    "reasons</w>": 6102,
    "consu": 6103,
    "family</w>": 6104,
    "improv": 6105,
    "improvements</w>": 6106,
    "productivity</w>": 6107,
    "already</w>": 6108,
    "bandwid": 6109,
    "bandwidth</w>": 6110,
    "Timebox</w>": 6111,
    "ement</w>": 6112,
    "Read</w>": 6113,
    "reserve</w>": 6114,
    "minor</w>": 6115,
    "func": 6116,
    "&</w>": 6117,
    "impacts</w>": 6118,
    "nav": 6119,
    "impul": 6120,
    "impulse</w>": 6121,
    "saved</w>": 6122,
    "sugary</w>": 6123,
    "polog": 6124,
    "pologize</w>": 6125,
    "cleanly</w>": 6126,
    "Stat": 6127,
    "fair": 6128,
    "sustained</w>": 6129,
    "differences</w>": 6130,
    "ease</w>": 6131,
    "culture</w>": 6132,
    "failed</w>": 6133,
    "DE": 6134,
    "OWN": 6135,
    "adop": 6136,
    "adoption</w>": 6137,
    "scheduling</w>": 6138,
    "Norm": 6139,
    "DST</w>": 6140,
    "rus</w>": 6141,
    "logout</w>": 6142,
    "codebase</w>": 6143,
    "modul": 6144,
    "pling</w>": 6145,
    "less": 6146,
    "local": 6147,
    "strings</w>": 6148,
    "tors</w>": 6149,
    "gat": 6150,
    "gate": 6151,
    "upstream</w>": 6152,
    "certs</w>": 6153,
    "backends</w>": 6154,
    "sandbox</w>": 6155,
    "spike</w>": 6156,
    "tups</w>": 6157,
    "cation</w>": 6158,
    "scrubbing</w>": 6159,
    "locally</w>": 6160,
    "mocks</w>": 6161,
    "Inventory</w>": 6162,
    "retrieval</w>": 6163,
    "SSL": 6164,
    "SSL</w>": 6165,
    "xx</w>": 6166,
    "extension</w>": 6167,
    "40": 6168,
    "total</w>": 6169,
    "sane</w>": 6170,
    "reliab": 6171,
    "reliably</w>": 6172,
    "Me": 6173,
    "server": 6174,
    "serverless</w>": 6175,
    "Access</w>": 6176,
    "parity</w>": 6177,
    "compression</w>": 6178,
    "safeguards</w>": 6179,
    "reput": 6180,
    "JWT</w>": 6181,
    "ske": 6182,
    "NTP</w>": 6183,
    "folding</w>": 6184,
    "DLQ": 6185,
    "DLQs</w>": 6186,
    "Reli": 6187,
    "transfer</w>": 6188,
    "lockfiles</w>": 6189,
    "Exp": 6190,
    "conservative</w>": 6191,
    "arg": 6192,
    "sw": 6193,
    "pat": 6194,
    "skipped</w>": 6195,
    "transparency</w>": 6196,
    "renewals</w>": 6197,
    "intervie": 6198,
    "saying</w>": 6199,
    "stressed</w>": 6200,
    "ethics</w>": 6201,
    "supply</w>": 6202,
    "evaluate</w>": 6203,
    "Ran": 6204,
    "chemicals</w>": 6205,
    "discoverability</w>": 6206,
    "aboration</w>": 6207,
    "rer": 6208,
    "Spe": 6209,
    "workflows</w>": 6210,
    "posts</w>": 6211,
    "profile</w>": 6212,
    "recommen": 6213,
    "recommendations</w>": 6214,
    "hourly</w>": 6215,
    "adherence</w>": 6216,
    "90</w>": 6217,
    "demos</w>": 6218,
    "separation</w>": 6219,
    "concerns</w>": 6220,
    "module</w>": 6221,
    "seals</w>": 6222,
    "inventory</w>": 6223,
    "channel</w>": 6224,
    "pinned</w>": 6225,
    "chatter</w>": 6226,
    "plaint": 6227,
    "plaintext</w>": 6228,
    "thin</w>": 6229,
    "staining</w>": 6230,
    "recorded</w>": 6231,
    "dy": 6232,
    "Dock": 6233,
    "underne": 6234,
    "underneath</w>": 6235,
    "grip</w>": 6236,
    "Dashboards</w>": 6237,
    "commands</w>": 6238,
    "lubric": 6239,
    "tangling</w>": 6240,
    "cord</w>": 6241,
    "sized</w>": 6242,
    "category</w>": 6243,
    "extra</w>": 6244,
    "segment</w>": 6245,
    "flashlights</w>": 6246,
    "Fold</w>": 6247,
    "sticking</w>": 6248,
    "iron</w>": 6249,
    "season</w>": 6250,
    "speculation</w>": 6251,
    "predictable</w>": 6252,
    "disp": 6253,
    "protect": 6254,
    "paginate</w>": 6255,
    "DRY</w>": 6256,
    "domain</w>": 6257,
    "mugs</w>": 6258,
    "milde": 6259,
    "hol": 6260,
    "dispen": 6261,
    "occu": 6262,
    "occur</w>": 6263,
    "changelogs</w>": 6264,
    "portion</w>": 6265,
    "diagno": 6266,
    "gating</w>": 6267,
    "grades</w>": 6268,
    "debr": 6269,
    "debris</w>": 6270,
    "yable</w>": 6271,
    "syncs</w>": 6272,
    "diagra": 6273,
    "applic": 6274,
    "K8": 6275,
    "K8s</w>": 6276,
    "resume</w>": 6277,
    "knife</w>": 6278,
    "Soak</w>": 6279,
    "engaging</w>": 6280,
    "gather</w>": 6281,
    "money</w>": 6282,
    "evolution</w>": 6283,
    "consumer</w>": 6284,
    "refact": 6285,
    "collisions</w>": 6286,
    "vit": 6287,
    "dashboard</w>": 6288,
    "funn": 6289,
    "book": 6290,
    "breath</w>": 6291,
    "grocery</w>": 6292,
    "Contro": 6293,
    "Control</w>": 6294,
    "Felt</w>": 6295,
    "rame</w>": 6296,
    "soak</w>": 6297,
    "packing</w>": 6298,
    "atom": 6299,
    "atomic</w>": 6300,
    "hin": 6301,
    "fans</w>": 6302,
    "film</w>": 6303,
    "unplu": 6304,
    "tasting</w>": 6305,
    "jar</w>": 6306,
    "accepting</w>": 6307,
    "door": 6308,
    "sty</w>": 6309,
    "gy": 6310,
    "gym</w>": 6311,
    "medium</w>": 6312,
    "ially</w>": 6313,
    "privileges</w>": 6314,
    "umes</w>": 6315,
    "weigh": 6316,
    "weighted</w>": 6317,
    "pots</w>": 6318,
    "wood": 6319,
    "wooden</w>": 6320,
    "retriable</w>": 6321,
    "parsers</w>": 6322,
    "chips</w>": 6323,
    "redact</w>": 6324,
    "edu": 6325,
    "TC": 6326,
    "SSRF</w>": 6327,
    "IPs</w>": 6328,
    "loosely</w>": 6329,
    "unauthorized</w>": 6330,
    "protocols</w>": 6331,
    "ciphers</w>": 6332,
    "far</w>": 6333,
    "MTTR</w>": 6334,
    "angle</w>": 6335,
    "driving</w>": 6336,
    "humid": 6337,
    "humidity</w>": 6338,
    "ool</w>": 6339,
    "S3</w>": 6340,
    "bursts</w>": 6341,
    "renewal</w>": 6342,
    "news</w>": 6343,
    "persist</w>": 6344,
    "gry</w>": 6345,
    "VP": 6346,
    "VPN</w>": 6347,
    "exact</w>": 6348,
    "H</w>": 6349,
    "hosting</w>": 6350,
    "versati": 6351,
    "versatile</w>": 6352,
    "fund</w>": 6353,
    "brushing</w>": 6354,
    "rush": 6355,
    "refrigerate</w>": 6356,
    "parameters</w>": 6357,
    "received</w>": 6358,
    "Instru": 6359,
    "Instrument</w>": 6360,
    "electronic</w>": 6361,
    "circuits</w>": 6362,
    "lerp</w>": 6363,
    "migrate</w>": 6364,
    "tried</w>": 6365,
    "50": 6366,
    "lic</w>": 6367,
    "List": 6368,
    "Listen</w>": 6369,
    "PO": 6370,
    "dam": 6371,
    "publicly</w>": 6372,
    "Emp": 6373,
    "hats</w>": 6374,
    "zipp": 6375,
    "zipper</w>": 6376,
    "salting</w>": 6377,
    "acid</w>": 6378,
    "sou": 6379,
    "overbroad</w>": 6380,
    "collision</w>": 6381,
    "iments</w>": 6382,
    "aid</w>": 6383,
    "pan</w>": 6384,
    "ecting</w>": 6385,
    "pitch</w>": 6386,
    "yone</w>": 6387,
    "procra": 6388,
    "liveness</w>": 6389,
    "linked</w>": 6390,
    "usual</w>": 6391,
    "Standard</w>": 6392,
    "KM": 6393,
    "KMS</w>": 6394,
    "servers</w>": 6395,
    "framework</w>": 6396,
    "traversal</w>": 6397,
    "Ra": 6398,
    "Raycast</w>": 6399,
    "human": 6400,
    "dedu": 6401,
    "dedupe</w>": 6402,
    "pain": 6403,
    "Never</w>": 6404,
    "splatter</w>": 6405,
    "CSS</w>": 6406,
    "waiting</w>": 6407,
    "checking</w>": 6408,
    "attach</w>": 6409,
    "grain</w>": 6410,
    "olive</w>": 6411,
    "notify</w>": 6412,
    "trip</w>": 6413,
    "special</w>": 6414,
    "living</w>": 6415,
    "along</w>": 6416,
    "burning</w>": 6417,
    "scene</w>": 6418,
    "ith</w>": 6419,
    "?”?</w>": 6420,
    "confid": 6421,
    "Sac": 6422,
    "Sacrif": 6423,
    "Sacrifice</w>": 6424,
    "avo": 6425,
    "react</w>": 6426,
    "neurons</w>": 6427,
    "sufficient</w>": 6428,
    "Structured</w>": 6429,
    "select</w>": 6430,
    "anxious</w>": 6431,
    "sad</w>": 6432,
    "whatever</w>": 6433,
    "wonderful</w>": 6434,
    "Come</w>": 6435,
    "Incid": 6436,
    "Incident</w>": 6437,
    "opped</w>": 6438,
    "Laptop</w>": 6439,
    "outlet</w>": 6440,
    "humor</w>": 6441,
    "Need</w>": 6442,
    "Nice</w>": 6443,
    "programmer</w>": 6444,
    "Prevent</w>": 6445,
    "Privacy</w>": 6446,
    "Secrets</w>": 6447,
    "To</w>": 6448,
    "Here</w>": 6449,
    "Want</w>": 6450,
    "Way</w>": 6451,
    "limitations</w>": 6452,
    "Am</w>": 6453,
    "Sci": 6454,
    "myster": 6455,
    "inspi": 6456,
    "inspired</w>": 6457,
    "blockchain</w>": 6458,
    "crypto": 6459,
    "predictions</w>": 6460,
    "Progra": 6461,
    "Program": 6462,
    "Engine</w>": 6463,
    "beginners</w>": 6464,
    "popular</w>": 6465,
    "stance</w>": 6466,
    "reader</w>": 6467,
    "maintained</w>": 6468,
    "Air": 6469,
    "pairing</w>": 6470,
    "disturb</w>": 6471,
    "directly</w>": 6472,
    "Alerts</w>": 6473,
    "alysis</w>": 6474,
    "quit</w>": 6475,
    "reopen</w>": 6476,
    "Stor": 6477,
    "Storage</w>": 6478,
    "Gi": 6479,
    "Given</w>": 6480,
    "stars</w>": 6481,
    "probably</w>": 6482,
    "deliver</w>": 6483,
    "masking</w>": 6484,
    "span</w>": 6485,
    "sampled</w>": 6486,
    "suppress</w>": 6487,
    "whiteli": 6488,
    "whitelisted</w>": 6489,
    "afra": 6490,
    "afraid</w>": 6491,
    "bio": 6492,
    "biological</w>": 6493,
    "sophist": 6494,
    "sophisticated</w>": 6495,
    "passing</w>": 6496,
    "whether</w>": 6497,
    "constit": 6498,
    "constitutes</w>": 6499,
    "creative</w>": 6500,
    "combining</w>": 6501,
    "qual": 6502,
    "beg": 6503,
    "begin</w>": 6504,
    "existence</w>": 6505,
    "emotional</w>": 6506,
    "objec": 6507,
    "senti": 6508,
    "sentient</w>": 6509,
    "lack</w>": 6510,
    "creativity</w>": 6511,
    "Hum": 6512,
    "entries</w>": 6513,
    "sugge": 6514,
    "notif": 6515,
    "perfectionism</w>": 6516,
    "ague</w>": 6517,
    "phrase</w>": 6518,
    "testable</w>": 6519,
    "operate</w>": 6520,
    "papers</w>": 6521,
    "calm": 6522,
    "calmly</w>": 6523,
    "seeing</w>": 6524,
    "elevated</w>": 6525,
    "flip</w>": 6526,
    "Blot</w>": 6527,
    "gear</w>": 6528,
    "3x</w>": 6529,
    "trim": 6530,
    "trimmed</w>": 6531,
    "bike</w>": 6532,
    "unloading</w>": 6533,
    "hobby</w>": 6534,
    "retros</w>": 6535,
    "coale": 6536,
    "Call</w>": 6537,
    "tap</w>": 6538,
    "Always</w>": 6539,
    "library</w>": 6540,
    "readers</w>": 6541,
    "proving</w>": 6542,
    "constru": 6543,
    "mapp": 6544,
    "mappings</w>": 6545,
    "gene": 6546,
    "genetic</w>": 6547,
    "interacting</w>": 6548,
    "representing</w>": 6549,
    "denom": 6550,
    "denomin": 6551,
    "attract": 6552,
    "mass": 6553,
    "operation</w>": 6554,
    "yi": 6555,
    "yields</w>": 6556,
    "recording</w>": 6557,
    "rect": 6558,
    "middle</w>": 6559,
    "bon": 6560,
    "captu": 6561,
    "capturing</w>": 6562,
    "receives</w>": 6563,
    "100</w>": 6564,
    "ox": 6565,
    "oxy": 6566,
    "exactly</w>": 6567,
    "themsel": 6568,
    "themselves</w>": 6569,
    "calling</w>": 6570,
    "transmit": 6571,
    "square</w>": 6572,
    "veys</w>": 6573,
    "individual</w>": 6574,
    "magn": 6575,
    "magnitude</w>": 6576,
    "atmo": 6577,
    "atmosp": 6578,
    "math</w>": 6579,
    "math": 6580,
    "mathemat": 6581,
    "concern</w>": 6582,
    "tainly</w>": 6583,
    "However</w>": 6584,
    "shouldn</w>": 6585,
    "retain</w>": 6586,
    "mim": 6587,
    "browse</w>": 6588,
    "Once</w>": 6589,
    "attachments</w>": 6590,
    "join</w>": 6591,
    "mic</w>": 6592,
    "firew": 6593,
    "firewall</w>": 6594,
    "syncing</w>": 6595,
    "restate</w>": 6596,
    "Cost</w>": 6597,
    "crashes</w>": 6598,
    "jumps</w>": 6599,
    "track": 6600,
    "Cut</w>": 6601,
    "ace</w>": 6602,
    "fall</w>": 6603,
    "spec</w>": 6604,
    "argue</w>": 6605,
    "partitioned</w>": 6606,
    "ists</w>": 6607,
    "genuine</w>": 6608,
    "rando": 6609,
    "random": 6610,
    "randomness</w>": 6611,
    "consen": 6612,
    "consensus</w>": 6613,
    "managed</w>": 6614,
    "targeting</w>": 6615,
    "bene": 6616,
    "benefit</w>": 6617,
    "promi": 6618,
    "promise</w>": 6619,
    "urgency</w>": 6620,
    "sooner</w>": 6621,
    "trending</w>": 6622,
    "forming</w>": 6623,
    "stakes</w>": 6624,
    "dream</w>": 6625,
    "tired</w>": 6626,
    "ope</w>": 6627,
    "processed</w>": 6628,
    "statel": 6629,
    "death</w>": 6630,
    "laugh</w>": 6631,
    "shaped</w>": 6632,
    "boost</w>": 6633,
    "bedtime</w>": 6634,
    "even": 6635,
    "cabinets</w>": 6636,
    "sl": 6637,
    "moments</w>": 6638,
    "depen": 6639,
    "dependence</w>": 6640,
    "wap</w>": 6641,
    "primary</w>": 6642,
    "Aut": 6643,
    "Autop": 6644,
    "Autopay</w>": 6645,
    "white</w>": 6646,
    "breathe</w>": 6647,
    "minimum</w>": 6648,
    "Unsubscribe</w>": 6649,
    "skin</w>": 6650,
    "neck</w>": 6651,
    "washer</w>": 6652,
    "squat</w>": 6653,
    "tender</w>": 6654,
    "mornings</w>": 6655,
    "browsing</w>": 6656,
    "nightstands</w>": 6657,
    "lamp</w>": 6658,
    "forecast</w>": 6659,
    "threads</w>": 6660,
    "completed</w>": 6661,
    "equip": 6662,
    "equipment</w>": 6663,
    "rolls</w>": 6664,
    "reviewers</w>": 6665,
    "reconci": 6666,
    "reconcili": 6667,
    "reconciliation</w>": 6668,
    "west</w>": 6669,
    "hypothesis</w>": 6670,
    "specialized</w>": 6671,
    "While</w>": 6672,
    "simul": 6673,
    "simultan": 6674,
    "simultane": 6675,
    "transformers</w>": 6676,
    "Trans": 6677,
    "7</w>": 6678,
    "inno": 6679,
    "innovation</w>": 6680,
    "weigh</w>": 6681,
    "importance</w>": 6682,
    "Man": 6683,
    "Fair</w>": 6684,
    "BIOS</w>": 6685,
    "Bri": 6686,
    "Brief</w>": 6687,
    "attered</w>": 6688,
    "dump</w>": 6689,
    "balances</w>": 6690,
    "6</w>": 6691,
    "expectation</w>": 6692,
    "entry": 6693,
    "Hoo": 6694,
    "Hooks</w>": 6695,
    "humidifier</w>": 6696,
    "discard</w>": 6697,
    "je": 6698,
    "jewel": 6699,
    "jewelry</w>": 6700,
    "Delete</w>": 6701,
    "true</w>": 6702,
    "fluff</w>": 6703,
    "presentations</w>": 6704,
    "quin": 6705,
    "quino": 6706,
    "quinoa</w>": 6707,
    "asse": 6708,
    "Rai": 6709,
    "Raise</w>": 6710,
    "verbs</w>": 6711,
    "rarely</w>": 6712,
    "appliances</w>": 6713,
    "interruptions</w>": 6714,
    "fewer</w>": 6715,
    "productive</w>": 6716,
    "scroll</w>": 6717,
    "Single</w>": 6718,
    "wrinkles</w>": 6719,
    "episo": 6720,
    "episode</w>": 6721,
    "hotspots</w>": 6722,
    "worst</w>": 6723,
    "intention</w>": 6724,
    "dressing</w>": 6725,
    "upload</w>": 6726,
    "salary</w>": 6727,
    "anchor</w>": 6728,
    "center</w>": 6729,
    "Forget</w>": 6730,
    "draft</w>": 6731,
    "Consider</w>": 6732,
    "Every</w>": 6733,
    "entirely</w>": 6734,
    "repeat": 6735,
    "athe</w>": 6736,
    "Go": 6737,
    "outdoors</w>": 6738,
    "Gree": 6739,
    "DM": 6740,
    "reseat</w>": 6741,
    "chea": 6742,
    "cheap</w>": 6743,
    "thy</w>": 6744,
    "Wel": 6745,
    "Welcome</w>": 6746,
    "excited</w>": 6747,
    "Power</w>": 6748,
    "bulbs</w>": 6749,
    "thanks</w>": 6750,
    "vast</w>": 6751,
    "overlay</w>": 6752,
    "marker</w>": 6753,
    "capsu": 6754,
    "capsule</w>": 6755,
    "fits</w>": 6756,
    "discussions</w>": 6757,
    "artic": 6758,
    "OKRs</w>": 6759,
    "checked</w>": 6760,
    "timezone</w>": 6761,
    "Versioned</w>": 6762,
    "cascading</w>": 6763,
    "dishwasher</w>": 6764,
    "logically</w>": 6765,
    "central</w>": 6766,
    "boiling</w>": 6767,
    "boil</w>": 6768,
    "mbs</w>": 6769,
    "Persist</w>": 6770,
    "native</w>": 6771,
    "Idempotency</w>": 6772,
    "Flags</w>": 6773,
    "embedding</w>": 6774,
    "verbose</w>": 6775,
    "indexing</w>": 6776,
    "gasket</w>": 6777,
    "Role</w>": 6778,
    "rights</w>": 6779,
    "Cap</w>": 6780,
    "referrers</w>": 6781,
    "Referr": 6782,
    "Referrer</w>": 6783,
    "Polic": 6784,
    "Policy</w>": 6785,
    "Att": 6786,
    "Attach</w>": 6787,
    "kn": 6788,
    "cash</w>": 6789,
    "integrate</w>": 6790,
    "continuously</w>": 6791,
    "onomy</w>": 6792,
    "balancers</w>": 6793,
    "deliver": 6794,
    "protocol</w>": 6795,
    "relative</w>": 6796,
    "multitasking</w>": 6797,
    "sisted</w>": 6798,
    "Minimal</w>": 6799,
    "Principle</w>": 6800,
    "revo": 6801,
    "revoke</w>": 6802,
    "retain": 6803,
    "pot</w>": 6804,
    "commitments</w>": 6805,
    "Ste": 6806,
    "Steam</w>": 6807,
    "é</w>": 6808,
    "expensive</w>": 6809,
    "backfills</w>": 6810,
    "stuff": 6811,
    "stuffing</w>": 6812,
    "deeply</w>": 6813,
    "Notify</w>": 6814,
    "increments</w>": 6815,
    "tree</w>": 6816,
    "race</w>": 6817,
    "scratches</w>": 6818,
    "Fail</w>": 6819,
    "redundanc": 6820,
    "redundancy</w>": 6821,
    "overnight</w>": 6822,
    "ery</w>": 6823,
    "rying</w>": 6824,
    "blen": 6825,
    "loaded</w>": 6826,
    "returning</w>": 6827,
    "yearly</w>": 6828,
    "Preheat</w>": 6829,
    "forked</w>": 6830,
    "gor": 6831,
    "gorout": 6832,
    "White": 6833,
    "Whitelist</w>": 6834,
    "kindly</w>": 6835,
    "nature</w>": 6836,
    "happiness</w>": 6837,
    "appo": 6838,
    "appoint": 6839,
    "appointments</w>": 6840,
    "diverse</w>": 6841,
    "engage</w>": 6842,
    "ipate</w>": 6843,
    "challenge</w>": 6844,
    "closely</w>": 6845,
    "gradual</w>": 6846,
    "teammat": 6847,
    "teammates</w>": 6848,
    "reduces</w>": 6849,
    "rently</w>": 6850,
    "Pres": 6851,
    "Present</w>": 6852,
    "constrain</w>": 6853,
    "navmesh</w>": 6854,
    "tel": 6855,
    "24</w>": 6856,
    "paging</w>": 6857,
    "SLI</w>": 6858,
    "optional</w>": 6859,
    "fairly</w>": 6860,
    "frust": 6861,
    "view": 6862,
    "flavor</w>": 6863,
    "half</w>": 6864,
    "triage</w>": 6865,
    "ADRs</w>": 6866,
    "CODE": 6867,
    "CODEOWN": 6868,
    "CODEOWNE": 6869,
    "CODEOWNERS</w>": 6870,
    "certific": 6871,
    "certificates</w>": 6872,
    "Normalize</w>": 6873,
    "floo": 6874,
    "overwhelm</w>": 6875,
    "virus</w>": 6876,
    "tamper": 6877,
    "locked</w>": 6878,
    "vendor</w>": 6879,
    "RO": 6880,
    "alls</w>": 6881,
    "cou": 6882,
    "coupling</w>": 6883,
    "discovery</w>": 6884,
    "indicators</w>": 6885,
    "transforms</w>": 6886,
    "Ty": 6887,
    "Type</w>": 6888,
    "CA</w>": 6889,
    "None</w>": 6890,
    "whatâ</w>": 6891,
    "Idempotent</w>": 6892,
    "audited</w>": 6893,
    "smooth": 6894,
    "smoothly</w>": 6895,
    "startups</w>": 6896,
    "Edu": 6897,
    "Education</w>": 6898,
    "stays</w>": 6899,
    "DS": 6900,
    "stric": 6901,
    "strictly</w>": 6902,
    "distribution</w>": 6903,
    "appear</w>": 6904,
    "measure": 6905,
    "measurements</w>": 6906,
    "journe": 6907,
    "journeys</w>": 6908,
    "gaps</w>": 6909,
    "period</w>": 6910,
    "expiration</w>": 6911,
    "balancer</w>": 6912,
    "effects</w>": 6913,
    "seen</w>": 6914,
    "Partit": 6915,
    "Partition</w>": 6916,
    "Optim": 6917,
    "Optimize</w>": 6918,
    "baked</w>": 6919,
    "payload</w>": 6920,
    "disk</w>": 6921,
    "brot": 6922,
    "brotli": 6923,
    "brotli</w>": 6924,
    "Name": 6925,
    "namic</w>": 6926,
    "evic": 6927,
    "reputable</w>": 6928,
    "providers</w>": 6929,
    "issuer</w>": 6930,
    "skew</w>": 6931,
    "toggling</w>": 6932,
    "gments</w>": 6933,
    "whitelist</w>": 6934,
    "Reliable</w>": 6935,
    "resets</w>": 6936,
    "irreversible</w>": 6937,
    "batching</w>": 6938,
    "binaries</w>": 6939,
    "distribute</w>": 6940,
    "formul": 6941,
    "formulas</w>": 6942,
    "part": 6943,
    "reconnect</w>": 6944,
    "billing</w>": 6945,
    "webroot</w>": 6946,
    "abort</w>": 6947,
    "mutable</w>": 6948,
    "Deplo": 6949,
    "Deploy</w>": 6950,
    "handlers</w>": 6951,
    "Den": 6952,
    "Deny</w>": 6953,
    "configurations</w>": 6954,
    "Proper</w>": 6955,
    "ift</w>": 6956,
    "hitting</w>": 6957,
    "synchron": 6958,
    "Status</w>": 6959,
    "compute</w>": 6960,
    "provider</w>": 6961,
    "interviews</w>": 6962,
    "brainstorming</w>": 6963,
    "Swit": 6964,
    "Switch</w>": 6965,
    "expla": 6966,
    "explaining</w>": 6967,
    "youâ</w>": 6968,
    "grateful</w>": 6969,
    "had</w>": 6970,
    "ional</w>": 6971,
    "Priorit": 6972,
    "Prioritize</w>": 6973,
    "shallow</w>": 6974,
    "Smo": 6975,
    "Smooth</w>": 6976,
    "stain</w>": 6977,
    "offsets</w>": 6978,
    "parsing</w>": 6979,
    "cheap": 6980,
    "architectural</w>": 6981,
    "groom": 6982,
    "grooming</w>": 6983,
    "formatters</w>": 6984,
    "collaboration</w>": 6985,
    "Invol": 6986,
    "Involve</w>": 6987,
    "stud": 6988,
    "studying</w>": 6989,
    "Speed</w>": 6990,
    "READM": 6991,
    "READMEs</w>": 6992,
    "disaster</w>": 6993,
    "handoff</w>": 6994,
    "informed</w>": 6995,
    "son": 6996,
    "meaningfully</w>": 6997,
    "tuned</w>": 6998,
    "associate</w>": 6999,
    "cue</w>": 7000,
    "Que": 7001,
    "Queue</w>": 7002,
    "sâ</w>": 7003,
    "filler</w>": 7004,
    "pipeline</w>": 7005,
    "timings</w>": 7006,
    "agreed</w>": 7007,
    "Expand</w>": 7008,
    "Ts</w>": 7009,
    "factories</w>": 7010,
    "builders</w>": 7011,
    "modular</w>": 7012,
    "Tar": 7013,
    "Target</w>": 7014,
    "fish</w>": 7015,
    "cadence</w>": 7016,
    "liers</w>": 7017,
    "goods</w>": 7018,
    "requent</w>": 7019,
    "broom</w>": 7020,
    "brist": 7021,
    "reusing</w>": 7022,
    "purge</w>": 7023,
    "previews</w>": 7024,
    "cleaners</w>": 7025,
    "Docker</w>": 7026,
    "timebo": 7027,
    "desk": 7028,
    "desktop</w>": 7029,
    "lubricant</w>": 7030,
    "snu": 7031,
    "snug</w>": 7032,
    "funds</w>": 7033,
    "sealing</w>": 7034,
    "foil</w>": 7035,
    "lasting</w>": 7036,
    "Imp": 7037,
    "Impact</w>": 7038,
    "pods</w>": 7039,
    "leadership</w>": 7040,
    "traps</w>": 7041,
    "subset</w>": 7042,
    "propagate</w>": 7043,
    "mono": 7044,
    "nail</w>": 7045,
    "dings</w>": 7046,
    "resolved</w>": 7047,
    "remedi": 7048,
    "remediation</w>": 7049,
    "throw": 7050,
    "throws</w>": 7051,
    "dispenser</w>": 7052,
    "perf</w>": 7053,
    "grippers</w>": 7054,
    "ister</w>": 7055,
    "foo": 7056,
    "squea": 7057,
    "Over</w>": 7058,
    "SLIs</w>": 7059,
    "anonymiz": 7060,
    "bots</w>": 7061,
    "guess": 7062,
    "stan": 7063,
    "standu": 7064,
    "standups</w>": 7065,
    "interi": 7066,
    "upgrades</w>": 7067,
    "maintainable</w>": 7068,
    "etc</w>": 7069,
    "copies</w>": 7070,
    "deltas</w>": 7071,
    "itability</w>": 7072,
    "weekend</w>": 7073,
    "tal": 7074,
    "character</w>": 7075,
    "diagrams</w>": 7076,
    "centralized</w>": 7077,
    "cluster</w>": 7078,
    "checkpoints</w>": 7079,
    "Addit": 7080,
    "Additive</w>": 7081,
    "Declutter</w>": 7082,
    "alt</w>": 7083,
    "jarg": 7084,
    "jargon</w>": 7085,
    "timed</w>": 7086,
    "sprints</w>": 7087,
    "headings</w>": 7088,
    "roadmaps</w>": 7089,
    "themes</w>": 7090,
    "ick": 7091,
    "Gr": 7092,
    "Grant</w>": 7093,
    "incremental</w>": 7094,
    "tack": 7095,
    "Sn": 7096,
    "Stage</w>": 7097,
    "gence</w>": 7098,
    "cutover</w>": 7099,
    "preference</w>": 7100,
    "fabrics</w>": 7101,
    "Short": 7102,
    "50</w>": 7103,
    "increment": 7104,
    "incrementally</w>": 7105,
    "Evalu": 7106,
    "Evaluate</w>": 7107,
    "lations</w>": 7108,
    "malici": 7109,
    "malicious</w>": 7110,
    "breaches</w>": 7111,
    "investig": 7112,
    "bottlenec": 7113,
    "bottlenecks</w>": 7114,
    "jars</w>": 7115,
    "pha": 7116,
    "Low</w>": 7117,
    "wra": 7118,
    "accesses</w>": 7119,
    "Friday</w>": 7120,
    "autoscaling</w>": 7121,
    "boundary</w>": 7122,
    "deleting</w>": 7123,
    "jac": 7124,
    "jacking</w>": 7125,
    "Frame</w>": 7126,
    "plying</w>": 7127,
    "Improve</w>": 7128,
    "resistant</w>": 7129,
    "styles</w>": 7130,
    "atherst": 7131,
    "iling</w>": 7132,
    "frames</w>": 7133,
    "foggy</w>": 7134,
    "yed</w>": 7135,
    "charging</w>": 7136,
    "unplug</w>": 7137,
    "pipes</w>": 7138,
    "faucets</w>": 7139,
    "rap": 7140,
    "rapid</w>": 7141,
    "glass": 7142,
    "glassware</w>": 7143,
    "embed</w>": 7144,
    "putting</w>": 7145,
    "prints</w>": 7146,
    "musty</w>": 7147,
    "orph": 7148,
    "Spec": 7149,
    "mption</w>": 7150,
    "Medi": 7151,
    "Medium</w>": 7152,
    "sides</w>": 7153,
    "espec": 7154,
    "especially</w>": 7155,
    "gering</w>": 7156,
    "runtimes</w>": 7157,
    "Regenerate</w>": 7158,
    "spam</w>": 7159,
    "CAP": 7160,
    "boring</w>": 7161,
    "parameterized</w>": 7162,
    "OR": 7163,
    "ORM": 7164,
    "fu": 7165,
    "promote</w>": 7166,
    "downgrade</w>": 7167,
    "doneness</w>": 7168,
    "bars</w>": 7169,
    "Stab": 7170,
    "Stabi": 7171,
    "Stabilize</w>": 7172,
    "defined</w>": 7173,
    "balls</w>": 7174,
    "faucet</w>": 7175,
    "masks</w>": 7176,
    "smell</w>": 7177,
    "looking</w>": 7178,
    "LED</w>": 7179,
    "stri": 7180,
    "subscrip": 7181,
    "subscriptions</w>": 7182,
    "practiced</w>": 7183,
    "school</w>": 7184,
    "toss</w>": 7185,
    "Char": 7186,
    "Charge</w>": 7187,
    "rebuild</w>": 7188,
    "curfew</w>": 7189,
    "wic": 7190,
    "swee": 7191,
    "sweets</w>": 7192,
    "shot</w>": 7193,
    "volumes</w>": 7194,
    "wrinkling</w>": 7195,
    "brands</w>": 7196,
    "hun": 7197,
    "hungry</w>": 7198,
    "Protect</w>": 7199,
    "edits</w>": 7200,
    "auditing</w>": 7201,
    "buckets</w>": 7202,
    "inject</w>": 7203,
    "Reas": 7204,
    "Reasonable</w>": 7205,
    "Cook</w>": 7206,
    "ward": 7207,
    "journal</w>": 7208,
    "relax": 7209,
    "relaxation</w>": 7210,
    "Compress</w>": 7211,
    "Brew</w>": 7212,
    "motivated</w>": 7213,
    "visually</w>": 7214,
    "rushed</w>": 7215,
    "wea": 7216,
    "rusting</w>": 7217,
    "doom": 7218,
    "doomscrolling</w>": 7219,
    "wax</w>": 7220,
    "decor</w>": 7221,
    "juni": 7222,
    "juniors</w>": 7223,
    "anim": 7224,
    "animation</w>": 7225,
    "Web": 7226,
    "contributors</w>": 7227,
    "trim</w>": 7228,
    "proc": 7229,
    "proced": 7230,
    "lett": 7231,
    "Computers</w>": 7232,
    "By</w>": 7233,
    "reduction</w>": 7234,
    "clamp</w>": 7235,
    "sounds</w>": 7236,
    "mentoring</w>": 7237,
    "asyn": 7238,
    "asynchron": 7239,
    "asynchronously</w>": 7240,
    "smel": 7241,
    "smelly</w>": 7242,
    "garlic</w>": 7243,
    "pouches</w>": 7244,
    "aged</w>": 7245,
    "nonstick</w>": 7246,
    "blinds</w>": 7247,
    "ass</w>": 7248,
    "exponential</w>": 7249,
    "fogging</w>": 7250,
    "gger</w>": 7251,
    "prefetch</w>": 7252,
    "args</w>": 7253,
    "absor": 7254,
    "clip</w>": 7255,
    "Wor": 7256,
    "preload</w>": 7257,
    "soup</w>": 7258,
    "gol": 7259,
    "golden</w>": 7260,
    "pull</w>": 7261,
    "fry</w>": 7262,
    "High</w>": 7263,
    "roa": 7264,
    "Know</w>": 7265,
    "draw</w>": 7266,
    "suc": 7267,
    "ounts</w>": 7268,
    "rated</w>": 7269,
    "harsh</w>": 7270,
    "piz": 7271,
    "pizz": 7272,
    "pizza</w>": 7273,
    "microservices</w>": 7274,
    "starvation</w>": 7275,
    "lac": 7276,
    "laces</w>": 7277,
    "physics</w>": 7278,
    "retr": 7279,
    "retryable</w>": 7280,
    "handled</w>": 7281,
    "condiments</w>": 7282,
    "solidate</w>": 7283,
    "mani": 7284,
    "manife": 7285,
    "skim</w>": 7286,
    "issue</w>": 7287,
    "purcha": 7288,
    "Clas": 7289,
    "Classify</w>": 7290,
    "length</w>": 7291,
    "deal</w>": 7292,
    "Everyone</w>": 7293,
    "lied</w>": 7294,
    "receivers</w>": 7295,
    "fire</w>": 7296,
    "Stable</w>": 7297,
    "unusual</w>": 7298,
    "bounding</w>": 7299,
    "actual</w>": 7300,
    "header</w>": 7301,
    "UTF</w>": 7302,
    "normalize</w>": 7303,
    "Last</w>": 7304,
    "MI": 7305,
    "MIME</w>": 7306,
    "deleted</w>": 7307,
    "scrubbers</w>": 7308,
    "resumable</w>": 7309,
    "invalid</w>": 7310,
    "corrupt</w>": 7311,
    "Hon": 7312,
    "trusting</w>": 7313,
    "typing</w>": 7314,
    "queued</w>": 7315,
    "polling</w>": 7316,
    "snap": 7317,
    "consi": 7318,
    "considered</w>": 7319,
    "sud": 7320,
    "sudden</w>": 7321,
    "propag": 7322,
    "propagation</w>": 7323,
    "supports</w>": 7324,
    "LO": 7325,
    "pivo": 7326,
    "pivot</w>": 7327,
    "reproduce</w>": 7328,
    "sandboxes</w>": 7329,
    "breaker</w>": 7330,
    "cutovers</w>": 7331,
    "clarification</w>": 7332,
    "UL": 7333,
    "null": 7334,
    "compensating</w>": 7335,
    "opport": 7336,
    "opportun": 7337,
    "interrupting</w>": 7338,
    "directory</w>": 7339,
    "tail": 7340,
    "flashlight</w>": 7341,
    "tex": 7342,
    "Ds</w>": 7343,
    "diff</w>": 7344,
    "MV": 7345,
    "MVP</w>": 7346,
    "Empty</w>": 7347,
    "packs</w>": 7348,
    "sorted</w>": 7349,
    "Safe</w>": 7350,
    "piling</w>": 7351,
    "sun</w>": 7352,
    "responsibly</w>": 7353,
    "overhe": 7354,
    "dar": 7355,
    "darks</w>": 7356,
    "fit": 7357,
    "holder</w>": 7358,
    "wet</w>": 7359,
    "baselines</w>": 7360,
    "informative</w>": 7361,
    "iterations</w>": 7362,
    "toil": 7363,
    "Stu": 7364,
    "patient</w>": 7365,
    "Serv": 7366,
    "Service</w>": 7367,
    "contribution</w>": 7368,
    "interest": 7369,
    "interested</w>": 7370,
    "friend</w>": 7371,
    "salad</w>": 7372,
    "valuable</w>": 7373,
    "application</w>": 7374,
    "chun": 7375,
    "Gl": 7376,
    "stract</w>": 7377,
    "Rot": 7378,
    "Rotate</w>": 7379,
    "rotating</w>": 7380,
    "excluded</w>": 7381,
    "CPU</w>": 7382,
    "initial</w>": 7383,
    "untou": 7384,
    "untouched</w>": 7385,
    "timeout</w>": 7386,
    "straight": 7387,
    "straightforward</w>": 7388,
    "ques</w>": 7389,
    "ima": 7390,
    "imagine</w>": 7391,
    "permission</w>": 7392,
    "corruption</w>": 7393,
    "Sort</w>": 7394,
    "pouring</w>": 7395,
    "claims</w>": 7396,
    "closing</w>": 7397,
    "roller</w>": 7398,
    "reflecting</w>": 7399,
    "sess</w>": 7400,
    "Defer</w>": 7401,
    "bore": 7402,
    "boredom</w>": 7403,
    "scratch</w>": 7404,
    "tail</w>": 7405,
    "offload</w>": 7406,
    "tee": 7407,
    "teeth</w>": 7408,
    "expect</w>": 7409,
    "Inter": 7410,
    "Five</w>": 7411,
    "clipping</w>": 7412,
    "cats</w>": 7413,
    "millions</w>": 7414,
    "With</w>": 7415,
    "wher": 7416,
    "wherever</w>": 7417,
    "capabilities</w>": 7418,
    "avoid": 7419,
    "websites</w>": 7420,
    "Ans": 7421,
    "brevity</w>": 7422,
    "Your</w>": 7423,
    "12</w>": 7424,
    "grid</w>": 7425,
    "grounded</w>": 7426,
    "personality</w>": 7427,
    "depre": 7428,
    "understands</w>": 7429,
    "misunderstood</w>": 7430,
    "understood</w>": 7431,
    "Reme": 7432,
    "Remember</w>": 7433,
    "forget</w>": 7434,
    "Loo": 7435,
    "Looking</w>": 7436,
    "Anxiety</w>": 7437,
    "Some</w>": 7438,
    "challenging</w>": 7439,
    "Ready</w>": 7440,
    "bored</w>": 7441,
    "encing</w>": 7442,
    "diffic": 7443,
    "scared</w>": 7444,
    "ried</w>": 7445,
    "May": 7446,
    "Maybe</w>": 7447,
    "opinion</w>": 7448,
    "favorites</w>": 7449,
    "EL": 7450,
    "ADR</w>": 7451,
    "Key": 7452,
    "Keyboard</w>": 7453,
    "shu": 7454,
    "Because</w>": 7455,
    "Micro": 7456,
    "”—</w>": 7457,
    "hedge</w>": 7458,
    "Ob": 7459,
    "Observ": 7460,
    "Observability</w>": 7461,
    "Pho": 7462,
    "Photo": 7463,
    "Photos</w>": 7464,
    "answ": 7465,
    "answering</w>": 7466,
    "mood</w>": 7467,
    "reinstall</w>": 7468,
    "Fin": 7469,
    "Box</w>": 7470,
    "inhale</w>": 7471,
    "exhale</w>": 7472,
    "squeeze</w>": 7473,
    "quarter</w>": 7474,
    "Win": 7475,
    "Windows</w>": 7476,
    "hearts</w>": 7477,
    "blood</w>": 7478,
    "loa": 7479,
    "Testing</w>": 7480,
    "apologize</w>": 7481,
    "funny</w>": 7482,
    "User</w>": 7483,
    "Deep</w>": 7484,
    "technique</w>": 7485,
    "morality</w>": 7486,
    "Programming</w>": 7487,
    "Turing</w>": 7488,
    "great": 7489,
    "Eng": 7490,
    "English</w>": 7491,
    "interactions</w>": 7492,
    "generates</w>": 7493,
    "Happ": 7494,
    "mers</w>": 7495,
    "confusing</w>": 7496,
    "differently</w>": 7497,
    "isdom</w>": 7498,
    "EN": 7499,
    "ING</w>": 7500,
    "IT": 7501,
    "opinions</w>": 7502,
    "paralysis</w>": 7503,
    "crashing</w>": 7504,
    "blocked</w>": 7505,
    "gal": 7506,
    "gala": 7507,
    "galaxies</w>": 7508,
    "compliant</w>": 7509,
    "lives</w>": 7510,
    "promised</w>": 7511,
    "honoring</w>": 7512,
    "opa": 7513,
    "opaque</w>": 7514,
    "scrubbed</w>": 7515,
    "removed</w>": 7516,
    "debugg": 7517,
    "debuggability</w>": 7518,
    "Could</w>": 7519,
    "continuity</w>": 7520,
    "itself</w>": 7521,
    "honest</w>": 7522,
    "copying</w>": 7523,
    "neutrality</w>": 7524,
    "voices</w>": 7525,
    "corpor": 7526,
    "implies</w>": 7527,
    "joy</w>": 7528,
    "smar": 7529,
    "Humans</w>": 7530,
    "Audio</w>": 7531,
    "headset</w>": 7532,
    "accel": 7533,
    "acceler": 7534,
    "Auto": 7535,
    "notifying</w>": 7536,
    "vague</w>": 7537,
    "Backfill</w>": 7538,
    "Backups</w>": 7539,
    "objectives</w>": 7540,
    "Bal": 7541,
    "Balance</w>": 7542,
    "realtime</w>": 7543,
    "attery</w>": 7544,
    "Trash</w>": 7545,
    "moment": 7546,
    "momentum</w>": 7547,
    "End</w>": 7548,
    "workout</w>": 7549,
    "Shop</w>": 7550,
    "chewing</w>": 7551,
    "stur": 7552,
    "sturdy</w>": 7553,
    "craft</w>": 7554,
    "STAR</w>": 7555,
    "went</w>": 7556,
    "opener</w>": 7557,
    "(“</w>": 7558,
    "?”": 7559,
    "?”)</w>": 7560,
    "Bl": 7561,
    "urry</w>": 7562,
    "Brow": 7563,
    "Browser</w>": 7564,
    "tempor": 7565,
    "temporarily</w>": 7566,
    "pop</w>": 7567,
    "tolerate</w>": 7568,
    "uniqu": 7569,
    "identi": 7570,
    "identifi": 7571,
    "TTL</w>": 7572,
    "Mic</w>": 7573,
    "stealing</w>": 7574,
    "Calm</w>": 7575,
    "Camera</w>": 7576,
    "reversibility</w>": 7577,
    "remain</w>": 7578,
    "undone</w>": 7579,
    "probabilities</w>": 7580,
    "misunderstand</w>": 7581,
    "authorit": 7582,
    "authoritative</w>": 7583,
    "performs</w>": 7584,
    "designing</w>": 7585,
    "recomputing</w>": 7586,
    "ATP</w>": 7587,
    "blu": 7588,
    "bluep": 7589,
    "blueprints</w>": 7590,
    "disagre": 7591,
    "disagreements</w>": 7592,
    "construc": 7593,
    "constructively</w>": 7594,
    "commas</w>": 7595,
    "among</w>": 7596,
    "molecule</w>": 7597,
    "communities</w>": 7598,
    "organisms</w>": 7599,
    "electric</w>": 7600,
    "scrambling</w>": 7601,
    "compact</w>": 7602,
    "represent</w>": 7603,
    "multiplication</w>": 7604,
    "num": 7605,
    "numerator</w>": 7606,
    "denominator</w>": 7607,
    "turning</w>": 7608,
    "attraction</w>": 7609,
    "masses</w>": 7610,
    "shaping</w>": 7611,
    "rewards</w>": 7612,
    "repeating</w>": 7613,
    "acqu": 7614,
    "acquis": 7615,
    "acquisition</w>": 7616,
    "mx</w>": 7617,
    "inverse</w>": 7618,
    "exponenti": 7619,
    "exponentiation</w>": 7620,
    "forces</w>": 7621,
    "rectan": 7622,
    "rectangul": 7623,
    "rectangular</w>": 7624,
    "alge": 7625,
    "algebr": 7626,
    "algebra</w>": 7627,
    "divided</w>": 7628,
    "imported</w>": 7629,
    "bonded</w>": 7630,
    "rewriting</w>": 7631,
    "CO₂": 7632,
    "CO₂</w>": 7633,
    "oxyg": 7634,
    "oxygen</w>": 7635,
    "Ear": 7636,
    "Earth</w>": 7637,
    "crust": 7638,
    "crustal</w>": 7639,
    "divisors</w>": 7640,
    "ax</w>": 7641,
    "^</w>": 7642,
    "bx</w>": 7643,
    "compari": 7644,
    "comparis": 7645,
    "comparisons</w>": 7646,
    "subproblems</w>": 7647,
    "extracting</w>": 7648,
    "storable</w>": 7649,
    "transmittable</w>": 7650,
    "gas</w>": 7651,
    "plasm": 7652,
    "plasma</w>": 7653,
    "cope</w>": 7654,
    "restating</w>": 7655,
    "evap": 7656,
    "evaporation</w>": 7657,
    "precip": 7658,
    "precipitation</w>": 7659,
    "attitude</w>": 7660,
    "conveys</w>": 7661,
    "behave</w>": 7662,
    "named</w>": 7663,
    "atmospher": 7664,
    "atmospheric</w>": 7665,
    "mathematical</w>": 7666,
    "simulation</w>": 7667,
    "certainly</w>": 7668,
    "also</w>": 7669,
    "told</w>": 7670,
    "deployed</w>": 7671,
    "simpler</w>": 7672,
    "wan": 7673,
    "listened</w>": 7674,
    "kind": 7675,
    "kindness</w>": 7676,
    "patience</w>": 7677,
    "thou": 7678,
    "thought</w>": 7679,
    "download</w>": 7680,
    "eject</w>": 7681,
    "callers</w>": 7682,
    "Vo": 7683,
    "spea": 7684,
    "speaker</w>": 7685,
    "cam</w>": 7686,
    "receive</w>": 7687,
    "Cli": 7688,
    "pboard</w>": 7689,
    "Cloud</w>": 7690,
    "latest</w>": 7691,
    "paused</w>": 7692,
    "pending</w>": 7693,
    "flic": 7694,
    "sole</w>": 7695,
    "lagging</w>": 7696,
    "estimated</w>": 7697,
    "trackpad</w>": 7698,
    "minimization</w>": 7699,
    "seems</w>": 7700,
    "Degrade</w>": 7701,
    "cted</w>": 7702,
    "personalized</w>": 7703,
    "somehow</w>": 7704,
    "determinism</w>": 7705,
    "desires</w>": 7706,
    "Quantum</w>": 7707,
    "mechanics</w>": 7708,
    "adds</w>": 7709,
    "freedom</w>": 7710,
    "added</w>": 7711,
    "probes</w>": 7712,
    "stron": 7713,
    "stronger</w>": 7714,
    "tighter</w>": 7715,
    "variable</w>": 7716,
    "pse": 7717,
    "pseud": 7718,
    "pseudony": 7719,
    "aggregates</w>": 7720,
    "breaching</w>": 7721,
    "indicate</w>": 7722,
    "hur": 7723,
    "God</w>": 7724,
    "envy</w>": 7725,
    "proud</w>": 7726,
    "tation</w>": 7727,
    "stateless</w>": 7728,
    "ckle</w>": 7729,
    "Down": 7730,
    "streams</w>": 7731,
    "Next</w>": 7732,
    "evenings</w>": 7733,
    "degrease</w>": 7734,
    "deca": 7735,
    "notebooks</w>": 7736,
    "calming</w>": 7737,
    "loy": 7738,
    "loyal": 7739,
    "loyalty</w>": 7740,
    "%</w>": 7741,
    "flossing</w>": 7742,
    "Floss</w>": 7743,
    "slot</w>": 7744,
    "bio</w>": 7745,
    "refills</w>": 7746,
    "sunscreen</w>": 7747,
    "Roast</w>": 7748,
    "400</w>": 7749,
    "pep": 7750,
    "pepper</w>": 7751,
    "Three</w>": 7752,
    "endless</w>": 7753,
    "washed</w>": 7754,
    "hotels</w>": 7755,
    "brightly</w>": 7756,
    "colo": 7757,
    "colored</w>": 7758,
    "jitters</w>": 7759,
    "revealing</w>": 7760,
    "lowest</w>": 7761,
    "requiring</w>": 7762,
    "narrow</w>": 7763,
    "chess</w>": 7764,
    "princi": 7765,
    "principles</w>": 7766,
    "bits</w>": 7767,
    "super": 7768,
    "simultaneously</w>": 7769,
    "univers": 7770,
    "universally</w>": 7771,
    "simulating</w>": 7772,
    "20": 7773,
    "Unlike</w>": 7774,
    "sequential</w>": 7775,
    "External</w>": 7776,
    "detected</w>": 7777,
    "Disk</w>": 7778,
    "agement</w>": 7779,
    "GPU</w>": 7780,
    "Fans</w>": 7781,
    "ramp</w>": 7782,
    "scattered</w>": 7783,
    "spoons</w>": 7784,
    "Mark</w>": 7785,
    "finances</w>": 7786,
    "cooler</w>": 7787,
    "athable</w>": 7788,
    "desserts</w>": 7789,
    "Fru": 7790,
    "Sil": 7791,
    "Silence</w>": 7792,
    "chars</w>": 7793,
    "firings</w>": 7794,
    "realism</w>": 7795,
    "coats</w>": 7796,
    "distracting</w>": 7797,
    "Cable</w>": 7798,
    "ok": 7799,
    "star</w>": 7800,
    "guests</w>": 7801,
    "gui": 7802,
    "sher</w>": 7803,
    "slides</w>": 7804,
    "road</w>": 7805,
    "stopping</w>": 7806,
    "pings</w>": 7807,
    "assem": 7808,
    "assemble</w>": 7809,
    "workspace</w>": 7810,
    "headaches</w>": 7811,
    "Smaller</w>": 7812,
    "feet</w>": 7813,
    "resumes</w>": 7814,
    "tidi": 7815,
    "tidier</w>": 7816,
    "bedside</w>": 7817,
    "labeling</w>": 7818,
    "eyes</w>": 7819,
    "legi": 7820,
    "cars</w>": 7821,
    "buff</w>": 7822,
    "bring</w>": 7823,
    "cleared</w>": 7824,
    "pickup</w>": 7825,
    "sunset</w>": 7826,
    "disapp": 7827,
    "disappearing</w>": 7828,
    "File</w>": 7829,
    "negotiation</w>": 7830,
    "market</w>": 7831,
    "enth": 7832,
    "enthu": 7833,
    "enthusi": 7834,
    "enthusia": 7835,
    "enthusiasm</w>": 7836,
    "inspect</w>": 7837,
    "unworn</w>": 7838,
    "donate</w>": 7839,
    "Fla": 7840,
    "Flaky</w>": 7841,
    "PC</w>": 7842,
    "overlays</w>": 7843,
    "Get</w>": 7844,
    "movi": 7845,
    "movie</w>": 7846,
    "isolating</w>": 7847,
    "personal": 7848,
    "personalities</w>": 7849,
    "repeatable</w>": 7850,
    "Breathe</w>": 7851,
    "ishing</w>": 7852,
    "Gott": 7853,
    "Gotta</w>": 7854,
    "Chat</w>": 7855,
    "Greetings</w>": 7856,
    "pleasure</w>": 7857,
    "HDM": 7858,
    "HDMI</w>": 7859,
    "TR": 7860,
    "Help</w>": 7861,
    "Hesit": 7862,
    "Hesitant</w>": 7863,
    "varies</w>": 7864,
    "general</w>": 7865,
    "tionally</w>": 7866,
    "years</w>": 7867,
    "expanding</w>": 7868,
    "ranked</w>": 7869,
    "minimap</w>": 7870,
    "crou": 7871,
    "crouch</w>": 7872,
    "articu": 7873,
    "nect</w>": 7874,
    "instant</w>": 7875,
    "slim": 7876,
    "slim</w>": 7877,
    "workspaces</w>": 7878,
    "removing</w>": 7879,
    "toast</w>": 7880,
    "desync</w>": 7881,
    "ETags</w>": 7882,
    "bulk": 7883,
    "bulkheads</w>": 7884,
    "lips</w>": 7885,
    "hydrated</w>": 7886,
    "overcrowd</w>": 7887,
    "cray": 7888,
    "crumbs</w>": 7889,
    "races</w>": 7890,
    "winter</w>": 7891,
    "UIs</w>": 7892,
    "meta</w>": 7893,
    "greasy</w>": 7894,
    "grates</w>": 7895,
    "hotfix</w>": 7896,
    "postmortem</w>": 7897,
    "DLQ</w>": 7898,
    "Eat</w>": 7899,
    "reveal</w>": 7900,
    "bolts</w>": 7901,
    "SIM</w>": 7902,
    "markers</w>": 7903,
    "tin</w>": 7904,
    "spends</w>": 7905,
    "contents</w>": 7906,
    "Profile</w>": 7907,
    "Rebase</w>": 7908,
    "autonomy</w>": 7909,
    "hiding</w>": 7910,
    "cel</w>": 7911,
    "deliveries</w>": 7912,
    "permissive</w>": 7913,
    "OAuth</w>": 7914,
    "Requ": 7915,
    "Request</w>": 7916,
    "retaining</w>": 7917,
    "overcompl": 7918,
    "overexposing</w>": 7919,
    "gins</w>": 7920,
    "resolvers</w>": 7921,
    "Thrott": 7922,
    "Throttle</w>": 7923,
    "invalidations</w>": 7924,
    "overstuffing</w>": 7925,
    "law": 7926,
    "lawn</w>": 7927,
    "affected</w>": 7928,
    "arri": 7929,
    "deterrent</w>": 7930,
    "submodules</w>": 7931,
    "Atom": 7932,
    "Atomic</w>": 7933,
    "reorder</w>": 7934,
    "ETL</w>": 7935,
    "Schemas</w>": 7936,
    "gover": 7937,
    "govern": 7938,
    "governance</w>": 7939,
    "commits</w>": 7940,
    "Tree</w>": 7941,
    "oed</w>": 7942,
    "slipp": 7943,
    "slippery</w>": 7944,
    "Reheat</w>": 7945,
    "iled</w>": 7946,
    "overcrowding</w>": 7947,
    "throttling</w>": 7948,
    "dumping</w>": 7949,
    "massive</w>": 7950,
    "unintended</w>": 7951,
    "warped</w>": 7952,
    "suggests</w>": 7953,
    "consume</w>": 7954,
    "ticipate</w>": 7955,
    "pun": 7956,
    "punct": 7957,
    "punctual</w>": 7958,
    "ceful</w>": 7959,
    "pod": 7960,
    "podcast</w>": 7961,
    "prioritized</w>": 7962,
    "mainly</w>": 7963,
    "durations</w>": 7964,
    "admit</w>": 7965,
    "racing</w>": 7966,
    "functional</w>": 7967,
    "bal</w>": 7968,
    "transparently</w>": 7969,
    "edit</w>": 7970,
    "crop</w>": 7971,
    "curb</w>": 7972,
    "buys</w>": 7973,
    "Accep": 7974,
    "Accept</w>": 7975,
    "500</w>": 7976,
    "degraded</w>": 7977,
    "oriz": 7978,
    "place": 7979,
    "Per</w>": 7980,
    "burst</w>": 7981,
    "Chunk</w>": 7982,
    "frustum</w>": 7983,
    "2D</w>": 7984,
    "viewport</w>": 7985,
    "Incre": 7986,
    "Increase</w>": 7987,
    "broken</w>": 7988,
    "Arch": 7989,
    "codeowners</w>": 7990,
    "provision": 7991,
    "provisioning</w>": 7992,
    "floods</w>": 7993,
    "deduplication</w>": 7994,
    "bug": 7995,
    "bugfixes</w>": 7996,
    "regress</w>": 7997,
    "tampered</w>": 7998,
    "reproducibility</w>": 7999
  },
  "merges": [
    [
      "e",
      "</w>"
    ],
    [
      "s",
      "</w>"
    ],
    [
      "i",
      "n"
    ],
    [
      "t",
      "</w>"
    ],
    [
      ">",
      "</w>"
    ],
    [
      "<",
      "</w>"
    ],
    [
      "o",
      "n"
    ],
    [
      ",",
      "</w>"
    ],
    [
      "a",
      "n"
    ],
    [
      "d",
      "</w>"
    ],
    [
      "y",
      "</w>"
    ],
    [
      "g",
      "</w>"
    ],
    [
      "e",
      "r"
    ],
    [
      "in",
      "g</w>"
    ],
    [
      "A",
      "</w>"
    ],
    [
      "i",
      "t"
    ],
    [
      "r",
      "e"
    ],
    [
      "a",
      "t"
    ],
    [
      "?",
      "</w>"
    ],
    [
      ".",
      "</w>"
    ],
    [
      "Q",
      "</w>"
    ],
    [
      "e",
      "n"
    ],
    [
      "a",
      "l"
    ],
    [
      "o",
      "r"
    ],
    [
      "i",
      "m"
    ],
    [
      "on",
      "</w>"
    ],
    [
      "o",
      "u"
    ],
    [
      "o",
      "</w>"
    ],
    [
      "s",
      "t"
    ],
    [
      "a",
      "r"
    ],
    [
      "c",
      "o"
    ],
    [
      "e",
      "s</w>"
    ],
    [
      "an",
      "d</w>"
    ],
    [
      "t",
      "h"
    ],
    [
      "r",
      "o"
    ],
    [
      "i",
      "c"
    ],
    [
      "h",
      "a"
    ],
    [
      "a",
      "</w>"
    ],
    [
      "im",
      "p"
    ],
    [
      "er",
      "</w>"
    ],
    [
      "r",
      "a"
    ],
    [
      "e",
      "d</w>"
    ],
    [
      "s",
      "u"
    ],
    [
      "co",
      "m"
    ],
    [
      "e",
      "c"
    ],
    [
      "ha",
      "t</w>"
    ],
    [
      "in",
      "</w>"
    ],
    [
      "w",
      "</w>"
    ],
    [
      "c",
      "on"
    ],
    [
      "m",
      "e"
    ],
    [
      "k",
      "</w>"
    ],
    [
      "t",
      "o</w>"
    ],
    [
      "it",
      "y</w>"
    ],
    [
      "l",
      "e</w>"
    ],
    [
      "I",
      "</w>"
    ],
    [
      "i",
      "s</w>"
    ],
    [
      "o",
      "w</w>"
    ],
    [
      "d",
      "e"
    ],
    [
      "k",
      "e</w>"
    ],
    [
      "an",
      "</w>"
    ],
    [
      "W",
      "hat</w>"
    ],
    [
      "l",
      "y</w>"
    ],
    [
      "s",
      "t</w>"
    ],
    [
      "i",
      "on</w>"
    ],
    [
      "t",
      "s</w>"
    ],
    [
      "th",
      "e</w>"
    ],
    [
      "or",
      "</w>"
    ],
    [
      "H",
      "ow</w>"
    ],
    [
      "b",
      "a"
    ],
    [
      "com",
      "m"
    ],
    [
      "o",
      "f"
    ],
    [
      "h",
      "</w>"
    ],
    [
      "l",
      "i"
    ],
    [
      "n",
      "</w>"
    ],
    [
      "al",
      "</w>"
    ],
    [
      "v",
      "e</w>"
    ],
    [
      "i",
      "l"
    ],
    [
      "w",
      "it"
    ],
    [
      "s",
      "e</w>"
    ],
    [
      "m",
      "i"
    ],
    [
      "imp",
      "ro"
    ],
    [
      "e",
      "p"
    ],
    [
      "y",
      "ou"
    ],
    [
      "comm",
      "on</w>"
    ],
    [
      "on",
      "e</w>"
    ],
    [
      "e",
      "l"
    ],
    [
      "’",
      "</w>"
    ],
    [
      "st",
      "a"
    ],
    [
      "c",
      "l"
    ],
    [
      "I",
      "n</w>"
    ],
    [
      "s",
      "imp"
    ],
    [
      "c",
      "an</w>"
    ],
    [
      "f",
      "i"
    ],
    [
      "f",
      "</w>"
    ],
    [
      "at",
      "ion</w>"
    ],
    [
      "d",
      "o"
    ],
    [
      "at",
      "t"
    ],
    [
      "t",
      "ra"
    ],
    [
      "c",
      "e</w>"
    ],
    [
      "l",
      "</w>"
    ],
    [
      "t",
      "im"
    ],
    [
      "i",
      "t</w>"
    ],
    [
      "v",
      "i"
    ],
    [
      "en",
      "t</w>"
    ],
    [
      "mi",
      "sta"
    ],
    [
      "e",
      "x"
    ],
    [
      "l",
      "at"
    ],
    [
      "v",
      "ing</w>"
    ],
    [
      "g",
      "o"
    ],
    [
      "wit",
      "h</w>"
    ],
    [
      "d",
      "o</w>"
    ],
    [
      "v",
      "o"
    ],
    [
      "e",
      "ar"
    ],
    [
      "q",
      "u"
    ],
    [
      "m",
      "att"
    ],
    [
      "at",
      "e</w>"
    ],
    [
      "ba",
      "s"
    ],
    [
      "k",
      "e"
    ],
    [
      "li",
      "ke</w>"
    ],
    [
      "a",
      "b"
    ],
    [
      "o",
      "p"
    ],
    [
      "tra",
      "de"
    ],
    [
      "trade",
      "of"
    ],
    [
      "-",
      "</w>"
    ],
    [
      "er",
      "s</w>"
    ],
    [
      "b",
      "e"
    ],
    [
      "g",
      "e"
    ],
    [
      "a",
      "m"
    ],
    [
      "i",
      "g"
    ],
    [
      "i",
      "z"
    ],
    [
      "a",
      "c"
    ],
    [
      "u",
      "n"
    ],
    [
      "me",
      "a"
    ],
    [
      "mea",
      "su"
    ],
    [
      "do",
      "es</w>"
    ],
    [
      "m",
      "o"
    ],
    [
      "go",
      "al</w>"
    ],
    [
      "u",
      "se</w>"
    ],
    [
      "s",
      "p"
    ],
    [
      "mista",
      "ke</w>"
    ],
    [
      "tradeof",
      "f</w>"
    ],
    [
      "lat",
      "ed</w>"
    ],
    [
      "you",
      "</w>"
    ],
    [
      "re",
      "lated</w>"
    ],
    [
      "p",
      "ro"
    ],
    [
      "f",
      "or"
    ],
    [
      "e",
      "d"
    ],
    [
      "w",
      "h"
    ],
    [
      "r",
      "e</w>"
    ],
    [
      "p",
      "l"
    ],
    [
      "g",
      "in"
    ],
    [
      "c",
      "k</w>"
    ],
    [
      "a",
      "y</w>"
    ],
    [
      "f",
      "e"
    ],
    [
      "r",
      "i"
    ],
    [
      "t",
      "i"
    ],
    [
      "simp",
      "le</w>"
    ],
    [
      "e",
      "f"
    ],
    [
      "k",
      "ing</w>"
    ],
    [
      "al",
      "l</w>"
    ],
    [
      "r",
      "</w>"
    ],
    [
      "s",
      "m"
    ],
    [
      "s",
      "i"
    ],
    [
      "in",
      "e</w>"
    ],
    [
      "t",
      "o"
    ],
    [
      ":",
      "</w>"
    ],
    [
      "ep",
      "</w>"
    ],
    [
      "l",
      "ic"
    ],
    [
      "ou",
      "t</w>"
    ],
    [
      "b",
      "u"
    ],
    [
      "t",
      "t"
    ],
    [
      "S",
      "t"
    ],
    [
      "sm",
      "all</w>"
    ],
    [
      "con",
      "c"
    ],
    [
      "ar",
      "i"
    ],
    [
      "ar",
      "t</w>"
    ],
    [
      "il",
      "ity</w>"
    ],
    [
      "m",
      "ent</w>"
    ],
    [
      "b",
      "o"
    ],
    [
      "on",
      "s</w>"
    ],
    [
      "m",
      "</w>"
    ],
    [
      "l",
      "ts</w>"
    ],
    [
      "m",
      "a"
    ],
    [
      "c",
      "u"
    ],
    [
      "ba",
      "ck</w>"
    ],
    [
      "/",
      "</w>"
    ],
    [
      "en",
      "t"
    ],
    [
      "you",
      "r</w>"
    ],
    [
      "t",
      "e"
    ],
    [
      "re",
      "su"
    ],
    [
      "c",
      "h"
    ],
    [
      "en",
      "ce</w>"
    ],
    [
      "tim",
      "e</w>"
    ],
    [
      "ar",
      "e</w>"
    ],
    [
      "n",
      "e"
    ],
    [
      "c",
      "t"
    ],
    [
      "resu",
      "lts</w>"
    ],
    [
      "al",
      "ity</w>"
    ],
    [
      "impro",
      "ve</w>"
    ],
    [
      "p",
      "p"
    ],
    [
      "o",
      "b"
    ],
    [
      "qu",
      "ality</w>"
    ],
    [
      "w",
      "ay</w>"
    ],
    [
      "n",
      "er</w>"
    ],
    [
      "b",
      "le</w>"
    ],
    [
      "St",
      "art</w>"
    ],
    [
      "i",
      "d</w>"
    ],
    [
      "ic",
      "k</w>"
    ],
    [
      "l",
      "o"
    ],
    [
      "be",
      "gin"
    ],
    [
      "en",
      "</w>"
    ],
    [
      "begin",
      "ner</w>"
    ],
    [
      "ou",
      "t"
    ],
    [
      "w",
      "hat</w>"
    ],
    [
      "a",
      "g"
    ],
    [
      "in",
      "ts</w>"
    ],
    [
      "w",
      "or"
    ],
    [
      "vo",
      "id</w>"
    ],
    [
      "conc",
      "ep"
    ],
    [
      "fe",
      "ed"
    ],
    [
      "feed",
      "back</w>"
    ],
    [
      "u",
      "t"
    ],
    [
      "con",
      "fi"
    ],
    [
      "it",
      "er"
    ],
    [
      "ab",
      "ility</w>"
    ],
    [
      "al",
      "ly</w>"
    ],
    [
      "st",
      "ra"
    ],
    [
      "ec",
      "k</w>"
    ],
    [
      "simp",
      "lic"
    ],
    [
      "simplic",
      "ity</w>"
    ],
    [
      "a",
      "s"
    ],
    [
      "mo",
      "ve</w>"
    ],
    [
      "a",
      "use</w>"
    ],
    [
      "matt",
      "ers</w>"
    ],
    [
      "l",
      "e"
    ],
    [
      "a",
      "void</w>"
    ],
    [
      "con",
      "stra"
    ],
    [
      "l",
      "ving</w>"
    ],
    [
      "constra",
      "ints</w>"
    ],
    [
      "v",
      "er"
    ],
    [
      "a",
      "d"
    ],
    [
      "ec",
      "ause</w>"
    ],
    [
      "b",
      "ecause</w>"
    ],
    [
      "fi",
      "r"
    ],
    [
      "r",
      "ing</w>"
    ],
    [
      "an",
      "s</w>"
    ],
    [
      "fir",
      "st</w>"
    ],
    [
      "matt",
      "er</w>"
    ],
    [
      "s",
      "s</w>"
    ],
    [
      "wit",
      "h"
    ],
    [
      "v",
      "es</w>"
    ],
    [
      "ou",
      "s</w>"
    ],
    [
      "f",
      "or</w>"
    ],
    [
      "with",
      "out</w>"
    ],
    [
      "ear",
      "ly</w>"
    ],
    [
      "sp",
      "e"
    ],
    [
      "re",
      "move</w>"
    ],
    [
      "for",
      "t</w>"
    ],
    [
      "ef",
      "fort</w>"
    ],
    [
      "y",
      "ing</w>"
    ],
    [
      "an",
      "c"
    ],
    [
      "m",
      "an"
    ],
    [
      "me",
      "an</w>"
    ],
    [
      "ic",
      "e</w>"
    ],
    [
      "out",
      "com"
    ],
    [
      "spe",
      "ed</w>"
    ],
    [
      "bas",
      "ed</w>"
    ],
    [
      "I",
      "t</w>"
    ],
    [
      "op",
      "tim"
    ],
    [
      "d",
      "ence</w>"
    ],
    [
      "optim",
      "iz"
    ],
    [
      "co",
      "st</w>"
    ],
    [
      "outcom",
      "es</w>"
    ],
    [
      "of",
      "</w>"
    ],
    [
      "b",
      "ig"
    ],
    [
      "vi",
      "e"
    ],
    [
      "l",
      "en"
    ],
    [
      "p",
      "ick</w>"
    ],
    [
      "b",
      "al"
    ],
    [
      "ke",
      "ep</w>"
    ],
    [
      "to",
      "o</w>"
    ],
    [
      "wh",
      "y</w>"
    ],
    [
      "p",
      "s</w>"
    ],
    [
      "ari",
      "f"
    ],
    [
      "bo",
      "tt"
    ],
    [
      "ge",
      "st</w>"
    ],
    [
      "bal",
      "anc"
    ],
    [
      "cl",
      "arif"
    ],
    [
      "vi",
      "ous</w>"
    ],
    [
      "me",
      "ans</w>"
    ],
    [
      "el",
      "ine</w>"
    ],
    [
      "u",
      "su"
    ],
    [
      "ra",
      "ble</w>"
    ],
    [
      "measu",
      "rable</w>"
    ],
    [
      "iter",
      "ate</w>"
    ],
    [
      "confi",
      "dence</w>"
    ],
    [
      "ob",
      "vious</w>"
    ],
    [
      "usu",
      "ally</w>"
    ],
    [
      "bott",
      "len"
    ],
    [
      "ra",
      "ct"
    ],
    [
      "impro",
      "ving</w>"
    ],
    [
      "impro",
      "ves</w>"
    ],
    [
      "big",
      "gest</w>"
    ],
    [
      "measu",
      "ring</w>"
    ],
    [
      "clarif",
      "ying</w>"
    ],
    [
      "bottlen",
      "eck</w>"
    ],
    [
      "in",
      "vo"
    ],
    [
      "invo",
      "lving</w>"
    ],
    [
      "balanc",
      "ing</w>"
    ],
    [
      "optimiz",
      "ing</w>"
    ],
    [
      "bas",
      "eline</w>"
    ],
    [
      "n",
      "o"
    ],
    [
      "o",
      "m"
    ],
    [
      "p",
      "ract"
    ],
    [
      "ke",
      "y</w>"
    ],
    [
      "d",
      "i"
    ],
    [
      "s",
      "c"
    ],
    [
      "concep",
      "t</w>"
    ],
    [
      ";",
      "</w>"
    ],
    [
      "u",
      "s"
    ],
    [
      "t",
      "r"
    ],
    [
      "w",
      "e"
    ],
    [
      "d",
      "u"
    ],
    [
      "s",
      "ec"
    ],
    [
      "k",
      "s</w>"
    ],
    [
      "p",
      "</w>"
    ],
    [
      "d",
      "ing</w>"
    ],
    [
      "re",
      "vie"
    ],
    [
      "d",
      "e</w>"
    ],
    [
      "U",
      "se</w>"
    ],
    [
      "p",
      "le</w>"
    ],
    [
      "su",
      "re</w>"
    ],
    [
      "r",
      "it"
    ],
    [
      "pract",
      "ice</w>"
    ],
    [
      "t",
      "a"
    ],
    [
      "ec",
      "t</w>"
    ],
    [
      "am",
      "ple</w>"
    ],
    [
      "en",
      "c"
    ],
    [
      "s",
      "h"
    ],
    [
      "th",
      "</w>"
    ],
    [
      "a",
      "t</w>"
    ],
    [
      "u",
      "r"
    ],
    [
      "ex",
      "ample</w>"
    ],
    [
      "s",
      "o"
    ],
    [
      "en",
      "sure</w>"
    ],
    [
      "n",
      "ing</w>"
    ],
    [
      "com",
      "p"
    ],
    [
      "ic",
      "ation</w>"
    ],
    [
      "or",
      "t</w>"
    ],
    [
      "comm",
      "un"
    ],
    [
      "m",
      "or"
    ],
    [
      "s",
      "e"
    ],
    [
      "p",
      "o"
    ],
    [
      "c",
      "a"
    ],
    [
      "d",
      "at"
    ],
    [
      "ha",
      "b"
    ],
    [
      "un",
      "d"
    ],
    [
      "f",
      "a"
    ],
    [
      "ag",
      "e</w>"
    ],
    [
      "p",
      "re"
    ],
    [
      "e",
      "v"
    ],
    [
      "t",
      "ion</w>"
    ],
    [
      "revie",
      "w</w>"
    ],
    [
      "si",
      "st"
    ],
    [
      "ic",
      "</w>"
    ],
    [
      "bu",
      "il"
    ],
    [
      "commun",
      "ication</w>"
    ],
    [
      "ic",
      "al</w>"
    ],
    [
      "p",
      "er"
    ],
    [
      "m",
      "on"
    ],
    [
      "l",
      "d</w>"
    ],
    [
      "am",
      "</w>"
    ],
    [
      "e",
      "m"
    ],
    [
      "g",
      "u"
    ],
    [
      "al",
      "s</w>"
    ],
    [
      "con",
      "sist"
    ],
    [
      "s",
      "a"
    ],
    [
      "enc",
      "y</w>"
    ],
    [
      "k",
      "es</w>"
    ],
    [
      "=",
      "="
    ],
    [
      "co",
      "o"
    ],
    [
      "l",
      "ear"
    ],
    [
      "d",
      "s</w>"
    ],
    [
      "ro",
      "w"
    ],
    [
      "v",
      "el"
    ],
    [
      "mon",
      "it"
    ],
    [
      "at",
      "i"
    ],
    [
      "u",
      "re</w>"
    ],
    [
      "t",
      "ec"
    ],
    [
      "a",
      "ge"
    ],
    [
      "man",
      "age"
    ],
    [
      "of",
      "t"
    ],
    [
      "manage",
      "ment</w>"
    ],
    [
      "w",
      "are</w>"
    ],
    [
      "w",
      "rit"
    ],
    [
      "mista",
      "kes</w>"
    ],
    [
      "t",
      "er"
    ],
    [
      "g",
      "s</w>"
    ],
    [
      "en",
      "ts</w>"
    ],
    [
      "comp",
      "ut"
    ],
    [
      "ma",
      "ke</w>"
    ],
    [
      "a",
      "pp"
    ],
    [
      "ne",
      "t"
    ],
    [
      "ti",
      "ons</w>"
    ],
    [
      "h",
      "el"
    ],
    [
      "b",
      "</w>"
    ],
    [
      "s",
      "er"
    ],
    [
      "net",
      "wor"
    ],
    [
      ")",
      "</w>"
    ],
    [
      "su",
      "pp"
    ],
    [
      "a",
      "u"
    ],
    [
      "j",
      "ect</w>"
    ],
    [
      "er",
      "ing</w>"
    ],
    [
      "hab",
      "it</w>"
    ],
    [
      "no",
      "t</w>"
    ],
    [
      "coo",
      "king</w>"
    ],
    [
      "f",
      "ro"
    ],
    [
      "g",
      "row"
    ],
    [
      "r",
      "u"
    ],
    [
      "dat",
      "a</w>"
    ],
    [
      "ou",
      "d</w>"
    ],
    [
      "c",
      "y"
    ],
    [
      "W",
      "h"
    ],
    [
      "p",
      "ri"
    ],
    [
      "fro",
      "m</w>"
    ],
    [
      "grow",
      "th</w>"
    ],
    [
      "g",
      "h"
    ],
    [
      "supp",
      "ort</w>"
    ],
    [
      "ca",
      "re"
    ],
    [
      "vel",
      "op"
    ],
    [
      "s",
      "oft"
    ],
    [
      "iz",
      "ation</w>"
    ],
    [
      "l",
      "l"
    ],
    [
      "soft",
      "ware</w>"
    ],
    [
      "buil",
      "ding</w>"
    ],
    [
      "cl",
      "oud</w>"
    ],
    [
      "g",
      "g"
    ],
    [
      "writ",
      "ing</w>"
    ],
    [
      "sec",
      "ur"
    ],
    [
      "secur",
      "ity</w>"
    ],
    [
      "de",
      "velop"
    ],
    [
      "te",
      "am</w>"
    ],
    [
      "ic",
      "s</w>"
    ],
    [
      "tec",
      "h"
    ],
    [
      "en",
      "d"
    ],
    [
      "pro",
      "ject</w>"
    ],
    [
      "an",
      "t</w>"
    ],
    [
      "we",
      "b</w>"
    ],
    [
      "ab",
      "le</w>"
    ],
    [
      "pl",
      "a"
    ],
    [
      "en",
      "gin"
    ],
    [
      "ou",
      "n"
    ],
    [
      "engin",
      "e"
    ],
    [
      "t",
      "e</w>"
    ],
    [
      "comput",
      "ing</w>"
    ],
    [
      "engine",
      "ering</w>"
    ],
    [
      "tech",
      "n"
    ],
    [
      "cu",
      "st"
    ],
    [
      "i",
      "d"
    ],
    [
      "b",
      "er"
    ],
    [
      "f",
      "o"
    ],
    [
      "develop",
      "ment</w>"
    ],
    [
      "care",
      "er</w>"
    ],
    [
      "du",
      "ce</w>"
    ],
    [
      "techn",
      "ical</w>"
    ],
    [
      "i",
      "f</w>"
    ],
    [
      "networ",
      "king</w>"
    ],
    [
      "O",
      "ps</w>"
    ],
    [
      "cy",
      "ber"
    ],
    [
      "cyber",
      "security</w>"
    ],
    [
      "cust",
      "om"
    ],
    [
      "custom",
      "er</w>"
    ],
    [
      "D",
      "ev"
    ],
    [
      "Dev",
      "Ops</w>"
    ],
    [
      "i",
      "s"
    ],
    [
      "c",
      "h</w>"
    ],
    [
      "p",
      "e</w>"
    ],
    [
      "ser",
      "v"
    ],
    [
      "c",
      "or"
    ],
    [
      "mi",
      "s"
    ],
    [
      "t",
      "ing</w>"
    ],
    [
      "com",
      "pl"
    ],
    [
      "a",
      "s</w>"
    ],
    [
      "p",
      "e"
    ],
    [
      "o",
      "d</w>"
    ],
    [
      "g",
      "e</w>"
    ],
    [
      "i",
      "es</w>"
    ],
    [
      "lear",
      "ning</w>"
    ],
    [
      "e",
      "st"
    ],
    [
      "mor",
      "e</w>"
    ],
    [
      "m",
      "in"
    ],
    [
      "p",
      "u"
    ],
    [
      "an",
      "d"
    ],
    [
      "ti",
      "v"
    ],
    [
      "it",
      "s</w>"
    ],
    [
      "wh",
      "en</w>"
    ],
    [
      "b",
      "y</w>"
    ],
    [
      "at",
      "h"
    ],
    [
      "m",
      "ent"
    ],
    [
      "iz",
      "e</w>"
    ],
    [
      "t",
      "er</w>"
    ],
    [
      "c",
      "e"
    ],
    [
      "pre",
      "v"
    ],
    [
      "!",
      "</w>"
    ],
    [
      "ear",
      "</w>"
    ],
    [
      "gg",
      "ing</w>"
    ],
    [
      "d",
      "ec"
    ],
    [
      "ac",
      "h"
    ],
    [
      "l",
      "es</w>"
    ],
    [
      "compl",
      "ex"
    ],
    [
      "ac",
      "h</w>"
    ],
    [
      "3",
      "</w>"
    ],
    [
      "ma",
      "in"
    ],
    [
      "h",
      "ow</w>"
    ],
    [
      "i",
      "ve</w>"
    ],
    [
      "prev",
      "ent</w>"
    ],
    [
      "ar",
      "</w>"
    ],
    [
      "ou",
      "ld</w>"
    ],
    [
      "ep",
      "s</w>"
    ],
    [
      "complex",
      "ity</w>"
    ],
    [
      "re",
      "s"
    ],
    [
      "tt",
      "er</w>"
    ],
    [
      "or",
      "s</w>"
    ],
    [
      "con",
      "t"
    ],
    [
      "pla",
      "in</w>"
    ],
    [
      "re",
      "duce</w>"
    ],
    [
      "hel",
      "ps</w>"
    ],
    [
      "ig",
      "h"
    ],
    [
      "ch",
      "an"
    ],
    [
      "th",
      "e"
    ],
    [
      "cor",
      "re"
    ],
    [
      "a",
      "p"
    ],
    [
      "re",
      "ad"
    ],
    [
      "cl",
      "u"
    ],
    [
      "o",
      "ver"
    ],
    [
      "ati",
      "ons</w>"
    ],
    [
      "main",
      "ta"
    ],
    [
      "v",
      "al"
    ],
    [
      "th",
      "at</w>"
    ],
    [
      "h",
      "e"
    ],
    [
      "st",
      "eps</w>"
    ],
    [
      "y",
      "s</w>"
    ],
    [
      "m",
      "p"
    ],
    [
      "st",
      "or"
    ],
    [
      "th",
      "ing</w>"
    ],
    [
      "a",
      "d</w>"
    ],
    [
      "ar",
      "ity</w>"
    ],
    [
      "er",
      "e</w>"
    ],
    [
      "ig",
      "n"
    ],
    [
      "ro",
      "ll"
    ],
    [
      "f",
      "l"
    ],
    [
      "tr",
      "y</w>"
    ],
    [
      "j",
      "u"
    ],
    [
      "h",
      "and"
    ],
    [
      "cl",
      "arity</w>"
    ],
    [
      "l",
      "im"
    ],
    [
      "f",
      "und"
    ],
    [
      "or",
      "g"
    ],
    [
      "de",
      "bu"
    ],
    [
      "or",
      "it"
    ],
    [
      "org",
      "an"
    ],
    [
      "fund",
      "am"
    ],
    [
      "fundam",
      "ent"
    ],
    [
      "er",
      "r"
    ],
    [
      "fundament",
      "als</w>"
    ],
    [
      "mis",
      "concep"
    ],
    [
      "misconcep",
      "tion</w>"
    ],
    [
      "c",
      "k"
    ],
    [
      "me",
      "tr"
    ],
    [
      "u",
      "l"
    ],
    [
      "do",
      "cu"
    ],
    [
      "e",
      "ly</w>"
    ],
    [
      "t",
      "ed</w>"
    ],
    [
      "a",
      "v"
    ],
    [
      "s",
      "s"
    ],
    [
      "u",
      "p"
    ],
    [
      "l",
      "in"
    ],
    [
      "se",
      "t</w>"
    ],
    [
      "g",
      "r"
    ],
    [
      "monit",
      "or</w>"
    ],
    [
      "i",
      "de"
    ],
    [
      "s",
      "k"
    ],
    [
      "re",
      "li"
    ],
    [
      "s",
      "k</w>"
    ],
    [
      "re",
      "qu"
    ],
    [
      "debu",
      "gging</w>"
    ],
    [
      "C",
      "an</w>"
    ],
    [
      "m",
      "s</w>"
    ],
    [
      "T",
      "h"
    ],
    [
      "be",
      "tter</w>"
    ],
    [
      "st",
      "re"
    ],
    [
      "m",
      "b"
    ],
    [
      "==",
      "=="
    ],
    [
      "pri",
      "orit"
    ],
    [
      "st",
      "s</w>"
    ],
    [
      "p",
      "ath"
    ],
    [
      "si",
      "ons</w>"
    ],
    [
      "ne",
      "ss</w>"
    ],
    [
      "fo",
      "cu"
    ],
    [
      "I",
      "s</w>"
    ],
    [
      "us",
      "er</w>"
    ],
    [
      "cl",
      "ear</w>"
    ],
    [
      "b",
      "ility</w>"
    ],
    [
      "st",
      "ing</w>"
    ],
    [
      "s",
      "co"
    ],
    [
      "f",
      "e</w>"
    ],
    [
      "metr",
      "ics</w>"
    ],
    [
      "or",
      "ing</w>"
    ],
    [
      "te",
      "st</w>"
    ],
    [
      "l",
      "s</w>"
    ],
    [
      "er",
      "st"
    ],
    [
      "ab",
      "out</w>"
    ],
    [
      "r",
      "y</w>"
    ],
    [
      "f",
      "ri"
    ],
    [
      "pu",
      "t</w>"
    ],
    [
      "x",
      "</w>"
    ],
    [
      "cl",
      "e"
    ],
    [
      "th",
      "en</w>"
    ],
    [
      "a",
      "f"
    ],
    [
      "f",
      "s</w>"
    ],
    [
      "a",
      "i"
    ],
    [
      "sc",
      "i"
    ],
    [
      "re",
      "d</w>"
    ],
    [
      "pl",
      "an"
    ],
    [
      "so",
      "me"
    ],
    [
      "focu",
      "s</w>"
    ],
    [
      "b",
      "le"
    ],
    [
      "s",
      "le"
    ],
    [
      "lat",
      "ency</w>"
    ],
    [
      "ver",
      "y</w>"
    ],
    [
      "om",
      "e</w>"
    ],
    [
      "con",
      "f"
    ],
    [
      "g",
      "es</w>"
    ],
    [
      "und",
      "erst"
    ],
    [
      "app",
      "ly</w>"
    ],
    [
      "clu",
      "de</w>"
    ],
    [
      "pro",
      "ble"
    ],
    [
      "sle",
      "ep</w>"
    ],
    [
      "monit",
      "oring</w>"
    ],
    [
      "ut",
      "ion</w>"
    ],
    [
      "ge",
      "t</w>"
    ],
    [
      "b",
      "e</w>"
    ],
    [
      "r",
      "on"
    ],
    [
      "ce",
      "ss</w>"
    ],
    [
      "a",
      "il"
    ],
    [
      "wor",
      "k</w>"
    ],
    [
      "go",
      "od</w>"
    ],
    [
      "per",
      "for"
    ],
    [
      "ari",
      "es</w>"
    ],
    [
      "me",
      "mor"
    ],
    [
      "bu",
      "d"
    ],
    [
      "ic",
[...]
